<unk>	0.000000
<s>	0.000000
</s>	0.000000
.	-3.292405
▁	-3.659787
,	-3.912690
▁들	-4.333146
▁이	-4.548691
?	-4.643247
▁을	-4.852761
▁의	-4.931737
▁은	-5.035588
▁에	-5.084095
▁”	-5.213150
▁“	-5.272953
▁가	-5.274823
▁그	-5.286614
▁는	-5.287956
▁를	-5.305460
이	-5.327841
▁’	-5.364442
는	-5.375127
▁‘	-5.376772
의	-5.417963
을	-5.421561
▁한	-5.472314
가	-5.549246
▁-	-5.567608
에	-5.629921
▁에서	-5.804575
를	-5.819194
▁으로	-5.828753
고	-5.870113
!	-5.877127
▁과	-5.985419
▁로	-5.985754
도	-6.016373
은	-6.021686
)	-6.043949
지	-6.049001
▁입니다	-6.137593
▁수	-6.149177
▁—	-6.206499
▁인	-6.207929
▁에게	-6.212353
▁우리	-6.284307
▁이다	-6.314301
▁(	-6.320057
로	-6.365711
한	-6.398055
▁와	-6.400045
그	-6.417334
자	-6.473498
▁나	-6.473725
▁하는	-6.513265
다	-6.523098
나	-6.529458
▁그리고	-6.529925
▁도	-6.532410
요	-6.533115
기	-6.575878
과	-6.594543
▁·	-6.624053
▁하고	-6.631827
에서	-6.631999
▁히	-6.641767
▁내	-6.682229
▁합니다	-6.684459
▁년	-6.727635
일	-6.739797
▁[	-6.750525
사람	-6.773264
라	-6.780027
와	-6.785061
▁1	-6.807923
서	-6.821334
게	-6.837657
...	-6.848312
으로	-6.854323
▁하지만	-6.857115
▁에는	-6.906489
▁내가	-6.926351
▁있는	-6.930505
면	-6.932742
것	-6.932944
▁하였다	-6.935544
어	-6.938262
만	-6.966822
▁된	-6.974592
하고	-6.977031
인	-7.020137
해	-7.025123
하는	-7.031083
▁한다	-7.034643
야	-7.035161
할	-7.046759
▁여호와	-7.055427
▁할	-7.060826
▁그러나	-7.069686
▁하여	-7.073495
▁안	-7.079844
▁해	-7.085137
:	-7.085982
우리	-7.087260
▁하게	-7.102733
▁더	-7.102779
는것	-7.123730
입니다	-7.123880
▁모든	-7.130208
▁있습니다	-7.137954
수	-7.156189
적	-7.186344
▁2	-7.187016
▁"	-7.215361
▁하는것	-7.219242
」	-7.233871
▁네	-7.238792
▁난	-7.267296
여호와	-7.267481
▁께서	-7.290389
▁다른	-7.292056
▁당신	-7.321190
▁이나	-7.341146
시	-7.353007
아	-7.355965
▁제	-7.367224
▁3	-7.371048
▁다	-7.380631
▁때	-7.395454
▁께서는	-7.398471
내	-7.403097
▁일	-7.407290
주	-7.422760
▁우리가	-7.425620
사	-7.425825
▁그래서	-7.441356
▁이제	-7.444374
▁하였습니다	-7.445919
습니다	-7.447930
▁것을	-7.452755
▁어떻게	-7.464294
▁제가	-7.477618
하나님	-7.479990
▁하나님	-7.480209
▁우리는	-7.487678
▁것	-7.489567
말	-7.492161
▁예수	-7.494942
(	-7.504707
네	-7.507422
▁전	-7.524592
중	-7.526427
▁입니까	-7.530283
'	-7.532117
▁에대한	-7.537681
▁하	-7.539150
리	-7.560280
▁함	-7.567905
는데	-7.569162
스	-7.579519
들이	-7.582467
니	-7.585312
▁한것	-7.585905
▁어떤	-7.589343
▁왜	-7.591099
⁠	-7.591167
▁두	-7.592572
죠	-7.598185
들	-7.601021
▁여기	-7.619321
▁좀	-7.620435
]	-7.623067
▁그것	-7.624171
▁자	-7.631924
대	-7.633497
▁의증인	-7.634066
▁아	-7.635242
▁에서는	-7.645757
성	-7.646939
합니다	-7.652426
▁명	-7.655159
▁저는	-7.655284
▁그들은	-7.656551
▁4	-7.658837
▁잘	-7.659562
▁아니	-7.664895
▁에대해	-7.667364
▁저	-7.678433
▁사람	-7.683544
신	-7.696150
▁5	-7.698064
하	-7.699123
「	-7.702039
▁거야	-7.702132
▁또한	-7.702636
"	-7.709124
▁까지	-7.715699
▁인가	-7.718124
하여	-7.725704
하느님	-7.728606
▁'	-7.734199
▁10	-7.737277
▁말	-7.741272
며	-7.746183
전	-7.746301
하지	-7.747132
하게	-7.747638
▁주	-7.755067
▁그분	-7.763302
에게	-7.774924
때	-7.777751
▁있어	-7.785129
▁라고	-7.789106
▁에있는	-7.790049
치	-7.792556
▁지금	-7.794174
▁이런	-7.798009
물	-7.798398
▁그들이	-7.804672
▁은그	-7.807730
▁것입니다	-7.808821
자신	-7.815498
▁많은	-7.818212
라고	-7.822669
▁월	-7.837428
소	-7.841346
들을	-7.841354
▁하기	-7.843112
▁성서	-7.843602
장	-7.844341
▁고	-7.844366
▁게	-7.846255
비	-7.847678
▁거	-7.850204
생각	-7.852889
▁중	-7.853113
▁정말	-7.853144
▁그래	-7.853928
;	-7.855910
부	-7.857019
제	-7.858002
오	-7.864865
안	-7.867075
도움	-7.870900
▁또	-7.873060
▁그러므로	-7.881351
마	-7.882716
▁만	-7.887070
거나	-7.887145
▁예	-7.888406
▁다시	-7.894526
▁오	-7.905086
▁같은	-7.906007
진	-7.910835
▁「	-7.918324
▁시	-7.919509
선	-7.920268
▁처럼	-7.921575
문제	-7.922160
길	-7.922687
▁했습니다	-7.924644
▁6	-7.924709
▁할것	-7.926131
▁서	-7.936245
▁날	-7.946443
거	-7.948954
성서	-7.956097
그분	-7.957065
위	-7.960602
▁그런	-7.962905
▁하느님	-7.964694
▁것이	-7.966902
도록	-7.971453
여	-7.972860
드	-7.975822
기때문	-7.977698
“	-7.980840
▁세	-7.986965
▁못	-7.989193
▁무슨	-7.993212
바	-7.998111
▁이라고	-7.998256
던	-7.999317
구	-8.001384
분	-8.002561
▁것은	-8.011053
▁임	-8.011823
후	-8.017201
▁8	-8.024049
s	-8.025012
▁하나님은	-8.027184
▁그냥	-8.034449
상	-8.035853
된	-8.040932
화	-8.042781
▁건	-8.046933
▁너희	-8.047683
들은	-8.047766
▁있어요	-8.048301
▁위해	-8.054251
▁걸	-8.055152
▁바로	-8.055268
▁의말씀	-8.056770
▁이며	-8.056979
▁되는	-8.057424
▁그럼	-8.057759
▁7	-8.058272
세	-8.059804
두	-8.060378
시간	-8.061571
▁그렇게	-8.062116
예수	-8.062533
▁이러	-8.063025
▁될	-8.071566
▁한사람	-8.080784
▁이것	-8.081381
트	-8.082996
▁는무엇	-8.095404
설명	-8.095906
▁사실	-8.097163
▁15	-8.103745
지만	-8.109112
속	-8.112907
실	-8.116999
▁됩니다	-8.117415
▁가장	-8.123722
데	-8.123870
▁면삽	-8.131125
당신	-8.135413
▁하다	-8.135421
▁그는	-8.136024
▁이렇게	-8.136119
▁하는데	-8.143091
▁에도	-8.146080
▁는그	-8.147766
기도	-8.150878
▁함께	-8.154621
미	-8.154765
더	-8.155211
년	-8.156003
▁대한	-8.164051
▁께	-8.167704
집	-8.170530
보	-8.172332
▁그러한	-8.174115
때문	-8.174968
▁했다	-8.176105
▁실로	-8.185027
▁같이	-8.196442
자기	-8.198485
▁좋은	-8.203901
원	-8.210184
▁뭐	-8.213543
질	-8.216058
▁하는사람	-8.217234
▁누가	-8.225299
하기	-8.226217
▁네가	-8.227184
▁너	-8.228711
및	-8.230195
▁개	-8.233494
▁나는	-8.240743
▁대해	-8.241290
산	-8.242629
▁마	-8.242718
▁되	-8.246003
으며	-8.251535
▁있을	-8.252451
저	-8.252624
▁바울	-8.254299
▁하며	-8.254307
▁당신이	-8.254942
히	-8.255201
▁이것은	-8.256227
▁알고	-8.260152
▁그들의	-8.260683
무엇	-8.261802
약	-8.262015
▁좋아	-8.262733
▁알	-8.263750
▁하나	-8.269568
▁이건	-8.270225
군	-8.274170
▁20	-8.275832
단	-8.279836
등	-8.280378
는일	-8.284346
음	-8.284583
많은	-8.286695
▁너희가	-8.287629
우	-8.287868
그것	-8.288256
피	-8.289540
점	-8.289699
했습니다	-8.290194
▁보다	-8.291790
▁로부터	-8.292050
▁그가	-8.292255
▁지	-8.294292
▁하는일	-8.294345
▁하면	-8.295056
이야	-8.295746
▁대	-8.296650
▁9	-8.298379
어떤	-8.299295
가운데	-8.299387
▁모두	-8.299800
▁되었다	-8.300006
▁이었다	-8.300215
면서	-8.301172
▁이스라엘	-8.305388
타	-8.305926
까지	-8.310161
▁할때	-8.310368
심	-8.311953
었다	-8.313720
차	-8.314342
▁그러면	-8.318618
사랑	-8.319491
▁그의	-8.321402
▁12	-8.321467
자녀	-8.321916
▁없습니다	-8.323190
습니까	-8.328727
다른	-8.330355
▁아주	-8.337498
보다	-8.340659
▁그게	-8.342037
려	-8.342905
▁한일	-8.343866
이러	-8.344617
▁따라서	-8.346398
개	-8.350040
▁사	-8.352042
▁큰	-8.353203
말씀	-8.354770
살	-8.355096
었습니다	-8.358506
▁겁니다	-8.358878
▁되어	-8.359328
병	-8.359963
▁물론	-8.368361
▁번	-8.369187
▁해서	-8.372240
모든	-8.372823
건	-8.374060
▁/	-8.382681
날	-8.386292
▁사람이	-8.386880
▁없어	-8.388803
▁간	-8.390634
파	-8.390735
▁후	-8.391477
그리스도인	-8.397044
▁사람들이	-8.397348
▁어	-8.398749
▁만약	-8.400405
▁당신은	-8.401341
생활	-8.407653
▁너무	-8.412876
다고	-8.416858
▁줄	-8.417292
▁그들	-8.419652
되	-8.420028
어떠	-8.420852
▁에게는	-8.421106
필요	-8.421336
▁넌	-8.421658
▁없는	-8.422071
줄	-8.422286
려고	-8.425230
▁곧	-8.425957
▁일이	-8.427329
하면	-8.427916
간	-8.431337
▁하면서	-8.432414
▁이아니라	-8.435362
발	-8.437087
▁오늘날	-8.437223
거야	-8.439074
모	-8.439989
▁자기	-8.441192
▁상	-8.444543
해서	-8.446530
▁몇	-8.448105
▁즉	-8.453705
▁미국	-8.453800
다른사람	-8.455730
▁우린	-8.457287
왕	-8.457539
▁그건	-8.459500
책	-8.463717
▁x	-8.464303
부모	-8.465333
법	-8.467392
그러한	-8.471146
▁과같은	-8.472460
땅	-8.473321
처럼	-8.473927
즉	-8.475767
▁부터	-8.476445
매	-8.478593
하며	-8.480370
▁그런데	-8.481277
▁이그	-8.483541
마음	-8.483582
▁이었습니다	-8.487720
▁은우리	-8.492388
▁생각	-8.494346
▁다음	-8.496078
▁하라	-8.496414
배	-8.498408
▁분	-8.500352
감	-8.501058
같은	-8.501128
사용	-8.504657
▁계속	-8.507422
▁하나님의	-8.509023
▁을사용	-8.512443
앞	-8.513759
▁없이	-8.515964
▁그들을	-8.522053
▁가지고	-8.522079
디	-8.528902
▁시간	-8.528921
▁11	-8.530293
다면	-8.530725
▁하였읍니다	-8.531221
종	-8.531405
그리고	-8.532881
▁라	-8.533196
조	-8.533769
반	-8.535628
인간	-8.535631
▁면	-8.537049
있는	-8.538550
랑	-8.544471
▁에관한	-8.545694
▁ᄀ	-8.545732
적인	-8.547437
▁18	-8.551128
▁로서	-8.553289
▁하지	-8.553803
함	-8.554178
혹은	-8.555153
▁오늘	-8.556523
▁으로써	-8.557834
양	-8.561255
▁볼	-8.562125
-	-8.563989
나라	-8.568185
▁라는	-8.571031
이유	-8.571793
이나	-8.574799
▁보	-8.576309
온	-8.579131
다음	-8.582705
▁여	-8.583470
러	-8.584428
무	-8.588860
아버지	-8.590402
▁그것은	-8.591991
▁의이름	-8.592313
명	-8.592577
프	-8.593412
▁이라는	-8.595144
▁퍼센트	-8.596750
상태	-8.598243
▁돼	-8.600145
문	-8.601470
크	-8.602369
어떻게	-8.602715
불	-8.602833
▁현재	-8.603804
▁가지	-8.606347
형제	-8.609647
방	-8.614258
기록	-8.616815
▁되었습니다	-8.617510
▁있고	-8.617975
▁새	-8.617991
▁은무엇	-8.619985
정	-8.622330
어요	-8.623133
카	-8.623992
▁에관해	-8.625119
▁를들어	-8.625979
회중	-8.626414
행동	-8.629493
가족	-8.630793
▁일을	-8.630854
▁하나님이	-8.630857
▁ᄂ	-8.631231
질문	-8.632957
식	-8.636656
▁30	-8.637051
▁하도록	-8.637112
▁수도	-8.638628
▁그때	-8.638660
기위해	-8.639229
노	-8.639357
▁때문에	-8.639700
새	-8.640827
▁비	-8.640928
지는	-8.643196
많은사람	-8.644128
▁으로부터	-8.644221
▁합니까	-8.645668
▁에대하여	-8.648884
이라	-8.650418
▁이게	-8.652336
지역	-8.655856
훌륭	-8.655984
▁에그	-8.656691
라는	-8.661224
▁만일	-8.661238
용	-8.661462
금	-8.661626
▁사랑	-8.663144
▁에따라	-8.669421
▁위한	-8.669958
▁그들에게	-8.671483
▁의말	-8.673297
을것	-8.674917
든	-8.675118
▁알아	-8.677058
▁전에	-8.678469
이에요	-8.679165
코	-8.684713
▁여기서	-8.684823
▁얼마나	-8.685663
까	-8.685673
레	-8.686508
▁된다	-8.686733
▁요한	-8.688463
당	-8.688566
▁매우	-8.694816
▁계시	-8.694879
▁받은	-8.695408
본	-8.696294
▁여러분	-8.696646
▁과함께	-8.697335
▁우리의	-8.698896
▁3:	-8.701043
▁부	-8.704452
나무	-8.705102
한다	-8.705198
방법	-8.705487
는사람	-8.707220
곳	-8.708717
▁아니면	-8.710111
알	-8.710826
종교	-8.713144
체	-8.713250
▁하기위해	-8.714598
힘	-8.714661
이라고	-8.717881
▁거예요	-8.720898
아이	-8.723148
▁세기	-8.724178
▁아니라	-8.724624
열	-8.726282
토	-8.726740
▁이미	-8.727892
죄	-8.734838
동	-8.735452
지도	-8.735603
해야	-8.736829
돈	-8.738853
걸	-8.740170
▁하고있다	-8.740731
터	-8.740806
유익	-8.742545
초	-8.744501
너	-8.746790
▁2:	-8.747200
고있다	-8.750478
▁하십시오	-8.750670
생명	-8.754561
호	-8.755086
▁하셨습니다	-8.757188
유	-8.757567
했다	-8.758008
▁온	-8.759565
▁보고	-8.762359
봉사	-8.762688
▁구	-8.762938
교회	-8.763590
예	-8.767588
티	-8.767929
x	-8.769158
여자	-8.770487
활동	-8.771090
정도	-8.771559
▁피	-8.771961
하나	-8.772958
린	-8.773273
하라	-8.775378
▁새로운	-8.775985
▁것이라	-8.776550
▁25	-8.778667
이야기	-8.779034
란	-8.779766
연구	-8.780813
관	-8.781961
▁아마	-8.782782
네요	-8.783179
▁장	-8.783784
▁아직	-8.785400
▁왜냐하면	-8.788639
사이	-8.788829
▁살	-8.789365
손	-8.790757
▁16	-8.790862
대답	-8.791290
기술	-8.794271
언급	-8.795211
눈	-8.796291
믿음	-8.796714
▁이있다	-8.797767
%	-8.800423
▁나도	-8.802524
▁그것을	-8.802740
케	-8.806726
계속	-8.807429
▁그를	-8.808802
르	-8.810252
▁뭘	-8.810896
너희	-8.811421
▁부모	-8.811752
게될것	-8.814714
▁하신	-8.814940
세상	-8.815175
강	-8.816987
행복	-8.817810
세계	-8.820033
한테	-8.820099
증인	-8.820658
중요	-8.821657
대로	-8.821959
이상	-8.822024
▁17	-8.823371
▁산	-8.825702
영적	-8.826206
▁어디	-8.826305
▁14	-8.829250
▁많이	-8.830876
뒤	-8.836199
▁되고	-8.837087
으면	-8.837313
▁와함께	-8.839080
▁봐	-8.839232
공	-8.839306
▁너희는	-8.841402
▁배	-8.841437
▁의왕국	-8.843065
▁인간	-8.844734
영	-8.848047
큰	-8.848367
▁열	-8.849504
▁어느	-8.850030
▁심지어	-8.851468
남	-8.851519
▁항상	-8.851625
▁그러니까	-8.851851
번	-8.854713
읍니다	-8.854953
재	-8.856660
▁아버지	-8.856775
성경	-8.857863
키	-8.858369
▁얘기	-8.858602
▁자신	-8.859756
▁과같이	-8.860529
천	-8.860615
▁들어	-8.861724
달	-8.861734
▁될것	-8.862135
경우	-8.864128
즈	-8.864568
아내	-8.865724
곧	-8.866083
▁마태	-8.868092
경험	-8.868486
씨	-8.868881
악	-8.869550
▁이는	-8.870256
▁한다면	-8.871892
▁과관련	-8.873869
판	-8.876407
▁4:	-8.878504
다가	-8.880785
▁13	-8.881119
▁약	-8.881547
▁은여호와	-8.882071
에는	-8.882243
외	-8.883582
니까	-8.883862
▁에의하면	-8.883869
▁마다	-8.885331
▁해야	-8.885690
▁이상	-8.886784
▁1:	-8.892087
▁나를	-8.892884
임	-8.897462
▁나의	-8.899703
▁모세	-8.901183
아들	-8.902293
▁없어요	-8.902381
하늘	-8.902969
▁원	-8.903702
▁19	-8.904481
그리스도	-8.905930
지요	-8.908374
을때	-8.909249
▁특히	-8.909501
행	-8.910744
▁이것이	-8.911195
▁이야기	-8.915507
▁친구	-8.915642
웃음	-8.915806
▁있죠	-8.916539
▁을의미	-8.918291
▁불	-8.919329
워	-8.919526
▁작은	-8.919703
▁의사람	-8.921049
▁은하나님	-8.921383
▁의경우	-8.922769
▁또는	-8.922881
노력	-8.923394
고통	-8.925412
▁물	-8.925831
통	-8.926797
▁을위해	-8.928370
▁너희에게	-8.930438
소리	-8.931844
▁선택	-8.932167
▁여러분이	-8.933891
보고	-8.934063
루	-8.935484
난	-8.936867
▁사도	-8.937685
▁이라	-8.939639
▁세계	-8.940032
▁진짜	-8.940455
▁성	-8.940559
잖아	-8.940885
분명	-8.942032
위험	-8.942294
정부	-8.944392
청소년	-8.944483
▁사람들은	-8.947254
들과	-8.947858
이죠	-8.948708
▁바	-8.948895
▁는여호와	-8.949259
이해	-8.949827
▁5:	-8.950050
▁하거나	-8.950367
잘	-8.950959
주의	-8.953734
형	-8.955489
포	-8.956113
▁있지	-8.956869
색	-8.958043
마련	-8.958814
▁동안	-8.958919
▁는이렇게말	-8.962591
▁음	-8.964030
▁차	-8.965071
▁0	-8.966304
▁에관하여	-8.967192
▁로마	-8.968724
▁을통해	-8.969649
평화	-8.971284
이고	-8.971413
▁일부	-8.971814
전쟁	-8.972538
."	-8.972551
▁에서도	-8.973598
온전	-8.976408
축복	-8.977738
술	-8.977868
▁말을	-8.978091
해요	-8.979377
▁모	-8.979823
▁를사용	-8.980000
새로운	-8.980699
▁소	-8.982461
력	-8.983290
계	-8.983335
▁엄마	-8.985148
▁♪	-8.985444
기시작	-8.988150
엔	-8.988324
▁로인해	-8.988646
▁의한	-8.989107
할것	-8.989662
없이	-8.989680
들의	-8.990471
▁와같이	-8.991577
영원	-8.991765
▁S	-8.992660
▁시작	-8.993420
십시오	-8.995034
되어	-8.995405
▁거기	-8.995691
다는	-8.996361
▁집	-8.996692
▁선	-8.998010
부터	-8.998194
약속	-8.998332
긴	-8.998930
진리	-9.000145
▁와같은	-9.000331
▁여자	-9.000689
▁스	-9.002835
버	-9.002905
론	-9.004712
역	-9.004901
▁에따르면	-9.005348
▁으로서	-9.005599
▁그리스도인	-9.005758
묘사	-9.007544
동물	-9.009274
왕국	-9.009530
▁않습니다	-9.011072
연	-9.011470
예요	-9.011592
적으로	-9.012644
▁신	-9.012678
▁혹은	-9.013433
▁6:	-9.014733
▁의종	-9.015590
거리	-9.015897
▁의아들	-9.016291
▁갈	-9.018167
세요	-9.018304
수행	-9.018527
▁자녀	-9.018606
▁당	-9.018612
▁C	-9.019623
했던	-9.020610
▁파일	-9.020844
▁문제	-9.023008
▁아니야	-9.023800
각	-9.024172
상황	-9.024421
입	-9.024968
는가	-9.025123
▁적	-9.025618
사실	-9.026564
남편	-9.026776
미국	-9.028081
▁양	-9.030429
▁22	-9.032658
▁서로	-9.033440
리라	-9.034415
도시	-9.034829
▁해요	-9.035110
▁의백성	-9.036126
▁데	-9.039292
▁가그	-9.041961
▁할수있다	-9.042408
부분	-9.042998
▁있다고	-9.043698
▁과그	-9.043880
더라	-9.044293
▁A	-9.045241
y	-9.045491
증거	-9.045627
변화	-9.047267
했어요	-9.050235
▁않을	-9.050483
▁아무	-9.050733
친구	-9.050842
편	-9.051888
▁에게서	-9.052470
몸	-9.052552
▁것도	-9.052868
시대	-9.053700
▁아들	-9.053732
▁아냐	-9.056417
는지	-9.056597
포함	-9.059484
▁유	-9.060977
▁이고	-9.061124
▁하셨다	-9.061158
되는	-9.061444
지혜	-9.061810
여러분	-9.061898
▁니	-9.062440
▁이되	-9.062514
래	-9.062869
애	-9.063329
국	-9.063583
▁각	-9.063595
어머니	-9.065657
▁미	-9.065864
▁만들	-9.066095
▁여기에	-9.066464
▁처음	-9.067005
▁따라	-9.067412
의사	-9.067983
▁먼저	-9.068132
▁□	-9.071270
자유	-9.071309
▁거죠	-9.072201
채	-9.073432
시작	-9.074004
아래	-9.074264
▁내게	-9.075096
권	-9.077338
▁있	-9.078548
▁을받	-9.078691
군요	-9.078955
▁에의해	-9.079068
매우	-9.080559
▁빨리	-9.081280
▁응	-9.084687
브	-9.084885
▁괜찮아	-9.085738
▁중요한	-9.087186
▁은자신	-9.087327
희망	-9.089019
▁기	-9.090757
울	-9.090837
읍니까	-9.090997
▁*	-9.091240
▁널	-9.091407
모두	-9.091518
경	-9.092429
▁조	-9.092951
▁가서	-9.093700
▁있다	-9.094053
▁인것	-9.094184
예언	-9.094295
계획	-9.094344
조직	-9.096354
끝	-9.096369
복	-9.096604
▁그렇지만	-9.098091
갈	-9.098255
막	-9.098504
▁하였으며	-9.099132
▁단지	-9.100069
▁위에	-9.103671
▁인지	-9.105263
좋은	-9.105871
▁의사	-9.106357
▁분명	-9.106369
▁리	-9.106726
결정	-9.106843
▁는이렇게	-9.106963
▁는우리	-9.107045
▁반	-9.107751
▁의뜻	-9.109697
▁대로	-9.112392
될	-9.112690
충실	-9.115003
능력	-9.115807
▁아이	-9.115933
▁있다는	-9.117433
▁누구	-9.117856
격려	-9.117888
▁왕	-9.118228
▁본	-9.120068
▁지난	-9.122129
▁사용	-9.122149
▁당신의	-9.123138
에요	-9.125593
▁스러운	-9.126127
▁에나오는	-9.126347
▁않는	-9.129367
정확	-9.130000
운	-9.130424
2	-9.132230
▁참	-9.132262
▁이필요	-9.133287
▁그렇지	-9.134214
▁너희를	-9.134275
결과	-9.135564
▁그녀는	-9.136672
증명	-9.139316
고있는	-9.140061
/	-9.140627
▁아닙니다	-9.141613
▁필요	-9.143773
냐	-9.145313
▁저희	-9.146983
했어	-9.147592
기간	-9.148196
목	-9.148438
▁이걸	-9.148439
목적	-9.149121
가장	-9.152266
▁그것이	-9.153863
여행	-9.155623
강력	-9.155792
▁있게	-9.155840
▁인도	-9.156738
관심	-9.157572
▁말이야	-9.158551
구나	-9.159061
지금	-9.159368
▁가있다	-9.160393
▁된것	-9.160925
릴	-9.161842
▁다윗	-9.163449
▁할수	-9.164031
▁100	-9.164719
▁을가지고	-9.165035
고있습니다	-9.165216
▁했던	-9.165645
심각	-9.166636
변	-9.166873
인류	-9.168042
▁속	-9.168087
교훈	-9.168157
▁무	-9.168729
▁이우리	-9.169228
이다	-9.169564
▁은자기	-9.170344
▁것과	-9.172138
▁예루살렘	-9.172600
표현	-9.173127
▁정	-9.175434
기를	-9.177259
하는것	-9.177782
인데	-9.177809
노라	-9.178849
▁을어떻게	-9.180429
학교	-9.180676
존재	-9.180702
남자	-9.180860
▁이사야	-9.183195
▁근데	-9.183867
만큼	-9.184074
▁할수있는	-9.184286
▁그리하여	-9.184829
▁말라	-9.185678
▁둘	-9.185885
▁B	-9.185975
▁이될것	-9.186274
빛	-9.186923
▁들중	-9.187214
▁알지	-9.187331
▁들가운데	-9.188209
▁그걸	-9.188335
▁번째	-9.191052
▁은하느님	-9.191727
▁하나님께서	-9.191805
▁을주	-9.192219
▁아내	-9.192326
사회	-9.192523
▁결국	-9.192870
이라는	-9.193316
대부분	-9.193726
▁50	-9.195681
그런	-9.196367
모든사람	-9.199803
▁을얻	-9.200558
▁기억	-9.201041
▁가족	-9.202472
▁의마음	-9.202791
돌	-9.203430
거든	-9.204293
▁아빠	-9.204371
하는데	-9.205515
▁위	-9.206468
회	-9.208256
▁거의	-9.209600
▁보내	-9.209875
환자	-9.210757
▁에나	-9.212087
Name	-9.212502
생	-9.212832
멸망	-9.213794
▁I	-9.214803
전체	-9.214890
한다면	-9.215076
제자	-9.215078
충분	-9.216190
▁그렇습니다	-9.216820
▁을나타내	-9.218362
가정	-9.218946
▁이들	-9.221248
역시	-9.221817
▁위해서	-9.222209
▁경	-9.222322
▁집에	-9.222580
▁노	-9.222595
내용	-9.222947
▁어머니	-9.223626
이요	-9.224336
▁남자	-9.224883
▁이름	-9.224916
▁발	-9.226718
▁40	-9.227802
거룩	-9.228637
▁재	-9.229214
사건	-9.230253
▁이있습니다	-9.231416
▁가운데	-9.231928
별	-9.234088
하였습니다	-9.234520
▁좋아요	-9.235247
▁안에	-9.236128
▁이거	-9.236432
장로	-9.237263
▁변	-9.237277
▁않아	-9.237585
▁시키	-9.239750
▁어서	-9.240388
▁그렇다면	-9.240573
▁원하는	-9.240611
▁은어떻게	-9.240852
증	-9.241462
▁말이	-9.243725
개의	-9.244195
▁하려고	-9.245477
관계	-9.246786
1	-9.247248
a	-9.247487
참	-9.247569
▁첫	-9.247893
봐	-9.248395
▁타	-9.248513
▁24	-9.249402
▁입	-9.251114
▁남편	-9.251327
무슨	-9.251650
친	-9.251836
▁였다	-9.252270
▁에참석	-9.252953
특별	-9.254652
▁당신을	-9.255660
▁곱하기	-9.255731
▁을유지	-9.255835
▁말이죠	-9.256360
여러가지	-9.256546
▁생각해	-9.256641
▁야	-9.257228
▁만들어	-9.258152
져	-9.258351
안전	-9.258753
▁21	-9.259109
려면	-9.259491
발견	-9.259899
▁에있어서	-9.260314
▁해보십시오	-9.260593
인도	-9.262462
으니	-9.262687
▁소리	-9.263271
▁같아	-9.263650
연합	-9.266172
▁를받	-9.266267
▁사람을	-9.266574
▁총	-9.267176
▁가진	-9.268203
▁한번	-9.268599
적절	-9.268913
▁절	-9.269798
편지	-9.270359
▁것이며	-9.270596
▁있다면	-9.273814
▁강	-9.273905
▁을위하여	-9.274040
▁땅	-9.275001
▁감사합니다	-9.276974
▁M	-9.277233
▁여러분은	-9.277342
▁의목적	-9.278340
▁설정	-9.279097
거에요	-9.279204
▁그럴	-9.279214
퍼	-9.281335
치료	-9.281980
▁거에요	-9.282563
▁잠언	-9.282598
행위	-9.283468
▁문	-9.284815
▁의수	-9.285552
쳐	-9.287843
▁해야합니다	-9.288640
사도	-9.289303
▁을위한	-9.290359
3	-9.290795
기사	-9.292828
▁그리스도	-9.296090
들에게	-9.296098
책임	-9.297020
▁치	-9.297216
교	-9.297315
작은	-9.299102
▁●	-9.299331
숭배	-9.299613
게되었습니다	-9.300138
적용	-9.300358
아주	-9.300709
암	-9.302208
커	-9.302755
▁결혼	-9.304084
▁일호	-9.304262
S	-9.306005
지적	-9.306121
▁그러	-9.309006
건강	-9.310007
지식	-9.312430
▁단	-9.312809
▁영국	-9.313496
그렇게	-9.313905
▁이란	-9.313964
▁하나님을	-9.314616
▁남	-9.315803
▁달	-9.315895
없는	-9.316712
운동	-9.316938
절	-9.317094
일부	-9.317993
▁준비	-9.318300
하죠	-9.319604
▁저기	-9.319941
▁미터	-9.320099
어린이	-9.320161
▁여러	-9.321521
▁믿는	-9.321904
겠죠	-9.322138
류	-9.322221
오늘날	-9.322335
▁증인	-9.323698
▁와그	-9.324752
▁무엇	-9.327354
▁아프리카	-9.327796
▁가로되	-9.327797
▁해주	-9.328897
▁닥터	-9.328979
직면	-9.329180
▁에참여	-9.329364
량	-9.329450
▁매	-9.329637
▁중에	-9.331216
▁할수있습니다	-9.331341
▁손	-9.332936
교육	-9.333244
메	-9.334567
동안	-9.335077
석	-9.335265
▁씨	-9.335328
칠	-9.335684
같이	-9.336489
▁D	-9.337240
▁y	-9.337520
▁대해서	-9.338057
▁호	-9.338241
부부	-9.338956
▁유대	-9.339233
열심	-9.339698
경고	-9.339725
▁하는자	-9.341815
에서는	-9.342015
▁도있다	-9.342367
▁아마도	-9.342406
되지	-9.342745
지않고	-9.342817
감사	-9.343407
니라	-9.343628
귀	-9.343761
사물	-9.344672
다시	-9.344850
게되었다	-9.345473
▁을사랑	-9.345801
있다	-9.346297
▁했어요	-9.346365
유대인	-9.346470
구요	-9.346633
t	-9.347650
▁--	-9.348595
림	-9.350666
었	-9.350901
▁안돼	-9.350907
추	-9.351294
반응	-9.352217
▁제발	-9.352274
깨끗	-9.353294
▁의모든	-9.353386
▁위하여	-9.354227
▁백성	-9.354855
▁아무도	-9.355205
게됩니다	-9.355651
됩니다	-9.356191
망	-9.356793
글	-9.357224
으	-9.357239
▁너는	-9.357473
▁이러한	-9.358065
만족	-9.358946
게된다	-9.358956
▁성경	-9.359535
▁전부	-9.359574
▁도있습니다	-9.360140
▁말하는	-9.360778
테	-9.361211
어서	-9.362728
▁의일부	-9.362915
▁돈	-9.363591
▁눈	-9.363995
▁카	-9.365051
한사람	-9.366071
▁공	-9.366135
▁로운	-9.366583
예수그리스도	-9.367688
▁그분은	-9.367910
출	-9.368639
▁없	-9.368811
▁아니에요	-9.370374
▁각주	-9.370809
▁한가	-9.371890
▁애	-9.372573
▁마지막	-9.373456
▁아무것도	-9.373724
▁있는데	-9.373770
었고	-9.374012
▁않은	-9.374161
▁그에게	-9.375272
▁한자	-9.376641
▁a	-9.378095
▁코	-9.378493
기회	-9.379068
▁전화	-9.381179
▁이것을	-9.381437
▁사람은	-9.382009
거든요	-9.382586
어떤사람	-9.383260
이름	-9.383514
▁조금	-9.383620
기위하여	-9.384883
진정	-9.386427
▁%	-9.387086
▁알았어	-9.387524
▁시간이	-9.389943
▁마치	-9.391766
백	-9.392297
여전	-9.393115
민	-9.393586
머리	-9.394349
훈련	-9.395436
▁것에	-9.395769
완전	-9.395872
▁신세	-9.396104
곤	-9.396590
▁이든	-9.396678
정신	-9.396997
다는것	-9.398330
▁하시	-9.398892
▁그러나그	-9.399358
시고	-9.401185
▁을받아	-9.401386
▁의영	-9.403950
▁그래요	-9.405504
▁받	-9.407744
▁것으로	-9.409285
▁아닌	-9.410284
▁많은사람	-9.411087
▁을보	-9.414090
▁파	-9.414207
▁가되	-9.414445
음악	-9.415177
슨	-9.415652
▁하기시작	-9.417568
▁형제	-9.417789
▁그녀가	-9.418460
이렇게	-9.418594
▁이라고말	-9.419177
죽음	-9.419450
대회	-9.419675
▁년동안	-9.419981
▁초	-9.420100
여러	-9.420140
▁실제로	-9.421142
하였다	-9.422013
월	-9.422555
▁돌	-9.423827
베	-9.423990
▁한이유	-9.424886
▁앞	-9.425972
탄	-9.426227
▁이어떻게	-9.426987
▁우리에게	-9.427402
로부터	-9.428352
설	-9.428970
사망	-9.429147
▁종	-9.430203
▁방	-9.430297
잠	-9.430695
▁밖에	-9.431326
▁」	-9.432217
확신	-9.433302
▁그곳	-9.433429
C	-9.434887
▁한생명	-9.434956
표	-9.436028
▁있었습니다	-9.436124
합당	-9.436335
▁하나님께	-9.436780
▁말하길	-9.436917
▁the	-9.437416
또는	-9.437473
▁편	-9.437858
▁P	-9.439217
▁갖고	-9.439278
실것	-9.439395
환경	-9.440450
▁벌	-9.440471
▁1,	-9.440545
▁뭔가	-9.441457
▁할수있	-9.441491
▁는하나님	-9.441591
▁으로인해	-9.441720
증가	-9.441794
▁대부분	-9.441969
섬	-9.442645
보도	-9.442664
하도록	-9.443240
▁했어	-9.443301
▁의일	-9.443670
학	-9.444498
▁우	-9.444592
▁을생각	-9.445685
▁그분의	-9.446617
5	-9.446745
영향	-9.446832
또한	-9.448100
▁올	-9.449136
서로	-9.450688
이것	-9.451027
▁여호와께서	-9.451237
▁이아닙니다	-9.451953
함께	-9.453202
▁달러	-9.454078
느니라	-9.454259
시기	-9.454268
▁는말	-9.454483
▁동	-9.454885
범	-9.454894
D	-9.455099
▁자가	-9.455175
옷	-9.455252
가지	-9.455270
태도	-9.455904
지구	-9.458170
발전	-9.459190
학생	-9.459951
▁자는	-9.460135
▁그만	-9.460948
▁23	-9.461037
▁안녕	-9.462385
▁최근	-9.462679
▁주의	-9.462721
▁진	-9.462732
그곳	-9.463796
▁다른사람	-9.463996
현재	-9.464234
▁히브리	-9.464325
▁않	-9.466554
셨습니다	-9.467267
보호	-9.467378
창	-9.467552
바울	-9.467606
▁이없	-9.467960
침례	-9.468725
▁막	-9.468820
▁를위해	-9.470387
담	-9.470860
뿐	-9.471797
지방	-9.472907
▁유다	-9.473271
▁를통해	-9.473889
의미	-9.474209
▁해야한다	-9.474492
죽	-9.474661
▁어떤사람	-9.474955
과정	-9.475427
또다른	-9.476382
▁비교	-9.476731
▁찾아	-9.477015
유의	-9.477251
▁스스로	-9.477284
▁의사랑	-9.477445
▁하니	-9.477704
▁킬로미터	-9.477909
참으로	-9.478110
하니	-9.478189
결혼	-9.478585
▁프랑스	-9.479413
▁절대	-9.479436
신뢰	-9.479901
부활	-9.480387
아기	-9.480947
범죄	-9.481722
▁하는가	-9.481871
m	-9.482012
이렇게말	-9.482092
층	-9.483019
▁통해	-9.484547
기쁨	-9.485019
▁을잘	-9.486231
▁실제	-9.486266
▁은예수	-9.486498
▁사람들을	-9.487827
▁싶어	-9.488344
e	-9.488346
▁은또한	-9.488442
언어	-9.488697
든지	-9.489913
준비	-9.490525
집회	-9.490714
좋은소식	-9.490775
거의	-9.491011
잘못	-9.491832
직	-9.492817
나요	-9.493106
▁별	-9.493896
▁심	-9.494147
잖아요	-9.494238
팔	-9.495009
모든것	-9.495072
▁밤	-9.496061
▁보면	-9.496126
고생각	-9.496318
주장	-9.497298
염려	-9.497909
지않	-9.498002
▁잠깐	-9.498455
▁을계속	-9.498652
▁은이렇게	-9.499653
임명	-9.499753
▁의생활	-9.500134
▁을고려	-9.501131
▁기록	-9.501139
▁이라면	-9.501287
겨	-9.501541
백성	-9.502213
벌	-9.502240
▁가있습니다	-9.502579
?"	-9.503063
▁하기때문	-9.503210
볼	-9.503730
부인	-9.504082
이전	-9.504934
▁받을	-9.505609
밤	-9.505616
바다	-9.505800
▁T	-9.505827
박	-9.506145
▁은어떠	-9.506153
▁외	-9.506776
▁이기때문	-9.507607
라도	-9.507874
▁였습니다	-9.508179
▁12:	-9.508832
기원	-9.509201
식물	-9.509343
고말	-9.509786
▁경우	-9.509972
▁정도	-9.510864
▁이되는	-9.512489
▁세상	-9.513083
지를	-9.515635
준	-9.515723
▁말할	-9.517071
▁저희가	-9.518285
▁때문입니다	-9.518750
▁은이	-9.519991
▁그래도	-9.520292
▁그결과	-9.520776
▁사람들	-9.521363
▁일은	-9.522240
▁폴더	-9.522604
▁거지	-9.522638
있	-9.523030
▁하죠	-9.523663
▁세상에	-9.523932
국가	-9.524117
▁하였고	-9.524201
▁같습니다	-9.525249
▁아뇨	-9.525297
하리라	-9.525393
얼마	-9.525990
▁아브라함	-9.526565
▁나한테	-9.527102
▁에서의	-9.527885
▁연구	-9.529075
락	-9.529994
깊은	-9.531425
▁후에	-9.531720
▁는자신	-9.532678
인내	-9.533543
▁을기억	-9.533682
▁팔	-9.534114
A	-9.534343
작	-9.534422
또	-9.534741
▁있는지	-9.536288
▁말은	-9.536299
▁때에	-9.537380
▁것처럼	-9.537646
나니	-9.537647
▁천	-9.538301
▁들어가	-9.538458
파수대	-9.538459
올	-9.539108
▁이동	-9.539167
▁에불과	-9.541733
▁는어떻게	-9.542631
못	-9.543260
한가지	-9.543432
위로	-9.543677
가치	-9.544166
선포	-9.544433
▁케	-9.544502
▁라고말	-9.545074
▁말고	-9.546472
급	-9.546916
제도	-9.547219
음식	-9.547287
▁실	-9.547555
근	-9.548482
▁을보고	-9.549124
성공	-9.549441
▁교회	-9.549708
▁그날	-9.549745
인지	-9.550639
방식	-9.550652
학자	-9.550758
▁이있는	-9.550999
격	-9.551017
▁이전	-9.551161
▁베드로	-9.553361
▁길	-9.553649
▁하던	-9.553837
어려움	-9.554207
하려고	-9.554295
겁니다	-9.554461
▁잘못	-9.554988
▁에게도	-9.555629
는점	-9.556367
▁되면	-9.556714
▁진리	-9.556718
▁알게	-9.556955
겸손	-9.557162
기억	-9.557611
지상	-9.558101
였습니다	-9.558221
d	-9.558784
▁보다더	-9.559032
천사	-9.559101
었읍니다	-9.559552
회복	-9.560253
▁가무엇	-9.560642
▁같아요	-9.562886
몇	-9.562959
▁의제도	-9.563138
▁설명	-9.563617
▁그이유	-9.563807
▁씩	-9.564733
▁학교	-9.564879
▁맞아	-9.565144
▁이있	-9.565618
겠지	-9.566277
▁보다도	-9.567698
n	-9.568038
▁자신의	-9.568410
이스라엘	-9.568697
이라고생각	-9.568912
▁저를	-9.569340
▁K	-9.569428
▁되는것	-9.570012
▁발견	-9.571219
려는	-9.571561
▁그거	-9.571697
▁키	-9.572513
의식	-9.572577
박수	-9.572776
▁하고있는	-9.573352
▁문제가	-9.573426
▁유럽	-9.575206
하지만	-9.575523
개인적	-9.576564
▁일러가로되	-9.576653
▁의집	-9.577099
▁를사랑	-9.577222
▁선생님	-9.577972
▁그렇다	-9.578158
여기	-9.578605
향	-9.579619
▁않고	-9.579824
▁의견해	-9.580724
▁그후	-9.580744
품	-9.581192
▁와관련	-9.581369
▁은참으로	-9.581474
고대	-9.582461
청	-9.582891
총	-9.583645
역할	-9.583833
▁말해	-9.584274
듯이	-9.584691
역사	-9.584752
혀	-9.584995
어느	-9.585118
▁가자	-9.585494
▁삼	-9.585498
도다	-9.586223
왔다	-9.586466
▁이아니다	-9.587035
하면서	-9.587306
▁F	-9.587408
진실	-9.588568
하신	-9.589170
대화	-9.589609
었어요	-9.589800
▁보여	-9.589945
▁이무엇	-9.590526
누구	-9.590732
▁여호와의	-9.590954
▁은이러	-9.591431
▁하기위하여	-9.592211
▁전혀	-9.592415
▁우리를	-9.593025
▁보호	-9.593614
▁nbsp	-9.593734
▁일것	-9.593772
인정	-9.593964
이며	-9.593992
▁을알	-9.596000
시험	-9.596324
희생	-9.597359
▁사실상	-9.597677
실제	-9.597986
▁는자기	-9.599123
▁11:	-9.599470
▁이하나님	-9.599821
▁에우리	-9.600237
단지	-9.601702
▁께서는그	-9.602054
▁하늘	-9.602694
기전	-9.602714
▁점	-9.602935
▁받아	-9.603053
둘	-9.603064
▁10:	-9.603265
늘	-9.603903
▁언제	-9.603972
발행	-9.604332
아무	-9.604630
▁하고있습니다	-9.604740
▁등	-9.605103
▁돌아가	-9.605843
▁결정	-9.605919
투	-9.606047
▁을발견	-9.606216
해도	-9.606383
▁앞에	-9.606687
더니	-9.607220
행사	-9.607359
정기적	-9.607651
▁돼요	-9.608645
습관	-9.608666
▁봅시다	-9.610319
▁시켜	-9.611609
폭력	-9.611993
▁되어있다	-9.613299
▁않아요	-9.613519
▁창	-9.613642
이용	-9.614630
▁일본	-9.614732
이지	-9.615029
(_	-9.615155
선택	-9.615453
▁뭐야	-9.616074
추구	-9.616229
충성	-9.616365
첫째	-9.616406
노래	-9.616808
잡지	-9.617889
▁암	-9.618068
되고	-9.618217
▁사단	-9.618335
er	-9.618400
▁뭐가	-9.618771
전파	-9.618987
지고	-9.619469
▁60	-9.619486
야합니다	-9.620583
▁그림	-9.620750
▁하셨읍니다	-9.620875
▁이여호와	-9.621134
누가	-9.621588
▁및	-9.621824
밖	-9.622598
철	-9.622698
했고	-9.623257
▁머리	-9.623938
▁대체	-9.624141
▁할필요	-9.624238
▁완전	-9.625166
집단	-9.625829
▁고말	-9.626552
▁7:	-9.627197
다니	-9.627213
삶	-9.627623
▁고마워요	-9.628710
▁아담	-9.628863
쉬	-9.628951
▁베	-9.629268
스스로	-9.630071
연설	-9.630303
합니까	-9.630913
었는데	-9.631409
▁을하	-9.632092
하려	-9.632528
감정	-9.632647
▁혼자	-9.632903
P	-9.633267
▁자네	-9.633311
▁의생명	-9.635946
다양	-9.636457
결심	-9.636953
성취	-9.637644
족	-9.638320
▁아침	-9.638499
c	-9.638722
▁없을	-9.641768
▁의믿음	-9.642204
▁E	-9.642397
짐	-9.642415
더군요	-9.643830
었으며	-9.643904
▁두려워	-9.643916
장소	-9.644657
세포	-9.646088
▁은사람	-9.646707
하시	-9.646899
▁이름을	-9.647036
었던	-9.647171
▁시키는	-9.647402
여성	-9.647673
질병	-9.648448
▁일어나	-9.648680
자리	-9.648957
는이유	-9.649014
▁에사는	-9.649602
▁오래	-9.650046
▁의길	-9.650108
형태	-9.650388
하거나	-9.650392
▁하자	-9.650626
▁오히려	-9.651110
▁의법	-9.651937
▁병	-9.652250
▁기도	-9.652304
ing	-9.652328
니다	-9.652580
▁걱정	-9.653253
▁풀	-9.653831
창조	-9.653979
▁이유	-9.654012
▁는하느님	-9.654426
▁아는	-9.654435
▁의가르침	-9.655511
▁of	-9.656122
▁나와	-9.656165
▁포	-9.656641
축	-9.657107
▁완전히	-9.657228
▁싶은	-9.657850
▁참으로	-9.658366
▁수술	-9.658464
▁떠나	-9.659095
시는	-9.659490
▁가정	-9.659782
▁지금은	-9.659837
그리스도교	-9.659981
그릇	-9.660020
▁나무	-9.661545
▁내려	-9.661668
구원	-9.661684
독	-9.661816
들어	-9.661876
▁당장	-9.661941
자가	-9.662215
▁말씀을	-9.662904
스트	-9.663415
▁보라	-9.664130
▁받는	-9.664166
잔	-9.664269
▁인데	-9.664547
▁너를	-9.665149
▁지구	-9.665153
▁사진	-9.665326
▁꼭	-9.665592
딸	-9.666077
현	-9.666113
제안	-9.666286
▁필요한	-9.666445
▁수가	-9.666655
만한	-9.666664
성령	-9.666690
낙원	-9.667445
좀	-9.667994
풀	-9.668286
▁그대	-9.669018
립	-9.669051
▁금	-9.669318
▁L	-9.669656
겠습니다	-9.670146
▁되어있는	-9.670221
▁를들면	-9.671414
▁을내	-9.671768
했을	-9.672350
B	-9.672565
예루살렘	-9.672809
▁26	-9.673827
즐거움	-9.674721
동일	-9.674774
E	-9.674964
▁사탄	-9.675131
사업	-9.675717
▁을이해	-9.675870
통치	-9.675873
까요	-9.675941
▁33	-9.676193
▁했는데	-9.676252
▁돈을	-9.676435
이렇게말씀	-9.677282
▁알아요	-9.677729
M	-9.678188
▁억	-9.678222
▁에근거	-9.678418
▁관한	-9.678480
▁딸	-9.679156
셨	-9.679365
▁R	-9.679565
으로부터	-9.679882
▁면네모	-9.680377
▁믿음	-9.680592
조사	-9.680658
건물	-9.681066
ar	-9.682511
▁이었읍니다	-9.682641
▁몰라	-9.682921
취	-9.683687
▁환자	-9.684102
깨어라	-9.686198
▁한다고	-9.686704
▁이번	-9.686827
라면	-9.686892
친절	-9.686892
▁을인정	-9.688009
명령	-9.688271
았다	-9.689156
.]	-9.689740
▁을가진	-9.690183
▁를위하여	-9.691200
영국	-9.691588
박해	-9.691610
▁나가	-9.691667
가난	-9.691839
선물	-9.692525
b	-9.692880
▁하루	-9.693060
는다	-9.693080
영광	-9.693270
▁롭게	-9.693944
우주	-9.694079
개인	-9.694353
▁연결	-9.695496
▁괜찮아요	-9.695821
목표	-9.696122
▁의도움	-9.697275
▁13:	-9.697767
었기때문	-9.698155
▁적이	-9.698260
▁무엇을	-9.698867
▁뒤	-9.700036
링	-9.700406
이란	-9.701469
▁보기	-9.701516
특히	-9.701806
왜	-9.702342
▁한때	-9.702806
▁마음	-9.703508
▁에서그	-9.703757
▁만이	-9.704789
밀	-9.705824
되었습니다	-9.706218
▁그녀의	-9.706655
성서연구	-9.707748
에도	-9.708136
▁같	-9.708686
셨다	-9.708759
▁만든	-9.709062
▁예를	-9.709779
▁확인	-9.710560
▁정의	-9.710585
▁은이렇게말	-9.710917
함을	-9.711179
소중	-9.712555
▁들사이	-9.712633
▁하셨	-9.712941
):	-9.713870
▁이해	-9.714434
님	-9.714718
▁정보	-9.714757
▁만명	-9.715389
▁이분명	-9.715506
▁전쟁	-9.716514
발생	-9.717037
강화	-9.717206
확실	-9.718115
이제	-9.718471
▁독일	-9.721557
기대	-9.721581
▁죽은	-9.722220
▁해도	-9.722222
▁그리	-9.722384
침	-9.722425
▁70	-9.723260
▁고마워	-9.724343
▁젠장	-9.725063
i	-9.725893
영혼	-9.726245
▁의해	-9.726846
거죠	-9.727177
는사실	-9.727334
있어	-9.728307
▁책	-9.728493
받	-9.729967
반대	-9.730062
▁약속	-9.730502
▁찾을	-9.730683
▁그러니	-9.731310
심지어	-9.732734
기꺼이	-9.732803
인식	-9.732851
▁마침내	-9.733025
고난	-9.733200
~	-9.733352
▁의미	-9.734639
▁잡아	-9.734868
▁직접	-9.735047
▁을통하여	-9.736045
가르침	-9.736612
▁하나의	-9.737229
칼	-9.737236
▁전체	-9.738229
단순	-9.738369
엘	-9.738947
▁메	-9.739093
▁예수그리스도	-9.739133
▁게임	-9.739190
▁두고	-9.739469
▁가나	-9.739935
기관	-9.740246
▁한말	-9.740630
▁문제를	-9.741356
골	-9.741361
쪽	-9.741392
제시	-9.741613
▁를위한	-9.741756
▁그저	-9.742037
특성	-9.742307
고려	-9.742753
▁길을	-9.742959
결	-9.743500
▁만아니라	-9.743889
▁싫어	-9.743989
▁N	-9.744472
▁순	-9.744535
▁당시	-9.744731
▁의생각	-9.744743
지않는다	-9.745006
▁프로그램	-9.745667
누	-9.745766
▁하시는	-9.746803
상당	-9.748445
▁◆	-9.749051
율	-9.749511
관리	-9.749678
▁거기서	-9.750703
▁b	-9.750938
원칙	-9.751233
▁이자기	-9.751755
▁작업	-9.752327
▁아직도	-9.753299
▁해야할	-9.753557
▁쪽	-9.753800
므로	-9.753848
압력	-9.753965
물질	-9.753999
심한	-9.754045
수술	-9.755659
▁부인	-9.755960
▁영화	-9.756224
▁하리라	-9.756310
인가	-9.756589
할때	-9.757003
▁스럽게	-9.757108
지않은	-9.757134
그러	-9.758031
▁이없는	-9.758639
▁종교	-9.758693
▁표시	-9.759027
인생	-9.759116
▁저도	-9.759365
▁써	-9.759465
단어	-9.759574
▁행	-9.759798
지않을것	-9.760710
▁만큼	-9.761332
▁저희는	-9.761410
▁시간을	-9.762141
▁도그	-9.762490
▁고대	-9.763258
거지	-9.764133
겠지만	-9.764750
경건	-9.765753
▁술	-9.766336
▁하여금	-9.766566
▁끝	-9.766900
심판	-9.767615
▁죄	-9.767828
장치	-9.768299
▁매일	-9.768660
병원	-9.769365
있기때문	-9.770045
▁방금	-9.770628
▁노래	-9.770789
▁쓰	-9.771159
▁생명	-9.771567
▁만드는	-9.771878
▁신경	-9.772335
승	-9.772762
크게	-9.773248
▁너의	-9.773987
어디	-9.774071
삼	-9.774177
▁을겪	-9.774288
▁정말로	-9.774533
▁얼마	-9.774675
▁을포함	-9.774766
▁나쁜	-9.775134
▁있어서	-9.775419
▁뭐라고	-9.775581
쓰	-9.776039
▁있노라	-9.776905
▁박사	-9.777085
십니다	-9.779173
o	-9.779378
일반적	-9.779661
한것	-9.780001
▁27	-9.780048
자체	-9.780125
명백	-9.780540
▁W	-9.780972
▁31	-9.781509
야한다	-9.781801
▁대신	-9.782024
▁쓸	-9.783067
▁안녕하세요	-9.783299
▁해보	-9.784271
▁그다음	-9.784550
▁내일	-9.784642
▁있으면	-9.784788
▁메시지	-9.785605
으라	-9.786027
있습니다	-9.786337
츠	-9.786874
이런	-9.787072
▁와서	-9.787176
비롯	-9.787187
비슷	-9.787409
순종	-9.788234
가능	-9.788888
끼	-9.789200
주는	-9.789273
▁은성서	-9.789595
빈	-9.789951
▁존재	-9.790872
▁을느끼	-9.791674
▁말씀	-9.792731
▁몸	-9.793259
▁추가	-9.793304
▁까지도	-9.793427
▁할만한	-9.793884
뜻	-9.795196
▁노아	-9.795739
머	-9.795818
▁믿음을	-9.796779
억	-9.796787
re	-9.797153
▁에너지	-9.797459
▁컴퓨터	-9.797847
▁일단	-9.798207
값	-9.798497
▁없다	-9.798787
▁되기	-9.798974
▁이말	-9.799315
▁이더	-9.799459
다윗	-9.799878
▁불러	-9.799933
▁자를	-9.801021
▁믿지	-9.801209
▁훨씬	-9.801950
▁J	-9.801968
▁앞에서	-9.802740
▁아래	-9.803140
▁보는	-9.803468
먼저	-9.803815
▁다니엘	-9.804029
▁사용자	-9.804195
아니	-9.805578
이미	-9.806361
몇가지	-9.806469
▁년전	-9.806915
리니	-9.808175
▁의아버지	-9.808278
T	-9.809204
다고생각	-9.809530
▁+	-9.810072
▁했	-9.810097
▁인류	-9.810245
관련	-9.810388
흔히	-9.810730
▁잠	-9.810855
▁형	-9.810986
최근	-9.814503
▁중국	-9.814624
▁의직무	-9.815128
풍	-9.815685
식품	-9.816682
초대	-9.817402
▁하려는	-9.817449
의문	-9.817585
미래	-9.817977
복종	-9.818831
젊은이	-9.818894
▁와비슷	-9.819002
▁은그러한	-9.819111
겠다고	-9.820120
풍부	-9.820638
▁식	-9.820648
단계	-9.820987
특정	-9.821203
회사	-9.821225
모양	-9.821526
▁아기	-9.821712
답	-9.821777
▁명령	-9.822372
하세요	-9.822465
했죠	-9.823606
처	-9.823836
4	-9.824301
결코	-9.824615
▁하지않	-9.824658
물건	-9.824783
al	-9.827060
▁한바	-9.827076
▁께서는자신	-9.827641
겠어요	-9.828152
아름다운	-9.829269
▁를시작	-9.830204
당시	-9.830628
▁이야기를	-9.830922
▁말입니다	-9.831011
이랑	-9.831708
▁는또한	-9.832006
▁연	-9.832102
기적	-9.832926
O	-9.833399
▁벌을	-9.833406
틀	-9.834571
▁c	-9.835717
예언자	-9.836169
▁사람의	-9.836493
쉽게	-9.836635
얼마나	-9.836733
I	-9.837417
권고	-9.839099
꽃	-9.839622
열매	-9.839735
신세	-9.840202
고요	-9.840819
▁우선	-9.841052
정말	-9.841894
맛	-9.842166
으리라	-9.843019
▁하시고	-9.843097
요인	-9.844131
▁가톨릭	-9.844311
직업	-9.844365
종교적	-9.844846
▁를얻	-9.845209
▁뒤에	-9.845506
▁듣고	-9.845687
렌	-9.846236
건축	-9.847341
6	-9.847600
▁보통	-9.847657
여호와하나님	-9.847762
두려움	-9.847775
는자	-9.848029
하였습니까	-9.848255
▁말씀이	-9.848469
▁때때로	-9.848546
▁방법을	-9.848554
하루	-9.848616
▁오직	-9.848753
▁의제자	-9.848775
회개	-9.848886
관습	-9.849065
▁도시	-9.849218
비용	-9.849228
▁은모두	-9.849300
었어	-9.850090
▁과학	-9.850300
▁맞	-9.850391
신문	-9.850488
▁을찾	-9.851161
▁할수있습니까	-9.851719
하다	-9.851973
▁이봐	-9.852296
먼	-9.853107
고그	-9.853259
▁먹	-9.853476
▁때까지	-9.853657
▁f	-9.853997
내게	-9.854467
왔습니다	-9.854514
▁생각합니다	-9.854538
▁백	-9.855165
▁사는	-9.855259
▁허	-9.855297
▁과거	-9.855470
▁것이죠	-9.855623
두가지	-9.855675
▁잡	-9.855700
▁한점	-9.856037
▁동물	-9.856390
그리스도교국	-9.856794
▁28	-9.856807
지않습니다	-9.856926
지않는	-9.857311
▁을입	-9.857317
요구	-9.857527
▁영	-9.857751
▁이때	-9.857845
▁경찰	-9.857858
▁화	-9.858188
작업	-9.858401
▁하심	-9.858521
성구	-9.858842
썼습니다	-9.858972
p	-9.860037
▁실행	-9.860197
성전	-9.860520
▁되었	-9.860531
▁심판	-9.861335
지원	-9.861887
항	-9.861893
▁창조	-9.861896
부족	-9.861963
▁어쩌면	-9.862831
환	-9.862919
▁가여호와	-9.863099
소식	-9.863797
▁있었어요	-9.864117
▁은그분	-9.864729
▁현대	-9.865938
▁보다는	-9.866691
용서	-9.866808
▁곳에	-9.867511
현대	-9.867920
▁보세요	-9.868229
▁은어떤	-9.868361
▁그대에게	-9.869032
▁1914	-9.869452
▁장로	-9.870024
▁란	-9.870340
▁행동	-9.870352
작용	-9.870542
▁을그	-9.871192
▁15:	-9.871449
소녀	-9.871619
먹	-9.871627
▁G	-9.871822
▁H	-9.872128
▁정부	-9.872676
▁8:	-9.872973
▁의본	-9.873177
--	-9.873187
로마	-9.873594
른	-9.873775
박사	-9.874038
▁결코	-9.874254
바로	-9.875550
▁도움이	-9.875983
▁질문	-9.876324
다는사실	-9.876331
광	-9.876965
보존	-9.877072
하십시오	-9.877284
▁행하는	-9.877772
십	-9.878071
덕분	-9.878222
수단	-9.878429
놀라운	-9.878617
▁평화	-9.878841
▁24:	-9.878946
참조	-9.879632
곡	-9.879730
전문가	-9.879911
페	-9.880294
집니다	-9.880451
어느정도	-9.880476
▁행복	-9.880941
배우자	-9.881439
▁하지만그	-9.881795
▁로그	-9.882577
▁분이	-9.882854
▁공격	-9.883461
▁는이	-9.883669
받은	-9.883701
사탄	-9.883879
▁선을	-9.884154
▁32	-9.884315
게요	-9.884452
▁저의	-9.885726
▁뿐	-9.885760
의심	-9.885776
▁망	-9.886078
건전	-9.886628
L	-9.887118
▁을더	-9.888046
▁국가	-9.888065
독일	-9.888087
▁방법이	-9.888217
▪	-9.888689
‘	-9.888714
처음	-9.889594
▁욥	-9.890226
▁을당하	-9.890608
더라도	-9.890985
▁안전	-9.891212
겠다	-9.891835
지않았다	-9.892015
▁누군가	-9.892093
벽	-9.892341
버리	-9.892924
세대	-9.893018
▁앞으로	-9.893219
].	-9.893771
동의	-9.893960
▁예레미야	-9.893982
담배	-9.894034
▁의눈	-9.894475
과학	-9.894680
▁있으며	-9.894772
▁는내	-9.894973
▁귀	-9.895817
▁9:	-9.896166
▁하지않고	-9.896722
▁감사	-9.897197
잡	-9.897393
▁너희의	-9.897449
짓	-9.897732
▁청소년	-9.897894
▁을확신	-9.898243
▁존	-9.898244
▁더하기	-9.898618
▁한후	-9.898786
▁그대로	-9.899314
▁21:	-9.899512
방문	-9.899642
▁한문제	-9.899704
▁으로그	-9.899734
들에	-9.900052
▁항	-9.900071
▁있도록	-9.900559
없	-9.900740
▁말야	-9.900755
▁을들	-9.900776
유혹	-9.901079
극	-9.901094
▁니가	-9.901602
▁을방문	-9.901644
비난	-9.901898
▁여전히	-9.902063
▁것이다	-9.902311
▁멋진	-9.902581
▁이되었다	-9.902858
▁은당신	-9.902875
더많은	-9.903461
▁되리라	-9.903755
마을	-9.903769
▁가없	-9.904531
▁이됩니다	-9.904736
▁보지	-9.904834
직장	-9.904860
▁없고	-9.904936
▁에베소	-9.905882
▁사도바울	-9.906006
▁사이에	-9.906316
▁늘	-9.906637
언	-9.906882
무기	-9.907202
▁여긴	-9.907882
가는	-9.908079
더욱	-9.909190
▁가는	-9.909286
합	-9.910235
ed	-9.910283
▁마리아	-9.910633
제한	-9.911172
했는데	-9.911548
g	-9.912254
였어요	-9.912469
▁한방법	-9.913111
▁4.	-9.913844
창조주	-9.913909
위협	-9.913920
조언	-9.914803
나이다	-9.915449
시련	-9.915755
▁너도	-9.916226
▁갑자기	-9.916531
▁칼	-9.917484
▁는나	-9.918314
▁생각하는	-9.918409
▁되지	-9.918863
▁높은	-9.918922
▁이된다	-9.918972
이기	-9.919038
하던	-9.919702
▁를유지	-9.920368
았습니다	-9.920635
▁다들	-9.921047
▁시험	-9.921771
효과	-9.922298
상실	-9.922683
r	-9.922719
▁이되었습니다	-9.922806
▁사회	-9.922896
유럽	-9.922908
▁꽤	-9.922954
_	-9.923123
▁여행	-9.923247
겠어	-9.923956
재난	-9.925155
듯	-9.925286
성장	-9.925541
느냐	-9.925654
으나	-9.925994
▁하십니다	-9.927021
▁가까이	-9.927121
or	-9.927197
▁으로는	-9.927374
거예요	-9.927574
▁모두가	-9.928024
유일	-9.928044
거짓	-9.928664
▁하려	-9.928866
▁것들을	-9.928896
▁대답	-9.929098
▁께서그	-9.929192
▁길이	-9.929745
▁하신것	-9.930387
무슨일	-9.930408
▁게다가	-9.930500
보면	-9.930630
저희	-9.931083
k	-9.931905
▁교	-9.931988
▁음악	-9.932543
▁이곳	-9.933029
▁to	-9.933240
▁의아내	-9.933856
▁사용할	-9.934013
▁되게	-9.934719
들도	-9.934828
▁어때	-9.934867
선교인	-9.934921
었지만	-9.935905
됨	-9.935968
강한	-9.936050
▁하려면	-9.936172
▁질	-9.936440
▁받고	-9.937142
한다고	-9.938092
가능성	-9.938643
▁제곱	-9.938815
▁있었	-9.938881
움	-9.939121
▁짓	-9.939184
▁진행	-9.939762
마약	-9.939838
확인	-9.939934
읽	-9.940415
과학자	-9.940511
자격	-9.942138
신분	-9.942168
었죠	-9.942765
세계적	-9.943054
▁사람들에게	-9.943299
▁때는	-9.943360
▁일에	-9.944029
▁이되어	-9.944437
령	-9.944694
▁되고있다	-9.944741
▁범죄	-9.945409
▁없음	-9.945457
▁을잃	-9.945668
식사	-9.945879
▁기원	-9.946000
▁의날	-9.946258
▁희	-9.946559
▁바벨론	-9.947373
▁악	-9.947598
▁은혜를	-9.948225
▁계산	-9.948821
▁미안해	-9.949071
▁정신	-9.949138
▁가아니라	-9.949326
특권	-9.949526
공격	-9.950016
자매	-9.950503
▁에여호와	-9.950904
▁토	-9.951056
업	-9.951091
▁손을	-9.951504
▁왕이	-9.951893
▁에걸쳐	-9.952359
F	-9.952608
▁한편	-9.952640
▁곳	-9.952914
▁요	-9.953662
아무것	-9.954535
▁역사	-9.954549
항상	-9.954645
▁개의	-9.954666
와서	-9.955346
올바른	-9.955700
▁하는지	-9.955803
폐	-9.956027
율법	-9.956032
▁의손	-9.956391
정보	-9.956610
an	-9.956760
▁이젠	-9.956787
▁있던	-9.957048
▁나라	-9.957559
번역	-9.957744
무리	-9.958565
▁29	-9.958716
보이	-9.959245
▁정보를	-9.959388
▁거리	-9.959517
▁자들을	-9.960663
▁차세계대전	-9.960912
▁에기록	-9.961150
▁노력	-9.961283
자연	-9.961360
▁여러분의	-9.961699
였	-9.962989
▁을보면	-9.963156
움직	-9.963560
커다란	-9.963691
검토	-9.963696
▁멀리	-9.964532
▁를통하여	-9.964997
▁혹시	-9.966598
▁을말	-9.966806
자주	-9.966847
▁이니라	-9.967072
탈	-9.967223
플	-9.967334
많이	-9.967478
▁것들이	-9.967580
어야	-9.967830
헤	-9.969843
기름부음	-9.969991
▁나중에	-9.970095
낸	-9.970107
사상	-9.970118
▁첫번째	-9.970209
8	-9.970299
▁을받았다	-9.970348
▁있지만	-9.970584
▁야고보	-9.970834
▁권	-9.970986
기초	-9.971518
▁그랬	-9.971608
▁있나요	-9.971674
▁치료	-9.972003
중하나	-9.972069
▁을받은	-9.972671
▁과일치	-9.973392
▁됐어	-9.973545
▁이있었다	-9.973975
물질적	-9.974221
직접	-9.974813
▁높이	-9.974826
▁보이	-9.974921
▁마리	-9.975242
▁자연	-9.976318
▁그룹	-9.977369
거대	-9.978685
주위	-9.978746
▁이있습니까	-9.979179
▁하게될것	-9.979910
께	-9.980198
▁하더라	-9.980206
▁대하여	-9.980316
▁엄마가	-9.980680
하실	-9.980859
▁의심	-9.981250
▁3,	-9.981605
최초	-9.982034
▁창세	-9.982165
줘	-9.983015
달러	-9.983033
▁안에서	-9.983270
전파활동	-9.983298
사제	-9.983493
영화	-9.983498
나가	-9.983568
▁목	-9.983800
마귀	-9.984280
▁생각이	-9.984807
▁했고	-9.985336
▁부탁	-9.985506
참여	-9.986294
원인	-9.986362
순	-9.986463
▁에서가장	-9.986521
▁의자녀	-9.986623
▁진실	-9.987554
시며	-9.987680
태	-9.988686
▁의가족	-9.989107
바람	-9.989329
▁하였	-9.989547
▁크게	-9.989690
▁에도불구하고	-9.989875
성적	-9.990171
▁솔로몬	-9.991879
흥미	-9.991970
▁경고	-9.992203
▁이하느님	-9.992265
▁하신다	-9.993340
▁그렇죠	-9.993512
간단	-9.993680
생산	-9.995108
으므로	-9.995231
성인	-9.995592
마다	-9.995923
▁가능	-9.995952
▁되었으며	-9.996107
▁이유는	-9.996238
하였기때문	-9.996324
▁에서나	-9.997220
출판물	-9.998142
있게	-9.998748
▁주는	-9.998851
▁잔	-9.999007
수있습니다	-9.999018
있었다	-9.999554
▁싶지	-9.999747
낼	-10.000549
▁않았습니다	-10.001063
생존	-10.001347
▁어디서	-10.001382
모임	-10.001543
▁있기	-10.001716
▁TV	-10.002192
졌습니다	-10.002725
▁마찬가지	-10.002742
아무런	-10.003673
▁저장	-10.004277
▁또다른	-10.004793
▁이르되	-10.005781
▁말하고	-10.005803
▁더욱	-10.005980
▁있잖아	-10.006386
했	-10.006409
f	-10.006554
▁을갖	-10.007854
▁우주	-10.007900
근처	-10.008410
H	-10.008767
▁여성	-10.008885
▁이있는가	-10.009329
놓고	-10.009795
▁90	-10.010448
일본	-10.010557
▁지역	-10.010647
17:	-10.011156
▁계	-10.011160
▁싶	-10.012715
마찬가지	-10.013546
▁힘	-10.013754
on	-10.013965
수있다	-10.014172
결국	-10.014385
▁기사	-10.015231
통치자	-10.015586
▁영적	-10.016405
▁그녀를	-10.016642
▁부르	-10.017821
거절	-10.018600
현명	-10.018846
졌다	-10.019107
▁것이요	-10.019292
쿠	-10.019502
u	-10.019933
선언	-10.019956
필	-10.020178
▁하나는	-10.020389
▁성공	-10.020643
교직자	-10.021247
하였읍니다	-10.021591
▁훌륭한	-10.021963
▁가되어	-10.022085
▁자신을	-10.022112
▁께서우리	-10.022658
파괴	-10.023135
▁무엇이	-10.023302
▁이지만	-10.023336
좀더	-10.023964
▁디	-10.024863
▁인지를	-10.024936
▁은아닙니다	-10.025070
▁앉아	-10.025772
몹시	-10.025923
년에	-10.026005
권위	-10.026230
해결	-10.026738
▁있었던	-10.026925
▁주님의	-10.027298
▁을따라	-10.027470
신체적	-10.027606
자비	-10.027680
▁원래	-10.027872
▁주여	-10.028352
공기	-10.028969
▁한다는것	-10.029025
입장	-10.029583
in	-10.029621
▁은나	-10.030245
▁독자	-10.030506
습	-10.030749
▁네게	-10.030799
▁봐요	-10.030831
견해	-10.030959
▁저녁	-10.031379
▁레	-10.031447
였다	-10.031555
니까요	-10.032006
w	-10.032405
정치	-10.032416
기구	-10.032808
것같습니다	-10.033211
▁하는방법	-10.033220
▁준	-10.033331
▁있었어	-10.033409
교사	-10.033624
▁200	-10.033666
있고	-10.033696
▁우릴	-10.034118
방향	-10.034690
▁드	-10.034795
효과적	-10.035031
▁께서는우리	-10.035798
자동차	-10.035812
▁오류	-10.036065
▁이점	-10.036440
대단	-10.036819
▁가필요	-10.036858
이곳	-10.037639
수많은	-10.038483
뇌	-10.038485
손상	-10.038573
▁바다	-10.038646
성공적	-10.038725
▁제대로	-10.038989
▁건강	-10.039160
보기	-10.039457
팀	-10.040321
▁회	-10.040471
형성	-10.040502
한다는	-10.040941
오염	-10.041461
▁은말	-10.041678
정직	-10.042075
▁이자신	-10.042694
름	-10.043315
▁의예언	-10.043395
▁했을때	-10.043426
▁을이루	-10.044639
▁알았어요	-10.044665
▁옷	-10.044804
▁는예수	-10.045096
▁은아니다	-10.045149
왕국회관	-10.045214
▁교육	-10.045382
▁했죠	-10.045407
▁선지자	-10.045873
▁생각을	-10.046065
오래	-10.047696
▁있을까요	-10.048738
▁거짓	-10.048787
▁채	-10.048976
▁로하여금	-10.049323
▁왕국	-10.049327
신앙	-10.049721
▁을전파	-10.049787
요청	-10.049906
▁사이	-10.050437
▁가능한	-10.051099
▁80	-10.052135
▁이라는것	-10.052545
▁에게그	-10.052937
▁제일	-10.053329
▁대화	-10.053427
아프리카	-10.053460
이혼	-10.054584
맨	-10.055163
간주	-10.055338
▁으로생각	-10.055446
둘째	-10.055590
▁검색	-10.055882
h	-10.055899
▁보이는	-10.056366
0	-10.056374
▁=	-10.056463
▁아름다운	-10.056579
▁만나	-10.056726
였어	-10.057543
▁말도	-10.057863
공급	-10.057906
▁을인식	-10.057980
▁밀	-10.058234
▁법	-10.058454
지않았습니다	-10.058611
함이	-10.059084
매일	-10.059507
▁저에게	-10.059810
새끼	-10.059958
시설	-10.059983
▁죽을	-10.060143
▁에두	-10.060232
R	-10.060706
▁s	-10.061149
▁믿	-10.061496
▁거라고	-10.062613
반영	-10.062771
다리	-10.062836
▁어린	-10.063329
실패	-10.063998
나이	-10.064175
▁버	-10.064650
▁일부사람	-10.066970
▁을이용	-10.067043
▁위치	-10.067365
도덕적	-10.068134
그대로	-10.069078
생물	-10.069439
판단	-10.069608
제거	-10.069803
으시	-10.069854
장애	-10.069897
▁좋아하는	-10.069904
런	-10.070026
하려면	-10.070108
▁인터넷	-10.070769
충고	-10.071110
▁기대	-10.071483
프로그램	-10.071728
수혈	-10.071745
민족	-10.071947
▁과의	-10.072094
조심	-10.072147
▁이있을것	-10.072243
▁별로	-10.072480
▁을받았습니다	-10.072642
모세	-10.072757
하셨	-10.073099
마지막	-10.073274
▁을지적	-10.073318
명의	-10.073318
육체	-10.073424
짐승	-10.073458
▁m	-10.074285
교리	-10.075214
갑	-10.075997
있는것	-10.076077
폭	-10.076159
▁맞아요	-10.076220
▁캐나다	-10.076966
▁필요가	-10.077064
▁살아	-10.077929
자를	-10.078676
적어도	-10.079208
▁자들이	-10.079513
▁적어도	-10.080051
종류	-10.080606
보니	-10.080888
▁칠	-10.081207
육	-10.082861
으려고	-10.083257
▁하게도	-10.083575
▁알았	-10.083938
▁지혜	-10.084099
▁하실것	-10.084536
en	-10.084635
좋아	-10.085581
▁을본	-10.086165
굴	-10.086270
▁에영향	-10.086286
7	-10.086339
사진	-10.086387
이웃	-10.086395
고주장	-10.086402
9	-10.086528
봉	-10.087139
▁잠시	-10.087626
▁거짓말	-10.087781
▁의문제	-10.087895
▁하라고	-10.088607
▁을지키	-10.088996
▁가있	-10.090425
▁하고말	-10.090491
▁최고	-10.090601
▁자유	-10.090682
▁회중	-10.090883
▁말한	-10.091033
태양	-10.091075
▁낭독	-10.091561
▁이름이	-10.091724
숙	-10.091790
▁그중	-10.092106
▁이있었습니다	-10.092699
실수	-10.092902
▁같은데	-10.092932
▁못할	-10.092955
셔	-10.094350
▁한상태	-10.094604
징계	-10.096230
▁인하여	-10.096301
지지	-10.096424
▁불신자들	-10.097186
▁전자	-10.097519
▁이들은	-10.097622
▁은누구	-10.097887
▁가하나님	-10.097904
슈	-10.098125
▁감	-10.098359
▁살인	-10.099645
▁역시	-10.100001
서적	-10.100131
▁은내	-10.100462
N	-10.100506
벗	-10.100593
인쇄	-10.100636
▁이름은	-10.101248
전세계	-10.101585
▁얻을	-10.102886
▁변화	-10.103098
▁하였는데	-10.103394
균형	-10.103436
높이	-10.103558
고있는것	-10.103700
리스	-10.103932
▁자들은	-10.104280
▁하였을때	-10.104660
▁의약속	-10.104958
▁한다는	-10.104969
이면	-10.105029
▁통	-10.105032
소년	-10.105155
패	-10.105188
▁세포	-10.106098
▁중에서	-10.106668
인가요	-10.107016
있을	-10.107080
▁실험	-10.107120
승리	-10.107271
14:	-10.107300
음을	-10.107464
시켜	-10.108429
▁있나니	-10.109494
▁삭제	-10.110287
▁왜냐면	-10.110335
▁개월	-10.110453
게될	-10.111372
▁운동	-10.111732
지면	-10.111791
▁크	-10.112060
따뜻	-10.112288
받는	-10.112742
▁역	-10.113107
▁빼	-10.113377
이라도	-10.113391
용기	-10.113634
분의	-10.113733
▁자료제공	-10.113748
블	-10.113772
▁은사실	-10.113940
▁해결	-10.114113
죽은자	-10.114308
온갖	-10.114569
▁이전에	-10.114595
▁시스템	-10.114635
엄청	-10.114862
샤	-10.115044
▁비밀	-10.115898
꼭	-10.116071
맺	-10.116201
부도덕	-10.116287
▁을받고	-10.117316
그처럼	-10.117584
▁의좋은소식	-10.117731
▁허락	-10.117937
▁병원	-10.118029
하였	-10.118114
구역	-10.118440
슬	-10.119731
았	-10.119801
▁방법	-10.120648
▁하실	-10.120723
▁을보호	-10.120886
▁에대한사랑	-10.121252
동료	-10.121366
▁죽	-10.121490
고있읍니다	-10.121748
주고	-10.121901
▁은분명	-10.122051
▁쯤	-10.122131
하자	-10.122335
사고	-10.122353
어떤것	-10.122968
렸	-10.123218
▁파일을	-10.123405
그사람	-10.124053
▁과그분	-10.124713
▁의조직	-10.124776
▁언어	-10.124833
가서	-10.125298
▁페	-10.125347
기분	-10.125372
▁결과	-10.125388
▁를보	-10.125908
숨	-10.126080
알려줍니다	-10.126137
▁외에는	-10.126463
▁를내	-10.126493
기름	-10.127258
▁요셉	-10.127802
파이오니아	-10.128195
과거	-10.128578
첫	-10.128871
털	-10.128929
▁you	-10.129282
▁한결과	-10.129373
▁위험	-10.129878
▁기술	-10.130314
부면	-10.130592
▁자에게	-10.130831
▁힘을	-10.130880
서는	-10.131423
▁나서	-10.131587
▁못하는	-10.131937
▁러시아	-10.132398
▁표현	-10.132714
맞	-10.132772
드리	-10.132842
▁그와	-10.132850
▁에의하여	-10.133366
+	-10.133478
아담	-10.133713
▁아니한	-10.134384
▁뇌	-10.134436
▁를갖	-10.134481
▁한곳	-10.134582
▁마음을	-10.135001
▁약간	-10.135036
▁스페인	-10.135124
주세요	-10.135191
하였고	-10.135231
으면서	-10.135419
▁[“	-10.135512
유지	-10.136556
존	-10.136664
는방법	-10.136696
▁부분	-10.136793
▁조사	-10.136880
야만	-10.136913
했지만	-10.136958
이세상	-10.137091
거라고	-10.137238
▁는성서	-10.137718
▁했을	-10.138115
기능	-10.138272
포기	-10.138485
▁가없다	-10.138648
▁든	-10.138888
싸움	-10.139297
처리	-10.139314
너무	-10.139672
리는	-10.139702
▁유대인	-10.139931
실용적	-10.140122
▁할수있는가	-10.140371
▁방법은	-10.140382
▁하나님과	-10.140622
으신	-10.140888
▁쉽게	-10.141901
▁O	-10.142095
▁언제나	-10.142201
그래	-10.142462
모습	-10.142486
세기	-10.142504
▁과학자	-10.142554
동기	-10.142584
▁t	-10.142964
▁있어야	-10.143339
▁실패	-10.143541
▁증가	-10.143647
성원	-10.144061
▁보이지	-10.144088
튼	-10.144452
▁수는	-10.145272
이었습니다	-10.145855
▁20:	-10.145930
부패	-10.145962
▁몇몇	-10.146781
▁년대	-10.146959
▁되었고	-10.147499
▁기다려	-10.147506
▁새로	-10.147720
인데요	-10.147751
▁에이	-10.147928
아브라함	-10.148366
▁지나	-10.148387
▁엄청	-10.148501
▁p	-10.148690
▁말하지	-10.149098
자극	-10.149290
설계	-10.149319
▁어린이	-10.149617
그점	-10.149736
▁45	-10.149767
▁아니하고	-10.149781
▁곳에서	-10.149864
하려는	-10.150025
▁라면	-10.150471
보증	-10.150908
▁의것	-10.150951
당연	-10.151544
▁는사람	-10.152075
▁꿈	-10.152164
빌	-10.152687
영감	-10.152689
고있었다	-10.152712
전혀	-10.152754
▁작	-10.152882
액	-10.153589
▁는다음	-10.154519
▁거기에	-10.154609
▁못한	-10.154737
표준	-10.155246
G	-10.155801
독자	-10.155932
▁은매우	-10.156030
있었습니다	-10.156403
치는	-10.157284
둔	-10.157894
▁자네가	-10.158322
▁할수없	-10.158465
▁모르는	-10.158649
▁다시말	-10.158768
▁를주	-10.159010
▁접근	-10.159180
▁어쨌든	-10.159678
어린	-10.159745
▁를연구	-10.159978
복잡	-10.160023
▁개인	-10.161650
일부사람	-10.161744
▁괜찮	-10.162002
▁나이	-10.162175
이니	-10.163088
▁순간	-10.163169
최고	-10.163725
야할	-10.164149
▁에만	-10.164221
만이	-10.164302
▁확실히	-10.164653
▁종류의	-10.164859
▁정확히	-10.165003
진지	-10.165073
▁굉장히	-10.165309
대상	-10.165495
하시는	-10.165680
착	-10.166143
▁35	-10.166459
▁확실	-10.166693
가까이	-10.166832
환영	-10.166978
▁를계속	-10.167062
제사장	-10.167368
혼란	-10.167622
▁때문이죠	-10.167641
▁줘	-10.167810
실망	-10.168360
▁을누리	-10.168417
게하는	-10.168430
▁크기	-10.168756
▁한가지	-10.168776
▁주님	-10.168908
▁않으면	-10.169200
▁이사람	-10.169300
꺼	-10.169778
▁18:	-10.170089
거라	-10.170386
▁에들어가	-10.170830
꿈	-10.171272
찬양	-10.171341
왔	-10.171551
헌신	-10.171840
하였으며	-10.171889
거기	-10.172027
젊은	-10.172126
우스	-10.172374
▁은그것	-10.172725
악한	-10.173721
구조	-10.173801
현상	-10.174342
공의	-10.174630
로서	-10.174925
▁14.	-10.175228
▁의왕	-10.175645
리아	-10.176142
분열	-10.176547
보라	-10.176949
▁사고	-10.177047
▁2000	-10.177283
▁사실을	-10.177349
▁를어떻게	-10.177815
속도	-10.178086
찬	-10.178096
눈물	-10.178349
▁영향을	-10.178745
l	-10.178780
감소	-10.178786
혼자	-10.179070
▁생	-10.179869
존경	-10.179870
▁을내리	-10.180140
▁한그리스도인	-10.181874
▁상태	-10.182028
▁에의한	-10.182827
▁받았	-10.182914
▁이탈리아	-10.183189
리고	-10.184463
대학교	-10.184539
▁숫자	-10.184628
제공	-10.184985
영예	-10.185001
단다	-10.185134
▁되어있습니다	-10.185523
▁는이러	-10.185760
▁누구도	-10.186206
▁이요	-10.186368
▁죽음	-10.186426
▁할수있을것	-10.186567
결혼생활	-10.186606
고기	-10.187331
요소	-10.187337
높은	-10.187457
▁군	-10.187673
독특	-10.187754
보이는	-10.188038
▁각각	-10.188360
▁좋	-10.188384
압	-10.189460
더큰	-10.189654
▁8.	-10.189692
수있습니까	-10.190561
▁제거	-10.190781
▁가어떻게	-10.190945
승인	-10.190983
구성	-10.191199
해야합니다	-10.191303
▁됨	-10.191550
▁시키고	-10.191816
▁를입	-10.192004
겠습니까	-10.192280
전화	-10.192410
계시	-10.192616
▁고통	-10.192748
논	-10.193333
▁실수	-10.193392
▁문제는	-10.193394
▁을하는	-10.193397
응	-10.194324
감정적	-10.194740
▁관	-10.194750
허	-10.195157
▁이자	-10.195206
유명	-10.195588
▁뿐이라	-10.195942
▁에도착	-10.196267
▁눈을	-10.196474
▁않았	-10.196513
혈	-10.196630
수치	-10.196747
그림	-10.197549
조각	-10.197581
견	-10.198036
쯤	-10.198066
▁해지	-10.198271
▁커	-10.198425
▁울	-10.198646
▁13.	-10.200536
이후	-10.200624
▁11.	-10.200693
▁값	-10.200849
힐	-10.201269
▁을주는	-10.201292
데요	-10.201427
자료제공	-10.202077
▁나중	-10.202091
▁'%	-10.202178
▁36	-10.202184
▁경험	-10.203038
▁9.	-10.203228
북	-10.203746
▁하게되었다	-10.203883
▁앞서	-10.204169
▁지도	-10.204449
▁에게말	-10.204641
▁사람들의	-10.204664
밑	-10.205172
졌	-10.205269
단체	-10.205476
▁남은	-10.205564
상상	-10.205584
▁발생	-10.205819
도로	-10.206074
배우	-10.206386
▁딱	-10.206523
주인	-10.206733
시오	-10.206845
기에	-10.206934
The	-10.206969
▁태양	-10.206974
▁없노라	-10.207130
피해	-10.207768
▁16:	-10.208343
는말	-10.209119
이땅	-10.209227
▁에서우리	-10.209391
▁을하는것	-10.209573
불완전	-10.209916
▁목록	-10.210454
회의	-10.210628
▁조직	-10.210630
평가	-10.210823
남녀	-10.211247
그리스도인회중	-10.211746
▁하지않는다	-10.211973
▁많	-10.212173
귀중	-10.213246
▁의영적	-10.213343
▁유지	-10.213680
▁땅에	-10.213805
결론	-10.213842
지말라	-10.213861
드는	-10.214042
▁반면	-10.215134
다고말	-10.215276
지라	-10.215295
조정	-10.215504
▁왔	-10.216435
▁을많이	-10.216486
상처	-10.216627
▁다섯	-10.216710
▁검사	-10.216907
▁속에	-10.217199
▁했지만	-10.217280
그일	-10.217334
야지	-10.217489
▁비록	-10.217504
신경	-10.217548
▁과같이말	-10.218125
▁당연히	-10.218152
▁되어있	-10.218396
▁마세요	-10.218462
▁은다음	-10.218574
분야	-10.218742
▁루	-10.219095
▁얼굴	-10.219145
▁의죽음	-10.219443
시편	-10.219974
▁을가지	-10.220008
광고	-10.220254
▁패	-10.220445
가슴	-10.220772
▁벌이	-10.220928
허락	-10.221133
시니	-10.221209
▁먹고	-10.221283
▁을적용	-10.222079
▁19:	-10.222723
욕	-10.222748
▁엄청난	-10.222816
하심	-10.223162
누군가	-10.223439
조금	-10.223874
▁제게	-10.224424
▁가있는	-10.224535
전달	-10.224646
기본적	-10.224889
보고서	-10.225021
▁를맺	-10.225191
▁을다	-10.225869
▁의죄	-10.225986
▁없다고	-10.226026
▁가우리	-10.226885
인자	-10.227474
준다	-10.227630
랄	-10.228026
▁애굽	-10.228621
어떤일	-10.228625
▁에서일	-10.228912
스터	-10.228920
▁16.	-10.229270
▁살고	-10.229494
▁데리고	-10.229916
중에	-10.230058
▁이없다	-10.230189
▁전세계	-10.230243
▁맹세	-10.230700
▁물을	-10.230732
시도	-10.230823
였죠	-10.230947
▁를가지고	-10.231056
위원회	-10.231099
▁추	-10.231444
알려준다	-10.231466
▁에관심	-10.231914
▁을믿	-10.232054
▁삶을	-10.232055
람	-10.232519
▁달라	-10.232866
도전	-10.233323
▁에해당	-10.233407
▁의기록	-10.233419
▁흔히	-10.234084
▁의하나님	-10.234282
▁경제	-10.234409
▁에이르	-10.234621
자료	-10.234908
▁를받았습니다	-10.234914
▁은인간	-10.234937
▁을알고	-10.235341
하라고	-10.235476
하시고	-10.235517
밭	-10.235663
▁지원	-10.235685
검사	-10.235729
▁의종교	-10.236093
▁곳이	-10.236389
▁철	-10.237345
▁팀	-10.237688
했다고	-10.238265
지진	-10.238536
▁바라	-10.238614
셨읍니다	-10.238615
▁2,	-10.238933
▁이라도	-10.238945
▁손에	-10.239001
담대	-10.239059
기원전	-10.239234
께서	-10.239244
▁살해	-10.239521
마리아	-10.239975
▁을행하	-10.240042
신자	-10.240107
로써	-10.240113
▁용서	-10.240133
▁일이야	-10.240287
겠는가	-10.240481
권리	-10.240628
▁두번째	-10.240654
아마	-10.240814
▁자동차	-10.240918
벨	-10.241019
오랫동안	-10.241196
▁따	-10.241393
▁진정	-10.241496
평균	-10.241576
▁처리	-10.241581
대가	-10.242014
마지막날	-10.242158
▁을듣	-10.242262
▁될때	-10.242408
▁단어	-10.242748
낮	-10.243000
다섯	-10.243081
▁브라질	-10.244113
반드시	-10.244143
▁로는	-10.244329
의로운	-10.244350
▁마약	-10.244856
확고	-10.245221
▁그대는	-10.245223
▁이얼마나	-10.245224
▁십	-10.245363
Comment	-10.245497
▁V	-10.245741
▁해보라	-10.246040
나쁜	-10.246046
▁그리스도교국	-10.246238
▁의몸	-10.246251
▁을강조	-10.246265
고있으며	-10.246385
들로	-10.246460
널리	-10.247503
▁방문	-10.247554
▁마음이	-10.247722
근거	-10.247832
충	-10.247925
▁누	-10.248654
▁7.	-10.248698
▁색	-10.249039
의무	-10.249112
즉시	-10.249326
깊이	-10.249368
▁되죠	-10.249524
물고기	-10.249817
▁기분	-10.249844
▁천사	-10.249858
▁구원	-10.250577
▁죽어	-10.251617
▁불신	-10.251833
▁12.	-10.252012
▁을보내	-10.252015
▁그렇	-10.252041
▁만들고	-10.252282
▁음식	-10.252532
▁이당신	-10.252570
종종	-10.252855
발표	-10.253060
척	-10.253259
십니까	-10.253446
그때	-10.253651
▁도구	-10.253859
먹이	-10.253916
각각	-10.254154
▁을극복	-10.254867
▁이매우	-10.254953
▁화면	-10.255374
이들	-10.255426
▁10.	-10.255733
황	-10.255918
있읍니까	-10.256267
▁한한	-10.256544
▁돌아오	-10.256608
▁17.	-10.257110
푸	-10.257218
군대	-10.257627
▁을시작	-10.257986
▁기본	-10.258191
▁아빠가	-10.258307
학대	-10.258308
▁마지막으로	-10.258688
▁00:	-10.258709
▁의능력	-10.259086
▁성장	-10.259130
▁하고그	-10.259318
▁왼쪽	-10.259374
▁유일한	-10.259832
갔다	-10.259866
기로	-10.260204
▁뉴욕	-10.260281
▁분자	-10.260368
▁면사진	-10.261631
▁있나	-10.261711
나중	-10.261837
▁계획	-10.261938
떠	-10.262326
▁반대	-10.262470
20	-10.262504
▁을하고	-10.262524
새로	-10.262742
▁당신에게	-10.262917
▁비행기	-10.263779
각자	-10.264019
특징	-10.264082
▁모르	-10.264131
▁의활동	-10.265660
▁중요	-10.265920
▁환경	-10.266144
:%	-10.266230
위대	-10.266231
le	-10.266875
▁시편	-10.267156
▁and	-10.267547
▁하였읍니까	-10.267651
쳤	-10.267862
▁X	-10.268798
▁아니요	-10.269059
언제나	-10.269103
▁이리	-10.269159
인구	-10.269358
▁숨	-10.269548
▁그대가	-10.269660
행로	-10.269976
▁하지않는	-10.270085
▁식물	-10.270135
▁의행동	-10.270953
양심	-10.271369
▁시도	-10.271545
▁마가	-10.271600
▁비디오	-10.271782
▁얘기를	-10.272473
는걸	-10.272623
▁한지식	-10.272635
지않도록	-10.272771
을까	-10.272876
▁은왜	-10.273664
▁무리	-10.273826
오는	-10.273950
시킬	-10.274000
▁심장	-10.274026
▁몰라요	-10.274177
할수	-10.274179
▁담	-10.274224
록	-10.274353
약간	-10.274462
▁으로사용	-10.274678
▁외에	-10.275074
었을	-10.275716
▁빛	-10.276031
차이	-10.276093
이어	-10.276299
▁을따르	-10.276842
▁떠	-10.277023
칭찬	-10.277290
▁생산	-10.277941
베드로	-10.278342
▁놀라운	-10.278721
▁확신	-10.278865
이라면	-10.279068
▁에이르기	-10.279572
▁9,	-10.279877
▁야곱	-10.280052
협회	-10.280354
▁말하	-10.280665
모든일	-10.281142
▁어디에	-10.282477
▁맙소사	-10.283467
전적	-10.283480
▁위로	-10.284538
▁점점	-10.284756
환상	-10.284929
됐	-10.285308
나머지	-10.285456
▁하지않은	-10.285554
진행	-10.285933
게되면	-10.285971
프랑스	-10.285991
▁해보자	-10.286029
▁빌	-10.286189
▁부활	-10.286238
▁를타고	-10.286265
▁하고자	-10.286513
려고노력	-10.286668
▁떼	-10.286686
시장	-10.286826
고싶	-10.287016
▁을듣고	-10.287302
▁을읽	-10.287836
▁잠깐만	-10.288224
▁최고의	-10.288427
▁은결코	-10.288534
▁한사실	-10.288588
▁이아니	-10.288701
▁했으며	-10.288795
▁대학	-10.289021
▁돌려	-10.289101
고자	-10.289219
유다	-10.289559
▁입력	-10.289608
지침	-10.289655
수있는	-10.290215
지니	-10.290522
완	-10.290635
▁가되었다	-10.291152
주민	-10.292181
▁이일	-10.292673
하더라도	-10.293626
▁하지않습니다	-10.293641
▁한태도	-10.293684
상징적	-10.293950
▁증거	-10.293962
간절	-10.293977
하사	-10.293999
하겠습니다	-10.294034
▁그대의	-10.294790
개선	-10.295231
최선	-10.295270
▁한형태	-10.295298
▁를찾	-10.296002
▁군대	-10.296583
▁붙	-10.297649
▁을초래	-10.298034
▁아니고	-10.298191
마리	-10.298501
▁의신	-10.298827
▁의피	-10.299385
▁해준다	-10.299553
줍니다	-10.300304
마침내	-10.300351
두사람	-10.300365
▁을요구	-10.300661
▁판	-10.300693
▁합시다	-10.300775
▁조지	-10.301161
▁설치	-10.301318
인상	-10.301704
▁에스겔	-10.302414
지시	-10.302436
▁학생	-10.302463
집안	-10.302718
신체	-10.302830
거짓말	-10.303015
▁단계	-10.303420
는보도	-10.303582
달리	-10.303776
▁오스트레일리아	-10.303793
대신	-10.303893
놓	-10.304171
스타	-10.304388
▁인일	-10.304413
그리	-10.305101
탁월	-10.305590
▁미리	-10.306005
턴	-10.306545
▁의봉사	-10.307288
행실	-10.307583
같	-10.307744
▁4,	-10.308022
수도	-10.308489
▁부정	-10.308538
고착	-10.308748
지부	-10.309646
통과	-10.309655
▁찾는	-10.309864
▁어떠	-10.310066
▁해줄	-10.310253
▁을기대	-10.310273
▁대통령	-10.310352
▁되며	-10.310586
▁한질문	-10.310677
▁필요해	-10.310723
▁하는바	-10.311550
▁하게되었습니다	-10.312085
만을	-10.312196
▁해줍니다	-10.312911
▁있었죠	-10.313400
▁을분명	-10.313892
뼈	-10.313939
▁디모데	-10.313975
▁쉬	-10.314047
▁을해	-10.314439
▁될까요	-10.314484
경향	-10.315278
▁부족	-10.315302
▁서둘러	-10.315326
린다	-10.315366
비유	-10.315375
▁을숭배	-10.315600
셀	-10.316009
▁디자인	-10.316030
잠언	-10.316106
▁관리	-10.316462
▁깨	-10.317138
▁나머지	-10.317331
▁변경	-10.317721
▁집을	-10.318083
떠나	-10.318096
질것	-10.318282
▁카메라	-10.318412
▁만을	-10.318556
가지고	-10.319606
문화	-10.320024
몬	-10.320378
▁조각	-10.320436
익	-10.320650
▁을가지고있	-10.320657
▁오른쪽	-10.320797
▁이아닌	-10.321194
▁의다른	-10.321366
▁을떠나	-10.322022
▁께서자신	-10.322262
▁집에서	-10.322858
▁은혜	-10.323064
자라	-10.323077
▁미친	-10.323163
슬픔	-10.323302
경계	-10.323492
접	-10.323616
▁사업	-10.323977
▁의태도	-10.324272
▁분명히	-10.324979
걱정	-10.325116
▁일반	-10.325367
▁런던	-10.325550
▁용	-10.325588
▁의결과	-10.325725
▁를나타내	-10.325968
때때로	-10.326002
계약	-10.326042
훨씬더	-10.326237
▁프로젝트	-10.326715
▁사망	-10.326896
▁예언자	-10.326928
▁열어	-10.327178
응답	-10.327711
▁으로인도	-10.327739
전망	-10.328255
렸습니다	-10.328470
^2	-10.328544
▁종종	-10.328805
▁박	-10.328927
경찰	-10.329294
교수	-10.329455
▁300	-10.329971
▁말이에요	-10.330155
신속	-10.330203
▁척	-10.330278
▁건물	-10.330610
장래	-10.330960
▁을막	-10.331059
▁빌립보	-10.331243
소서	-10.331264
개발	-10.331618
개념	-10.331826
▁는그러한	-10.332048
▁의힘	-10.332486
▁온전	-10.332679
▁을찾아	-10.333069
쓴	-10.333090
갔습니다	-10.333111
▁해주는	-10.333201
▁관계	-10.333502
▁의깊이	-10.333631
▁가더	-10.333708
10	-10.333766
▁생명을	-10.334115
쓸	-10.334283
일곱	-10.334444
수록	-10.334814
▁대부분의	-10.335183
▁반복	-10.335342
▁에대처	-10.335406
우려	-10.336143
▁밤에	-10.336171
▁없다는	-10.336612
사는	-10.337025
=	-10.337440
▁을한	-10.337699
하다고	-10.337749
▁상황	-10.337897
진심	-10.337983
▁글	-10.338031
▁나오	-10.338752
▁의가치	-10.338873
▁빈	-10.338874
지대	-10.339322
었던것	-10.339338
▁주세요	-10.339359
▁:	-10.339563
▁의영광	-10.339692
▁기계	-10.340259
욥	-10.340568
달라고	-10.340648
묵상	-10.340701
▁뭔지	-10.340926
마땅	-10.341003
▁뜻이	-10.341090
립니다	-10.341494
▁이상한	-10.341647
▁의인도	-10.342237
▁밖으로	-10.342436
▁5.	-10.342597
시다	-10.343083
▁에대한믿음	-10.343212
▁를읽	-10.343231
▁그러자	-10.343476
▁그리고그	-10.343952
▁신이	-10.344028
악화	-10.344160
▁복	-10.344391
해야합니까	-10.344505
▁를이해	-10.344521
▁그사람	-10.344831
주요	-10.344838
▁능력	-10.344849
감독자	-10.344982
▁방법으로	-10.345254
분리	-10.345363
▁의소식	-10.345529
유대	-10.345611
▁시장	-10.345802
바닥	-10.345963
▁도합니다	-10.346748
혈액	-10.346789
주의자	-10.346856
▁라는말	-10.347626
포도주	-10.347691
▁층	-10.347995
▁을가진사람	-10.348088
▁마음에	-10.348195
성을	-10.348272
더나은	-10.348985
웠	-10.349020
▁질문을	-10.349576
규모	-10.349585
▁주고	-10.349666
▁로사용	-10.349831
인기	-10.349852
▁터	-10.349961
고나서	-10.350299
▁다음에	-10.350315
내려	-10.350527
이사야	-10.350613
▁하는법	-10.350644
▁U	-10.350755
▁이일어나	-10.350878
▁오는	-10.350886
▁이유가	-10.351059
▁내지	-10.351763
있던	-10.351915
▁을우리	-10.352071
▁테	-10.352325
납	-10.352369
▁의명령	-10.352964
▁를받았다	-10.353676
▁전기	-10.353711
지나치게	-10.353914
▁500	-10.354469
▁가되는	-10.354509
▁현	-10.354649
알려주	-10.354776
▁엘	-10.354897
욕망	-10.354957
자는	-10.355461
▁떨어져	-10.356237
▁합	-10.356711
it	-10.357102
▁종이	-10.357114
▁미안	-10.357254
강조	-10.357262
끊임없이	-10.357370
▁할수없는	-10.357646
영어	-10.357677
▁하다고	-10.357855
오락	-10.357922
▁6,	-10.357936
뿌리	-10.358350
동시	-10.358450
▁찾고	-10.358686
▁자라	-10.358927
힌	-10.358959
▁복사	-10.359144
발휘	-10.359479
▁여호와하나님	-10.359941
▁더이상	-10.360113
연결	-10.360804
▁5,	-10.360836
▁라도	-10.360908
빵	-10.360913
▁의의미	-10.360961
친밀	-10.361362
던것	-10.361718
했지	-10.362316
이집트	-10.362857
▁하여그	-10.363034
▁을보이	-10.363072
으니까	-10.363160
이방인	-10.363276
▁왔어	-10.363443
▁부모님	-10.363854
뜨	-10.364415
▁관련	-10.364753
거늘	-10.364850
그렇게하	-10.365225
▁의기도	-10.365351
▁한관계	-10.365698
▁인구	-10.366112
구절	-10.366381
000	-10.366419
버려	-10.366439
▁해왔다	-10.366518
▁되었읍니다	-10.366649
감동	-10.366795
더이상	-10.366847
▁지금까지	-10.366895
▁가난	-10.366968
주제	-10.367001
▁찾	-10.367278
수없는	-10.367699
하러	-10.367749
참석	-10.368017
▁처	-10.368690
▁를고려	-10.368818
▁참조	-10.369049
기위한	-10.369059
있을것	-10.369064
장이	-10.369821
▁때로는	-10.370536
장면	-10.370729
▁에서봉사	-10.371100
별로	-10.371222
고한다	-10.371323
▁하기전	-10.371329
th	-10.371337
▁모르겠어	-10.371416
▁받지	-10.371417
무렵	-10.371863
▁그대를	-10.372029
▁의원인	-10.372188
▁사람에게	-10.372358
부유	-10.372415
결합	-10.372497
▁은오늘날	-10.372810
▁아비	-10.372872
미터	-10.372992
▁첫째	-10.373137
▁이었습니까	-10.373528
랜	-10.373560
경제	-10.374556
▁은다른사람	-10.374808
것같다	-10.375494
▁이었으며	-10.375918
▁지상	-10.375959
면서도	-10.376101
▁제사장	-10.376111
▁싶어요	-10.376122
▁을배우	-10.376159
▁도대체	-10.376213
째	-10.376311
▁순종	-10.376634
일어나	-10.376639
정치적	-10.377163
▁였던	-10.377347
▁논쟁	-10.377584
죽임	-10.378239
▁죽일	-10.378610
방해	-10.378751
▁친	-10.379009
매년	-10.379294
▁섬	-10.379532
▁그녀	-10.379563
▁개발	-10.379613
있어요	-10.380418
추리	-10.380803
▁벌써	-10.381430
▁를잘	-10.381618
▁을하였다	-10.381731
기계	-10.381780
▁회사	-10.381799
▁말했다	-10.381844
▁가될것	-10.382168
▁승리	-10.382175
▁을구	-10.382187
▁을섬기	-10.382280
지못하	-10.382746
▁폭력	-10.382770
▁든지	-10.382840
▁자리	-10.383056
제품	-10.383119
제곱	-10.383341
치고	-10.383363
주실것	-10.383569
션	-10.383736
사본	-10.383807
▁값을	-10.383833
▁에사용	-10.384027
▁는어떤	-10.384236
▁에들어있는	-10.384262
명이	-10.384763
▁요청	-10.384818
찾아	-10.384869
로운	-10.385251
나는	-10.385304
▁어디로	-10.385646
실천	-10.385897
▁접	-10.386191
▁훌륭	-10.386443
기가	-10.386701
▁드리	-10.386866
엄	-10.386942
렸다	-10.387697
▁을한다	-10.387771
모든나라	-10.387848
▁의희망	-10.387882
개월	-10.388091
▁퍼	-10.388259
▁복음	-10.388539
하니라	-10.388765
▁시킨다	-10.389001
▁데이터	-10.389241
▁어려운	-10.389263
▁날이	-10.389482
조화	-10.389519
▁을마련	-10.389864
▁나에게	-10.389920
내지	-10.390197
▁놈	-10.390511
▁의자유	-10.390516
폭발	-10.390546
▁미안해요	-10.390945
퇴	-10.391335
▁멸망	-10.391586
최상	-10.391586
원래	-10.391958
렴	-10.391969
▁의정신	-10.392412
넓	-10.392636
▁나온	-10.392877
버린	-10.393289
▁문자	-10.393637
▁인사람	-10.394021
▁특별한	-10.394411
▁아버지가	-10.394577
▁해봅시다	-10.395684
▁은흔히	-10.395864
▁이를	-10.396076
▁사실은	-10.396321
▁끝내	-10.396414
위치	-10.396447
▁운전	-10.396976
악귀	-10.397683
▁바이러스	-10.397693
돌아가	-10.397759
지모릅니다	-10.397846
입니까	-10.398586
▁커피	-10.398610
표시	-10.398674
유리	-10.399041
▁멕시코	-10.399157
▁하다는것	-10.399370
▁됐어요	-10.399874
성경적	-10.400466
홍수	-10.400750
▁내세	-10.400787
살인	-10.400919
확증	-10.401058
▁의충실	-10.402048
▁요즘	-10.402488
▁해온	-10.402799
▁가하느님	-10.403052
▁그기사	-10.403168
▁가라사대	-10.403291
▁으로나	-10.403490
▁자손	-10.403596
실로	-10.403630
▁동생	-10.403683
느뇨	-10.403887
▁쓰는	-10.404515
보는	-10.404902
씩	-10.405284
)...	-10.405624
간다	-10.405879
▁유혹	-10.405914
▁짓을	-10.406128
▁타고	-10.406209
▁반드시	-10.406328
▁사건	-10.406545
▁사랑하는	-10.406859
검	-10.406903
▁사악한	-10.406986
▁이관련	-10.407057
▁고린도전	-10.407447
▁만족	-10.407610
연로	-10.407769
▁똑같은	-10.407828
택	-10.407838
▁좋을	-10.408010
▁죄송해요	-10.408123
의학	-10.408331
명확	-10.408620
▁티	-10.408734
관찰	-10.409025
죽은	-10.409128
▁한상황	-10.409517
금지	-10.410233
▁아이를	-10.410304
교황	-10.410367
▁집으로	-10.410612
▁께대한	-10.410814
▁믿어	-10.411038
▁의영향	-10.411119
▁이성서	-10.411244
▁은행	-10.411593
평	-10.411663
보이지않는	-10.411877
us	-10.412042
공부	-10.412043
메시야	-10.412518
▁성령	-10.412679
▁구조	-10.413059
적극적	-10.413925
래요	-10.413961
▁선택한	-10.413983
덕	-10.414177
▁6.	-10.414255
▁크리스	-10.414269
규정	-10.415130
생활방식	-10.415215
▁봉사	-10.415304
▁있었고	-10.415417
▁있느뇨	-10.415674
▁한내용	-10.415726
▁것들	-10.415784
▁를섬기	-10.416056
가장큰	-10.416072
▁다행	-10.416301
▁해야합니까	-10.416618
▁여자가	-10.416845
계시록	-10.417515
이었어요	-10.417541
▁가고	-10.417594
▁그분이	-10.417802
▁의평화	-10.418043
▁있으니	-10.418172
▁하기위한	-10.418172
전기	-10.418180
충격	-10.418253
위기	-10.418274
젖	-10.418634
▁함이라	-10.418903
▁아니하며	-10.419103
▁긴	-10.419173
염두	-10.419350
옵니다	-10.419857
어려운	-10.419944
▁는그것	-10.420150
▁보상을	-10.420228
▁를하	-10.420374
시죠	-10.420412
▁를따라	-10.420490
년간	-10.420651
▁의나라	-10.421115
▁기업	-10.421543
임신	-10.421734
순간	-10.421741
▁주소서	-10.421835
▁가게	-10.422024
확장	-10.422099
▁참여	-10.422225
▁의예	-10.422397
▁초기	-10.422556
멀리	-10.423191
▁의교훈	-10.423445
▁은계속	-10.423587
▁쇼	-10.423693
V	-10.424563
자살	-10.424737
신다	-10.424928
자고	-10.425203
▁있었는데	-10.425326
보통	-10.425423
게된	-10.425475
▁시켜주	-10.425610
▁는그분	-10.425632
▁기다리	-10.425895
▁이시작	-10.425951
▁37	-10.426007
▁해보면	-10.426047
짝	-10.426530
▁새끼	-10.426567
▁이세상	-10.426727
인종	-10.426879
클	-10.427436
▁나오는	-10.427499
긴장	-10.427574
흙	-10.427980
▁셋	-10.428334
밖에	-10.428418
▁에순종	-10.428761
▁만들기	-10.428846
▁를받아	-10.428908
덜	-10.429087
▁의문	-10.429320
▁되는데	-10.429572
at	-10.429864
▁을모두	-10.429877
▁와삽	-10.429899
▁마귀	-10.429917
▁에있	-10.430141
▁서버	-10.430243
▁어제	-10.430265
▁의양	-10.430356
자들이	-10.430367
▁세상을	-10.430472
수천	-10.430525
▁를나누	-10.430578
교제	-10.431047
느낌	-10.431165
▁바랍니다	-10.431310
▁굴	-10.431466
염	-10.431485
▁쓴	-10.431503
▁그래프	-10.431568
전역	-10.431573
▁집중	-10.431981
믿	-10.432392
▁파괴	-10.432410
▁북	-10.432469
오르	-10.432747
▁먹을	-10.432906
갔	-10.432984
거부	-10.433208
▁자동	-10.433418
▁흥미로운	-10.433790
랜드	-10.433852
▁짐	-10.433970
요리	-10.433976
▁마을	-10.434302
▁의근원	-10.434512
▁이니	-10.434620
▁생활	-10.434622
▁요구	-10.434865
뱀	-10.434960
▁이여	-10.435356
정의	-10.435528
▁말하기를	-10.436016
접촉	-10.436255
조처	-10.436890
▁다리	-10.437008
▁@	-10.437326
▁사용하는	-10.437623
▁브	-10.438074
위안	-10.438272
▁하겠습니다	-10.438322
▁를기울이	-10.438805
저녁	-10.438847
▁의유익	-10.438867
사도바울	-10.438890
형제자매	-10.439318
▁마시	-10.439457
▁in	-10.439547
칭	-10.439621
섬기	-10.439890
버릴	-10.440228
섭취	-10.440254
▁형식	-10.440851
신성	-10.442614
지가	-10.442734
공장	-10.442904
▁좋습니다	-10.442964
뇨	-10.443347
정신적	-10.443449
▁이혼	-10.443688
지않았	-10.444074
▁은단지	-10.444604
▁제공	-10.444785
수가	-10.445048
▁인생	-10.445216
▁은자녀	-10.445557
▁이되는것	-10.445609
▁이웃	-10.445628
▁여러가지	-10.445829
▁않게	-10.445889
▁필	-10.446042
실시	-10.446349
지도자	-10.446464
본적	-10.446472
▁을표현	-10.447148
법적	-10.447227
▁에주의	-10.447311
놓은	-10.447326
▁장치	-10.447360
▁주님께서	-10.447625
떼	-10.447704
▁에하나님	-10.447718
▁나랑	-10.448123
▁가자기	-10.448132
▁의어머니	-10.448362
▁숭배	-10.448457
▁이사용	-10.448567
▁답	-10.448852
▁을즐기	-10.449023
▁광	-10.449229
▁달리	-10.449403
이론	-10.449909
하는사람	-10.450423
▁했지	-10.450547
냐고	-10.450548
으셨	-10.450562
들어가	-10.450597
갑자기	-10.450668
▁파리	-10.451725
▁하라는	-10.452226
옆	-10.452299
▁의그리스도인	-10.452560
▁자주	-10.452616
▁시대	-10.453032
▁기회	-10.453122
▁미래	-10.453208
50	-10.453360
부지런	-10.454251
▁헤	-10.454284
▁의감정	-10.454299
멘	-10.454360
▁을두	-10.454432
끈	-10.454570
▁지켜	-10.454619
▁이내	-10.455637
▁스스로를	-10.455869
▁DNA	-10.456186
▁못하고	-10.456313
▁이후	-10.456709
▁이기사	-10.456768
▁는계속	-10.456892
▁어찌	-10.456976
그여자	-10.456980
▁그러므로우리	-10.457226
비행기	-10.457242
▁바보	-10.457644
하였으니	-10.457798
▁1000	-10.458114
롱	-10.458839
▁이사실	-10.458915
▁각자	-10.459182
▁가말	-10.459752
▁친구가	-10.459757
▁봤	-10.459760
▁것이고	-10.460059
▁오늘은	-10.460168
▁친절	-10.460462
▁이있읍니다	-10.461068
▁발전	-10.461149
국제	-10.461328
▁보게	-10.461335
▁맨	-10.461376
▁상상	-10.461432
큰무리	-10.461439
몇몇	-10.461801
▁장소	-10.461860
경제적	-10.461880
▁영원	-10.461995
▁내리	-10.462025
▁아이들이	-10.462126
장님	-10.462397
기뻐	-10.462550
토론	-10.462620
핵	-10.462689
▁봤어	-10.462713
었을것	-10.463018
▁그곳에	-10.463080
▁맞는	-10.463097
여호와하느님	-10.463334
▁더욱이	-10.463763
찰	-10.463957
▁괜찮은	-10.464107
▁들모두	-10.464284
▁인간의	-10.464584
▁이었던	-10.464610
셨으며	-10.464628
▁어떠한	-10.465086
▁보자	-10.465421
▁를더	-10.465500
할수있는	-10.465943
▁정리	-10.465992
▁하늘과	-10.466105
가르치	-10.466154
깨	-10.466159
▁도전	-10.466405
▁소리를	-10.466450
▁무기	-10.466672
▁의노력	-10.466682
률	-10.466702
는경우	-10.467063
가장중요	-10.467266
답니다	-10.467300
▁두려움	-10.467390
▁보냈	-10.467610
▁동의	-10.467861
▁•	-10.468178
▁거요	-10.468291
▁가질	-10.468320
예상	-10.468636
▁이신	-10.469132
▁까지는	-10.469616
큰환난	-10.469902
▁와그분	-10.469928
심장	-10.470487
▁사울	-10.470757
갑니다	-10.471180
▁텍스트	-10.471206
▁를생각	-10.471402
▁얼굴을	-10.471691
송	-10.471725
주목	-10.472240
팅	-10.472392
가요	-10.472576
▁충분히	-10.472669
돌아오	-10.472720
▁전달	-10.472810
▁위대한	-10.473328
▁이계속	-10.473455
가까운	-10.473798
판결	-10.474025
▁바꿔	-10.474030
두고	-10.474113
▁이든지	-10.474670
▁했다고	-10.474751
▁의머리	-10.475140
▁충만하심이라	-10.475183
▁년후	-10.475275
의지	-10.475343
있었으며	-10.475569
▁사과	-10.475619
▁의끝	-10.475644
▁소녀	-10.475838
▁맥	-10.475881
▁묻	-10.475906
▁로결정	-10.476248
▁편집	-10.476614
▁시키는것	-10.477162
사자	-10.477245
접근	-10.477423
▁않았어요	-10.477454
다는점	-10.477492
▁의율법	-10.477858
▁알겠어	-10.478131
▁모르겠어요	-10.478233
22:	-10.478355
▁은묻는다	-10.478553
대요	-10.478704
져서	-10.478717
필수적	-10.478725
▁꽃	-10.479407
▁질병	-10.479650
셨어요	-10.479719
▁메시지를	-10.479773
▁없죠	-10.480006
있었기때문	-10.480305
▁이집트	-10.480424
▁영원히	-10.480747
▁고린도	-10.480854
▁여호수아	-10.480888
▁로된	-10.481201
철저	-10.481494
▁다양한	-10.481903
▁지내	-10.482231
축제	-10.482689
▁표	-10.482831
▁연락	-10.483142
▁인정	-10.483461
일치	-10.483664
목자	-10.483847
수입	-10.483895
▁를포함	-10.484138
▁체	-10.484222
피조물	-10.484553
▁이처럼	-10.484716
▁의부모	-10.484863
만일	-10.485245
▁돌아	-10.485350
▁싶습니다	-10.485387
▁자들	-10.485516
탑	-10.485555
▁깊은	-10.485664
▁를취하	-10.485711
▁결	-10.486270
우리자신	-10.486325
도덕	-10.487019
▁적용	-10.487361
에서도	-10.487410
레이	-10.487518
길이	-10.487567
▁인태도	-10.488108
▁때가	-10.488268
수를	-10.488390
▁물이	-10.488428
▁국	-10.488522
우울증	-10.488579
불가능	-10.488583
▁밥	-10.488658
나타나	-10.488721
▁넣어	-10.488839
▁로인한	-10.488909
서그	-10.489176
비행	-10.489178
센	-10.489200
▁을먹	-10.489308
진보	-10.489448
참숭배	-10.489511
불리	-10.489700
▁죄송합니다	-10.489790
억제	-10.489895
하더라	-10.491230
동정심	-10.491357
▁공부	-10.491525
사태	-10.491672
지불	-10.492051
▁편지	-10.492085
성서진리	-10.492107
▁왔어요	-10.492348
주신	-10.492415
▁것보다	-10.492449
▁가되었습니다	-10.492506
▁할수있읍니다	-10.492790
▁아침에	-10.493200
▁먹어	-10.493728
▁레이	-10.493958
었을때	-10.493965
▁믿을	-10.494355
하였을것	-10.494401
▁직장	-10.494565
허용	-10.494672
▁를들	-10.495027
현실	-10.495197
▁가야	-10.495320
이스라엘사람	-10.495424
놀	-10.495455
▁시킬	-10.495481
사단	-10.495627
그리스도예수	-10.495711
이점	-10.495775
시키는	-10.496003
▁하나를	-10.496116
▁알코올	-10.496252
▁아니죠	-10.496305
초기	-10.496628
있었습니까	-10.496948
실험	-10.497035
▁을깨닫	-10.497112
▁하십니까	-10.497394
임무	-10.497650
▁알겠습니다	-10.497785
얼굴	-10.497912
수백만	-10.498015
▁에서여호와	-10.498124
▁너와	-10.498133
▁너한테	-10.498478
▁담배	-10.498739
▁일곱	-10.498857
놀라운일	-10.499022
었지	-10.499430
하노라	-10.499811
▁고객	-10.499873
▁도없	-10.500207
▁백성을	-10.501033
뿐아니라	-10.501128
el	-10.501600
▁이중요	-10.501696
내는	-10.501713
▁행한	-10.501723
▁아까	-10.502090
▁한인간	-10.502463
▁한생활	-10.502490
주소	-10.502712
국민	-10.502723
▁를본	-10.502952
▁이된	-10.503020
▁이용	-10.503309
▁의회중	-10.503557
▁보낸	-10.503896
▁600	-10.504080
판매	-10.504236
대다수	-10.504529
▁의때	-10.504591
▁포기	-10.504684
▁하였는가	-10.504903
노인	-10.505381
는게	-10.505846
전도인	-10.505943
▁으로말	-10.506055
대학	-10.506346
▁생각할	-10.506367
알아	-10.506398
희랍어	-10.506518
렉	-10.506952
임을	-10.506996
▁을상징	-10.507031
▁힘들	-10.507090
▁걸어	-10.507983
되었다	-10.508238
스트레스	-10.508274
▁이예수	-10.508283
▁무엇인지	-10.508315
레스	-10.508434
▁젊은	-10.508927
하리니	-10.509191
▁이넘는	-10.509607
구만	-10.509917
겠다는	-10.510024
U	-10.510117
▁쥐	-10.510184
하는일	-10.510327
듣	-10.510459
▁인성서	-10.511085
시사	-10.511108
있었고	-10.511436
▁에서영원	-10.511635
▁의상태	-10.511822
셨습니까	-10.511941
친척	-10.512019
스페인	-10.512121
는데요	-10.512339
▁상관	-10.512522
끄	-10.512762
▁을구하	-10.512813
요한	-10.512909
태어나	-10.512926
▁남아	-10.512989
▁의추종자	-10.513198
▁의영감	-10.513490
▁문을	-10.513512
▁에달하는	-10.513577
▁의땅	-10.513585
▁골로새	-10.513994
동료신자	-10.513994
▁올라가	-10.514376
▁이도움	-10.514465
▁상황이	-10.514519
계산	-10.514606
▁한행동	-10.514623
▁아무런	-10.514686
순결	-10.514862
▁을품	-10.515045
▁있으리라	-10.516107
널	-10.516418
▁웹	-10.516585
해로운	-10.516827
▁그처럼	-10.516880
▁이가능	-10.516957
▁싸	-10.517001
▁알렉스	-10.517010
▁계시니라	-10.517047
▁수많은	-10.517162
양식	-10.517223
▁이그러한	-10.517602
더욱더	-10.517837
▁의삶	-10.518117
황폐	-10.518447
▁알려	-10.518559
꺼야	-10.518774
▁서명	-10.518861
뛰어난	-10.519394
▁남성	-10.519806
흔	-10.520151
▁도착	-10.520415
은것	-10.520430
가담	-10.520484
▁보이기	-10.520538
빨리	-10.520711
▁기원전	-10.521072
김	-10.521156
▁크리스마스	-10.521547
▁현실	-10.521743
제물	-10.521749
크기	-10.521764
▁길로	-10.521796
▁의표준	-10.521862
추종자	-10.521897
▁승	-10.522258
재앙	-10.522348
정당	-10.522384
▁갈라디아	-10.522673
조건	-10.523422
분노	-10.523504
식별	-10.523580
▁바람	-10.523620
번째	-10.523803
실때	-10.524035
▁의열매	-10.524314
중대	-10.524357
보내	-10.524487
겁	-10.524627
구멍	-10.524785
K	-10.525219
되었	-10.525341
▁주장	-10.525391
▁를의미	-10.525480
흡연	-10.525501
▁시켰다	-10.525699
▁때마다	-10.525987
▁히여기	-10.526082
▁자신이	-10.526357
▁풀어	-10.526411
▁상자	-10.526439
▁방해	-10.526783
얼	-10.526877
▁데려가	-10.527485
날개	-10.527514
▁g	-10.527706
▁폐	-10.527724
지배	-10.527734
▁프로	-10.528051
컴퓨터	-10.528167
▁한다음	-10.528309
이기적	-10.528448
▁작동	-10.528475
es	-10.528477
▁도와주	-10.528480
▁멈춰	-10.528510
▁것이라고	-10.528554
▁에서살	-10.528874
었다고	-10.528945
▁소년	-10.529006
▁탈	-10.529268
▁도망	-10.530095
▁하게된다	-10.530149
에겐	-10.531153
스러운	-10.531198
▁이르	-10.531219
▁에있다	-10.531299
랴	-10.531482
▁투자	-10.531553
▁주인	-10.531612
▁된사람	-10.531941
정상적	-10.532106
▁하시며	-10.532124
▁그려	-10.532271
▁한증거	-10.532513
▁에는그	-10.532750
▁알겠어요	-10.532883
그런일	-10.532969
▁기쁨	-10.533122
▁받은자	-10.533189
▁갔	-10.533244
▁한지	-10.533265
애정	-10.533385
깨닫	-10.533849
@	-10.533885
에선	-10.533904
▁h	-10.534072
시키	-10.534283
연락	-10.534405
부당	-10.534699
▁남자가	-10.534727
일종	-10.534856
느	-10.534970
▁엔	-10.535346
의견	-10.535518
▁노예	-10.535767
▁관심	-10.535786
▁워	-10.536328
▁인가를	-10.536387
▁저주	-10.536423
논쟁	-10.536433
릭	-10.536497
▁겸손	-10.536684
▁벤	-10.536756
단단	-10.536810
▁레위	-10.536881
불평	-10.536967
▁이므로	-10.537031
▁에언급	-10.537101
는동안	-10.537371
▁인자	-10.537409
▁넘어	-10.537431
▁이땅	-10.537793
진다	-10.538129
틀림	-10.538131
▁바꿀	-10.538433
▁올바른	-10.538589
▁로봇	-10.538831
▁없지	-10.539284
▁뛰어	-10.539381
▁소수	-10.539407
나타내	-10.539478
▁의통치	-10.539578
et	-10.539923
▁할머니	-10.539995
▁사진을	-10.540071
을까요	-10.540112
떨	-10.540363
곁	-10.540468
▁무시	-10.540503
구출	-10.540510
▁대지	-10.540554
▁둘이	-10.540567
군인	-10.540595
▁시킨	-10.540785
▁한나라	-10.541032
겠읍니까	-10.541078
▁성전	-10.541223
달려	-10.541974
몰	-10.542023
▁죽었	-10.542121
▁애들	-10.542157
많은것	-10.542246
되면	-10.543351
▁기분이	-10.543509
▁을받았	-10.543706
신것	-10.544399
▁백성들이	-10.544467
게된것	-10.544472
▁뉴스	-10.544580
▁한마음	-10.544619
관대	-10.544625
▁같다	-10.544662
드라	-10.544668
었습니까	-10.544778
▁그여자	-10.545069
▁감정	-10.545252
그리스	-10.545823
▁하사	-10.545845
▁같지	-10.546067
좋	-10.546281
▁받은그리스도인	-10.546553
타락	-10.546742
알고	-10.546815
▁저희를	-10.547079
▁여호와께	-10.547286
도망	-10.547419
▁제자	-10.547420
▁을연구	-10.547759
문자적	-10.547821
지난	-10.547899
▁아들이	-10.547984
▁하고있읍니다	-10.548094
이었어	-10.548834
▁않았어	-10.549457
경쟁	-10.549461
▁천지	-10.549643
따	-10.550310
▁가량	-10.550326
야합니까	-10.550467
▁그곳에서	-10.550489
▁향	-10.550701
▁왕의	-10.550815
▁을취하	-10.551077
아서	-10.551102
칸	-10.551380
목숨	-10.551402
▁말했습니다	-10.551524
▁힘이	-10.551743
장성	-10.551824
이었죠	-10.551974
자기자신	-10.552001
▁문화	-10.552124
▁우리모두	-10.552142
을수	-10.552758
▁하나가	-10.553596
▁이라는말	-10.553794
전통	-10.554004
▁아이가	-10.554488
ur	-10.554773
▁이있음	-10.554802
뚜렷	-10.554839
▁좋지	-10.555044
▁을사	-10.555099
게되는	-10.555108
▁15.	-10.555218
▁한영향	-10.555348
해안	-10.555352
그날	-10.556274
▁에있는것	-10.556278
고있음	-10.556917
▁d	-10.556925
▁14,	-10.557045
▁잘못된	-10.557063
▁구할	-10.557084
서요	-10.557234
점점더	-10.557461
▁의역할	-10.557558
해방	-10.557585
은행	-10.558553
▁죄를	-10.559008
수준	-10.559134
▁생각하지	-10.559250
▁에대해감사	-10.559288
체포	-10.559737
▁상처	-10.559818
▁38	-10.559862
▁백성이	-10.559889
이교	-10.560122
▁벡터	-10.560249
요셉	-10.560822
톤	-10.561090
▁가끔	-10.561314
▁그러지	-10.561713
▁아시아	-10.561767
있었읍니다	-10.562083
납니다	-10.562243
▁넘	-10.562485
어떤영향	-10.562524
▁당한	-10.562526
▁째	-10.563162
▁예상	-10.563248
▁맛	-10.563312
▁한본	-10.563337
▁아프	-10.563937
▁그레이	-10.564192
▁없었	-10.564502
▁비유	-10.564516
있읍니다	-10.564558
▁장난	-10.564925
▁이실제	-10.564942
▁걔	-10.565065
▁센티미터	-10.566502
생긴	-10.566545
▁가있었다	-10.566556
만나	-10.566770
노예	-10.566901
흔들	-10.567303
▁둘째	-10.567458
하네	-10.567671
▁관리자	-10.567676
는지를	-10.567715
참다운	-10.567949
녀	-10.568024
▁하는이유	-10.568197
▁은그리스도인	-10.568410
고알려줍니다	-10.568416
▁돈이	-10.568745
온유	-10.568800
기는	-10.568812
▁데이트	-10.568913
올리	-10.568978
나오는	-10.569252
▁구성	-10.569926
▁모릅니다	-10.570097
▁속에서	-10.570578
놀라	-10.570590
배경	-10.570608
▁지방	-10.570658
▁인내	-10.571035
▁을참조	-10.571201
▁하시니라	-10.571750
▁날에	-10.571773
제국	-10.571908
▁동료	-10.571911
▁에게이렇게	-10.571925
만든	-10.571933
▁초대	-10.572072
매우중요	-10.572338
▁곱	-10.572353
▁때문이라	-10.572397
▁속도	-10.572473
▁페이지	-10.573013
설립	-10.573070
미리	-10.573134
▁를이루	-10.573294
모르	-10.573416
증언	-10.573883
▁그런다음	-10.573902
▁아니지	-10.574358
정복	-10.574540
▁을무시	-10.574573
▁없으며	-10.574694
▁를찾아	-10.574980
▁의경험	-10.575149
▁청	-10.575225
안에	-10.575286
▁수학	-10.575510
▁을나타내는	-10.575628
▁여기는	-10.576097
냈	-10.576506
▁과연	-10.576690
불쾌	-10.576744
꾼	-10.576853
▁반응	-10.576862
▁머	-10.577001
겠네	-10.577137
▁백성에게	-10.577266
무덤	-10.577774
봐요	-10.577949
▁정치	-10.578018
▁의내용	-10.578138
▁에찬	-10.578198
▁으로우리	-10.578530
전시간봉사	-10.578779
로스	-10.578884
▁통해서	-10.578897
▁재생	-10.578934
공포	-10.579106
충절	-10.579111
▁가슴	-10.579114
소유	-10.579304
▁생성	-10.579487
웃	-10.579796
우상숭배	-10.580397
고있었습니다	-10.580942
여인	-10.581063
▁주시	-10.581123
▁한종	-10.581315
▁고린도첫째	-10.581728
▁율법	-10.581816
▁간단한	-10.581917
하였더라	-10.582124
▁전문가	-10.582672
▁이될수있다	-10.582704
▁을발전	-10.582830
도구	-10.582993
밀접	-10.583138
오스트레일리아	-10.583189
▁타이	-10.583385
하되	-10.583394
아침	-10.583415
▁을받는	-10.583545
우리모두	-10.583639
▁너가	-10.583876
▁사랑해	-10.584151
빚	-10.584475
▁의여호와	-10.584557
지속	-10.584561
그룹	-10.584593
▁에속한	-10.584771
아직	-10.584798
여러해동안	-10.584815
잉	-10.584875
z	-10.584910
▁먼	-10.585762
성품	-10.585954
W	-10.586173
수많은사람	-10.586318
▁수정	-10.586717
▁항목	-10.586964
▁지식	-10.587089
는곳	-10.587138
▁에더하여	-10.587189
▁사람과	-10.587316
▁특정	-10.587322
▁와나	-10.587380
▁기회를	-10.587513
의사소통	-10.587676
▁;	-10.587679
돌아	-10.588169
질서	-10.588247
▁식으로	-10.588536
식량	-10.588679
▁주께서	-10.588730
▁의선	-10.588944
▁될수있다	-10.588972
▁KDE	-10.589025
▁놈이	-10.589078
실제적	-10.589207
가톨릭	-10.589369
▁평생	-10.589560
꾸	-10.589720
해결책	-10.589913
▁문서	-10.590170
▁보다훨씬더	-10.590496
열렬	-10.590961
게한다	-10.591392
▁쳐	-10.591404
▁은바로	-10.591443
공개적	-10.591737
▁뒤로	-10.591814
▁는자녀	-10.591921
▁된다면	-10.592101
게되	-10.592106
번영	-10.592324
받아들여	-10.592349
▁예수께서	-10.592431
▁조차	-10.592613
▁아저씨	-10.592793
▁분은	-10.592984
고도	-10.593272
싸우	-10.593500
메시아	-10.593538
▁자와	-10.593627
▁자의	-10.593884
건데	-10.593936
▁들역시	-10.594046
▁육	-10.594173
▁해왔습니다	-10.594215
▁그분께서	-10.594372
이여	-10.594515
▁샘	-10.594781
▁여기가	-10.594800
언제	-10.594803
▁만한	-10.594904
근육	-10.595180
▁경건	-10.595407
정죄	-10.595685
이일	-10.595982
▁15,	-10.596081
▁대기	-10.596169
▁삼각형	-10.596379
는거야	-10.596381
에게서	-10.596456
알려주는	-10.596507
▁오랫동안	-10.596951
▁머리를	-10.597089
▁을제거	-10.597148
▁한데	-10.597222
▁이생기	-10.597508
▁18.	-10.597558
자원	-10.597623
대중	-10.598125
사전	-10.598178
인물	-10.598231
▁땅을	-10.598287
성서원칙	-10.598617
▁그분께	-10.598865
산업	-10.599438
▁모양	-10.599492
질환	-10.600028
소수	-10.600379
▁을지지	-10.600395
▁그러나우리	-10.600487
던지	-10.600779
안정	-10.600889
종교지도자	-10.601065
▁됩니까	-10.601069
▁진화	-10.601141
▁가있읍니다	-10.601413
▁의축복	-10.601608
▁1970	-10.601756
▁일어난	-10.601783
▁방식으로	-10.601849
▁충실	-10.601938
있었던	-10.602264
▁이될	-10.602635
▁도와	-10.603308
버렸다	-10.603319
▁힘든	-10.603654
줍니까	-10.603869
아직도	-10.604148
▁에내	-10.604330
만연	-10.604548
▁옆에	-10.604874
▁민족	-10.604922
은혜	-10.605141
▁영혼	-10.605460
과부	-10.605490
증상	-10.605515
▁이론	-10.605803
쥐	-10.606174
▁계신	-10.606242
들여	-10.606345
참그리스도인	-10.606360
상의	-10.606821
책망	-10.606883
핀	-10.606922
▁소개	-10.607107
▁주지	-10.607151
▁께기도	-10.607261
▁글쎄	-10.607285
▁의형제	-10.607327
▁주님께	-10.607330
표면	-10.607363
일반	-10.607378
오래전	-10.607566
구름	-10.607955
반역	-10.608094
▁무리가	-10.608156
▁기름	-10.608225
그밖	-10.608266
온땅	-10.608311
▁곳으로	-10.608336
에너지	-10.608371
하매	-10.608675
▁깊이	-10.608755
▁관찰	-10.608897
겐	-10.609069
싱	-10.609136
▁핵	-10.609224
▁파이오니아	-10.609340
▁이있다면	-10.609611
▁나올	-10.610099
면그	-10.610301
하셨습니다	-10.610348
12	-10.610388
불법	-10.610479
▁죽여	-10.610779
대적	-10.611021
▁뜻	-10.611111
의료	-10.611264
▁옷을	-10.611296
▁쓰고	-10.611378
▁대회	-10.611716
이행	-10.611908
▁은아무	-10.612263
▁하였노라	-10.612605
배척	-10.613111
위험성	-10.613277
▁진리를	-10.613531
죽은사람	-10.613793
ad	-10.614090
었는지	-10.614204
▁되도록	-10.614447
보조	-10.614626
어진	-10.614877
▁꺼내	-10.614907
▁하세요	-10.615088
▁을하였습니다	-10.615156
즐거운	-10.615299
▁을배울수있	-10.615433
▁을다시	-10.615463
▁출	-10.615576
▁에게무엇	-10.615979
끔찍	-10.615984
▁7,	-10.616088
▁유리	-10.616088
▁이그분	-10.616394
기여	-10.617115
▁하지않았다	-10.617117
사를	-10.617155
▁행위	-10.617586
▁톤	-10.618045
주기	-10.618258
객	-10.618277
색깔	-10.618603
▁의존재	-10.618690
작성	-10.619067
▁하면서도	-10.619406
▁시작했습니다	-10.619606
▁하는마음	-10.619610
▁방식	-10.619623
▁은얼마나	-10.619703
춤	-10.619943
시인	-10.620232
▁당신과	-10.620321
▁공급	-10.620821
▁내부	-10.621010
▁그당시	-10.621060
▁필요합니다	-10.621253
▁범	-10.621341
으로써	-10.621570
게하	-10.621986
교도소	-10.622075
▁하고있는것	-10.622077
전부	-10.622099
▁의여지	-10.622238
▁할수있도록	-10.622729
지않게	-10.622804
▁가까운	-10.622836
▁AIDS	-10.622877
▁근	-10.623009
겠네요	-10.623094
▁한말씀	-10.623204
▁탄	-10.623375
달라	-10.623514
▁여러분들이	-10.623818
▁강한	-10.624736
재미	-10.624796
지아니하	-10.625165
▁사이의	-10.625514
▁뭐하는	-10.625529
태어난	-10.625654
수백	-10.625721
▁와의	-10.625927
▁자비로	-10.625952
▁있었다	-10.626053
불안	-10.626227
▁낮	-10.626230
십대	-10.626258
▁찾았	-10.626346
받아	-10.626415
▁이라는사실	-10.626505
궁금	-10.626644
▁에예수	-10.626672
▁건가요	-10.627093
▁로번역	-10.627109
▁기다리고	-10.627198
흥	-10.627513
▁에게로	-10.627524
간청	-10.627698
혼	-10.628407
▁파티	-10.628456
할수있습니다	-10.628620
▁8,	-10.628930
▁을제공	-10.629036
▁하였지만	-10.629171
멀	-10.629428
▁최대	-10.629564
▁적은	-10.629675
▁을베풀	-10.629680
▁받았습니다	-10.629745
활	-10.630048
▁65	-10.630261
▁42	-10.630358
▁를방문	-10.630900
▁이있으며	-10.631068
▁한시간	-10.631156
▁기간	-10.631462
▁의로운	-10.632173
이네요	-10.632253
▁이르기를	-10.632276
▁에서온	-10.632283
▁21.	-10.632321
▁뭔	-10.632491
참을성	-10.632491
일련	-10.632666
▁되고있는	-10.632711
지내	-10.633018
▁말이지	-10.633091
싸	-10.633377
감염	-10.633527
▁믿고	-10.633579
▁에있던	-10.634030
▁하지못하	-10.634263
▁로삼	-10.634809
튼튼	-10.635273
▁이를테면	-10.635299
▁시키는데	-10.635401
▁내용	-10.635429
▁끊	-10.635534
▁희망	-10.635687
이래	-10.635812
▁에앉	-10.635898
▁종류	-10.636065
▁건축	-10.636215
▁족속	-10.636333
잎	-10.636362
▁이될수있습니다	-10.636401
바람직	-10.636565
지위	-10.636671
▁를살펴봄	-10.636782
겠	-10.636929
▁거래	-10.636937
유전	-10.637130
▁400	-10.637204
▁폭발	-10.637861
▁닫	-10.638034
▁으로인한	-10.638157
▁빠져	-10.638276
부양	-10.638283
is	-10.638330
속에	-10.638457
▁은현재	-10.639290
▁일러	-10.639453
구체적	-10.639479
가르치는	-10.639532
훨씬	-10.639807
▁같네요	-10.640105
▁빼기	-10.640364
▁으로도	-10.640518
▁분명한	-10.640597
▁는참으로	-10.640618
▁나님	-10.640973
▁흥미	-10.641367
▁한적	-10.641463
▁의창조주	-10.641550
▁23:	-10.641828
▁망할	-10.642245
▁자들에게	-10.642368
성이	-10.642509
▁를해결	-10.642877
▁벽	-10.642947
▁을공급	-10.643149
▁관용과	-10.643435
▁이십니다	-10.643939
▁도있었습니다	-10.644027
▁공기	-10.644670
보물	-10.644792
▁도한다	-10.644950
형상	-10.644985
▁로이루어진	-10.645324
▁그리하면	-10.645761
거짓종교	-10.645765
온것	-10.645803
▁어때요	-10.645949
▁매년	-10.646099
업자	-10.646133
▁몰	-10.646357
광경	-10.646494
▁그래야	-10.646811
쾌락	-10.646934
있었지만	-10.647418
지속적	-10.648012
▁폭	-10.648136
▁처음으로	-10.648234
재산	-10.648345
전능	-10.648566
am	-10.648639
▁르	-10.648706
보자	-10.648900
▁얻	-10.649374
▁입고	-10.649498
▁가있었습니다	-10.649680
▁색상	-10.649794
▁단순	-10.649869
▁뿐이야	-10.649950
료	-10.650026
킨	-10.651260
▁뿐입니다	-10.651860
었지요	-10.652061
오직	-10.652166
더는	-10.652208
▁있겠죠	-10.652358
▁임신	-10.652482
비아	-10.652895
있다고생각	-10.653097
▁를원	-10.653417
해야한다	-10.653646
▁가득	-10.653931
균	-10.654032
▁동시에	-10.654110
▁양식을	-10.654158
분석	-10.654170
소개	-10.654298
기위해서	-10.654565
▁웃	-10.654931
▁공포	-10.655185
▁사자	-10.655383
▁네트워크	-10.655415
선수	-10.655599
▁하자면	-10.655606
▁에대해서	-10.655618
경기	-10.655971
▁지혜로	-10.656046
▁때문	-10.656225
된다	-10.656245
▁얘	-10.656274
▁보여주	-10.656384
▁요리	-10.656554
근원	-10.657140
반면	-10.657489
▁아래로	-10.657511
▁부분이	-10.657763
바로그	-10.658005
열망	-10.658162
수없	-10.658173
▁섹스	-10.658219
해야할	-10.658518
▁감시	-10.658700
어린아이	-10.658723
년이	-10.658740
히브리어	-10.658778
이네	-10.658836
▁자리에	-10.659102
▁증명	-10.659364
묻	-10.659586
게해주	-10.660009
었노라	-10.660053
압제	-10.660060
▁알았지	-10.660169
ic	-10.660435
▁의후손	-10.660500
▁이바로	-10.660583
▁스트레스	-10.661022
내리	-10.661237
▁썼	-10.661401
▁책을	-10.661424
▁쓰레기	-10.661445
▁됐	-10.661605
디아	-10.661946
낙	-10.662130
▁활동	-10.662141
공간	-10.662272
▁의전	-10.662347
▁행성	-10.662350
▁상대	-10.662588
인용	-10.663073
▁를보내	-10.663836
스크	-10.663947
비밀	-10.664296
럼	-10.664301
투쟁	-10.664316
지못할것	-10.664529
했는지	-10.664609
▁광고	-10.664642
▁에비	-10.664806
시행	-10.665032
사실상	-10.665046
▁모두를	-10.665088
▁의무	-10.665257
▁을전	-10.665772
넣	-10.665794
지도모른다	-10.665840
운전	-10.666300
이드	-10.666339
▁너희와	-10.666396
니아	-10.666450
지상낙원	-10.666530
▁감염	-10.666597
대처	-10.666899
동료그리스도인	-10.666963
▁를가지고있	-10.666992
이처럼	-10.667097
▁자식	-10.667149
▁한봉사	-10.667386
으매	-10.667497
▁읽어	-10.667541
▁며	-10.667596
▁제안	-10.667744
웅대	-10.668073
▁그런가하면	-10.668308
▁시각	-10.668483
▁만약에	-10.668678
성관계	-10.668840
▁의지혜	-10.668915
▁말합니다	-10.669387
복음	-10.669406
어져	-10.669482
▁가자신	-10.669572
▁영역	-10.669718
노아	-10.669755
▁투	-10.669837
▁를짓	-10.669991
구별	-10.670085
▁도로	-10.670577
▁의필요	-10.670779
특이	-10.670985
뿔	-10.671021
로우	-10.671034
▁생각하	-10.671043
▁곡	-10.671102
젠	-10.671314
▁기타	-10.671327
더군	-10.671362
▁놀라	-10.671526
▁포함	-10.671710
▁가격	-10.671793
▁의승인	-10.671987
지기	-10.672098
▁경계	-10.672294
▁아들을	-10.672407
보낸	-10.672696
그리스도인집회	-10.672808
▁가된	-10.672827
합리적	-10.672950
넘	-10.672966
유용	-10.673141
▁로인하여	-10.673178
장을	-10.673209
▁여보	-10.673236
▁가요	-10.673370
셔서	-10.673490
겼	-10.673566
▁규칙	-10.673779
마치	-10.673937
*	-10.674604
▁있잖아요	-10.674711
▁시작할	-10.675077
이니까	-10.675276
지말고	-10.675411
▁하였으니	-10.675439
▁CD	-10.675498
▁데스크톱	-10.675531
시민	-10.675736
▁할까요	-10.675886
▁판단	-10.675995
▁에있는사람	-10.676262
▁놓	-10.676555
▁이라는점	-10.676561
▁엄마는	-10.677079
제기	-10.677119
콘	-10.677248
▁함수	-10.677269
▁왜요	-10.677490
▁대단한	-10.677512
시정	-10.677579
▁을받을것	-10.677717
▁관하여	-10.677933
▁선물	-10.678301
▁이모두	-10.678514
봤	-10.678700
▁도없다	-10.678728
▁간단	-10.678886
▁점은	-10.679091
곤충	-10.679135
▁영어	-10.679422
삼위일체	-10.679531
조절	-10.679610
▁잭	-10.679625
프로	-10.679773
▁한교훈	-10.680070
▁가져	-10.680324
▁물어보	-10.680475
▁얘기해	-10.680660
청년	-10.680778
▁그렇기때문	-10.681018
▁미국인	-10.681417
▁버스	-10.681430
▁폴	-10.681438
냈습니다	-10.681588
▁전도	-10.681693
▁못하게	-10.681723
▁농담	-10.681909
▁했기때문	-10.682087
▁의친절	-10.682218
났	-10.682324
▁구름	-10.683344
▁는왜	-10.683403
야할것	-10.683576
▁그것에	-10.683844
▁벗어나	-10.683873
텔레비전	-10.684027
▁못하리라	-10.684029
▁베일리	-10.684278
꾸준	-10.684525
▁연습	-10.684690
▁알아야	-10.684765
뉴	-10.684805
▁생겼	-10.685038
▁이와	-10.685061
▁미치	-10.685067
이문제	-10.685100
▁에대한답	-10.685146
▁유감	-10.685441
▁을피하	-10.685719
▁했는지	-10.686202
▁혁명	-10.686259
▁하지않았	-10.686291
희	-10.686612
▁모드	-10.686627
수확	-10.686706
▁싫	-10.686721
▁축	-10.686920
하실것	-10.687138
▁도움을	-10.687471
게되어	-10.687523
▁트럭	-10.687587
풍성	-10.687783
▁뿐아니라	-10.687827
합시다	-10.688066
하는지	-10.688393
▁1990	-10.688624
▁해보는것	-10.688931
려서	-10.688932
▁쉬운	-10.689076
ter	-10.689083
▁않기	-10.689137
▁안되	-10.689500
극히	-10.689763
한번	-10.689857
▁당신도	-10.689873
너무나	-10.690055
그리스어	-10.690199
▁명령을	-10.690317
둥	-10.690350
▁만일당신	-10.690373
자랑	-10.690394
▁만났	-10.691104
지에	-10.691626
▁일반적	-10.691705
▁을만나	-10.691708
환난	-10.691729
▁인식	-10.691803
▁이삭	-10.692539
▁말이뇨	-10.692988
▁16,	-10.693398
▁의주요	-10.693576
굴복	-10.693606
▁유전자	-10.693759
▁하려고노력	-10.693832
▁노라	-10.693889
주교	-10.693933
하기를	-10.694150
▁자비	-10.694169
▁150	-10.694181
빗	-10.694197
어린양	-10.694661
▁에서벗어나	-10.694866
▁을돌보	-10.694948
▁기관	-10.695066
▁못하	-10.695090
▁말하더라	-10.695267
그나라	-10.695333
▁깨끗	-10.695488
▁덜	-10.695694
권세	-10.695992
찾	-10.696090
▁-1	-10.696148
▁를먹	-10.696313
▁오르	-10.696465
▁모델	-10.696466
▁마이크	-10.696831
역사가	-10.696958
더많이	-10.697077
▁의성령	-10.697266
개입	-10.697382
▁많아	-10.697391
▁급	-10.697529
할수있다	-10.697948
15	-10.698070
▁는것	-10.698281
으려	-10.698330
멜	-10.698351
▁를가진	-10.698435
먹는	-10.698467
▁을거두	-10.698838
항해	-10.698871
▁은그리스도	-10.699094
▁드릴	-10.699220
▁인사	-10.699228
▁이미지	-10.699275
나오	-10.699328
광범위	-10.699363
▁한특성	-10.699446
▁눈이	-10.699718
▁나타나	-10.699885
으십시오	-10.700242
▁수치	-10.700397
▁신뢰	-10.700404
줌	-10.700471
▁영광	-10.700695
루스	-10.700864
되기	-10.700928
인이	-10.700950
다고해서	-10.701062
▁평균	-10.701101
▁는매우	-10.701781
거래	-10.701943
▁하게됩니다	-10.702003
생애	-10.702056
▁을세우	-10.702068
▁의많은	-10.702080
▁정도로	-10.702228
▁얻은	-10.702253
전도	-10.702288
▁하이	-10.702458
▁한분	-10.702508
▁을가지고있다	-10.703241
▁추적	-10.703543
통제	-10.703658
냅니다	-10.704018
▁말로	-10.704107
▁여보세요	-10.704486
할까요	-10.704622
▁캐	-10.704637
st	-10.704842
▁할지	-10.704865
▁의성취	-10.704891
▁언니	-10.705102
▁관해	-10.705142
▁제임스	-10.705535
▁먹는	-10.705607
▁제국	-10.705669
▁부분을	-10.705859
▁없었어요	-10.705996
▁을벌	-10.706187
세가지	-10.706215
신호	-10.706366
▁되었는데	-10.706525
철학	-10.706563
느끼	-10.706613
▁을맺	-10.706743
▁n	-10.706800
방지	-10.707039
▁모든사람	-10.707310
▁운영	-10.707565
음행	-10.707679
▁이발생	-10.707848
▁도움	-10.707862
비교적	-10.707991
나아가	-10.708228
야외봉사	-10.708402
▁교황	-10.708419
에게는	-10.708878
▁올려	-10.709298
ly	-10.709508
▁이어떠	-10.709648
▁고말씀	-10.709755
제외	-10.709904
▁하신하나님	-10.709914
▁하러	-10.710002
▁여러분에게	-10.710080
▁라는것	-10.710081
▁해주었습니다	-10.710093
겪	-10.710197
▁악마	-10.710328
탐욕	-10.710455
▁에대해서는	-10.710528
있음	-10.710584
▁에달	-10.710766
▁한사랑	-10.711009
▁은다른	-10.711161
▁아닐	-10.712622
▁차를	-10.712872
▁주제	-10.712897
윈	-10.713061
▁이요구	-10.713106
▁미디어	-10.713122
▁그리고나서	-10.713133
되며	-10.713329
편견	-10.713525
▁가있을것	-10.713748
▁독	-10.714069
쇼	-10.714087
▁19.	-10.714513
▁성읍	-10.714760
▁의증거	-10.714843
▁칸	-10.714947
▁가된다	-10.714989
▁그것으로	-10.715052
냉	-10.715267
▁킬로그램	-10.715466
▁재산	-10.715671
▁가당신	-10.715738
▁금방	-10.715766
위에	-10.715811
최대	-10.715818
▁피부	-10.716024
▁이야말로	-10.716031
▁신문	-10.716291
▁이어	-10.716432
가족성원	-10.716454
▁하나도	-10.716532
대조	-10.716643
받을	-10.716700
콩	-10.717238
▁주소	-10.717432
있었는데	-10.717669
▁호텔	-10.717686
▁23.	-10.717793
▁생각은	-10.717916
▁작품	-10.718014
놈	-10.718126
▁원자	-10.718192
볼수있	-10.718280
일시적	-10.718314
▁가면	-10.718412
▁생긴	-10.718445
그도시	-10.718610
▁하다면	-10.718630
이동	-10.718850
보는것	-10.719030
▁출판물	-10.719120
지는않	-10.719222
▁못해	-10.719777
궁	-10.719790
강제	-10.719812
▁모든것	-10.720130
파이오니아봉사	-10.720199
▁사람들과	-10.720284
는법	-10.720354
주변	-10.720554
▁을통해서	-10.720957
▁안돼요	-10.721049
에서의	-10.721144
▁자체	-10.721345
틴	-10.721383
▁전투	-10.721722
번역판	-10.721809
▁을받아들이	-10.722000
우상	-10.722352
▁의기사	-10.722376
▁비슷한	-10.722558
▁하실때	-10.722567
▁하지만우리	-10.722616
▁에가서	-10.722617
▁주님은	-10.722712
▁그일	-10.723172
하시니라	-10.723292
버렸	-10.723529
또하나	-10.723907
▁백만	-10.724333
▁일하는	-10.724365
▁을알게되었습니다	-10.724426
▁을행	-10.724750
▁분노	-10.724769
고싶은	-10.725053
으로서	-10.725116
엄격	-10.725145
▁가없는	-10.725150
▁그러므로그	-10.725209
치료법	-10.725347
▁확장	-10.725525
▁변호사	-10.725916
스키	-10.725987
▁을피	-10.726117
▁재밌	-10.726209
▁으	-10.726287
봅시다	-10.726358
▁결과를	-10.726722
다니엘	-10.727077
▁있네요	-10.727280
▁죽이	-10.727308
▁아니라고	-10.727433
▁공유	-10.727644
했다는	-10.727780
신세계	-10.727823
여러번	-10.727870
▁거대한	-10.728033
▁할수없다	-10.728199
범죄자	-10.728322
닝	-10.728545
▁히말	-10.728733
참된	-10.728923
▁이쪽	-10.729153
무시	-10.729428
▁께헌신	-10.729490
▁이상의	-10.729917
▁옳은	-10.730005
▁재앙이	-10.730141
▁공간	-10.730406
▁를떠나	-10.730596
▁그들로	-10.730598
▁보상	-10.730654
▁에어떻게	-10.731237
▁변수	-10.731254
높	-10.731393
하였노라	-10.731616
연대	-10.731652
▁생각하고	-10.731682
여섯	-10.731692
▁에다	-10.731725
▁에살고있	-10.731801
다른나라	-10.731937
여러나라	-10.732041
▁멀	-10.732124
하고자	-10.732240
▁로말미암아	-10.732277
도피	-10.732641
지모른다	-10.733378
셈	-10.733615
장식	-10.733777
▁로서의	-10.733986
▁는없다	-10.733987
▁싸우	-10.734365
솔	-10.734371
폰	-10.734573
▁홀	-10.734989
▁몸을	-10.735365
▁사회적	-10.735392
▁거룩	-10.735884
▁(19	-10.736024
▁생일	-10.736158
▁산업	-10.736498
▁호출	-10.736595
▁자살	-10.736616
▁에실린	-10.736629
▁주요	-10.736645
선생님	-10.736690
데스	-10.736778
가면서	-10.736985
▁이아님	-10.737108
▁아이디어	-10.737246
▁분석	-10.737304
▁회의	-10.737597
▁듣지	-10.737731
불행	-10.737797
볼수있다	-10.737997
ent	-10.738070
▁과는	-10.738351
▁이있는데	-10.738384
▁분의	-10.738482
▁서비스	-10.738699
▁가됩니다	-10.738890
▁회복	-10.739721
▁의역사	-10.739758
▁시켰	-10.740726
진화	-10.741103
▁찾기	-10.741737
▁나은	-10.741785
▁요원	-10.741895
▁낫	-10.741940
▁마르	-10.742067
▁고양이	-10.742433
좋은것	-10.742641
▁는누구	-10.742794
▁천천히	-10.742892
▁에서부터	-10.743075
딩	-10.743077
얻	-10.743304
경주	-10.743333
▁가있는가	-10.743344
규칙	-10.743377
조장	-10.743405
▁시간에	-10.743513
하나니	-10.744123
▁훈련	-10.744263
인사	-10.744905
분쟁	-10.745210
스가	-10.745388
▁번호	-10.745398
▁나아	-10.745567
▁말미암아	-10.745791
중국	-10.745792
▁생물	-10.745952
▁된다고	-10.745999
부정	-10.746029
▁맞지	-10.746148
소련	-10.746334
▁겁	-10.746445
▁하고있으며	-10.746458
▁탈출	-10.746469
▁를보호	-10.746833
디모데	-10.746944
낮은	-10.747283
붙	-10.747468
▁주신	-10.747687
▁이루	-10.747732
▁보내어	-10.747754
▁거리는	-10.747952
이트	-10.748023
죄인	-10.748507
수용소	-10.748783
보장	-10.748932
▁없었습니다	-10.749259
▁조건	-10.749877
가치관	-10.749889
▁주어	-10.750132
양육	-10.750172
▁은주	-10.750466
▁있지요	-10.750471
마르	-10.750753
되었습니까	-10.750806
지못한다	-10.750883
▁물건	-10.750922
당국	-10.751054
▁할지모릅니다	-10.751204
처형	-10.751555
주었습니다	-10.751693
▁준비가	-10.751868
▁놀	-10.751917
▁옛날	-10.752194
▁그들과	-10.752385
▁을할때	-10.752410
▁받게	-10.752589
▁11,	-10.752628
▁을알게되었다	-10.752864
멸	-10.753164
▁이제는	-10.753462
▁저한테	-10.753505
낸다	-10.753565
▁하지않을것	-10.753941
도착	-10.753963
거요	-10.754035
상자	-10.754042
ch	-10.754293
▁은어디	-10.754324
덴	-10.754444
▁슬픔	-10.754711
ri	-10.754881
냄새	-10.754912
등장	-10.755021
독신	-10.755054
함에	-10.755803
▁할경우	-10.755965
▁특별	-10.755980
▁확인해	-10.756090
▁국제	-10.756500
있으며	-10.756717
▁를알	-10.756790
올라	-10.756882
▁박테리아	-10.756912
팜플렛	-10.757020
▁롭고	-10.757048
▁을선택	-10.757065
상기	-10.757121
▁아무튼	-10.757241
맥	-10.757399
그이름	-10.757494
흰	-10.757876
▁작업을	-10.757926
솔직	-10.758489
▁이름으로	-10.758495
▁들어오	-10.758528
살아있는	-10.758854
▁콜	-10.759062
벤	-10.759212
▁연주	-10.759280
▁일어날	-10.759507
고자하는	-10.759871
▁빠르게	-10.759971
캐	-10.759994
하기때문	-10.760283
▁건데	-10.760538
수있읍니다	-10.760560
▁이주	-10.761367
과도	-10.761367
재배	-10.761544
▁한관심	-10.761621
▁압니다	-10.761868
▁놔	-10.761916
있어서	-10.762008
▁연기	-10.762019
▁중심	-10.762032
▁저희에게	-10.762606
조차	-10.762795
▁들앞	-10.763080
이니라	-10.763289
▁에어떤	-10.763359
▁꿈을	-10.763479
▁께서는자기	-10.763483
▁거절	-10.763652
▁에이미	-10.763824
백만	-10.763870
▁누군지	-10.763876
▁위해서는	-10.764124
▁짐승	-10.764198
는생각	-10.764270
감명	-10.764658
꼭필요	-10.765097
흥분	-10.765120
▁없었어	-10.765162
흐	-10.765173
▁인간은	-10.765396
세력	-10.765559
일단	-10.765637
유월절	-10.765812
봉사자	-10.766013
폴	-10.766333
▁뭔가를	-10.766400
▁조심	-10.766501
컨	-10.766638
▁메일	-10.766906
▁달력	-10.767158
▁는당신	-10.767221
원하는	-10.767448
▁음수	-10.767835
▁들어갈	-10.767876
▁제목	-10.767917
감각	-10.768284
보세요	-10.768627
▁그러다가	-10.768703
▁말며	-10.768781
▁하셨으며	-10.768970
▁봤어요	-10.769185
동생	-10.769299
▁에빠지	-10.769685
간음	-10.769998
▁을나타내는것	-10.770200
▁왔습니다	-10.770248
웨	-10.770431
불순종	-10.770544
▁새번역	-10.770708
▁을존중	-10.771058
▁의주권	-10.771123
▁을차지	-10.771946
재료	-10.772129
파리	-10.772158
▁사실이	-10.772217
▁직업	-10.772371
!"	-10.772512
▁기능	-10.772547
측	-10.772807
▁않느뇨	-10.773013
었으니	-10.773123
반복	-10.773176
▁즉시	-10.773248
▁숲	-10.773327
▁하게되	-10.773417
▁에한	-10.773895
▁테스트	-10.773918
▁값이	-10.774002
▁하리니	-10.774036
▁너회	-10.774395
겠느냐	-10.774558
▁아론	-10.774594
▁취소	-10.774606
▁땅에서	-10.774757
▁을필요	-10.774947
▁식을	-10.775071
▁에대한우리	-10.775316
▁샤	-10.775404
겨울	-10.775409
▁도울	-10.775454
수면	-10.775566
▁있는데요	-10.775585
▁일종의	-10.775736
잔인	-10.775763
▁을창조	-10.775844
비결	-10.776050
년대	-10.776259
▁정치적	-10.776304
▁를겪	-10.776432
▁을다해	-10.776500
▁곳을	-10.776611
▁몰랐	-10.776782
▁상황을	-10.776857
필자	-10.777078
협조	-10.777097
다고요	-10.777229
▁택	-10.777230
이치적	-10.777278
▁이없고	-10.777731
▁그만해	-10.778062
▁보니	-10.778238
▁체포	-10.778256
▁위협	-10.778259
완성	-10.778318
▁이문제	-10.778563
▁이지	-10.778567
주된	-10.779033
찌	-10.779038
농장	-10.779066
▁솔직히	-10.779284
▁신명	-10.779444
▁의관계	-10.779569
▁39	-10.779732
고있	-10.779737
▁잡지	-10.779773
백과사전	-10.779993
▁발표	-10.780058
▁할수있읍니까	-10.780154
▁를사회	-10.780271
▁찍	-10.780407
기업	-10.780422
빙	-10.780693
▁를잃	-10.780698
▁일자	-10.780780
스티	-10.780877
이잖아	-10.780904
훈계	-10.781026
용할	-10.781317
▁교수	-10.781683
호흡	-10.781763
▁보았	-10.782433
적당	-10.782609
▁에게관심	-10.782844
힘들	-10.782900
기만	-10.783222
▁창조주	-10.783323
v	-10.783429
고있는가	-10.783622
▁단위	-10.783639
▁꾸란	-10.783783
▁모습을	-10.784143
결함	-10.784205
▁갖게	-10.784222
▁자기가	-10.784271
바이러스	-10.784538
▁잡고	-10.784665
▁조정	-10.784729
▁백성들	-10.784970
천연	-10.785011
▁일어나는	-10.785012
배운	-10.785063
▁은대부분	-10.785163
졌어요	-10.785253
▁의본문	-10.785259
▁나갈	-10.785521
▁행운	-10.785535
해석	-10.785741
있을때	-10.785813
un	-10.785961
▁에걸리	-10.786036
▁의상	-10.786043
걷	-10.786163
▁밖	-10.786185
▁그림을	-10.786292
▁먹이	-10.786366
행한	-10.786488
▁을신뢰	-10.786489
고있던	-10.786795
▁이부족	-10.786992
▁의생애	-10.787006
트리	-10.787319
▁마일	-10.787596
리가	-10.787691
불편	-10.787945
▁할수있었습니다	-10.787990
▁아님	-10.788108
조용	-10.788177
바위	-10.788403
▁w	-10.788721
▁고맙습니다	-10.788752
엽	-10.788851
▁을바치	-10.788966
▁하니라	-10.789036
짜	-10.789154
▁인문제	-10.789231
▁측정	-10.789517
▁제시	-10.789577
지마	-10.789777
렛	-10.789937
▁아마겟돈	-10.790115
차례	-10.790506
▁오래된	-10.790561
헌금	-10.790693
▁우리도	-10.790905
했다면	-10.791004
그냥	-10.791391
기타	-10.791398
아니면	-10.791533
▁엄	-10.791888
▁예술	-10.791976
▁엘리	-10.792048
▁유용	-10.792238
홀	-10.792287
▁가르쳐	-10.792301
▁이하늘	-10.792470
▁오빠	-10.793215
▁된일	-10.793312
▁를받고	-10.793367
친족	-10.793629
이루	-10.793987
야겠어	-10.794019
쓰레기	-10.794102
▁예전	-10.794106
▁배우자	-10.794541
▁날짜	-10.794542
킹	-10.794888
▁뼈	-10.794943
▁돌리	-10.794948
수있을것	-10.795115
지출	-10.795137
▁팬	-10.795150
▁히일	-10.795188
▁할지모른다	-10.795232
▁이럴	-10.795247
▁있으	-10.795300
충족	-10.795326
▁가져가	-10.795512
▁골	-10.795643
▁48	-10.795669
탕	-10.795788
▁회개	-10.796038
사라지	-10.796072
가톨릭교인	-10.796542
▁그동안	-10.796672
▁저와	-10.796730
우월	-10.797002
성실	-10.797411
▁으로말미암아	-10.797474
▁눈에	-10.797668
이지만	-10.797842
전투	-10.797897
▁늦	-10.797903
▁것들은	-10.798007
살이	-10.798019
대체	-10.798276
▁알잖아	-10.798343
법칙	-10.798452
▁은사랑	-10.798763
하시며	-10.799253
▁수업	-10.799702
였고	-10.799829
농	-10.799848
▁땐	-10.800056
점차	-10.800269
▁스런	-10.800287
▁올라	-10.800365
북쪽	-10.800503
하는자	-10.800535
▁각각의	-10.801018
젤	-10.801337
▁생각에	-10.801345
▁를받은	-10.801405
▁가운데서	-10.801661
▁목표	-10.802010
▁아버지는	-10.802091
가고	-10.802298
통치체	-10.802644
고있습니까	-10.802735
보석	-10.802772
시계	-10.803046
대기	-10.803141
혁명	-10.803348
캐나다	-10.803402
▁제한	-10.803625
제단	-10.803672
▁답을	-10.803813
▁맘에	-10.803905
▁운	-10.804202
▁학	-10.804268
▁를구	-10.804299
게하는것	-10.804301
▁키스	-10.804313
▁생각해요	-10.804447
▁그런사람	-10.804572
해설	-10.804623
설치	-10.804655
하도다	-10.804727
형벌	-10.804875
▁를따르	-10.805082
▁사라	-10.805178
▁있을까	-10.805180
활용	-10.805402
▁주어진	-10.805438
▁를거두	-10.805586
▁께서자기	-10.805825
▁지정	-10.805872
헬	-10.805898
▁과연합	-10.806336
출신	-10.806537
피부	-10.806814
포로	-10.806893
전자	-10.806936
▁옛	-10.807007
▁점을	-10.807057
▁이봐요	-10.807105
▁자료	-10.807290
도저히	-10.807352
보십시오	-10.807359
▁을받는다	-10.807423
회상	-10.807820
꼭대기	-10.807840
하다는	-10.807961
▁물질	-10.808117
초래	-10.808119
▁의회	-10.808236
분별력	-10.808469
집행	-10.808584
올라가	-10.808662
하기위해	-10.808810
건조	-10.808868
▁의가장	-10.808996
▁것이니	-10.809070
아무리	-10.809088
뭐	-10.809177
▁듣	-10.809677
▁또한그	-10.809875
▁이되기	-10.809904
자마자	-10.809954
▁께감사	-10.810361
▁우상	-10.810512
모래	-10.810522
하나이다	-10.810666
시면	-10.810867
존중	-10.811028
▁배우	-10.811101
▁수준	-10.811160
뛰어	-10.811297
▁무서워	-10.811397
성향	-10.811590
▁태	-10.811687
▁되지않은	-10.812454
▁과도	-10.812576
▁복잡한	-10.812601
두개	-10.812789
▁필요해요	-10.813152
▁가그분	-10.813578
▁55	-10.813770
자문	-10.814037
분위기	-10.814088
id	-10.814203
▁없나니	-10.814235
내가	-10.814319
▁꼴	-10.814367
▁조용히	-10.814829
▁를원하	-10.814972
▁를돌보	-10.815148
깃	-10.815155
▁은누구나	-10.815180
▁한역할	-10.815200
▁에서발견	-10.815228
석유	-10.815562
리오	-10.815673
고싶어	-10.815721
▁파라오	-10.815849
기뻐하	-10.816108
▁뿐이	-10.816137
재판	-10.816273
고무	-10.816288
▁오지	-10.816419
왔읍니다	-10.816475
엄마	-10.816490
▁끔찍한	-10.816552
▁로일	-10.816657
닌	-10.816933
끝나	-10.817050
▁부부	-10.817184
대속	-10.817184
논평	-10.817245
▁달려	-10.817362
▁과하와	-10.817536
▁윌	-10.817594
▁가치	-10.817624
되게	-10.817690
▁희생	-10.817692
▁꾸	-10.818107
▁는다른사람	-10.818530
▁예언	-10.818628
▁자원	-10.818696
60	-10.819180
서서히	-10.819400
했기	-10.819952
▁을잡	-10.820181
▁은이제	-10.820387
▁34	-10.820426
투옥	-10.820477
▁영상	-10.820870
▁거라	-10.821042
부정적	-10.821237
▁오랜	-10.821300
▁그러고	-10.821355
▁저가	-10.821387
▁말하면	-10.821558
다른곳	-10.821842
▁을돌리	-10.821913
▁있네	-10.821939
▁이많이	-10.822052
영양	-10.822267
남아있	-10.822369
분이	-10.822396
한계	-10.822493
▁계약	-10.822556
▁어쩔	-10.822989
창조물	-10.823750
▁카드	-10.823833
던데	-10.824058
달린	-10.824331
ro	-10.824391
▁소리가	-10.824519
▁의심판	-10.824659
불공정	-10.824993
써	-10.825137
▁이됩니까	-10.825246
▁이면	-10.825378
왔으며	-10.825564
▁이었는가	-10.825612
살해	-10.826020
▁출발	-10.826230
▁끼	-10.826462
▁받으	-10.826605
▁이참으로	-10.826672
▁를하고	-10.826955
▁생각엔	-10.827200
법정	-10.827213
▁하신분	-10.827430
16	-10.827553
강도	-10.827558
▁흥분	-10.828008
▁하지말라	-10.828018
▁에와서	-10.828088
gt	-10.828401
▁삶	-10.828464
▁채널	-10.828873
40	-10.829164
▁없애	-10.829191
않	-10.829452
왔던	-10.829515
▁정상	-10.829517
한마리	-10.829548
▁이많은	-10.829718
▁강의	-10.829763
▁으로삼	-10.829860
▁을알려주	-10.830014
ra	-10.830241
▁어느날	-10.830891
▁43	-10.831188
▁75	-10.831285
▁도있고	-10.831324
지게	-10.831420
돌보	-10.831732
▁가죽	-10.832020
▁물체	-10.832091
▁여러분께	-10.832248
▁필터	-10.832391
여호	-10.832406
주었다	-10.832580
연주	-10.832623
▁서서	-10.832642
석방	-10.832735
▁해야할것	-10.832744
▁덮	-10.832752
▁을보기원한다면	-10.833403
▁아가씨	-10.833729
브라	-10.833831
쟁점	-10.833946
이탈리아	-10.834031
될수있습니까	-10.834144
조상	-10.834208
타협	-10.834317
▁말아요	-10.834525
세계전역	-10.834542
▁을가져	-10.834641
사회적	-10.834679
▁너희들	-10.834838
비교	-10.834841
중단	-10.834940
폭력적	-10.834943
▁한의미	-10.834976
▁일찍	-10.834992
▁기본적으로	-10.834997
▁누군가가	-10.835099
살아	-10.835121
▁인방법	-10.835398
▁우리와	-10.835440
▁안에는	-10.835545
▁며칠	-10.835561
게되었읍니다	-10.835700
▁을완전	-10.835753
▁은단순	-10.835872
수없다	-10.835918
▁하다가	-10.836020
▁년이래	-10.836042
▁대개	-10.836071
▁자들이라	-10.836232
▁을얻을수있	-10.836247
불의	-10.836272
▁보낼	-10.836388
▁를보고	-10.837298
▁방향	-10.837316
내고	-10.837926
러시아	-10.837964
▁옮겨	-10.838039
과학적	-10.838158
계명	-10.838204
▁뭐죠	-10.838414
▁물고기	-10.838435
봅니다	-10.838533
▁하느뇨	-10.838596
▁의하느님	-10.838637
일까요	-10.838717
수정	-10.838958
킬	-10.839062
▁롭게도	-10.839150
▁나눠	-10.839225
▁자넨	-10.839273
li	-10.839396
▁트	-10.839628
왕국소식	-10.839652
지마십시오	-10.839703
▁무릇	-10.839809
▁그런데도	-10.839911
문서	-10.839944
공사	-10.840107
▁과같다	-10.840234
방언	-10.840557
▁적절	-10.840686
▁텔레비젼	-10.840974
통찰력	-10.840974
▁이사망	-10.841035
알려	-10.841235
▁이모든	-10.841283
산소	-10.841373
▁의부활	-10.841485
기위해서는	-10.841497
▁it	-10.841619
을수있다	-10.841824
평온	-10.841850
▁의료	-10.842104
▁에게있어서	-10.842210
▁등을	-10.842439
▁있었을	-10.842514
▁식사	-10.842593
▁의특성	-10.842748
불필요	-10.842767
▁구멍	-10.842817
▁에게유익	-10.843123
촉	-10.843132
▁k	-10.843273
▁으로여호와	-10.843527
▁이심	-10.843565
▁대단	-10.844316
▁문제에	-10.844663
붙잡	-10.844833
센터	-10.845166
권력	-10.845188
촌	-10.845211
주저	-10.845214
사가	-10.845268
▁시키기위해	-10.845419
▁r	-10.845453
듣고	-10.845543
▁을일으키	-10.845742
지부사무실	-10.845778
다고주장	-10.845964
자들은	-10.845990
▁목소리	-10.846178
▁담당	-10.846610
쉬운일	-10.846717
하다고생각	-10.847095
▁대답하	-10.847218
▁총을	-10.847370
▁경기	-10.848021
활동적	-10.848039
롭게	-10.848077
▁다르게	-10.848318
▁가계속	-10.848487
se	-10.848515
▁을볼때	-10.848535
▁높	-10.848699
▁피터	-10.848758
혔	-10.849002
▁몇가지	-10.849011
앤	-10.849107
▁이되고	-10.849416
▁이있는것	-10.849422
▁연락처	-10.849657
전에	-10.849831
▁했지요	-10.850004
낫	-10.850423
▁검	-10.850538
나타낸	-10.850698
▁께서도	-10.850703
셔야	-10.850734
기고	-10.850808
▁을기꺼이	-10.850842
▁와같다	-10.850842
있었던것	-10.850979
지않았읍니다	-10.850999
▁드디어	-10.851213
흉	-10.851439
없다	-10.851449
▁부르는	-10.851452
매장	-10.851636
▁계시록	-10.851768
▁양의	-10.851823
스럽	-10.851936
옥	-10.852026
▁여인	-10.852174
▁지진	-10.852380
찌어다	-10.852463
▁관심을	-10.852476
롭	-10.852792
어른	-10.852841
남부	-10.852952
▁을만들	-10.852988
▁하시니	-10.853054
▁비행	-10.853080
주는것	-10.853104
연구소	-10.853168
사무실	-10.853221
▁해보겠습니다	-10.853779
도박	-10.853843
부탁	-10.853862
▁의입장	-10.853936
▁빛을	-10.854006
행성	-10.854075
▁침례	-10.854353
볼게요	-10.854712
도우	-10.854857
▁그러한사람	-10.855150
▁약속을	-10.855177
▁의여러	-10.855530
▁-2	-10.855597
▁열왕	-10.855609
줄기	-10.855731
▁긴장	-10.855736
▁끌어	-10.855980
자세	-10.856187
▁생기	-10.856383
▁의희생	-10.856502
낙태	-10.856655
▁틀림	-10.856889
▁그렇다고	-10.857423
▁을하도록	-10.857462
심하게	-10.857469
▁따르면	-10.857541
▁의숭배	-10.857558
▁필요로	-10.857621
청종	-10.857629
▁직선	-10.857714
에서부터	-10.857981
처녀	-10.858001
▁아니지만	-10.858173
물을	-10.858206
▁으로일	-10.858238
▁경쟁	-10.858645
예레미야	-10.858725
▁혈액	-10.858833
▁죽는	-10.858863
볼수있습니다	-10.858868
▁뿐만	-10.858933
▁가있습니까	-10.858973
▁한경우	-10.859058
▁이가장	-10.859159
저주	-10.859193
성분	-10.859274
▁벗	-10.859317
가운데하나	-10.859544
▁인해	-10.859597
▁을중단	-10.859638
옹호	-10.859689
▁가있음	-10.860117
이득	-10.860150
유산	-10.860510
▁보호자	-10.860528
따라	-10.860599
▁이어떤	-10.860630
다루	-10.860832
있는데	-10.861027
어떻게생각	-10.861076
그문제	-10.861078
냈다	-10.861114
▁의책	-10.861300
▁않는다면	-10.861303
▁을없애	-10.861413
떨어져	-10.861450
▁자손이	-10.861557
▁해봐	-10.861640
▁보안	-10.861687
▁세상에서	-10.861806
▁수술을	-10.861817
목록	-10.861913
▁충성	-10.862159
▁이르시되	-10.862177
▁을인도	-10.862186
깰때	-10.862203
깨어있	-10.862219
▁누구야	-10.862365
지아니	-10.862440
▁하고있음	-10.862721
▁보입니다	-10.862731
▁좀더	-10.862781
▁위에서	-10.862798
▁메세지	-10.863131
출산	-10.863532
한일	-10.863820
▁너랑	-10.863916
귀절	-10.864058
▁건지	-10.864382
통신	-10.864553
변경	-10.865052
▁악을	-10.865160
▁자매	-10.865396
▁일수	-10.865467
▁화가	-10.865479
럽	-10.865770
했으며	-10.865832
알아보	-10.865841
참하느님	-10.865973
▁변화를	-10.866042
▁아니다	-10.866272
▁되었을때	-10.866455
좌우	-10.866477
▁애가	-10.866760
할수있습니까	-10.867130
▁1980	-10.867134
운영	-10.867355
▁앉	-10.867408
하지않	-10.867718
▁동작	-10.867818
앙	-10.867892
벌레	-10.868031
▁쟤	-10.868217
▁빠른	-10.868298
마일	-10.868320
다르다	-10.868323
te	-10.868567
▁은부모	-10.868602
지라도	-10.868699
▁라고생각	-10.868712
하진	-10.868892
프리	-10.868937
▁찬	-10.869097
▁마크	-10.869392
온도	-10.869495
워치타워협회	-10.869564
as	-10.869658
▁괜찮을	-10.869735
▁13,	-10.869751
지키	-10.869796
게임	-10.869837
을지모릅니다	-10.869998
혜택	-10.870005
장비	-10.870031
▁주님으로부터	-10.870072
▁를바라	-10.870262
원수	-10.870541
▁그점	-10.871203
▁집이	-10.871303
▁10,	-10.871325
흠	-10.871507
사는것	-10.871605
▁형태	-10.871660
▁배경	-10.871735
▁가족을	-10.871875
▁그리스	-10.871915
보인다	-10.871929
▁의새로운	-10.872117
▁취	-10.872157
▁한희망	-10.872401
▁의교회	-10.872412
▁이서로	-10.872417
▁의상황	-10.872763
▁손으로	-10.872824
한때	-10.872923
다수	-10.873042
▁나타내	-10.873672
▁가되면	-10.873673
▁전화를	-10.873737
▁통과	-10.873761
▁거부	-10.873789
막대	-10.873893
▁응답	-10.873917
▁녀석	-10.874202
▁요소	-10.874383
▁관련된	-10.874534
가격	-10.874656
굳게	-10.874750
▁를받아들이	-10.875070
오늘	-10.875098
이르	-10.875243
돼	-10.875442
▁아니하	-10.875650
▁의건강	-10.875687
▁열심히	-10.875980
농부	-10.876005
▁돌아갈	-10.876017
볼때	-10.876444
▁통제	-10.876535
▁강연	-10.876759
통증	-10.876809
▁극	-10.877109
▁주님이	-10.877169
▁에이르는	-10.877244
그외	-10.877292
겨우	-10.877551
전시	-10.877784
▁가너희	-10.877813
▁산소	-10.877837
▁은땅	-10.877876
▁할까	-10.878190
사귀	-10.878410
절대	-10.878423
▁의놀라운	-10.878523
데이	-10.878565
▁딸이	-10.878679
죽어	-10.879146
▁일입니다	-10.879244
사례	-10.879342
어야합니다	-10.879408
▁엔진	-10.879633
▁메이	-10.879803
▁완성	-10.879941
▁기술을	-10.880089
교만	-10.880440
▁메리	-10.880597
이오	-10.880618
▁오후	-10.880746
걸어	-10.880777
▁빵	-10.881067
될것	-10.881139
영구적	-10.881257
▁더불어	-10.881301
갈망	-10.881400
썼	-10.881639
▁평안	-10.882112
지옥	-10.882298
▁젖	-10.882421
▁이해가	-10.882499
시절	-10.882511
▁스타일	-10.882637
청중	-10.882781
였던	-10.883183
있는사람	-10.883825
▁능력을	-10.883980
▁최	-10.884016
으라고	-10.884260
▁켜	-10.884359
▁결혼식	-10.884372
저장	-10.884541
▁유명한	-10.884655
▁이존재	-10.884881
주어	-10.885379
▁이있는사람	-10.885489
▁을합니다	-10.885774
▁선조들	-10.885983
▁있습니까	-10.886123
섬유	-10.886259
대제사장	-10.886386
▁가방	-10.886456
▁연합	-10.886867
실현	-10.886958
▁교사	-10.887131
▁싸움	-10.887159
▁뻔	-10.887387
▁불법	-10.887590
▁뜨	-10.887742
▁받았다	-10.887817
▁때문이	-10.887927
고또	-10.888129
▁하지않을수없	-10.888217
라이	-10.888412
▁의시간	-10.888422
줬	-10.888488
득	-10.888572
통로	-10.888623
▁메러디스	-10.888741
직접적	-10.888859
고안	-10.888942
켓	-10.889138
▁이지요	-10.889483
원자	-10.889709
▁의대	-10.889749
딘	-10.889995
▁의약	-10.890137
▁의양심	-10.890265
▁에게이야기	-10.890408
▁개국	-10.890417
▁에의존	-10.890454
▁중앙	-10.890585
언약	-10.890732
숲	-10.890736
▁없는데	-10.890924
▁에자신	-10.890928
▁창문	-10.891077
▁여왕	-10.891215
▁여길	-10.891391
30	-10.891607
▁지키	-10.891724
트로	-10.891948
▁루트	-10.892178
타르	-10.892390
▁할수있었다	-10.892555
예언적	-10.892557
생생	-10.892606
겠고	-10.892623
그러한일	-10.892768
▁은영적	-10.892897
▁말하자면	-10.892988
▁l	-10.893114
그책	-10.893265
▁얼	-10.893823
▁본지	-10.894126
▁피를	-10.894288
우리시대	-10.894337
▁시계	-10.894547
잠시	-10.894656
떨어지	-10.894691
▁앉아서	-10.894707
▁누구나	-10.894997
▁부분은	-10.895231
▁워싱턴	-10.895705
▁모습	-10.895977
이룩	-10.896004
충돌	-10.896458
갖	-10.896547
▁두가지	-10.896930
보수	-10.897076
▁의사도	-10.897100
탐	-10.897134
규	-10.897215
년동안	-10.897224
혹	-10.897289
▁으로된	-10.897301
▁41	-10.897357
▁께서말씀	-10.897404
했으니	-10.897502
부르	-10.897626
이웃사람	-10.898066
▁모르겠지만	-10.898068
지않습니까	-10.898087
고집	-10.898286
▁의주	-10.898291
용어	-10.898381
▁이오	-10.898386
▁에더해	-10.898389
▁120	-10.898529
▁여름	-10.898534
찮	-10.898658
부가	-10.898829
▁의영혼	-10.898976
▁22.	-10.899350
났다	-10.899532
▁했던것	-10.899721
할게요	-10.899770
지않는것	-10.900036
오히려	-10.900075
했지요	-10.900355
례	-10.900370
단호	-10.900644
▁아이들을	-10.900753
일으켰	-10.900794
&	-10.901193
▁어둠	-10.901674
▁되겠죠	-10.902073
전시간	-10.902391
▁사무엘	-10.902704
기둥	-10.902754
▁에서열린	-10.903307
켜	-10.903718
▁지불	-10.903839
점을	-10.903977
쳤다	-10.904148
▁조롱	-10.904297
▁조심해	-10.904370
수고	-10.904551
으니까요	-10.904655
▁죽였	-10.904907
하시겠습니까	-10.905093
▁를낳	-10.905323
승객	-10.905368
당한	-10.905370
▁죽인	-10.905401
▁의선물	-10.905494
▁보일	-10.905667
()	-10.905713
▁에대한하나님	-10.905928
▁권능과	-10.906149
고발	-10.906276
텔	-10.906425
▁을쓰	-10.906845
▁지파	-10.907004
무력	-10.907078
탁	-10.907220
금을	-10.907325
물었습니다	-10.907700
▁만들었	-10.907793
손님	-10.907905
▁화학	-10.908051
▁께서주신	-10.908055
▁도와줘	-10.908222
▁귀를	-10.908264
▁만나서	-10.908445
극적	-10.908463
▁를배우	-10.908778
▁에그분	-10.908904
살피	-10.908919
▁크리스티나	-10.908927
▁가매우	-10.909124
▁계속해서	-10.909296
▁을대	-10.909301
▁듣는	-10.909333
▁방향으로	-10.909739
생겼	-10.909775
▁데이터를	-10.909821
▁20.	-10.909853
적합	-10.909933
간구	-10.909943
▁여기에서	-10.909956
군데	-10.910292
진것	-10.910359
▁의식	-10.910360
▁시기	-10.910469
세워	-10.910477
▁이었는데	-10.910510
체계	-10.910544
지못한	-10.910640
▁이어서	-10.910708
직후	-10.910869
▁했잖아	-10.911220
떡	-10.911234
롤	-10.911238
▁대적	-10.911288
▁났	-10.911687
▁(‘	-10.911913
▁하시겠습니까	-10.911984
▁좋았	-10.912112
받게될것	-10.912707
▁성인	-10.913465
▁앤	-10.913572
쇠	-10.913575
▁에게주	-10.913615
▁5000	-10.913741
▁수행	-10.913877
본다	-10.913997
▁아메리카	-10.914114
▁된다는	-10.914135
감독	-10.914146
호수	-10.914207
▁없잖아	-10.914213
정상	-10.914340
▁에위치	-10.914349
▁코드	-10.914645
스코	-10.914670
▁실망	-10.914770
▁여섯	-10.915000
몽	-10.915033
렐	-10.915044
▁가난한	-10.915092
표징	-10.915179
▁만난	-10.915235
산출	-10.915299
보상	-10.915323
지며	-10.915338
▁더우기	-10.915447
▁은영원	-10.915510
▁로써	-10.915545
▁오만	-10.915604
호소	-10.915607
▁던져	-10.915813
놨	-10.915883
▁을알려준다	-10.916314
끓	-10.916514
삭	-10.916524
▁외부	-10.916566
자면	-10.916812
▁에귀	-10.916837
상을	-10.917112
일상생활	-10.917165
조롱	-10.917184
▁멸망케	-10.917374
▁흠	-10.917503
▁대중	-10.917629
ate	-10.917631
있습니까	-10.917691
모범	-10.917713
방문객	-10.917839
더미	-10.917870
▁의씨	-10.917964
▁충돌	-10.917967
바빌론	-10.918083
▁나누기	-10.918091
출생	-10.918105
소비	-10.918118
충동	-10.918141
▁을받을	-10.918233
하셨다	-10.918379
▁영혼을	-10.918383
구타	-10.918406
▁너에게	-10.918500
▁28:	-10.918518
▁24.	-10.918593
▁환	-10.918641
▁는하지만	-10.918659
사항	-10.918678
▁는이제	-10.918751
▁재미있	-10.919130
다가오는	-10.919223
▁1960	-10.919302
▁이르러	-10.919441
독립	-10.919461
▁“[	-10.920074
▁상당히	-10.920204
▁떨	-10.920213
▁뉴	-10.920289
지점	-10.920350
▁에사는사람	-10.920494
▁다시는	-10.920504
▁하더라도	-10.920519
▁잊	-10.920571
시아	-10.920747
▁의견	-10.920836
▁헤이	-10.921144
▁완벽한	-10.921297
성과	-10.921362
붓	-10.921391
있으므로	-10.921432
신부	-10.921772
짧	-10.921866
측정	-10.921912
▁물어	-10.922032
▁정직	-10.922282
명성	-10.922523
복지	-10.922590
▁노인	-10.922737
▁믿음이	-10.922823
련	-10.922878
▁에게필요	-10.922930
▁친구들	-10.922948
익숙	-10.923300
▁한국	-10.923326
▁류	-10.923411
었다면	-10.923455
보여주	-10.923498
소유물	-10.923533
▁않도록	-10.923565
▁과의관계	-10.923566
▁욕	-10.923631
▁은실제	-10.923889
▁은이미	-10.923930
알려지	-10.924006
▁생존	-10.924153
인근	-10.924215
▁소련	-10.924225
▁의하나	-10.924230
▁은거의	-10.924573
였는데	-10.924595
▁입을	-10.924626
▁은무슨	-10.924734
바라	-10.924806
물속	-10.924844
▁12,	-10.925051
제목	-10.925180
중독	-10.925265
▁할기회	-10.925341
청소	-10.925478
▁데릭	-10.925535
▁계획이	-10.926371
넓은	-10.926451
시어	-10.926497
▁출력	-10.926682
▁사용하기	-10.926862
요법	-10.926876
▁는다른	-10.926990
▁수천	-10.927011
▁밖에없	-10.927081
▁의변화	-10.927291
코끼리	-10.927530
가스	-10.927538
▁에비해	-10.927644
▁사이트	-10.927736
▁내용을	-10.927847
▁으로추산	-10.927962
으세요	-10.928099
▁점이	-10.928145
도와주	-10.928274
▁19,	-10.928442
조성	-10.928460
모아	-10.928485
▁라디오	-10.928559
▁낮은	-10.928617
▁info	-10.928634
넬	-10.928843
외국인	-10.928960
▁이성취	-10.929243
롬	-10.929487
으려는	-10.929500
직원	-10.929695
▁모를	-10.929736
▁지점	-10.929838
완벽	-10.929871
▁뒷	-10.929876
▁은종종	-10.929922
▁에대한두려움	-10.930035
▁축하	-10.930037
▁배웠	-10.930141
다구요	-10.930253
개개인	-10.930346
악인	-10.930402
▁텐데	-10.930520
좌	-10.930563
25	-10.930614
▁군인	-10.930987
늘어나	-10.931178
▁그릇	-10.931220
▁부를	-10.931542
단정	-10.931839
▁연료	-10.931937
▁을알려줍니다	-10.932309
▁흑인	-10.932343
▁만듭니다	-10.932456
달성	-10.932524
▁완료	-10.932611
▁지배	-10.932710
▁신체	-10.932735
X	-10.932739
▁기뻐	-10.932768
▁부여	-10.932854
▁이것들은	-10.933197
라고요	-10.933342
▁에대해서도	-10.933368
▁의마련	-10.933440
음이	-10.934033
▁들려	-10.934035
평생	-10.934152
둬	-10.934166
▁이전의	-10.934293
▁왔다	-10.934419
▁뭔데	-10.934704
▁의기초	-10.935058
▁은하늘	-10.935145
▁에있었던	-10.935395
붕괴	-10.935395
▁핵심	-10.935466
이든	-10.935488
지도모릅니다	-10.935612
▁링크	-10.935788
▁러	-10.935813
▁고통스러운	-10.935841
많다	-10.935919
할까	-10.936258
맹	-10.936402
▁법을	-10.936481
염소	-10.936585
▁의목표	-10.936910
향상	-10.936958
▁밑에	-10.937275
추세	-10.937531
▁콘	-10.937568
비참	-10.937778
물품	-10.937851
▁보겠습니다	-10.937901
▁주님을	-10.937901
▁의어떤	-10.938126
▁중간	-10.938182
낡은	-10.938593
다르	-10.938680
▁여러분들은	-10.938786
▁를그	-10.938955
▁지지	-10.939124
▁받기	-10.939163
▁되는일	-10.939192
▁였읍니다	-10.939384
묵	-10.939703
취급	-10.939752
공중	-10.939797
▁에하느님	-10.939946
졌어	-10.939970
▁과마찬가지	-10.940088
▁의충성	-10.940241
조치	-10.940275
국제적	-10.940592
▁을결코	-10.940694
▁주사	-10.940776
시각	-10.940782
매주	-10.940802
▁꺼	-10.940885
▁할아버지	-10.940935
▁를말	-10.941332
▁제품	-10.941358
▁뿌리	-10.941467
일요일	-10.941506
솔로몬	-10.941542
▁속성	-10.941662
▁색깔	-10.941799
화학	-10.941886
▁을기울이	-10.942036
할거야	-10.942341
릿	-10.942505
▁세대	-10.942511
버스	-10.942559
▁원하지	-10.943090
▁의기름부음	-10.943288
▁는지금	-10.943393
구속	-10.943465
▁근처	-10.943781
하다가	-10.943786
▁Y	-10.944189
▁단순히	-10.944541
▁을가르치	-10.944830
▁의동료	-10.944841
기근	-10.945108
소금	-10.945237
▁프로그램을	-10.945251
수리	-10.945639
줄것	-10.945660
▁봐야	-10.945684
▁을여호와	-10.945789
▁물건을	-10.945793
▁가족이	-10.946076
시키고	-10.946159
상대	-10.946186
외국	-10.946427
시에	-10.946534
▁에들어	-10.946587
▁이증가	-10.946589
마태	-10.946681
껏	-10.946733
▁없지만	-10.947063
우드	-10.947220
▁롯	-10.947653
▁줄을	-10.947775
▁인간이	-10.947788
사막	-10.947845
괴롭히	-10.948039
▁일주일	-10.948042
갈때	-10.948128
▁아이들은	-10.948420
▁경제적	-10.948540
한데	-10.948585
▁흉	-10.948721
▁의모습	-10.948901
▁통신	-10.948914
▁세계적	-10.949039
▁의중요성	-10.949088
세속	-10.949106
천적	-10.949912
▁하시기바랍니다	-10.949923
▁인이유	-10.949979
▁길에서	-10.950287
출발	-10.950295
경외	-10.950421
▁프리	-10.950559
▁시민	-10.950768
▁도없고	-10.950880
체제	-10.950973
▁사막	-10.950992
▁살려	-10.951051
나름	-10.951078
▁의마지막	-10.951265
하네요	-10.951472
▁건너	-10.951735
▁시키는일	-10.951821
셋	-10.952127
▁헨리	-10.952166
▁를차지	-10.952237
▁탭	-10.952277
▁를제시	-10.952860
졌고	-10.953339
▁일도	-10.953399
쉽	-10.953471
되었을것	-10.953622
▁분리	-10.953790
▁어찌하여	-10.954143
사명	-10.954250
▁한세상	-10.954324
애굽	-10.954431
는다면	-10.954608
절정	-10.954762
해보	-10.954912
▁하기위해서	-10.955092
암시	-10.955230
▁종교적	-10.955309
비율	-10.955341
▁게임을	-10.955431
▁얼음	-10.955626
중립	-10.955750
▁이해할	-10.955901
랐	-10.955933
굳	-10.956067
▁하와	-10.956231
▁하지않았습니다	-10.956326
시편필자	-10.956415
▁인쇄	-10.956547
▁테러	-10.956671
을지모른다	-10.956672
배교	-10.956744
▁짜리	-10.956910
▁은지금	-10.956928
▁하시는것	-10.956961
▁번역	-10.957165
내내	-10.957314
짧은	-10.957314
▁나가서	-10.957424
▁붙이	-10.957463
어야한다	-10.957781
▁낼	-10.957855
▁의벗	-10.957941
욕구	-10.958110
▁이함께	-10.958387
▁미국의	-10.958508
▁님	-10.958588
근무	-10.958659
뉴스	-10.958827
▁에게이렇게말	-10.959042
▁않죠	-10.959162
▁의표현	-10.959571
겠소	-10.959598
▁을더욱	-10.959710
▁면참조	-10.959713
예방	-10.959782
▁마저	-10.959983
스턴	-10.960140
▁하셨습니까	-10.960637
하므로	-10.960649
하길	-10.960758
체중	-10.961305
▁수를	-10.961538
▁파이	-10.961576
▁선택하십시오	-10.961596
고린도	-10.961724
니스	-10.961990
▁한믿음	-10.962094
버리는	-10.962115
폭로	-10.962257
▁가되는것	-10.962461
배부	-10.962478
차원	-10.962571
토록	-10.962656
▁하실수있	-10.962665
▁임무	-10.962676
의뢰	-10.962725
▁했읍니다	-10.962782
▁회전	-10.962905
았어요	-10.963100
기부	-10.963284
이예요	-10.963387
▁알리	-10.963463
▁정확	-10.963753
▁을지원	-10.963814
예측	-10.963880
▁해볼	-10.964144
저술가	-10.964165
아시아	-10.964364
▁비켜	-10.964622
연구결과	-10.964767
웨이	-10.964895
▁기억나	-10.965061
▁안정	-10.965140
▁만들었습니다	-10.965172
급속	-10.965248
▁사용합니다	-10.965390
▁과는달리	-10.965566
아나	-10.965752
▁푸	-10.965858
▁도와줄	-10.965903
타이	-10.966081
▁화장실	-10.966574
어리	-10.966590
▁배반	-10.966788
▁시작합니다	-10.966812
▁쿠	-10.966927
▁을받을수있	-10.967005
▁뭐지	-10.967011
▁를누리	-10.967112
우울	-10.967386
거의모든	-10.967406
▁경찰이	-10.967412
는증거	-10.967664
보시기	-10.967868
제작	-10.967922
▁사냥	-10.967988
▁압력	-10.968081
▁의진리	-10.968114
하고있다	-10.968382
▁내려가	-10.968518
근심	-10.968616
▁라는이름	-10.968616
37:	-10.968753
작품	-10.968824
▁권능	-10.968839
국제연합	-10.968844
대비	-10.968991
▁않는다	-10.969197
▁과땅	-10.969207
▁취하	-10.969303
남성	-10.969381
▁클	-10.969535
▁홀로	-10.969561
모순	-10.969859
부류	-10.970285
▁모세에게	-10.970364
불멸	-10.970563
▁이없습니다	-10.970623
▁비난	-10.970778
연기	-10.970983
▁가없습니다	-10.971066
▁을살	-10.971302
▁을위해서	-10.971334
▁당하	-10.971489
▁인견해	-10.971793
▁현상	-10.972042
▁어쩌	-10.972105
▁여호와하느님	-10.972159
받았	-10.972343
부모님	-10.972497
여름	-10.972554
▁결합	-10.972571
영문	-10.972719
▁정원	-10.972985
▁을하면서	-10.973082
▁행동을	-10.973251
말라	-10.973337
흑인	-10.973343
ir	-10.973375
북부	-10.973452
▁을성취	-10.973572
▁가스	-10.973607
▁아무리	-10.973812
▁된바	-10.973865
계신	-10.973886
▁이거나	-10.974126
▁한계	-10.974422
징조	-10.974447
해당	-10.974549
▁던지	-10.974698
줄게	-10.975008
나온다	-10.975011
80	-10.975191
▁은모든	-10.975320
▁을취	-10.975459
▁불리는	-10.975657
▁주변	-10.975830
건지	-10.975860
▁TED	-10.976204
입을	-10.976217
가는것	-10.976298
빨	-10.976356
유행	-10.976404
보죠	-10.976556
괴	-10.976634
▁의발	-10.976818
타임	-10.976971
▁에서사용	-10.977036
▁밑	-10.977136
셨을때	-10.977172
▁아래에	-10.977282
▁그책	-10.977417
▁집단	-10.977433
▁명이상	-10.977541
▁떨어진	-10.977548
▁선수	-10.977565
성귀	-10.977598
▁지어	-10.977621
▁그렇게하는것	-10.977626
▁과정을	-10.977660
▁1950	-10.977662
발달	-10.977787
▁떠날	-10.977829
▁4000	-10.977847
는데도	-10.978034
게될때	-10.978124
부상	-10.978187
신비	-10.978382
▁개념	-10.978440
▁를당하	-10.978515
▁지옥	-10.978583
그당시	-10.978871
▁에의해서	-10.978975
▁의언어	-10.978980
▁이전혀없	-10.979082
민감	-10.979231
창세기	-10.979285
할필요	-10.979364
많	-10.979407
영향력	-10.979477
받아들이	-10.979481
▁혀	-10.979669
▁를숭배	-10.979967
할수있	-10.979986
▁가아니	-10.980378
▁가내	-10.980392
▁도달	-10.980614
▁갖	-10.980645
줘요	-10.980767
선전	-10.981168
▁제도	-10.981257
▁짜	-10.981429
▁잠깐만요	-10.981434
노동	-10.981586
▁이었읍니까	-10.981795
▁무서운	-10.981864
▁의권위	-10.981947
가정생활	-10.982043
상당수	-10.982051
▁진실을	-10.982079
▁웹사이트	-10.982299
▁바뀌	-10.982433
▁동일	-10.982500
매력	-10.982572
다른양	-10.982581
▁금지	-10.982595
주지	-10.982636
봄	-10.982885
영매술	-10.982905
겪은	-10.983155
▁가있는것	-10.983311
▁민	-10.983441
낭	-10.983493
기울	-10.983718
대륙	-10.984005
▁충만	-10.984291
멕시코	-10.984309
▁설	-10.984354
긍정적	-10.984378
리지	-10.984411
고수	-10.984496
▁역할을	-10.984530
▁의남편	-10.984553
좋아하는	-10.984560
▁독립	-10.984588
▁을이렇게	-10.984667
▁더나아가	-10.985047
▁방황	-10.985296
끌려	-10.985678
가톨릭교회	-10.985842
▁진정한	-10.986049
댔	-10.986198
으려면	-10.986435
▁사람도	-10.986524
그러한것	-10.986552
▁같고	-10.986600
보건	-10.986651
▁♫	-10.986748
스를	-10.986840
▁유명	-10.987007
굽	-10.987063
토의	-10.987528
▁요나	-10.987596
바뀌	-10.987624
▁만날	-10.987655
▁겨우	-10.987666
▁고용	-10.987685
▁침대	-10.987800
꼬	-10.988117
▁거짓말을	-10.988461
문명	-10.988641
잇	-10.988723
▁마법	-10.988768
▁는현재	-10.988991
▁룻	-10.989174
토양	-10.989534
▁알았는데	-10.989554
그지역	-10.989841
대항	-10.990440
▁이식	-10.990772
런던	-10.990834
▁입은	-10.990852
▁일정	-10.990936
ge	-10.991025
맡기	-10.991029
외모	-10.991081
▁강력한	-10.991132
지붕	-10.991189
옮기	-10.991390
▁아나	-10.991394
운반	-10.991470
▁디모데전	-10.991491
▁절대로	-10.991499
▁였으며	-10.991722
▁가져와	-10.991928
▁은특히	-10.992049
지않는다면	-10.992144
▁롭	-10.992360
협력	-10.992372
▁즐기	-10.992595
통계	-10.992682
할만한	-10.992730
▁이있다는것	-10.992872
▁가주	-10.993040
벗어나	-10.993120
수있으며	-10.993140
좋지않은	-10.993229
▁신발	-10.993306
▁세워	-10.993642
▁열기	-10.993671
옴	-10.993935
▁사무실	-10.994101
▁온라인	-10.994104
▁은마치	-10.994109
악한자	-10.994186
▁촬영	-10.994248
▁혼	-10.994392
대개	-10.994464
어도	-10.994568
공원	-10.994660
버렸습니다	-10.994752
▁은정말	-10.994819
▁은아마	-10.994833
고향	-10.994979
랍	-10.995096
명을	-10.995242
되었고	-10.995261
이자	-10.995276
했을때	-10.995364
▁이잘	-10.995401
었는가	-10.995469
▁가넘는	-10.995529
▁버리	-10.995893
▁글쎄요	-10.996087
들입니다	-10.996096
▁트랙	-10.996167
올것	-10.996316
력을	-10.996450
▁의입	-10.996718
텐데	-10.996785
▁쏘	-10.996795
가죽	-10.996981
관심사	-10.997452
행하는	-10.997475
▁비용	-10.997615
만들어	-10.997750
▁에기여	-10.997764
▁자세히	-10.997807
▁하되	-10.997824
▁녹	-10.997995
▁잊지	-10.998086
▁14;	-10.998459
▁절반	-10.999065
▁하였던	-10.999312
▁에걸린	-10.999540
▁죽은자	-10.999731
▁의물	-10.999875
▁와일치	-11.000070
▁불을	-11.000103
▁을베푸	-11.000179
재물	-11.000244
▁명의	-11.000344
보람	-11.000488
▁버려	-11.000958
▁읽	-11.001115
▁지켜보	-11.001145
징	-11.001232
▁표준	-11.001249
▁차례	-11.001343
▁을맡	-11.001492
뜰	-11.001657
▁점심	-11.001660
▁이아니었습니다	-11.001771
90	-11.001832
더잘	-11.001842
있었	-11.002048
회중성원	-11.002169
▁이번엔	-11.002209
롯	-11.002272
J	-11.002446
읍	-11.002464
다스리	-11.002569
에게로	-11.002765
▁29.	-11.003175
정결	-11.003201
겠군요	-11.003508
▁여자를	-11.003577
줄래	-11.003851
▁빌어먹을	-11.003974
▁사랑을	-11.004051
▁짧은	-11.004097
▁진정해	-11.004113
하잖아	-11.004186
▁믿음으로	-11.004221
▁한목적	-11.004349
감당	-11.004373
▁하게하는	-11.004400
수로	-11.004685
▁for	-11.004818
▁에도달	-11.004832
▁손가락	-11.004871
▁고정	-11.004964
두려워	-11.005017
줄어들	-11.005102
▁메뉴	-11.005173
▁이누구	-11.005225
▁똑같이	-11.005263
체험	-11.005290
먹고	-11.005473
▁재미	-11.005579
살아가	-11.005646
낙담	-11.005753
할례	-11.005836
긴급	-11.006116
때문에	-11.006124
드릴	-11.006276
개최	-11.006309
om	-11.006325
▁16;	-11.006416
▁아시	-11.006598
상인	-11.006684
▁전문	-11.006720
더러	-11.006886
▁셀	-11.007003
▁떨어지	-11.007102
▁를잡	-11.007290
하시면	-11.007310
▁우편	-11.007393
▁한노력	-11.007657
▁의상징	-11.007730
▁46	-11.007733
금속	-11.007743
▁는단지	-11.007820
▁에관해이야기	-11.007881
▁의적	-11.008348
기념식	-11.008599
▁을함께	-11.008704
▁감정적	-11.008865
▁하매	-11.008919
바벨론	-11.009091
▁체크	-11.009101
▁공개	-11.009211
▁맞춰	-11.009225
▁하시면서	-11.009255
룰	-11.009260
11	-11.009281
식탁	-11.009427
▁음식을	-11.009481
회당	-11.009485
육적	-11.009738
▁아이콘	-11.009748
랍니다	-11.009879
죽이	-11.010032
까봐	-11.010045
▁시킬수있	-11.010069
▁The	-11.010143
▁아파트	-11.010303
내려가	-11.010544
Y	-11.010586
▁작전	-11.010619
분별	-11.010631
▁죄지은	-11.010735
기본	-11.010825
▁소유	-11.011067
▁해당	-11.011092
▁는결코	-11.011388
재정적	-11.011608
▁에대한그	-11.011763
▁해주었다	-11.011969
앉	-11.012027
란다	-11.012046
▁휴	-11.012070
▁을돕	-11.012120
돌려	-11.012232
▁직	-11.012283
▁경우에	-11.012491
전세계적	-11.012504
▁한행실	-11.012511
연료	-11.012918
▁다음과	-11.013006
정원	-11.013046
고립	-11.013197
▁의관심	-11.013492
저지른	-11.013524
처지	-11.013535
한쪽	-11.013607
복음서	-11.013654
글자	-11.013803
서도	-11.014071
침대	-11.014182
카드	-11.014425
▁있으니까	-11.014487
지파	-11.014527
▁박사님	-11.014564
화산	-11.014607
이사	-11.014691
▁자들의	-11.014713
위생	-11.014935
살때	-11.015175
▁그럼에도불구하고	-11.015236
▁옥	-11.015336
스카	-11.015346
▁주문	-11.015696
▁무덤	-11.016002
▁최소한	-11.016032
▁의저서	-11.016216
잃	-11.016226
▁알려주	-11.016315
▁대학교	-11.016422
▁봉	-11.016626
연습	-11.016670
▁끝났	-11.016725
▁들어가서	-11.016860
▁증오	-11.017088
▁기름부음	-11.017317
▁주목	-11.017335
▁위험한	-11.017452
▁증언	-11.017651
▁있더라	-11.018020
▁찾아야	-11.018659
▁저런	-11.018721
▁가될	-11.018809
9;	-11.018881
▁머리에	-11.018989
▁언급	-11.019032
▁거다	-11.019117
▁기회가	-11.019173
있으면	-11.019197
▁이들이	-11.019394
▁47	-11.019824
▁나누어	-11.019835
▁을준비	-11.019933
눌	-11.020013
▁그것도	-11.020267
어느때	-11.020334
▁나되는	-11.020374
▁에자기	-11.020417
간직	-11.020607
▁투표	-11.020695
남쪽	-11.020729
▁기적	-11.020747
▁is	-11.021096
▁커다란	-11.021232
정책	-11.021275
최악	-11.021324
▁만일우리	-11.021354
▁일이죠	-11.021388
▁을매우	-11.021657
▁on	-11.021718
▁하고있었다	-11.021856
므	-11.022346
제조	-11.022688
▁영광을	-11.022882
▁거역	-11.022939
▁들었어	-11.023238
▁베드로전	-11.023316
▁이왜	-11.023335
펜	-11.023427
만의	-11.023481
▁받아들이	-11.023483
▁이후로	-11.023761
▁실패했습니다	-11.023823
휴	-11.023825
▁제외	-11.023912
▁톰	-11.023936
▁스타	-11.024106
시는것	-11.024171
▁양쪽	-11.024341
▁모여	-11.024508
▁관심이	-11.024590
▁교인	-11.024686
▁가져올	-11.024707
윤리	-11.025022
▁을낳	-11.025025
▁죄악	-11.025114
▁의의로운	-11.025122
▁한정성	-11.025156
흘러	-11.025229
▁이없을것	-11.025289
▁으로볼때	-11.025457
▁한견해	-11.025503
▁에있는여호와	-11.025775
▁월호	-11.025886
부드럽게	-11.025947
정교	-11.025961
▁도마찬가지	-11.026237
▁세우	-11.026244
▁일어났	-11.026285
▁의책임	-11.026299
물었다	-11.026488
본문	-11.026488
▁#	-11.026622
▁갔다	-11.026670
▁국민	-11.026746
▁읽을	-11.026898
▁니라	-11.027055
▁을범하	-11.027059
▁버전	-11.027101
▁의친구	-11.027171
관광객	-11.027798
▁이하나	-11.027973
입원	-11.027993
가리	-11.028034
▁결론	-11.028228
▁에더	-11.028256
이책	-11.028297
방출	-11.028618
▁심각한	-11.028753
였지	-11.028792
▁파트너	-11.028962
14	-11.028982
나갈	-11.028983
쳐서	-11.029260
아비	-11.029387
하니까	-11.029516
베드로첫째	-11.029695
베델	-11.029733
▁에계신	-11.029743
▁작가	-11.029891
▁오고	-11.030010
용납	-11.030033
전문	-11.030035
▁이너무	-11.030059
▁불과	-11.030303
그러한사람	-11.030331
났습니다	-11.030464
야고보	-11.030472
▁냄새	-11.030478
▁탄소	-11.030544
열대	-11.030581
지체	-11.030630
▁을허락	-11.030695
▁제어	-11.030697
▁그것들은	-11.030788
▁에미국	-11.030901
화려	-11.030917
▁피해자	-11.030948
겠지요	-11.031077
ol	-11.031081
힘든	-11.031197
소위	-11.031234
▁선거	-11.031364
▁이있고	-11.031453
▁28,	-11.031808
주면	-11.031943
대표자	-11.032235
집중	-11.032254
▁모래	-11.032383
▁숫자를	-11.032397
▁공연	-11.032573
▁순결	-11.032585
▁대해서는	-11.032731
▁필요는	-11.033230
▁도없이	-11.033353
▁대상	-11.033854
▁경배하	-11.034070
부담	-11.034195
여서	-11.034212
▁의압력	-11.034273
그토록	-11.034422
▁자전거	-11.034565
후대	-11.034584
영적양식	-11.034709
약한	-11.034714
삼림	-11.035083
진단	-11.035281
▁차지	-11.035300
▁집안	-11.035316
▁으로써그	-11.035324
▁으로돌아가	-11.035508
▁일뿐	-11.035620
▁그린	-11.035797
▁의비유	-11.035952
▁하지마	-11.036183
▁이없었다	-11.036218
▁암호화	-11.036228
▁춤	-11.036576
▁은제	-11.036930
순수	-11.036935
▁1919	-11.037124
▁선생님이	-11.037218
▁옆	-11.037412
트라	-11.037663
▁않지만	-11.037773
정성	-11.037831
▁책임	-11.038010
▁성서를	-11.038169
▁쿠키	-11.038322
▁드리고	-11.038378
▁와있는	-11.038781
▁그들에게는	-11.038842
▁의대상	-11.038931
줘야	-11.038944
▁전파	-11.039047
모으	-11.039248
▁의위험	-11.039274
▁과더불어	-11.039320
▁에게어떻게	-11.039394
▁을맞추	-11.039718
▁이모든것	-11.040121
하였는데	-11.040144
저항	-11.040223
이스라엘백성	-11.040237
▁는한	-11.040411
▁닥쳐	-11.040467
▁슬	-11.040516
는거	-11.041167
▁히그	-11.041267
갈수록	-11.041267
함유	-11.041392
먹을것	-11.041720
중지	-11.042315
▁측	-11.042439
▁약간의	-11.042532
▁가없었다	-11.042609
▁창조하	-11.042803
다하더라도	-11.042925
▁공장	-11.042960
어렸을때	-11.042972
▁쫓아	-11.043670
▁을죽이	-11.043987
▁삶의	-11.044124
▁해볼때	-11.044323
바퀴	-11.044364
지나가	-11.044435
상품	-11.044498
▁따르	-11.044605
그러하다	-11.044632
▁말했죠	-11.044652
▁돼지	-11.044687
▁성적	-11.044796
▁황	-11.044848
▁원하	-11.044862
요구조건	-11.045054
▁하노라	-11.045078
▁를가지	-11.045177
옛	-11.045274
▁재판	-11.045298
▁될거야	-11.045373
▁이좋다	-11.045459
▁인생을	-11.045552
ill	-11.045915
▁하므로	-11.046027
▁일반적인	-11.046168
▁걸로	-11.046209
▁이이러	-11.046220
듯한	-11.046236
그럴	-11.046259
▁이아니었다	-11.046302
▁열정	-11.046341
▁환영	-11.046350
▁봅니다	-11.046479
하였지만	-11.046625
▁을하는사람	-11.046769
▁알아서	-11.046924
기후	-11.047018
▁그말	-11.047033
▁해가	-11.047130
▁의권리	-11.047424
▁히이해	-11.047707
▁이책	-11.047790
▁180	-11.047900
▁을들어	-11.047999
다니는	-11.048060
살아남	-11.048079
▁문장	-11.048211
▁나아가	-11.048213
스테	-11.048290
▁싶다면	-11.048305
▁해줄것	-11.048307
보아	-11.048554
▁은대개	-11.048801
▁비율	-11.048903
▁이좋	-11.048944
▁줍니다	-11.049032
부위	-11.049047
▁후회	-11.049121
▁그것들을	-11.049398
남은자	-11.049703
▁me	-11.049939
하기로	-11.050006
▁을향해	-11.050071
▁의빛	-11.050213
입증	-11.050445
온화	-11.050465
지어다	-11.050549
고용주	-11.050716
▁통계	-11.050763
고리	-11.050817
공동	-11.050853
▁석유	-11.050950
질때	-11.051141
우는	-11.051195
스톤	-11.051363
역사적	-11.051418
▁의숭배자	-11.051600
고백	-11.051634
둘러싸	-11.051678
여러차례	-11.051802
▁가능성이	-11.051928
▁대표	-11.052037
큐	-11.052166
이나라	-11.052338
▁시편필자	-11.052365
▁육체	-11.052525
싹	-11.052566
▁신호	-11.052614
지정	-11.052684
▁것인지	-11.052713
카르	-11.052781
▁보러	-11.053145
▁위치를	-11.053301
▁손상	-11.053344
브라질	-11.053485
ation	-11.053668
녹	-11.053727
▁450	-11.053928
▁세계에서	-11.054298
운전자	-11.054416
▁구하는	-11.054590
▁를받는	-11.054613
▁무엇일까요	-11.054643
였을	-11.054687
▁뛰	-11.054845
선생	-11.054850
▁하시기	-11.054914
▁콩	-11.054934
미움	-11.054972
▁하든	-11.055283
함은	-11.055498
▁에계속	-11.055594
▁추방	-11.055799
격렬	-11.055958
▁되어야	-11.056551
미국인	-11.056646
똑같은	-11.056911
▁를한	-11.056964
치명적	-11.057028
추산	-11.057109
▁나왔	-11.057240
▁그녀에게	-11.057369
겠느뇨	-11.057384
▁보다훨씬	-11.057680
과분	-11.057700
▁이었지만	-11.057840
▁되고있습니다	-11.057962
▁과비교	-11.058041
법원	-11.058242
▁의편지	-11.058289
한다는것	-11.058378
▁있었노라	-11.058553
높여	-11.058762
▁의전쟁	-11.058852
신중	-11.058966
▁행하	-11.059197
▁까	-11.059258
▁하게행동	-11.059299
▁실례	-11.059486
믿는사람	-11.059499
▁한모든	-11.060023
▁맞추	-11.060032
▁목숨을	-11.060284
▁여러분들	-11.060304
들로부터	-11.060542
믿을만한	-11.060708
▁혹	-11.061054
차별	-11.061105
타당	-11.061307
▁제작	-11.061675
▁1/2	-11.061964
▁으로보	-11.062001
▁표면	-11.062173
▁법칙	-11.062249
▁데려다	-11.062341
▁에서만	-11.062360
게됩니까	-11.062502
▁록	-11.062585
▁디렉터리	-11.062809
▁꼬	-11.062823
▁뿐만아니라	-11.062837
▁얻게	-11.062972
공식	-11.063056
탄생	-11.063239
▁죽게	-11.063548
화학물질	-11.063551
▁최근에	-11.063578
윤	-11.063668
닐	-11.063681
으실	-11.063683
여러세기	-11.063743
▁멍청한	-11.064010
▁말라고	-11.064014
▁뱀	-11.064094
생명체	-11.064120
▁자기의	-11.064425
▁을직접	-11.064758
▁곳은	-11.064921
▁받아야	-11.064924
▁낭비	-11.064928
밝히	-11.064931
괴로움	-11.065188
▁히살	-11.065255
▁만해도	-11.065346
▁방황케	-11.065354
▁간호사	-11.065492
앨	-11.065595
내린	-11.065614
▁는약	-11.065821
찍	-11.065834
성경연구생	-11.065892
▁죄인들	-11.065900
▁의세계	-11.065912
▁트리	-11.065996
희랍	-11.066005
대규모	-11.066241
▁따르는	-11.066353
아마도	-11.066426
▁악한	-11.066436
수감자	-11.066486
무척	-11.066585
▁서로를	-11.066857
보였다	-11.066963
▁의형상	-11.066972
▁가다	-11.067193
▁고등학교	-11.067277
▁간다	-11.067353
▁장식	-11.067981
▁맞죠	-11.068094
▁운이	-11.068187
음료	-11.068379
▁자리를	-11.068380
▁모두에게	-11.068609
증오	-11.068699
▁걸릴	-11.068727
▁대신에	-11.068924
멸시	-11.068956
▁드립니다	-11.069006
왔고	-11.069006
▁마요	-11.069139
▁은인류	-11.069324
▁엘리야	-11.069383
하겠다	-11.069414
▁텔레비전	-11.069486
▁의딸	-11.069529
▁을만들어	-11.069551
▁로가	-11.069654
▁감소	-11.069690
웰	-11.069889
수있었습니다	-11.070107
개를	-11.070223
야죠	-11.070283
지못했	-11.070377
▁알기	-11.070488
▁을가져오	-11.070523
델	-11.070632
심을	-11.070749
가르치는일	-11.070754
▁붙여	-11.070845
▁에다시	-11.070943
▁만이아니라	-11.070984
▁뭐든	-11.071192
▁진짜로	-11.071318
퍼센트	-11.071406
▁참그리스도인	-11.071580
▁연설	-11.071623
▁이발견	-11.071628
내부	-11.071971
설교	-11.071990
보지	-11.072226
▁그러나그것	-11.072243
▁시작해	-11.072430
뢰	-11.072463
▁을요청	-11.072639
▁일수있다	-11.072797
해줄	-11.072799
해야할일	-11.072891
이와같이	-11.072925
▁축복	-11.073135
겠군	-11.073280
▁프랭크	-11.073389
풍요	-11.073431
▁하더군요	-11.073448
▁얻어	-11.073538
우리집	-11.073609
▁을하기	-11.073973
▁은서로	-11.074017
▁느낌이	-11.074049
▁을잊	-11.074303
▁i	-11.074307
낳	-11.074415
▁쌍	-11.074442
▁저항	-11.074466
▁종료	-11.074894
일정	-11.074916
▁해야하는	-11.075007
^	-11.075036
주머니	-11.075047
어떤면	-11.075118
근본적	-11.075137
걸요	-11.075180
누리는	-11.075198
▁UN	-11.075212
▁스웨덴	-11.075601
메이	-11.075938
자제	-11.076002
▁한여자	-11.076258
▁시체	-11.076455
▁손이	-11.076487
▁흙	-11.076568
▁에게증거	-11.076664
▁하였더라	-11.076671
버린다	-11.076869
진흙	-11.076998
▁v	-11.077003
▁그래서그	-11.077210
▁똥	-11.077330
연구가	-11.077834
▁것이었습니다	-11.077891
▁누나	-11.077896
▁한변화	-11.077987
▁은행복	-11.078189
▁에서어떻게	-11.078279
묘	-11.078369
▁끔찍	-11.078457
▁작성	-11.078464
세금	-11.078477
▁되거나	-11.078578
그기사	-11.078872
▁좋은소식	-11.078915
▁을준다	-11.078947
▁에물	-11.079179
수있는가	-11.079198
▁그놈	-11.079219
▁이어디	-11.079237
재건	-11.079240
▁을갖추	-11.079386
감옥	-11.079497
▁족	-11.079608
나온	-11.079629
사울	-11.079672
다보면	-11.079916
사소	-11.079947
게하였다	-11.079973
약탈	-11.080066
il	-11.080132
들고	-11.080169
▁이틀	-11.080240
좁은	-11.080276
▁잘했어	-11.080362
조그만	-11.080469
베이	-11.080479
해봅시다	-11.080559
18	-11.080713
▁을지닌	-11.080818
잖니	-11.081065
▁44	-11.081100
호기심	-11.081302
▁한양심	-11.081381
▁의특징	-11.081521
낭비	-11.081781
을뿐	-11.081841
▁위기	-11.081846
거고	-11.081859
▁대응	-11.081962
▁바닥	-11.081979
자와	-11.082132
▁설계	-11.082152
인터넷	-11.082296
급격	-11.082338
진화론	-11.082497
▁신을	-11.082848
▁보내는	-11.082982
공학	-11.082989
▁에대해이야기	-11.083055
▁계시한	-11.083117
▁친척	-11.083148
▁과정	-11.083201
▁을근거	-11.083212
라구	-11.083332
럴	-11.083350
▁마찬가지로	-11.083532
마시	-11.083561
▁알았다	-11.083618
즐겁게	-11.083632
▁멋지	-11.083702
▁을조사	-11.083888
▁할게요	-11.084079
▁멸	-11.084080
▁판매	-11.084204
▁을인용	-11.084409
깃털	-11.084483
자전거	-11.084700
강요	-11.084885
▁필요할	-11.084903
버림	-11.084984
▁최대한	-11.084986
▁이곳에	-11.085302
▁밖에서	-11.085345
누구나	-11.085450
▁테마	-11.085489
제의	-11.085578
▁보상이	-11.085629
겪는	-11.085672
▁1991	-11.085689
▁크고	-11.085817
교인	-11.085892
▁아이들	-11.086485
반대자	-11.086652
가면	-11.086659
▁보죠	-11.086682
▁석	-11.086690
일까	-11.086730
밝혀진	-11.086777
니이다	-11.087111
지성	-11.087145
▁하지못한	-11.087151
▁로인도	-11.087248
▁걔가	-11.087277
▁이그렇게	-11.087294
▁도덕적	-11.087304
▁뉴우요오크	-11.087427
바르	-11.087523
▁비를	-11.087530
▁올리	-11.087695
▁이참석	-11.087740
▁에처한	-11.087927
▁께서는어떻게	-11.087998
▁클릭	-11.088112
▁의학	-11.088180
▁환자가	-11.088387
지않을수없	-11.088808
▁낙	-11.088889
여덟	-11.088953
▁미가	-11.088978
적이고	-11.089015
▁엄청나게	-11.089070
▁한죄	-11.089202
기쁘게	-11.089363
뜨리	-11.089513
해질	-11.089589
닉	-11.089820
▁선행	-11.089933
▁으로기대	-11.090029
▁움직여	-11.090080
▁해내	-11.090131
렁	-11.090439
고생	-11.090622
도와	-11.090765
▁되면서	-11.091085
▁를인정	-11.091091
▁이아닌가	-11.091305
증세	-11.091369
▁진실로	-11.091397
▁쏴	-11.091444
학적	-11.091465
▁응벌	-11.091504
▁의예언자	-11.091544
▁검은	-11.091548
▁해변	-11.091558
▁발사	-11.091738
세균	-11.091769
잊	-11.091922
▁하고그분	-11.091932
재능	-11.091944
▁음성	-11.091947
▁베풀	-11.092068
평판	-11.092084
베르	-11.092093
▁의신앙	-11.092158
▁은아주	-11.092513
벅	-11.092554
▁집회	-11.092792
추수	-11.092813
▁되다	-11.092831
광야	-11.092965
느끼는	-11.093212
식구	-11.093355
▁중입니다	-11.093471
▁서로가	-11.093578
▁만하면	-11.093580
▁범위	-11.093626
▁저게	-11.093754
백인	-11.094013
▁를해	-11.094083
일찍	-11.094203
▁이같이	-11.094217
있었을것	-11.094310
▁의고통	-11.094337
▁17,	-11.094349
▁꽉	-11.094480
전통적	-11.094548
▁는실제	-11.094651
야기	-11.094686
▁손실	-11.094934
는모습	-11.094955
라니	-11.094958
▁형성	-11.095204
▁였	-11.095263
▁통화	-11.095592
▁성서의	-11.095615
히브리어성경	-11.095647
랬	-11.095707
▁충만하시니	-11.095837
▁도있을것	-11.095896
▁해주고	-11.095984
존경심	-11.096003
▁72	-11.096056
순응	-11.096149
라구요	-11.096657
이기도	-11.096672
▁몸이	-11.096685
갚	-11.096780
▁한이름	-11.096802
▁이신여호와	-11.096881
차이점	-11.097061
▁의임재	-11.097195
하기위하여	-11.097301
▁에사람	-11.097465
드려	-11.097530
가게	-11.097569
았으며	-11.097774
범위	-11.098111
▁피트	-11.098289
▁을하나님	-11.098368
▁를초래	-11.098413
도록합시다	-11.098485
▁턱	-11.098505
▁남겨	-11.098555
로는	-11.098621
▁동네	-11.098747
▁테이블	-11.098934
▁장기	-11.099165
협	-11.099208
▁바꾸	-11.099280
▁중인	-11.099467
▁name	-11.099633
얼마동안	-11.099759
점령	-11.099957
▁언젠가	-11.100068
▁존재하지	-11.100387
그저	-11.100466
▁를다시	-11.100550
손실	-11.100672
▁창세기	-11.100961
▁하고있	-11.101042
▁과사랑	-11.101053
조종	-11.101089
고그분	-11.101162
▁격	-11.101205
▁놈들이	-11.101310
킬로미터	-11.101383
▁릴리	-11.101464
아름다움	-11.101506
▁하는말	-11.101551
▁에게나	-11.101760
년을	-11.101783
▁할수있으며	-11.101822
▁세번째	-11.101861
편안	-11.101970
세운	-11.102137
▁해있는	-11.102171
뻗어	-11.102284
결혼식	-11.102306
마지막때	-11.102323
▁고기	-11.102444
▁걸렸	-11.102507
▁하게될	-11.102511
▁전환	-11.102516
▁열쇠	-11.102571
일자리	-11.102689
▁무언가를	-11.102772
악기	-11.102803
▁에두고	-11.102904
살펴	-11.103169
해주는	-11.103181
▁건가	-11.103188
▁됐다	-11.103199
▁배열	-11.103334
▁한경험	-11.103371
친히	-11.103728
▁다르	-11.103772
▁알겠지	-11.103836
스포츠	-11.103880
취한	-11.104023
덫	-11.104052
랭	-11.104052
지극	-11.104062
산맥	-11.104212
▁되었던	-11.104321
▁을보여주	-11.104350
▁하는태도	-11.104421
▁잃었	-11.104502
▁덕분에	-11.104508
케이	-11.104587
오스	-11.104661
▁방에	-11.104683
대도시	-11.104690
왔는데	-11.104693
um	-11.104727
▁St	-11.105220
속히	-11.105300
▁불구하고	-11.105313
▁될수	-11.105340
▁부자	-11.105445
▁모르지만	-11.105499
휘	-11.105562
▁아내가	-11.105982
▁복수	-11.106047
▁거역한	-11.106330
▁따라서그	-11.106425
▁를구하	-11.106442
▁없었다	-11.106667
▁는모두	-11.106880
▁에덴	-11.106896
는건	-11.106982
▁고려	-11.106990
▁에초점	-11.107113
▁살아있는	-11.107125
▁을하는데	-11.107134
추천	-11.107211
▁세션	-11.107253
있다고말	-11.107276
▁이후에	-11.107489
▁없다면	-11.107669
시스템	-11.107797
일꾼	-11.107798
▁은예수그리스도	-11.108337
▁벨	-11.108341
무관심	-11.108366
▁아랍	-11.108665
우편	-11.108861
▁얘들아	-11.109036
극도	-11.109124
▁배울	-11.109131
▁기억해	-11.109164
▁뽑	-11.109201
무역	-11.109254
없기때문	-11.109562
▁1,000	-11.109626
▁떠났	-11.109701
이익	-11.109980
넷	-11.110178
앞서	-11.110180
▁의증가	-11.110216
을수있는	-11.110330
비평	-11.110480
▁놓고	-11.110583
든지간	-11.110626
버리고	-11.110652
▁같을	-11.110675
▁이두	-11.110682
옷차림	-11.110684
▁바른	-11.110899
렀	-11.111144
▁에처해있	-11.111189
이삭	-11.111233
▁공식	-11.111500
▁that	-11.111511
▁You	-11.111531
중심	-11.111590
어려운일	-11.111722
▁를즐기	-11.111750
▁효과	-11.112062
숭배자	-11.112123
▁얼른	-11.112512
따로	-11.112525
▁되는지	-11.112530
라스	-11.112765
▁구하고	-11.112815
춘	-11.112879
할일	-11.112927
▁하듯이	-11.113012
야곱	-11.113214
▁이정말	-11.113242
▁않노라	-11.113296
▁의잘못	-11.113318
▁기뻐하	-11.113362
게될수있습니다	-11.113714
▁죽었어	-11.113867
지않으면	-11.113873
▁때도	-11.114321
▁3000	-11.114414
합법적	-11.114414
선을	-11.114432
▁내어	-11.114441
리로다	-11.114793
유전자	-11.114964
▁않음	-11.115065
보험	-11.115320
수집	-11.115349
▁에서나온	-11.115361
상승	-11.115364
▁알다시피	-11.115429
▁불가능	-11.115641
효	-11.115657
볼것	-11.115785
램	-11.115788
▁구분	-11.116008
▁배운	-11.116101
▁는인간	-11.116358
▁을얻기위해	-11.116371
▁계획을	-11.116440
▁캘리포니아	-11.116574
번호	-11.117055
▁남았	-11.117190
또다시	-11.117288
▁가아닌	-11.117385
▁이완전	-11.117491
어려워	-11.117519
▁단순한	-11.117559
자기집	-11.117567
끌어	-11.117701
기위해노력	-11.117868
회견	-11.117901
ard	-11.118209
있었음	-11.118412
황제	-11.118448
추정	-11.118634
▁은언제나	-11.118640
▁의주된	-11.118714
▁세계의	-11.118948
▁값은	-11.119042
▁17;	-11.119140
▁자신들	-11.119418
그후	-11.119493
▁영웅	-11.119520
▁관계를	-11.119726
▁같다는	-11.119779
▁에게자신	-11.119941
▁에게영향	-11.119968
▁이처음	-11.120175
시켰	-11.120216
▁아녜요	-11.120281
▁선생	-11.120294
▁불렀	-11.120342
▁는남편	-11.120443
▁사제	-11.120479
샘	-11.120505
군사	-11.120686
▁이유를	-11.120765
힘쓰	-11.120806
손가락	-11.120815
▁상품	-11.120994
▁의방법	-11.121040
먼지	-11.121155
▁24,	-11.121463
피해자	-11.121470
▁라이	-11.121797
▁곁에	-11.122164
미소	-11.122166
▁활성화	-11.122185
▁은사실상	-11.122252
▁본인	-11.122378
▁장면	-11.122433
▁수소	-11.122547
▁구역	-11.122655
님이	-11.122726
▁플러그인	-11.122802
▁예증이	-11.123232
▁의세상	-11.123265
건설	-11.123350
▁가아닙니다	-11.123380
즐	-11.123712
본부	-11.123723
었더라	-11.123744
이말	-11.123883
나서	-11.123936
해변	-11.123955
▁을제기	-11.123981
one	-11.124046
쪽으로	-11.124051
▁글꼴	-11.124084
▁알아보	-11.124105
▁죽이고	-11.124181
곰	-11.124213
보다는	-11.124283
▁로나	-11.124454
▁여명	-11.124520
▁의구원	-11.124612
▁를보면	-11.124640
▁결과가	-11.124714
▁폭풍	-11.124812
▁송	-11.124842
▁있는것	-11.124861
그결과	-11.124890
▁을예언	-11.124933
▁1'	-11.125152
무장	-11.125224
했나	-11.125236
▁에거하	-11.125333
중한사람	-11.125339
▁허용	-11.125428
▁해줘	-11.125570
▁싶었	-11.125678
셨죠	-11.125709
주려고	-11.125730
▁충만하	-11.125788
▁의두	-11.125900
점점	-11.125906
리를	-11.126127
▁라고하는	-11.126158
▁연방	-11.126440
던사람	-11.126592
▁28.	-11.126692
▁얘야	-11.126740
▁이약	-11.126776
▁이었을것	-11.126918
두번	-11.127266
▁으로들어가	-11.127378
▁을깊이	-11.127461
단위	-11.127554
틀어	-11.127623
▁일부는	-11.127638
생계	-11.127644
▁하셨을때	-11.127671
▁상황에서	-11.127910
▁을반대	-11.128010
▁재물	-11.128026
셨고	-11.128131
▁뭐라	-11.128285
▁찬미	-11.128335
ut	-11.128388
여러세기동안	-11.128556
▁시스템을	-11.128725
수용	-11.129158
지않으며	-11.129170
어미	-11.129249
상호	-11.129271
▁두어	-11.129307
서야	-11.129390
하나님앞	-11.129427
▁어이	-11.129456
ul	-11.129484
아는것	-11.129562
감동적	-11.129589
크리스마스	-11.129596
▁는그리스도인	-11.129623
▁로만든	-11.129697
릅니다	-11.129827
맹세	-11.129929
인체	-11.129973
▁저것	-11.130033
▁얻었	-11.130058
핑	-11.130200
▁들어와	-11.130276
중앙	-11.130344
▁없게	-11.130380
▁의행복	-11.130719
장애물	-11.130827
▁로여호와	-11.130864
고래	-11.130890
궁핍	-11.130961
▁의가정	-11.130985
▁애들이	-11.131021
▁작년	-11.131056
▁남편이	-11.131170
▁소문	-11.131215
▁행렬	-11.131592
이사람	-11.131607
▁씨발	-11.131755
▁과평화	-11.131939
개종	-11.132012
▁살펴보	-11.132648
▁궁	-11.132684
예비	-11.132724
▁신앙	-11.132758
▁털	-11.132811
사라	-11.133141
그러합니다	-11.133523
▁의충고	-11.133635
▁가얼마나	-11.133652
▁이시며	-11.133664
기질	-11.133671
▁마이클	-11.133699
▁하는데사용	-11.133703
▁쓰지	-11.133844
▁가만히	-11.133958
▁악인	-11.134215
▁으로인하여	-11.134356
▁존경	-11.134434
▁바퀴	-11.134821
>	-11.134834
덩어리	-11.134863
▁해야만	-11.134927
상징	-11.134995
▁활	-11.135267
인상적	-11.135301
▁적어	-11.135352
보유	-11.135455
▁1992	-11.135567
위태	-11.135728
▁이신예수그리스도	-11.135751
▁과같습니다	-11.135932
▁에오	-11.136040
하느뇨	-11.136244
가증	-11.136282
▁의계명	-11.136319
▁각도	-11.136813
바치	-11.136836
▁의부	-11.136912
이렇게기록	-11.136974
주권자	-11.136998
했네	-11.137031
유아	-11.137241
공언	-11.137421
할수없	-11.137459
하였으나	-11.137527
▁재앙	-11.137541
사정	-11.137735
돌아온	-11.137853
그런식	-11.138129
가치있는	-11.138165
▁지켜보고	-11.138245
▁을세워	-11.138364
▁들자신	-11.138613
알고있는	-11.138690
알게된	-11.138770
쏟아	-11.138882
게하고	-11.138926
ia	-11.139261
▁를돌리	-11.139311
19	-11.139317
▁놀이	-11.139511
▁느낌	-11.139643
▁을해결	-11.139905
대속물	-11.139937
▁알아내	-11.140404
셨으니	-11.140427
▁52	-11.140461
▁할정도	-11.140613
대를	-11.140650
렸어요	-11.140665
▁12;	-11.140743
생기는	-11.140756
▁도있었다	-11.141148
냄	-11.141157
밀려	-11.141191
콜	-11.141317
▁더하면	-11.141449
▁바깥	-11.141501
▁에게하나님	-11.141545
지않으면안된다	-11.141721
▁좋게	-11.141811
▁느	-11.141825
▁께순종	-11.141894
고정	-11.142139
는경향	-11.142140
▁오면	-11.142223
뉘	-11.142485
▁조절	-11.142560
나타났다	-11.142583
▁생명체	-11.142591
▁것만	-11.142594
만든다	-11.142613
▁마우스	-11.142648
▁필리핀	-11.142778
▁원한다면	-11.142887
예배	-11.143022
▁있겠	-11.143042
왕국선포자	-11.143238
▁예증을	-11.143299
▁일어나고	-11.143409
잔치	-11.143414
▁그랬어	-11.143416
▁언론	-11.143632
후회	-11.143683
▁않을거야	-11.143740
▁인간을	-11.143838
▁해본	-11.143867
회중내	-11.144096
가르치고	-11.144179
▁가성서	-11.144247
▁한양	-11.144316
함수	-11.144326
▁닉	-11.144518
피트	-11.144704
▁능력이	-11.145000
공개	-11.145271
▁막을	-11.145299
ie	-11.145432
에베소	-11.145438
▁주리라	-11.145573
음이라	-11.145649
주시	-11.145662
했잖아	-11.145677
임박	-11.145899
공정	-11.146224
▁온갖	-11.146238
꼬리	-11.146282
▁-3	-11.146369
▁해진	-11.146385
▁소식을	-11.146582
▁이많다	-11.146605
▁보여줄	-11.146909
칩니다	-11.147060
▁1945	-11.147156
▁마술	-11.147182
▁이래	-11.147422
▁천국	-11.147501
보관	-11.147619
▁5;	-11.147724
슬기	-11.147755
▁불행	-11.147812
▁하였음을	-11.147817
자의	-11.147923
▁을전하	-11.147955
▁아닌데	-11.147997
▁의얼굴	-11.148088
▁아빠는	-11.148108
8;	-11.148226
▁살았	-11.148256
▁얼마후	-11.148318
어떤방법	-11.148356
지못하였다	-11.148447
보여	-11.148547
▁be	-11.148829
업계	-11.148871
▁방송	-11.148890
▁에그러한	-11.149168
권한	-11.149199
▁의대부분	-11.149290
▁서류	-11.149560
믿지않는	-11.149667
절반	-11.149790
매혹적	-11.149915
다툼	-11.149929
▁했습니까	-11.149981
ry	-11.150110
섭씨	-11.150114
올때	-11.150131
능숙	-11.150145
▁를하는것	-11.150186
▁를쓰	-11.150361
나이까	-11.150366
▁에속한사람	-11.150434
▁년이상	-11.150518
▁네덜란드	-11.150578
▁이끝나	-11.150722
▁결혼생활	-11.150745
경이	-11.150814
▁이사	-11.150849
할준비	-11.150878
▁간에	-11.150915
▁같은데요	-11.150933
▁하늘에	-11.151007
하는가	-11.151112
처벌	-11.151177
▁북쪽	-11.151266
▁께서는제자	-11.151330
▁이르렀	-11.151491
▁이라고하는	-11.151580
▁되어있읍니다	-11.151654
정해진	-11.151981
그렇	-11.152425
함으로	-11.152453
물체	-11.152480
권장	-11.152509
맞아	-11.152515
르고	-11.152528
▁번성	-11.152576
▁의주장	-11.152832
▁그리고우리	-11.153036
▁인면	-11.153057
▁하였으나	-11.153073
▁순서	-11.153154
컬	-11.153214
종이	-11.153247
둘러	-11.153303
단백질	-11.153335
용도	-11.153372
안되는	-11.153399
놀이	-11.153642
▁를기억	-11.153704
▁과장님	-11.154122
주택	-11.154254
▁하는감독자	-11.154336
극심	-11.154353
▁형상	-11.154459
▁단체	-11.154573
▁이죽	-11.154627
▁는없습니다	-11.154759
베리	-11.154804
▁를만나	-11.154924
닥치	-11.155035
굳건	-11.155135
배출	-11.155325
지나	-11.155791
오리	-11.155827
▁해왔	-11.155854
▁모자	-11.155872
필시	-11.155935
▁로스	-11.156208
▁저건	-11.156253
▁가아니다	-11.156284
허물	-11.156398
주며	-11.156525
비스	-11.156568
도요	-11.156577
▁조금만	-11.156756
▁을받기	-11.156803
▁품	-11.156833
▁을가지고있는	-11.156984
신학자	-11.157410
▁은더	-11.157581
▁아니잖아	-11.157735
▁현세의	-11.157763
태아	-11.157797
▁수백	-11.157923
▁중독	-11.157924
▁손님	-11.157960
▁의부족	-11.158003
▁을나타낼수있	-11.158046
▁에서나오는	-11.158050
하신것	-11.158169
닮	-11.158174
▁치는	-11.158278
▁다니	-11.158283
감을	-11.158770
▁예배를	-11.158807
▁이유로	-11.159028
파악	-11.159092
을수있습니다	-11.159268
디스	-11.159286
▁리더	-11.159467
▁김	-11.159616
▁와같습니다	-11.159833
▁에처하	-11.159933
▁의기원	-11.159940
▁그리스도교	-11.160135
▁압축	-11.160329
적이	-11.160338
▁있었지	-11.160728
▁이길	-11.160925
철학자	-11.161020
벗관계	-11.161206
배후	-11.161226
▁만군	-11.161235
꺾	-11.161316
▁이아닙니까	-11.161332
ion	-11.161424
▁을지배	-11.161554
▁안내	-11.161704
▁은한	-11.161827
▁에서하나님	-11.161941
▁슈	-11.161945
으셨습니다	-11.161990
▁전통	-11.162038
▁을관찰	-11.162058
▁이되도록	-11.162557
불화	-11.162706
▁소설	-11.163448
▁이었고	-11.163532
▁헌신	-11.163666
▁공동체	-11.163698
▁아내를	-11.163847
▁어두운	-11.163864
▁바라는	-11.164051
▁움직임	-11.164053
▁은약	-11.164109
▁좋아하지	-11.164205
▁이기록	-11.164358
왔어요	-11.164377
▁오늘날우리	-11.164591
헛된	-11.164698
▁오늘밤	-11.165031
▁실험을	-11.165112
▁못했습니다	-11.165268
▁1975	-11.165421
외부	-11.165421
▁가졌	-11.165720
수있도록	-11.165754
간에	-11.165809
▁장관	-11.165810
▁새벽	-11.165926
▁것이니라	-11.166039
▁나누	-11.166039
초월	-11.166306
▁와결혼	-11.166374
년전	-11.166425
상점	-11.166428
드러	-11.166436
서로사랑	-11.166500
▁선지자를	-11.166581
▁에그것	-11.166653
방송	-11.166656
▁을당한	-11.166731
정욕	-11.166731
하겠죠	-11.166829
뛰	-11.166842
▁대략	-11.166914
▁의조언	-11.166920
▁은이것	-11.166984
감탄	-11.167191
맡은	-11.167205
▁인터뷰	-11.167308
▁정도의	-11.167528
다고한다	-11.167626
▁고향	-11.167768
▁시켜주는	-11.167785
op	-11.167814
사냥	-11.167815
▁거고	-11.167929
▁아니라는	-11.168120
신약	-11.168120
탓	-11.168121
크고	-11.168213
기념	-11.168227
구분	-11.168302
데리고	-11.168384
▁를부르	-11.168399
▁을할것	-11.168427
촉구	-11.168431
사과	-11.168992
▁시킬것	-11.169052
과학기술	-11.169154
▁은전혀	-11.169199
편리	-11.169207
▁무대	-11.169261
▁과성서	-11.169286
▁일들이	-11.169411
깊숙	-11.169513
론자	-11.169538
거기서	-11.169572
▁신부	-11.169636
▁다윗이	-11.169685
반열	-11.169706
라틴어	-11.169814
▁을읽고	-11.169822
▁흐르	-11.169877
▁은많은	-11.169901
방주	-11.170071
▁온도	-11.170256
동정	-11.170259
이성	-11.170260
▁을자기	-11.170404
다소	-11.170682
▁나눌	-11.170712
파견	-11.170801
▁밤을	-11.170934
▁하지요	-11.170961
참석자	-11.171093
▁한예	-11.171244
천국	-11.171281
볼수있는	-11.171357
▁의주의	-11.171386
안락	-11.171536
▁날씨	-11.171638
▁흐르는	-11.171702
▁파운드	-11.171790
▁가사용	-11.171897
을정도	-11.171982
요점	-11.172003
▁없어서	-11.172106
▁나누면	-11.172336
었읍니까	-11.172493
▁을받는것	-11.172507
숭	-11.172585
따름	-11.172787
들었다	-11.172826
▁하게말	-11.172929
▁기호	-11.173072
▁좋았어	-11.173098
방어	-11.173272
우아	-11.173347
넌	-11.173511
▁은완전	-11.173634
하는말	-11.173644
떨어진	-11.173767
▁병원에	-11.173774
▁감옥	-11.173837
▁밝혀	-11.173970
▁죽지	-11.174108
▁의멸망	-11.174123
▁일로	-11.174187
▁않아도	-11.174536
▁이와같이	-11.174605
▁착	-11.174671
을경우	-11.174723
비이기적	-11.174817
▁돌아올	-11.174847
뒷	-11.174915
km	-11.174951
▁계세요	-11.175014
▁이나되는	-11.175137
▁결정을	-11.175432
▁를가져	-11.175587
▁에게어떤	-11.175679
▁구해	-11.175810
▁모임	-11.175931
▁혼란	-11.176009
▁이없도록	-11.176019
▁와도	-11.176044
▁시내	-11.176068
▁리스트	-11.176122
▁이거주	-11.176173
▁를하는	-11.176198
▁이지혜	-11.176205
아름답게	-11.176220
70	-11.176245
놔	-11.176310
▁않았다	-11.176403
▁은세상	-11.176474
뻗	-11.176494
▁없으면	-11.176597
여러해	-11.176680
▁빼고	-11.176734
▁찍어	-11.176748
▁경우에는	-11.176869
▁나이지리아	-11.176888
▁을하면	-11.177021
▁생각했습니다	-11.177090
▁어딨어	-11.177132
더럽	-11.177134
지못할	-11.177274
▁충분	-11.177288
총독	-11.177381
넘치는	-11.177412
▁을갖게	-11.177486
▁테니	-11.177552
▁분모	-11.177753
▁말해주	-11.177770
▁멈추	-11.177927
▁세상이	-11.177958
▁수백만	-11.178234
▁좋다	-11.178297
▁이메일	-11.178327
▁그러나이	-11.178472
▁배신	-11.178486
▁폴란드	-11.178514
때까지	-11.178524
밍	-11.178561
됐어요	-11.178930
▁갖는	-11.179022
물리	-11.179126
▁주시고	-11.179260
▁되지않	-11.179298
▁느낄	-11.179430
▁이많	-11.179769
▁는분명	-11.179883
두드러진	-11.179929
▁알죠	-11.179992
▁디모데둘째	-11.180027
다음기사	-11.180069
▁서는	-11.180238
▁당신들	-11.180335
▁의존	-11.180391
졌으며	-11.180433
▁학습	-11.180603
▁을더잘	-11.180786
▁과일	-11.181008
붉은	-11.181015
▁홍수	-11.181086
▁평가	-11.181112
▁하는경우	-11.181135
엘리야	-11.181232
▁마이너스	-11.181266
▁아마당신	-11.181448
▁해서는안된다	-11.181491
가졌던	-11.181510
▁가자녀	-11.181754
▁걸리	-11.181947
새힘	-11.182015
▁에대한지식	-11.182056
하리로다	-11.182068
죽을	-11.182217
시기바랍니다	-11.182634
핵무기	-11.182749
▁을지켜	-11.182800
만으로	-11.182951
▁보십시오	-11.183105
▁누구든지	-11.183307
▁있고요	-11.183337
개미	-11.183404
▁움직이	-11.183412
▁참고	-11.183425
▁에게순종	-11.183592
▁이다시	-11.183659
▁이될수있	-11.183672
불충실	-11.183890
▁세금	-11.183938
굶주림	-11.183940
▁그들에	-11.184113
내기	-11.184284
▁비슷	-11.184313
▁을바라보	-11.184384
▁을기념	-11.184411
어떤점	-11.184413
▁없으니	-11.184572
▁놀랍게도	-11.184629
▁을알게될것	-11.184714
여신	-11.184754
야하였습니다	-11.184824
▁너무나	-11.184857
없을것	-11.184966
▁그외	-11.185058
▁와는달리	-11.185323
자들을	-11.185458
원하는것	-11.185462
▁질문이	-11.185596
▁정부가	-11.185868
▁시위	-11.185876
▁일들을	-11.186006
획	-11.186009
▁연구가	-11.186021
▁고통을	-11.186199
▁중의	-11.186511
▁잠시만요	-11.186542
▁과같은말	-11.186825
▁세계를	-11.187218
▁쫓	-11.187286
충만	-11.187334
머지않아	-11.187351
▁끄	-11.187569
▁을치	-11.187598
▁갖다	-11.187607
서부	-11.187722
졸업생	-11.187842
▁일치	-11.187908
의존	-11.187913
▁특정한	-11.187965
▁사인	-11.187999
▁1989	-11.188070
▁어떤경우	-11.188115
▁예쁘	-11.188185
사기	-11.188237
▁바꾸기	-11.188300
폭풍	-11.188307
▁꺼져	-11.188353
볼수	-11.188369
▁대화를	-11.188389
축하	-11.188453
가라앉	-11.188487
바이	-11.188500
게하여	-11.188571
성서연구생	-11.188622
▁궁금해	-11.188638
오후	-11.188712
▁고린도후	-11.188821
빠지	-11.188998
▁클럽	-11.189072
▁증	-11.189109
멋	-11.189263
▁HIV	-11.189320
▁되어왔다	-11.189327
▁은생명	-11.189341
인간성	-11.189366
▁거역하	-11.189424
▁를만들	-11.189461
수십억	-11.189491
▁시간은	-11.189807
▁눈물	-11.189961
하였읍니까	-11.190056
▁를많이	-11.190220
▁모두들	-11.190241
▁로이	-11.190415
▁지도자	-11.190850
어려웠	-11.191159
벌어진	-11.191539
신전	-11.191551
▁차에	-11.191636
▁배를	-11.191702
돕	-11.191727
▁경로	-11.191760
소화	-11.191877
저명	-11.192029
▁는거의	-11.192249
반사	-11.192317
▁우울증	-11.192353
▁문자열	-11.192385
▁전능	-11.192410
버트	-11.192588
▁께서는그분	-11.192628
식을	-11.192881
▁의성원	-11.192944
▁그럼요	-11.192957
▁기반	-11.193024
▁규모	-11.193045
▁휘	-11.193163
▁태워	-11.193249
▁는그리스도	-11.193344
▁이되게	-11.193428
▁21,	-11.193530
▁를믿	-11.193592
받고	-11.193734
▁저기요	-11.193751
▁명이	-11.193852
ive	-11.194047
▁여자는	-11.194072
친다	-11.194251
▁do	-11.194259
▁따라서우리	-11.194333
자식	-11.194474
▁1993	-11.194811
니깐	-11.194884
가르쳐주	-11.194917
▁가르치	-11.194947
▁로하는	-11.194977
▁혁신	-11.194980
▁로봉사	-11.194995
▁을갖고	-11.195209
쟁이	-11.195226
됐어	-11.195269
▁아이디어를	-11.195356
권위자	-11.195363
▁을회복	-11.195428
▁떡	-11.195614
▁쌓	-11.195664
▁가축	-11.195697
▁으로하나님	-11.195698
▁의천사	-11.195845
장관	-11.195912
▁이야기는	-11.196024
▁한행위	-11.196054
복수	-11.196237
▁를읽고	-11.196476
지못하게	-11.196502
극단적	-11.196573
예리	-11.196590
보시	-11.196754
▁믿는자들이	-11.196813
먹어	-11.196941
▁양수	-11.196967
▁하지마십시오	-11.197170
모르는	-11.197208
동쪽	-11.197471
▁는이미	-11.197489
▁해달라고	-11.197521
▁블레셋	-11.197562
가시	-11.197623
▁일이에요	-11.197645
▁국제연합	-11.197659
▁전해	-11.197802
▁최소	-11.198017
▁아이는	-11.198257
▁의미합니다	-11.198260
하느냐	-11.198349
▁만큼이나	-11.198384
보이는것	-11.198462
서약	-11.198557
▁하기어려운	-11.198626
▁기꺼이	-11.198634
어찌	-11.198662
▁버리고	-11.198720
구입	-11.198750
두루마리	-11.198826
안식일	-11.198854
그렇게하는것	-11.198895
보였습니다	-11.198905
틈	-11.199089
▁가져오기	-11.199181
▁놀랍	-11.199225
이루어지	-11.199244
과일	-11.199420
없어	-11.199566
검은	-11.199737
밥	-11.199738
▁이야기가	-11.199748
탐구	-11.199777
▁캠	-11.199822
었으나	-11.199868
몰려	-11.199986
두명	-11.199993
▁된후	-11.200155
▁사용하지	-11.200510
늦	-11.200577
이번	-11.200713
▁에침례	-11.200798
▁일례	-11.201030
과연	-11.201258
하였도다	-11.201514
▁이진리	-11.201521
▁이지나	-11.201547
▁를베풀	-11.201699
▁삼촌	-11.201742
계절	-11.201972
혼합	-11.202022
▁참석	-11.202028
미신	-11.202178
▁다녀	-11.202228
넘어	-11.202229
▁에게주신	-11.202284
▁맡	-11.202323
초기그리스도인	-11.202345
▁질문에	-11.202391
치기	-11.202766
▁을내어	-11.202801
▁흔적	-11.202898
▁스러운일	-11.202922
극복	-11.203014
절실	-11.203127
▁여기로	-11.203259
▁체계	-11.203398
관용	-11.203440
▁자랑	-11.203460
▁이잘못	-11.203461
▁죽음을	-11.203510
▁넣	-11.203613
▁을배양	-11.203697
▁에서는그	-11.203761
▁의군대	-11.203980
표를	-11.204044
▁이있다고	-11.204057
▁제이	-11.204093
▁의생활방식	-11.204280
▁의사용	-11.204504
미사	-11.204562
▁현세	-11.204703
▁역사가	-11.204909
볼수없	-11.204965
▁분야	-11.205034
▁향해	-11.205112
▁을나타냈	-11.205165
졸	-11.205217
순환	-11.205274
이주	-11.205384
주사	-11.205405
살펴보	-11.205487
▁기울이	-11.205611
▁안으로	-11.205729
▁위의	-11.205847
행진	-11.205949
▁시키기	-11.206017
▁충분한	-11.206207
그만	-11.206299
▁들어봐	-11.206326
것같	-11.206399
▁계수	-11.206447
▁가너	-11.206649
없었읍니다	-11.206844
j	-11.206849
어린자녀	-11.206951
▁루크	-11.206953
야하며	-11.207059
잠잠	-11.207217
자국	-11.207226
기준	-11.207287
▁스럽게도	-11.207350
장난	-11.207799
목소리	-11.207966
▁클레어	-11.207991
악어	-11.208072
▁불신자들이	-11.208085
▁펜	-11.208106
▁한지역	-11.208225
▁숨을	-11.208239
는데사용	-11.208306
▁인생각	-11.208347
▁의행실	-11.208473
▁음모	-11.208486
ab	-11.208838
부자	-11.208848
심히	-11.209016
▁인의미	-11.209111
▁엿	-11.209182
계급	-11.209320
통치권	-11.209385
▁의원	-11.209517
룩	-11.209524
▁에살	-11.209641
수백만명	-11.209644
▁의형태	-11.209842
▁움직이는	-11.209890
▁51	-11.209920
▁같다고	-11.209925
져야	-11.210117
되어있다	-11.210162
도록도와주	-11.210167
얼음	-11.210257
ay	-11.210265
이런일	-11.210332
쌓아	-11.210605
▁좋겠어	-11.210699
▁가치가	-11.211241
낙심	-11.211464
지는못	-11.211481
▁있을지	-11.211512
▁죄인	-11.211544
▁해결책	-11.211674
▁희생자	-11.211694
든다	-11.211764
분비	-11.211884
최후	-11.211885
▁그렇게하면	-11.211939
▁에대한인식	-11.212084
▁아들은	-11.212091
▁시온	-11.212228
▁기차	-11.212294
왜곡	-11.212324
겸허	-11.212477
▁데이비드	-11.212478
겹	-11.212608
▁한대로	-11.212783
전반적	-11.212841
▁동시	-11.212915
반항	-11.212935
▁불신자	-11.213299
▁끝나	-11.213358
따라서	-11.213430
▁과같	-11.213614
▁의첫	-11.213699
노니	-11.213742
무서운	-11.213828
▁보관	-11.213896
▁을미치	-11.213945
▁괴물	-11.213959
▁간음	-11.214149
고문	-11.214337
치사적	-11.214766
▁날아	-11.214826
▁몸에	-11.214980
▁확률	-11.215171
무릎	-11.215248
▁스크립트	-11.215277
▁에서예수	-11.215373
▁소식	-11.215484
26:	-11.215623
▁을할수있	-11.215694
줘서	-11.215773
▁메모	-11.215904
명칭	-11.216099
분을	-11.216157
▁지붕	-11.216244
분자	-11.216349
▁는마음	-11.216367
▁수직	-11.216371
첫번째	-11.216372
알려진	-11.216520
▁의통치자	-11.216631
거처	-11.216951
▁홍콩	-11.217114
해야만	-11.217197
▁하지만여호와	-11.217312
▁할거야	-11.217354
▁설명해	-11.217372
▁인행동	-11.217415
▁기초	-11.217463
레인	-11.217591
휴식	-11.217605
▁돌아와	-11.217614
▁백인	-11.217665
▁폭탄	-11.217906
▁그쪽	-11.218058
▁의연합	-11.218058
▁을가리켜	-11.218060
좌절	-11.218085
판사	-11.218104
▁을마시	-11.218207
형편	-11.218500
큰소리	-11.218556
▁사례	-11.218671
파도	-11.218718
▁만화	-11.218785
개가	-11.218884
있었는가	-11.219015
▁으로서의	-11.219183
성서예언	-11.219431
▁중요합니다	-11.219432
▁전략	-11.219543
▁의헌신	-11.219609
아닌	-11.219713
org	-11.220038
트를	-11.220081
▁여기까지	-11.220263
결의	-11.220302
행렬	-11.220354
▁로돌아가	-11.220362
▁잡을	-11.220613
보았다	-11.220926
▁남자는	-11.220983
▁의모범	-11.221053
다룬	-11.221099
▁몽	-11.221193
▁여러분을	-11.221336
초점	-11.221383
라인	-11.221386
▁인턴	-11.221455
침투	-11.221464
▁얘길	-11.221467
▁27:	-11.221599
▁는오늘날	-11.221684
▁이되면	-11.222018
생기	-11.222061
lo	-11.222196
삽화	-11.222306
▁설정을	-11.222338
▁자네는	-11.222415
부정직	-11.222770
▁을목격	-11.222852
▁이이미	-11.222946
▁영생	-11.222966
진술	-11.222990
▁는부모	-11.223058
▁안되는	-11.223070
▁틀	-11.223082
▁대다수	-11.223167
으시고	-11.223232
▁을전혀	-11.223492
▁넓은	-11.223636
가볍게	-11.223815
낭독	-11.224176
교통	-11.224319
쳤습니다	-11.224339
▁저쪽	-11.224401
▁도하고	-11.224422
되리라	-11.224487
▁남녀	-11.224516
딜	-11.224709
주셔서	-11.224796
오니	-11.224976
▁35.	-11.224999
작정	-11.225067
▁1995	-11.225075
붙이	-11.225172
▁침	-11.225188
장차	-11.225228
▁글을	-11.225335
▁하게된	-11.225365
▁구글	-11.225371
웠다	-11.225782
후손	-11.226177
▁영광이	-11.226192
▁는주	-11.226206
▁할수있는것	-11.226217
▁말씀드리	-11.226401
웁니다	-11.226439
해준	-11.226479
듣는	-11.226616
▁엎드려	-11.226674
칭호	-11.226757
매력적	-11.226980
밝은	-11.227028
▁여부	-11.227062
돌리	-11.227126
▁에게말씀	-11.227191
▁시키려고	-11.227424
완수	-11.227661
▁세상의	-11.227794
▁계정	-11.227814
부딪	-11.227835
▁인종	-11.227861
▁가나안	-11.227880
▁띄	-11.227886
▁몬	-11.227942
▁곱해	-11.228065
▁좌표	-11.228075
▁가져오	-11.228155
▁안전한	-11.228179
력이	-11.228206
설득	-11.228227
공식적	-11.228235
힘써	-11.228442
▁의어린이	-11.228889
꿀	-11.228918
▁한입장	-11.229188
긴하지만	-11.229390
했노라	-11.229396
▁무슨일이	-11.229410
진전	-11.229464
살펴보겠습니다	-11.229587
▁한증인	-11.229628
있다고	-11.229676
▁베풀어	-11.229700
세계강국	-11.229711
▁나치	-11.229749
200	-11.229913
▁둘은	-11.229965
그리스도인장로	-11.230002
따르	-11.230102
▁학교에	-11.230190
이군	-11.230235
표제	-11.230373
나가는	-11.230409
if	-11.230448
▁탐	-11.230499
약점	-11.230526
▁우매한	-11.230621
조그마	-11.230680
으리니	-11.230700
▁해주시	-11.230793
유쾌	-11.230877
▁의복지	-11.230898
▁박해	-11.230912
시킨	-11.230948
▁실수를	-11.230986
▁의나이	-11.231075
▁서도	-11.231096
몰아	-11.231136
▁을주시	-11.231190
우연히	-11.231240
▁빠지	-11.231350
▁을갖는것	-11.231480
존중심	-11.231589
▁공원	-11.231643
시스	-11.232035
▁낭송	-11.232064
▁그러나하나님	-11.232237
는소리	-11.232271
▁를둔	-11.232339
노동자	-11.232368
크나큰	-11.232380
▁들었어요	-11.232423
흐름	-11.232504
▁감각	-11.232726
주셨습니다	-11.232790
▁오신	-11.232952
▁찾은	-11.233098
▁을보였	-11.233110
▁다만	-11.233121
▁한힘	-11.233168
▁헬	-11.233245
펠	-11.233274
할게	-11.233366
▁녹색	-11.233384
내어	-11.233418
▁는제	-11.233439
▁주기	-11.233584
▁일하고	-11.233713
▁단추를	-11.233982
▁하고있었습니다	-11.234040
가장좋은	-11.234074
▁버크	-11.234303
음주	-11.234450
벳	-11.234453
▁흘러	-11.234471
건가요	-11.234610
나누	-11.234746
질러	-11.234754
지도않	-11.234819
견뎌	-11.234870
▁의다음	-11.234888
▁곱하면	-11.234950
▁운명	-11.235034
렸어	-11.235046
▁한숭배	-11.235153
▁로임명	-11.235206
고의적	-11.235289
▁이것도	-11.235358
▁전하	-11.235412
▁마태복음	-11.235435
▁근육	-11.235644
▁막아	-11.235677
야한다고	-11.235742
▁여동생	-11.235852
물려	-11.235958
▁존재하는	-11.236052
▁에관한지식	-11.236181
▁넷	-11.236276
▁주소록	-11.236317
까지도	-11.236453
있다면	-11.236495
▁했을것	-11.236540
▁로우리	-11.236589
▁의차이	-11.236633
▁시작한	-11.236706
도중	-11.236716
▁움직이지	-11.236731
▁피해	-11.236749
▁보시면	-11.236969
혈관	-11.236989
항구	-11.236998
▁를충족	-11.237031
파멸	-11.237053
수송	-11.237102
섰	-11.237161
문맥	-11.237246
▁또한우리	-11.237361
깨어	-11.237461
좋게	-11.237535
프레	-11.237643
▁고치	-11.237666
▁기자	-11.237735
▁을다하여	-11.237761
무료	-11.237775
▁다음으로	-11.237795
▁보도	-11.237819
▁청소	-11.238030
활기	-11.238074
▁마셔	-11.238506
즐기	-11.238553
멈추	-11.238606
날아	-11.238628
▁있었다면	-11.238706
소문	-11.238826
등록	-11.238901
▁바위	-11.238949
▁히틀러	-11.239026
나옵니다	-11.239050
▁나니	-11.239131
자행	-11.239257
▁납치	-11.239658
닥	-11.239696
▁소비	-11.239703
하십니다	-11.239747
▁좌	-11.239750
에이즈	-11.239896
이래로	-11.240092
▁부상	-11.240154
▁그런것	-11.240220
▁민주주의	-11.240335
▁직원	-11.240343
▁답은	-11.240458
켈	-11.240459
▁년사이	-11.240624
▁질량	-11.240644
▁부패	-11.240688
▁3;	-11.240763
▁아세요	-11.240870
▁빠	-11.241036
▁효과가	-11.241068
▁에서열리는	-11.241141
▁도리어	-11.241151
▁상황에	-11.241224
입술	-11.241404
▁모아	-11.241524
쌓	-11.241615
▁이해하지	-11.241627
▁아일랜드	-11.241632
▁전송	-11.241820
죽었다	-11.241945
우선순위	-11.241949
요원	-11.242055
and	-11.242072
얻은	-11.242161
배양	-11.242184
우정	-11.242193
▁시킴	-11.242239
▁소식이	-11.242362
한남자	-11.242584
온다	-11.242604
집집	-11.242702
▁로서는	-11.242839
▁천만	-11.242846
▁하는동안	-11.242970
▁에게만	-11.242983
화물	-11.242985
▁거만	-11.243137
지역사회	-11.243249
성격	-11.243791
▁을알고있	-11.243917
▁에대해말	-11.243999
▁을받지않	-11.244405
▁은심지어	-11.244480
▁하겠다고	-11.244500
논의	-11.244517
▁2;	-11.244551
▁천사들	-11.244807
▁1973	-11.244837
▁그렇게한다면	-11.244925
연장	-11.245077
곧바로	-11.245262
절약	-11.245415
▁끝난	-11.245680
인들이	-11.245694
▁일반적으로	-11.245830
▁엉덩이	-11.246205
제를	-11.246434
▁을미치는	-11.246513
하지않는다	-11.246526
▁한기록	-11.246892
부드러운	-11.246955
▁보여줍니다	-11.247102
▁몫	-11.247317
▁하게여기	-11.247386
▁것인가	-11.247481
왔을때	-11.247488
▁아시다시피	-11.247641
▁분수	-11.247890
▁섬기	-11.247997
▁마주	-11.248026
커스	-11.248149
▁남부	-11.248191
▁부유	-11.248309
▁향하여	-11.248572
헌	-11.248611
숙소	-11.248683
▁파일이	-11.248743
▁와자녀	-11.248772
지나친	-11.248910
독서	-11.248914
▁식량	-11.248981
▁의연구	-11.249049
▁이어지는기사	-11.249098
성벽	-11.249180
었잖아	-11.249322
▁은혜로	-11.249377
대표	-11.249459
▁대단히	-11.249473
▁있소	-11.249644
▁찾아내	-11.249779
▁졸업	-11.249784
진노	-11.249935
▁제곱근	-11.249985
많은수	-11.250072
하느니라	-11.250269
시니라	-11.250452
▁을짓	-11.250487
▁떠난	-11.250633
▁하지말고	-11.250699
영토	-11.250751
▁웃기	-11.250857
와비슷	-11.251069
▁놈들	-11.251124
연사	-11.251148
아프	-11.251393
▁보고서	-11.251414
▁쓰기	-11.251415
ig	-11.251460
원주민	-11.251499
▁업무	-11.251832
절대적	-11.251838
머릿속	-11.251841
특수	-11.251951
즐겨	-11.251989
▁은확실	-11.251998
▁포도주	-11.252080
추방	-11.252102
▁이없어	-11.252171
올무	-11.252205
▁어렵	-11.252237
해답	-11.252370
수있읍니까	-11.252375
▁에게다음	-11.252493
구호	-11.252504
▁있음을	-11.252589
▁않았을	-11.252740
▁시리아	-11.252755
남은	-11.252873
고용	-11.253011
▁걸려	-11.253146
담당	-11.253192
▁이나타나	-11.253235
아끼	-11.253284
▁에감염	-11.253549
휩쓸	-11.253651
▁를기대	-11.253711
많은시간	-11.253798
▁방어	-11.253853
최종	-11.253924
▁얘기가	-11.254030
▁에서말	-11.254132
▁하는데필요	-11.254503
았기때문	-11.254543
▁FBI	-11.254803
투스	-11.254912
▁의성전	-11.255098
▁한원칙	-11.255108
▁은보통	-11.255186
▁이오늘날	-11.255402
만물	-11.255445
전형적	-11.255511
▁전에는	-11.255543
시점	-11.255885
▁으로여기	-11.255896
▁임시	-11.255913
▁정신적	-11.255916
▁교만	-11.255935
야해	-11.256004
게되었고	-11.256034
▁이용해	-11.256039
▁가생기	-11.256090
▁있음	-11.256131
▁구별	-11.256144
▁옵션	-11.256146
▁학생들이	-11.256213
▁를용서	-11.256215
▁에들	-11.256237
▁1994	-11.256340
같다	-11.256578
하지요	-11.256819
할수있는일	-11.256847
▁공중	-11.256961
▁하소서	-11.257006
약물	-11.257062
▁의어느	-11.257178
붙여	-11.257184
야하는가	-11.257337
고나면	-11.257360
이브	-11.257388
▁흡연	-11.257529
룸	-11.257686
▁그녀들	-11.257811
▁만들어진	-11.257838
잊어버리	-11.257882
신다는것	-11.257920
▁할게	-11.257937
▁언약	-11.258011
▁될수있	-11.258045
신학	-11.258190
썩	-11.258286
▁이지금	-11.258385
▁무지	-11.258397
즐거워	-11.258444
하기도	-11.258527
배운것	-11.258645
▁중단	-11.258768
지못하는	-11.258770
▁66	-11.258974
▁께영광	-11.259049
▁1972	-11.259180
▁그러는	-11.259239
▁했노라	-11.259321
▁을옹호	-11.259356
실직	-11.259373
느껴	-11.259459
끼리	-11.259604
▁으로자신	-11.259796
들어오	-11.259811
성서필자	-11.259904
▁의결정	-11.259939
▁썩	-11.260088
▁모압	-11.260736
▁끝에	-11.260935
▁까지의	-11.260940
▁는다시	-11.261161
▁오염	-11.261347
▁에있는한	-11.261548
목격	-11.261558
▁의반응	-11.261569
충격적	-11.261653
▁이일어났	-11.261803
난관	-11.261911
▁중력	-11.262089
▁빛이	-11.262109
▁갚	-11.262322
베풀어	-11.262394
▁<	-11.262401
예정	-11.262451
처신	-11.262488
가아니라	-11.262574
논란	-11.262700
▁아파	-11.262743
먹을	-11.262796
어느것	-11.262846
▁의정부	-11.262916
어깨	-11.263053
게합니다	-11.263169
존귀	-11.263179
▁생각에는	-11.263222
았읍니다	-11.263363
13	-11.263468
▁입력하십시오	-11.263616
부리	-11.263657
야하는	-11.263701
▁을자신	-11.263835
상대방	-11.263843
동성애	-11.264041
▁케하는	-11.264102
▁뇨	-11.264132
있다는점	-11.264168
동반	-11.264363
▁을가질수있	-11.264455
회중집회	-11.264480
살리	-11.264535
보입니다	-11.264575
▁에서자신	-11.264627
골짜기	-11.264724
▁쉽	-11.264820
으론	-11.264839
방울	-11.264870
히브리	-11.264887
▁존중	-11.264958
▁지수	-11.264958
▁말해봐	-11.264968
▁이되게하	-11.264989
▁프로테스탄트	-11.265018
▁1974	-11.265026
▁의도시	-11.265111
▁가증가	-11.265262
▁두개의	-11.265312
▁하지않는다면	-11.265388
▁한명	-11.265428
▁둔	-11.265492
급히	-11.265544
폭탄	-11.265682
한말	-11.265788
▁이인간	-11.265793
나비	-11.265948
▁목록을	-11.266127
▁에넣	-11.266138
im	-11.266149
ll	-11.266251
특	-11.266283
▁근처에	-11.266315
▁에너지를	-11.266322
증후군	-11.266395
▁하고싶	-11.266454
▁잃은	-11.266459
▁있을거야	-11.266571
▁채우	-11.266686
▁은물론	-11.266700
▁자제	-11.266746
▁가들	-11.267267
▁25.	-11.267296
▁소리야	-11.267319
▁은진리	-11.267359
▁맞습니다	-11.267370
위급	-11.267389
서는안되	-11.267438
▁듯	-11.267619
▁연관	-11.267639
언덕	-11.267645
제일	-11.267969
를제공	-11.268062
▁에살고있는	-11.268064
▁쪽으로	-11.268086
▁들어가는	-11.268096
▁해보고	-11.268313
▁예쁜	-11.268665
곱하기	-11.269082
▁한환경	-11.269128
당뇨병	-11.269307
부름	-11.269468
▁누워	-11.269470
▁역할	-11.269547
온사람	-11.269957
있지만	-11.269963
▁동안에	-11.270065
게해줍니다	-11.270127
▁되었는가	-11.270187
가축	-11.270249
▁그런일	-11.270250
▁한정신	-11.270332
비치	-11.270455
▁이그리스도인	-11.270563
▁더는	-11.271028
▁를피우	-11.271097
계십니까	-11.271155
▁두뇌	-11.271174
채택	-11.271190
▁디모데후	-11.271290
▁인증서	-11.271377
▁고을	-11.271446
대서양	-11.271495
는뜻	-11.271505
지말	-11.271616
옵	-11.271900
▁이다른	-11.271924
남용	-11.272113
▁1985	-11.272294
▁장애	-11.272371
▁을알아	-11.272407
▁신체적	-11.272463
광선	-11.272494
▁이슬람	-11.272507
구경	-11.272539
▁염려	-11.272605
▁끝났어	-11.272632
많은나라	-11.273008
▁최선을	-11.273009
▁것이라는	-11.273207
해졌	-11.273305
▁을받을때	-11.273383
년도	-11.273405
크리스	-11.273733
▁의완전	-11.273734
있어야합니다	-11.273991
절차	-11.274003
딴	-11.274086
두뇌	-11.274118
▁을파	-11.274119
▁할수있게	-11.274196
▁줬	-11.274213
게되고	-11.274249
▁질문은	-11.274465
▁평범한	-11.274770
한명	-11.275002
규제	-11.275021
애완동물	-11.275167
권을	-11.275168
ot	-11.275175
’	-11.275175
영역	-11.275233
둥지	-11.275386
▁단백질	-11.275415
▁여호와여	-11.275436
▁관해서	-11.275527
이지요	-11.275778
어떤종류	-11.275989
▁의조상	-11.276235
▁스위스	-11.276264
▁을하거나	-11.276488
업적	-11.276570
▁이방인	-11.276620
▁고민	-11.276647
▁이라고예언	-11.276652
▁이거의	-11.276678
ine	-11.276872
▁권력	-11.276872
▁오디오	-11.276966
▁를끊	-11.276994
함이라	-11.277039
문자	-11.277062
하긴	-11.277088
▁맥스	-11.277126
▁되요	-11.277129
소송	-11.277275
▁세된	-11.277312
▁협력	-11.277404
시초	-11.277774
▁를드리	-11.277891
▁에게사랑	-11.277971
▁돌아왔	-11.278067
▁딴	-11.278098
▁보여주는	-11.278128
두번째	-11.278179
▁의장로	-11.278199
▁형태로	-11.278350
지못하고	-11.278602
해진	-11.278619
▁중이	-11.278760
▁영화를	-11.278781
▁어미	-11.278814
하든	-11.278991
▁할수있는지	-11.279013
▁을줄	-11.279128
▁견	-11.279486
▁너네	-11.279490
스는	-11.279504
▁출애굽	-11.279521
신다면	-11.279560
▁하였던것	-11.279626
비극적	-11.279669
일주일	-11.279803
▁얻는	-11.279819
누이	-11.279845
▁올해	-11.280064
▁감독	-11.280089
오기	-11.280335
▁자기야	-11.280404
▁약을	-11.280422
보았습니다	-11.280426
성급	-11.280426
온통	-11.280481
▁시절	-11.280747
열정적	-11.280758
노스	-11.280941
으러	-11.281062
▁을타고	-11.281163
▁공평	-11.281220
▁컵	-11.281446
▁강조	-11.281467
▁20,	-11.281772
모방	-11.281897
▁다음은	-11.281999
▁한잔	-11.282043
곤경	-11.282176
▁백성들을	-11.282255
▁을택하	-11.282426
비유적	-11.282518
▁같군요	-11.282652
투자	-11.282718
▁상징	-11.282727
▁의성	-11.282752
훈	-11.282855
▁하고는	-11.282965
▁강력	-11.283217
이므로	-11.283228
▁확대	-11.283329
점진적	-11.283421
▁을제어	-11.283435
▁모르겠네요	-11.283450
▁의은혜	-11.283465
▁길에	-11.283640
정치가	-11.283949
하시니	-11.283961
▁전체를	-11.284038
▁그밖	-11.284051
고있는데	-11.284101
▁천사들이	-11.284151
▁my	-11.284181
는거죠	-11.284205
▁이가득	-11.284303
▁겨울	-11.284368
우유	-11.284424
도록허락	-11.284519
▁님은	-11.284530
다보니	-11.284626
드린	-11.284675
▁조합	-11.284702
▁사마리아	-11.284704
▁동일한	-11.285028
▁오른쪽으로	-11.285359
한가지이유	-11.285373
시체	-11.285383
▁께드리는	-11.285484
밀어	-11.285555
▁그렇게하여	-11.285591
▁지하	-11.285693
선박	-11.285783
퀴	-11.285796
확립	-11.285909
주는일	-11.285973
동배	-11.286033
▁과행동	-11.286304
▁분배	-11.286337
▁의동기	-11.286419
호별방문	-11.286703
연령	-11.286726
즉각적	-11.286963
제대로	-11.287077
▁가지는	-11.287147
▁있으나	-11.287249
운명	-11.287354
점이	-11.287365
▁이생각	-11.287406
▁경우는	-11.287426
▁따로	-11.287445
▁이들에게	-11.287460
▁노래를	-11.287560
는그	-11.287612
▁만으로도	-11.287643
논리적	-11.287730
▁넘어가	-11.287751
▁22,	-11.287754
하지않고	-11.287772
▁비타민	-11.287840
졸업	-11.287857
무늬	-11.287882
▁하는면	-11.287889
▁의청소년	-11.287900
분류	-11.287993
▁를선택	-11.288080
법률	-11.288081
▁프	-11.288501
man	-11.288592
▁갈게	-11.288618
변호	-11.288634
무가치	-11.288782
▁그로	-11.288837
▁친구들이	-11.288885
▁받은사람	-11.288978
▁의관점	-11.288980
▁쳐다보	-11.289042
이뇨	-11.289058
▁을높이	-11.289130
거다	-11.289245
쓸모	-11.289437
▁들중하나	-11.289474
오늘날우리	-11.289510
님의	-11.289906
▁무거운	-11.290208
수있었다	-11.290500
서는안된다	-11.290561
▁의공격	-11.290651
▁먹지	-11.290766
열거	-11.290839
테니	-11.290988
▁양식	-11.291034
▁정책	-11.291462
▁이불	-11.291853
룻	-11.291915
지않을	-11.292091
애통	-11.292104
곤하였다	-11.292124
▁존재합니다	-11.292163
▁삽입	-11.292371
▁감옥에	-11.292374
▁재미있는	-11.292500
▁을하지않	-11.292552
▁얼굴에	-11.292634
▁이넘	-11.292643
▁의질	-11.292760
▁단어를	-11.292830
▁의성품	-11.292882
▁십대	-11.292947
▁되기전	-11.292949
art	-11.292974
▁하심이라	-11.293018
▁따르지	-11.293056
갈것	-11.293099
▁스포츠	-11.293165
▁젊은이	-11.293191
▁는항상	-11.293197
▁해야하는가	-11.293212
줬어요	-11.293216
수반	-11.293282
절도	-11.293293
정녕	-11.293498
▁Re	-11.293880
▁날개	-11.293887
▁에당신	-11.294050
▁을하고있	-11.294065
그리고그	-11.294187
▁리라	-11.294283
느라	-11.294349
▁사용하면	-11.294463
서를	-11.294499
▁청중	-11.294526
▁하고도	-11.294592
거북	-11.294620
▁영원한	-11.294623
▁끊어	-11.294722
▁되자	-11.294753
다른것	-11.294769
▁오라	-11.294797
▁사물	-11.294974
할머니	-11.295025
▁빚	-11.295058
▁은그렇게	-11.295427
그자체	-11.295457
▁49	-11.295612
▁찾지	-11.295712
휴가	-11.295715
빠	-11.295771
유능	-11.295827
▁구하	-11.295851
▁가실제	-11.295855
어렵	-11.295913
▁는아버지	-11.295938
▁위대	-11.295987
이군요	-11.296114
포도나무	-11.296244
▁현명	-11.296270
러스	-11.296329
▁는언제나	-11.296355
견고	-11.296390
이따금	-11.296552
더중요	-11.296866
▁꼬마	-11.296899
이기심	-11.296968
▁에스더	-11.297144
각기	-11.297189
책임자	-11.297275
수녀	-11.297360
▁출신	-11.297387
ma	-11.297574
▁의작은	-11.297580
▁에빠져	-11.297684
▁듣기	-11.297722
▁잃	-11.297723
▁비트	-11.297837
▁말하니	-11.297929
▁해준	-11.298029
▁이새	-11.298050
▁인증	-11.298077
ce	-11.298102
▁베드로후	-11.298247
임금	-11.298279
▁못합니다	-11.298454
▁전쟁을	-11.298911
음성	-11.299047
이었다	-11.299266
문구	-11.299286
그런사람	-11.299342
흡수	-11.299440
▁가져다	-11.299858
▁가약	-11.299874
▁작용	-11.299919
조류	-11.300072
▁의장래	-11.300082
틸	-11.300282
천만	-11.300430
▁엄마를	-11.300463
▁물러서	-11.300467
▁루시어스	-11.300477
섭	-11.300666
▁되었다고	-11.300713
▁이예언	-11.300975
▁의신분	-11.301097
▁26.	-11.301126
▁예증	-11.301174
일러	-11.301320
▁예측	-11.301405
▁를통해서	-11.301412
▁에대해생각	-11.301467
▁을불러	-11.301531
철도	-11.301589
▁이될수있는	-11.301838
▁우상을	-11.301992
▁예배	-11.301999
유형	-11.302186
평등	-11.302214
나마	-11.302238
▁만일그	-11.302367
상관	-11.302449
불만	-11.302450
▁불리	-11.302558
소재	-11.302609
지중해	-11.302686
서가아니라	-11.302967
▁저지른	-11.303068
했던것	-11.303122
▁그러나그러한	-11.303138
지않으면안됩니다	-11.303269
▁장비	-11.303287
▁1988	-11.303576
들어보	-11.303663
▁접속	-11.303708
▁을찬양	-11.303792
▁너희들이	-11.303840
▁하고나서	-11.304032
▁시작하는	-11.304050
▁한축복	-11.304093
▁을입은	-11.304291
▁윈	-11.304295
▁없네	-11.304351
▁이아주	-11.304371
▁하신바	-11.304398
▁폐하	-11.304436
▁의시작	-11.304584
▁시켰습니다	-11.304632
▁그릴	-11.304687
▁얘기할	-11.304833
있었읍니까	-11.304914
현실적	-11.304942
est	-11.304998
▁다운로드	-11.304998
▁보스	-11.305334
▁가있는데	-11.305340
▁을알게되	-11.305380
▁갑니다	-11.305417
▁56	-11.305775
있지않다	-11.305857
▁결과는	-11.305928
▁식당	-11.305977
타격	-11.306051
들리	-11.306068
▁애를	-11.306297
▁미래를	-11.306298
▁이결코	-11.306310
▁끌	-11.306482
대접	-11.306650
드레	-11.306664
아스	-11.306708
▁발명	-11.306744
▁지워	-11.306767
▁1)	-11.306947
▁거울	-11.306963
▁심각	-11.307023
장막	-11.307031
있다는것	-11.307153
궤	-11.307174
▁정확하게	-11.307223
▁을받습니다	-11.307311
도와달라고	-11.307311
암컷	-11.307427
완화	-11.307444
미화	-11.307521
▁화성	-11.307646
▁이리와	-11.307790
국적	-11.307913
맞는	-11.307993
왔어	-11.308057
▁1986	-11.308086
▁중이야	-11.308154
▁입장	-11.308273
시는분	-11.308449
보충	-11.308539
▁이용해서	-11.308764
▁테니까	-11.308863
여깁니다	-11.309055
건너	-11.309108
ho	-11.309381
▁여성이	-11.309445
▁을치료	-11.309551
▁를죽이	-11.309691
대치	-11.309717
▁층더	-11.309805
바치는	-11.310037
주권	-11.310037
소망	-11.310045
소책자	-11.310080
돔	-11.310138
▁되어있었다	-11.310161
하셨읍니다	-11.310468
무지	-11.310472
어린시절	-11.310570
게만들	-11.310733
▁설득	-11.310744
▁조상	-11.310832
개혁	-11.310951
▁불이	-11.310979
당황	-11.311059
뉴욕타임스	-11.311118
해지는	-11.311119
알게되	-11.311208
으로는	-11.311300
all	-11.311388
▁법정	-11.311492
보도록	-11.311764
▁자기를	-11.311816
▁로도	-11.311931
그레	-11.312027
▁디도	-11.312032
▁을허용	-11.312096
▁붉은	-11.312209
약품	-11.312230
게할것	-11.312376
▁27.	-11.312408
보냈다	-11.312461
▁심한	-11.312787
수없습니다	-11.312808
즈음	-11.312822
▁일어나서	-11.312881
▁둘러	-11.313068
▁의욕망	-11.313072
▁은틀림	-11.313082
▁거리를	-11.313119
▁마실	-11.313186
이상적	-11.313224
동료인간	-11.313358
▁원수	-11.313401
▁은마음	-11.313436
▁활용	-11.313629
어려울	-11.313903
▁방정식을	-11.313928
▁에사망	-11.313951
▁하나님에	-11.313982
▁의음성	-11.313992
▁개미	-11.314009
하소서	-11.314029
단장	-11.314037
잠재력	-11.314054
▁"%	-11.314174
학년	-11.314190
▁센터	-11.314243
을뿐아니라	-11.314295
해줍니다	-11.314322
드리는	-11.314326
▁한생각	-11.314356
▁교직자	-11.314390
▁st	-11.314498
광대	-11.314664
▁알지만	-11.314766
▁모양이	-11.314818
ers	-11.314856
상업	-11.314878
도둑	-11.315037
▁을이루는	-11.315099
▁의지배	-11.315150
칙	-11.315219
쟁	-11.315316
각사람	-11.315358
피아	-11.315406
▁은없다	-11.315419
▁은하나	-11.315567
의미심장	-11.315599
▁을나타내고	-11.315609
살아있	-11.315677
날때	-11.315704
이르기	-11.315716
▁옳	-11.315894
딱	-11.315901
솔선	-11.316007
▁살아남	-11.316111
▁이끌	-11.316126
▁뿐이에요	-11.316218
계몽	-11.316389
▁아버지를	-11.316391
▁농부	-11.316742
▁무언가	-11.316880
▁정확한	-11.317044
▁못해요	-11.317263
▁을좋아	-11.317369
하듯	-11.317412
보려고	-11.317521
▁에서이렇게	-11.317596
▁은회중	-11.317689
▁간단히	-11.317698
▁되겠네요	-11.317711
▁과아내	-11.317742
▁아픈	-11.317936
▁겁니까	-11.318063
▁마시고	-11.318404
▁브리	-11.318449
며칠	-11.318453
분만	-11.318557
펄	-11.318716
▁충격	-11.318774
▁농장	-11.318820
▁기다리는	-11.318874
행함	-11.318941
▁에처음	-11.318996
▁알림	-11.319057
활력	-11.319077
▁에게자기	-11.319498
▁로운일	-11.319543
▁사악함	-11.319817
하와	-11.319915
▁밝히	-11.319962
▁오락	-11.319965
▁물리	-11.319996
양떼	-11.320062
대통령	-11.320241
장난감	-11.320242
▁힘들어	-11.320255
▁을줄이	-11.320327
▁염소	-11.320337
놓았다	-11.320343
무게	-11.320353
▁기능을	-11.320487
▁을뜻	-11.320589
▁다운	-11.320756
▁창조한	-11.320912
▁지속	-11.320933
▁느끼	-11.321028
금지령	-11.321113
깎	-11.321162
▁평	-11.321215
위엄	-11.321275
발굴	-11.321312
결핵	-11.321366
▁도하였습니다	-11.321566
▁원인	-11.321652
세상적	-11.321682
▁소프트웨어	-11.321841
▁로버트	-11.321856
▁마라	-11.322248
▁과나	-11.322295
▁우연	-11.322314
텐	-11.322375
ex	-11.322524
나치	-11.322630
성숙	-11.322694
찌르	-11.322728
▁모두는	-11.322785
▁의큰	-11.322896
머무	-11.322961
▁의시대	-11.322983
▁줘요	-11.323041
았고	-11.323298
▁에서그분	-11.323311
장교	-11.323337
의로운사람	-11.323555
다니면서	-11.323583
▁상수	-11.323674
▁호스트	-11.323832
▁가지게	-11.323968
▁중에는	-11.324001
▁봤을	-11.324011
없었다	-11.324068
▁테이프	-11.324423
▁족장	-11.324446
까진	-11.324454
▁을아는것	-11.324513
▁에게전파	-11.324526
보단	-11.324597
▁매니	-11.324629
▁주말	-11.324659
▁not	-11.324675
다스리는	-11.324858
▁아버지의	-11.324863
집주인	-11.324897
▁해야하며	-11.324970
을거야	-11.325154
▁을갖춘	-11.325208
▁즐거움	-11.325247
갔는데	-11.325343
관광	-11.325375
모든민족	-11.325389
열차	-11.325481
▁더러운	-11.325546
▁앗수르	-11.325565
독재	-11.325665
▁을맞	-11.325716
▁이영적	-11.326048
▁떨어졌	-11.326096
및기타	-11.326097
기상	-11.326203
▁식품	-11.326215
벧엘	-11.326274
▁하나만	-11.326370
유대교	-11.326431
▁의사가	-11.326574
▁평행	-11.326696
▁를표	-11.326751
▁기술이	-11.326837
▁한영적	-11.326851
고있기때문	-11.327011
이로다	-11.327024
▁카라	-11.327193
연로자	-11.327480
마태복음	-11.327840
▁하나님으로부터	-11.327888
▁챙겨	-11.327978
시간동안	-11.328167
▁용기	-11.328211
▁땅이	-11.328251
▁주로	-11.328358
▁변환	-11.328439
▁나면	-11.328605
▁은미국	-11.328672
비웃	-11.328721
▁분류	-11.328815
▁자선	-11.329114
고싶어하는	-11.329309
▁차가	-11.329345
외로움	-11.329528
두루	-11.329550
걸음	-11.329581
▁명예	-11.329655
▁동영상	-11.329846
▁한쪽	-11.329878
테니까	-11.329957
시합	-11.330019
껍질	-11.330063
출현	-11.330121
수분	-11.330313
바나	-11.330550
ph	-11.330599
▁하시어	-11.330718
▁있었는지	-11.330983
공화국	-11.331128
▁64	-11.331594
끊	-11.331600
▁암호	-11.331655
마비	-11.331741
▁확보	-11.331819
▁를만들어	-11.331884
쉽습니다	-11.331905
게되는것	-11.332408
▁씻	-11.332500
▁잠시만	-11.332525
▁된때	-11.332695
▁e	-11.332721
▁을일으키는	-11.332785
▁걸까요	-11.332823
봐야	-11.333155
▁불과하	-11.333515
▁미래에	-11.333539
▁모르고	-11.333578
▁치않	-11.333792
▁이있어	-11.333841
▁가있으며	-11.333899
▁탓	-11.334008
▁의행위	-11.334134
띠	-11.334191
▁방정식	-11.334273
시기때문	-11.334319
결정적	-11.334417
영상	-11.334651
▁도여호와	-11.334758
▁짐을	-11.334782
▁만들지	-11.334805
살펴볼	-11.335022
▁어깨	-11.335076
악행	-11.335180
으면서도	-11.335184
▁아가	-11.335222
▁을받고있다	-11.335382
▁근무	-11.335393
한나라	-11.335423
▁정보가	-11.335484
오해	-11.335554
▁신장	-11.335592
▁보내기	-11.335952
▁개선	-11.336023
즐겼	-11.336040
물론	-11.336269
▁스럽	-11.336316
무죄	-11.336600
지않음	-11.336699
▁에까지	-11.336753
살아가는	-11.336999
▁하고있는가	-11.337157
▁가누구	-11.337210
▁가너무	-11.337213
봤어	-11.337233
우연	-11.337276
▁있니	-11.337305
▁빌려	-11.337421
듭니다	-11.337481
▁을미워하	-11.337544
▁은아니지만	-11.337590
▁그래서나	-11.337633
▁하지않는것	-11.337634
400	-11.337746
여겼	-11.337866
▁이더욱	-11.337915
▁확실한	-11.337923
▁되어있었습니다	-11.338031
확대	-11.338084
춰	-11.338117
참종교	-11.338152
▁가예수	-11.338397
▁뭐라고요	-11.338494
주의적	-11.338759
천막	-11.338853
▁URL	-11.338873
▁한사건	-11.339025
드러나	-11.339041
▁않겠	-11.339135
박물관	-11.339135
▁끝날	-11.339405
알려져있	-11.339578
▁열조	-11.339747
▁저리	-11.339799
도르	-11.339817
▁내내	-11.339820
▁호흡	-11.339895
▁소금	-11.339947
▁은하	-11.340025
▁아니었	-11.340038
▁지식을	-11.340106
▁트레이	-11.340137
톱	-11.340182
헨	-11.340195
▁가다시	-11.340256
리나	-11.340423
세부점	-11.340450
ne	-11.340481
사흘	-11.340489
겠나	-11.340664
아가	-11.340664
▁읽기	-11.340755
▁을바꾸	-11.340792
나님은	-11.340838
간의	-11.340878
나왔다	-11.340879
부르크	-11.340890
▁못하느뇨	-11.340919
▁추측	-11.341091
▁돌아가서	-11.341239
ve	-11.341405
▁이해하는	-11.341466
▁의원칙	-11.341588
▁실험실	-11.341647
▁때에는	-11.341863
지않겠는가	-11.341868
▁상태로	-11.341958
난폭	-11.342016
▁신사	-11.342140
▁뭐요	-11.342192
▁만으로는	-11.342328
per	-11.342388
▁이라고한다	-11.342405
▁은총	-11.342448
▁이현재	-11.342457
▁에띄	-11.342570
▁이있을때	-11.342630
다투	-11.342659
▁자고	-11.342689
만드신	-11.342737
▁와우	-11.342853
▁가한	-11.342868
가르칠	-11.343041
▁무게	-11.343088
▁년오순절	-11.343117
▁매번	-11.343123
▁당연	-11.343266
▁누구든	-11.343274
▁될까	-11.343442
뮤	-11.343582
▁에서유래	-11.343615
▁치않은	-11.343630
잠깐	-11.343932
▁53	-11.343956
셨나요	-11.344127
▁$	-11.344188
▁살리	-11.344240
오면	-11.344433
▁얼굴이	-11.344501
미친	-11.344625
품위	-11.344675
리우스	-11.344733
▁친구를	-11.344755
신화	-11.344810
참하나님	-11.344854
지모르지만	-11.344919
▁거대	-11.344994
▁않으	-11.344994
▁배치	-11.345023
▁를돕	-11.345035
▁을하여	-11.345110
BAR	-11.345199
▁개를	-11.345245
▁시킬수있는	-11.345255
운하	-11.345266
되풀이	-11.345269
▁누굴	-11.345287
▁스테	-11.345402
▁조용	-11.345534
주간	-11.345654
▁정지	-11.345689
▁에속해있	-11.345745
아요	-11.345819
▁에있을때	-11.345881
▁강도	-11.345883
되었을	-11.345982
숙고	-11.346048
지못합니다	-11.346055
▁한반응	-11.346110
장에	-11.346205
▁그러나예수	-11.346318
00	-11.346369
▁의미하는	-11.346429
▁를가지고있다	-11.346545
버그	-11.346652
지는것	-11.346704
주십시오	-11.346950
큰도움	-11.347028
▁첨부	-11.347047
지고있다	-11.347197
▁즐거운	-11.347224
▁못했	-11.347257
▁늙은	-11.347359
▁어떨까요	-11.347540
▁모르지	-11.347953
▁스럽고	-11.348106
권합니다	-11.348135
모독	-11.348164
떠오르	-11.348222
있다는사실	-11.348223
▁싶으면	-11.348404
는느낌	-11.349078
거민	-11.349125
▁옮기	-11.349194
▁의행로	-11.349284
잡아	-11.349395
▁de	-11.349562
▁빨	-11.349655
▁태어나	-11.349697
▁죄악을	-11.349705
▁멜	-11.349913
▁되었을	-11.349922
지않다	-11.349933
▁갓	-11.350065
▁죽고	-11.350116
산호	-11.350175
▁가어떤	-11.350228
▁한부분	-11.350275
▁환자를	-11.350654
▁을볼수있	-11.350742
▁기쁘게	-11.350807
아빠	-11.351243
감시	-11.351281
os	-11.351307
▁원치	-11.351317
▁을훈련	-11.351503
농작물	-11.351577
타임스	-11.351650
▁계단	-11.351689
거니와	-11.351821
클리	-11.352056
는본지	-11.352058
마취	-11.352284
▁에대한하느님	-11.352297
▁똑같	-11.352402
▁움직일	-11.352448
▁물론이죠	-11.352508
▁불어	-11.352585
▁끝이	-11.352785
▁가참으로	-11.352802
▁이라고믿	-11.352826
▁라고그	-11.352956
전진	-11.352961
▁풍	-11.353136
▁한친절	-11.353220
▁나옵니다	-11.353282
왕좌	-11.353385
▁할수있는이유	-11.353579
▁군사	-11.353637
▁800	-11.353840
▁빠진	-11.353883
▁년이후	-11.353889
▁교도소	-11.353969
▁밭	-11.354381
▁학교에서	-11.354413
▁원소	-11.354599
치아	-11.354633
이른바	-11.354762
틀리	-11.354952
젊은여자	-11.355073
▁행사	-11.355239
▁지나가	-11.355276
은즉	-11.355329
▁한존재	-11.355407
▁웨	-11.355557
고있다고	-11.355561
▁이그것	-11.355598
위선	-11.355834
있거나	-11.355868
듣는사람	-11.355890
넘겨	-11.355972
▁말하노라	-11.356013
▁찰스	-11.356299
▁을누릴	-11.356315
하마	-11.356424
▁길르앗	-11.356570
▁목숨	-11.356605
작가	-11.356767
▁하게되어	-11.356858
▁마리화나	-11.356921
과장	-11.356943
▁길이가	-11.356997
▁허가	-11.357083
쓰는	-11.357098
▁문이	-11.357099
▁의이야기	-11.357113
▁일부를	-11.357206
▁에성서	-11.357370
현장	-11.357393
시요	-11.357404
▁에대한책임	-11.357530
▁알려진	-11.357575
▁×	-11.357727
깔	-11.357755
▁교훈을	-11.357780
▁되기시작	-11.358013
▁은성경	-11.358073
▁과부	-11.358107
▁으로그분	-11.358211
▁하는문제	-11.358274
▁물어봐	-11.358294
서식지	-11.358331
함과	-11.358361
털어놓	-11.358399
▁모르겠	-11.358546
공상	-11.358685
거주자	-11.358718
겉	-11.358775
더라면	-11.358814
▁을소유	-11.358870
▁은세계	-11.358901
재판관	-11.358975
연구생	-11.359125
존속	-11.359222
비극	-11.359548
▁유전	-11.359551
▁아니예요	-11.359608
▁사용하여	-11.359767
▁보실	-11.359900
▁빠르	-11.360023
는의미	-11.360155
▁군대를	-11.360295
▁기억이	-11.360388
▁집합	-11.360457
폭포	-11.360467
▁롤	-11.360513
▁전역	-11.360548
가져올	-11.360551
▁어렸을	-11.360691
견디	-11.360708
경멸	-11.360871
흐르	-11.361100
▁의정확	-11.361152
▁(「	-11.361156
돋	-11.361230
이끌	-11.361431
▁때면	-11.361612
하이	-11.361672
▁의미가	-11.361764
▁드는	-11.361798
▁을전달	-11.361830
▁종양	-11.361872
▁했다면	-11.362271
는데필요	-11.362437
전염	-11.362468
▁노출	-11.362500
증진	-11.362780
▁빌리	-11.362803
▁딸을	-11.362851
Q	-11.363399
스의	-11.363475
가며	-11.363483
▁지시	-11.363623
날씨	-11.363723
라이트	-11.363730
보편적	-11.363750
▁주실	-11.363778
아픈	-11.363805
▁을받은사람	-11.364103
▁루시퍼	-11.364337
▁디스크	-11.364358
사고방식	-11.364404
▁지혜를	-11.364514
▁의그리스도인증인	-11.364641
음란물	-11.364644
▁둘다	-11.364912
기까지	-11.364944
꼽	-11.365858
▁코끼리	-11.365970
▁내세에서	-11.366005
▁나야	-11.366103
▁복이	-11.366304
▁해결할	-11.366374
▁피가	-11.366398
▁적절한	-11.366485
▁북부	-11.366529
나타내는	-11.366611
▁을가졌	-11.366827
▁짝	-11.366843
가혹	-11.366902
껴	-11.367045
▁를발전	-11.367182
세번	-11.367186
새겨	-11.367197
액체	-11.367317
▁가세상	-11.367325
▁정렬	-11.367564
한텐	-11.367661
▁한가정	-11.367808
▁토끼	-11.368045
▁의영향력	-11.368078
▁베푼	-11.368415
학문	-11.368475
▁의진정	-11.368507
흔한	-11.368526
학습	-11.368558
덤	-11.368587
▁고르	-11.368629
▁질투	-11.368649
빠져	-11.368979
믿는	-11.369021
그런것	-11.369095
치를	-11.369228
▁한언어	-11.369246
자로	-11.369448
는이렇게알려줍니다	-11.369596
▁에잘	-11.369665
구덩이	-11.369726
섬길	-11.369877
▁는어디	-11.369891
▁히스기야	-11.369919
하신말씀	-11.369930
▁이밝혀졌다	-11.370030
▁우리시대	-11.370122
▁닿	-11.370141
▁흥미롭	-11.370207
최	-11.370307
겔	-11.370342
▁마련	-11.370383
▁꽤나	-11.370425
에게도	-11.370506
에대한	-11.370611
▁양심	-11.370646
▁DVD	-11.370697
▁파블로	-11.370736
우며	-11.370918
▁을크게	-11.370948
옳은일	-11.371001
▁연구를	-11.371006
▁와안전	-11.371169
▁차이	-11.371375
건강문제	-11.371377
▁박스	-11.371571
▁인수	-11.371580
보았	-11.371657
▁장군	-11.371960
▁글자	-11.371987
▁여자친구	-11.371993
집안일	-11.372083
▁를끌	-11.372089
는길	-11.372277
흐르는	-11.372284
▁서로에게	-11.372391
오래참음	-11.372410
▁의교직자	-11.372858
▁걸쳐	-11.372915
▁이없이	-11.372990
▁콜롬비아	-11.372997
조부모	-11.372999
▁이것에	-11.373002
연간	-11.373083
▁말아	-11.373194
▁수단	-11.373224
비디오	-11.373230
현저	-11.373384
피곤	-11.373399
안심	-11.373419
▁중지	-11.373528
▁에필요	-11.373569
▁하늘을	-11.373679
권능	-11.373713
to	-11.373759
지않은것	-11.373762
톨	-11.373832
▁의종결	-11.374010
시골	-11.374012
▁사건이	-11.374031
▁태그	-11.374155
▁과성서연구	-11.374310
파티	-11.374331
▁에대한여호와	-11.374352
▁잘라	-11.374355
모형	-11.374382
처소	-11.374417
▁을생산	-11.374490
나타난다	-11.374742
▁도박	-11.374838
안내	-11.374956
▁은항상	-11.375170
▁사전	-11.375270
▁가상	-11.375313
▁가사는	-11.375332
300	-11.375397
▁인물	-11.375415
프트	-11.375433
실과	-11.375510
▁사이에서	-11.375512
지팡이	-11.375525
▁숨기	-11.375554
ac	-11.375574
아홉	-11.375581
고지적	-11.375629
애쓰	-11.375678
게되며	-11.375687
▁를지키	-11.375802
▁을참으로	-11.375884
▁동기	-11.376038
유사	-11.376188
▁앙	-11.376222
▁볼까요	-11.376274
▁있단	-11.376728
야생동물	-11.376776
나누어	-11.377009
▁에서발행	-11.377131
으니라	-11.377237
좌석	-11.377277
진주	-11.377289
▁이스라엘사람	-11.377325
▁하지않다	-11.377477
▁의남은자	-11.377579
헤르	-11.377649
천문학자	-11.377682
▁의성서	-11.377756
▁를전	-11.377975
▁약물	-11.378118
▁한종류	-11.378145
▁우리한테	-11.378161
들아	-11.378219
▁말했어요	-11.378263
압도	-11.378324
▁메모리	-11.378351
캔	-11.378505
▁외국	-11.378707
▁상태가	-11.378713
에만	-11.378739
개성	-11.378811
▁에전파	-11.378837
▁의보호	-11.378994
▁뜻을	-11.379164
다는말	-11.379166
륙	-11.379193
▁보시는	-11.379196
있으면서	-11.379382
▁은대단	-11.379533
▁께서는이	-11.379589
▁해주기	-11.379602
▁느끼는	-11.379661
▁만물	-11.379782
▁의절반	-11.379873
▁해야한다고	-11.380065
▁얼마안있어	-11.380107
▁불의	-11.380136
그다지	-11.380365
게되었으며	-11.380410
가까워	-11.380435
▁것이지요	-11.380438
신장	-11.380590
▁의편	-11.380737
후원	-11.380741
▁사람으로	-11.380872
효율적	-11.380887
▁같아서	-11.380909
심장병	-11.380946
▁토록	-11.380959
이와같은	-11.380973
▁나와서	-11.381065
▁예전에	-11.381065
▁둬	-11.381124
▁바라보	-11.381260
▁이과연	-11.381498
▁되니라	-11.381691
▁은더욱	-11.382047
▁디지털	-11.382079
렘	-11.382079
컴	-11.382080
▁방식을	-11.382132
▁아르	-11.382163
영위	-11.382172
▁숨겨	-11.382321
▁왕을	-11.382458
▁무릎	-11.382467
▁에약	-11.382479
위원	-11.382522
교환	-11.382897
창문	-11.382902
▁를하였다	-11.382942
▁사방	-11.383046
▁막대	-11.383078
▁을보여	-11.383231
▁동쪽	-11.383262
아마겟돈	-11.383400
▁를받았	-11.383514
▁붙어	-11.383696
▁1;	-11.383871
양쪽	-11.383963
▁사람들도	-11.384067
▁지우	-11.384141
내포	-11.384393
▁가짜	-11.384410
▁은아직도	-11.384500
고는	-11.384548
▁식이	-11.384643
도래	-11.384692
다가오	-11.384759
역경	-11.384831
▁많은경우	-11.384931
▁처음부터	-11.384989
▁자들과	-11.384992
이전어느때	-11.385154
100	-11.385204
재빨리	-11.385297
쉽사리	-11.385404
모를	-11.385418
한편	-11.385504
더라고요	-11.385518
▁과학적	-11.385573
▁파악	-11.385584
▁영감	-11.385592
▁들어갔	-11.385682
부가적	-11.385843
▁에무엇	-11.385903
▁에도그	-11.385934
▁250	-11.385976
▁집어	-11.385976
▁패턴	-11.385994
▁을느낄	-11.386034
▁분들이	-11.386202
▁를원하는	-11.386405
하였나이다	-11.386496
\	-11.386973
같았다	-11.386998
▁를바랍니다	-11.387000
해져	-11.387021
하시오	-11.387132
오는것	-11.387254
새질서	-11.387257
▁투명	-11.387293
있지않	-11.387300
▁신의	-11.387522
있어야한다	-11.387580
▁이르게	-11.387629
▁수상	-11.387856
임재	-11.387911
여긴다	-11.387966
뜯	-11.388137
▁빨간	-11.388230
▁보험	-11.388337
▁는영적	-11.388363
▁을입고	-11.388375
들한테	-11.388416
제가	-11.388421
▁댄	-11.388668
▁판결	-11.388813
일어난	-11.388849
▁가없었습니다	-11.388917
▁볼게요	-11.388932
▁을대표	-11.388935
▁에서계속	-11.389075
▁자손의	-11.389194
▁남자를	-11.389220
물어	-11.389295
▁나눈	-11.389296
새하늘	-11.389312
▁않는다는	-11.389350
단한	-11.389356
vi	-11.389528
하고있는	-11.389614
▁그치만	-11.389728
해주세요	-11.389770
고있는사람	-11.389826
재해	-11.389923
▁자꾸	-11.389984
▁당할	-11.389987
지않는사람	-11.389988
▁아이들에게	-11.390002
릴것	-11.390374
가방	-11.390424
▁을그만	-11.390471
리이까	-11.390558
▁채워	-11.390591
무시무시	-11.390872
▁되지않는다	-11.391000
인을	-11.391021
회전	-11.391031
▁괴	-11.391033
미련	-11.391041
▁을알수있	-11.391284
▁메시야	-11.391316
▁어른	-11.391824
▁맥주	-11.391857
▁소스	-11.391912
얹	-11.391940
해지고	-11.391989
▁삶이	-11.392037
도둑질	-11.392079
여왕	-11.392084
받지	-11.392273
▁왼쪽으로	-11.392307
다스릴	-11.392539
▁의또다른	-11.392631
동등	-11.392723
▁가그러한	-11.392770
▁분열	-11.392903
▁일수있습니다	-11.392967
속에서	-11.393089
문의	-11.393130
▁사항	-11.393335
▁강요	-11.393408
▁찍은	-11.393437
▁을알수있습니다	-11.393490
치며	-11.393550
제사	-11.393574
좌절감	-11.393637
▁속죄	-11.393742
▁벧엘	-11.393751
다니며	-11.393755
쫓아	-11.393785
게될수있다	-11.393921
간섭	-11.394064
▁를가져오	-11.394177
▁보여요	-11.394207
▁는모든	-11.394298
다릅니다	-11.394411
▁증상	-11.394720
▁에게성서	-11.394795
▁한번도	-11.394956
되었어요	-11.394999
하는게	-11.395004
그물	-11.395330
댄	-11.395411
24	-11.395547
▁을받은것	-11.395779
했기때문	-11.395919
▁돕	-11.395947
ian	-11.396041
보냈	-11.396194
▁더하여	-11.396228
고용인	-11.396251
▁연속	-11.396394
때로는	-11.396486
토지	-11.396518
▁람	-11.396555
▁의질문	-11.396601
▁에매우	-11.396646
▁의노래	-11.396704
자기아내	-11.396728
▁핸드폰	-11.396755
▁을움직	-11.396784
시리라	-11.396791
스와	-11.396838
▁미쳤	-11.396879
▁에달려있	-11.396888
열정	-11.397045
▁이들어	-11.397086
▁공동	-11.397161
감금	-11.397425
▁대지를	-11.397517
들어온	-11.397541
수명	-11.397690
흘리	-11.397912
▁나라를	-11.398089
소장	-11.398096
표지	-11.398099
▁있거든	-11.398146
실재	-11.398177
▁아기를	-11.398214
▁엘리사	-11.398214
▁누르면	-11.398223
▁얘기하고	-11.398297
▁끝까지	-11.398368
▁혈관	-11.398429
▁여자애	-11.398432
화목	-11.398549
▁안타깝게도	-11.398568
험난	-11.398694
르트	-11.398748
▁분이시라	-11.398759
▁복잡	-11.398761
▁당하는	-11.398776
▁관계가	-11.398986
▁18,	-11.399086
▁말이다	-11.399126
있지	-11.399169
▁이사랑	-11.399243
▁학생들	-11.399254
▁해두	-11.399334
▁말하기	-11.399434
▁한그	-11.399475
▁요한첫째	-11.399573
▁적응	-11.399591
고말았다	-11.399614
해봐	-11.399630
내적	-11.399716
▁의인	-11.399764
▁그것들이	-11.399801
배울	-11.399803
▁의지상	-11.399841
요약	-11.400039
미치	-11.400049
▁준비해	-11.400066
▁말해야	-11.400073
▁방법입니다	-11.400084
▁이그리스도	-11.400131
▁의위치	-11.400196
답변	-11.400197
▁되는가	-11.400261
17	-11.400396
▁바이	-11.400399
▁는미국	-11.400410
산화	-11.400469
▁숨어	-11.400508
▁의탄생	-11.400523
평안	-11.400599
고하였다	-11.400913
내버려두	-11.400918
▁의견을	-11.400966
▁이왕국	-11.400983
▁죄악이	-11.401004
▁의자비	-11.401008
목재	-11.401061
호응	-11.401331
관점	-11.401335
멸절	-11.401439
▁맞다	-11.401543
▁되지않는	-11.401635
▁다이아몬드	-11.401643
튜	-11.401659
하늘왕국	-11.401718
하겠지만	-11.401778
함으로써	-11.401799
불어	-11.401894
형주	-11.402020
그사실	-11.402049
전념	-11.402160
▁과결혼	-11.402169
▁안전하게	-11.402297
지않았으며	-11.402346
다해도	-11.402349
▁것의	-11.402351
▁조종	-11.402386
ap	-11.402473
▁을쏟	-11.402596
엘리	-11.402841
▁을바로잡	-11.403176
맞이	-11.403185
▁삽	-11.403188
▁싫어요	-11.403293
게될수	-11.403445
면어떻게	-11.403451
덩이	-11.403454
둑	-11.403556
▁너희로	-11.403566
▁넘는	-11.403655
그렇지않다	-11.403688
쇠약	-11.403844
가로되	-11.404038
원이	-11.404157
▁과다른	-11.404195
▁라는책	-11.404320
▁되었지만	-11.404389
자세히	-11.404455
뿌려	-11.404483
경찰관	-11.404520
있는가	-11.404640
▁권리	-11.404645
▁실은	-11.404840
▁공의	-11.404921
▁은실로	-11.405032
▁혼자서	-11.405167
▁될지	-11.405172
널리퍼져있	-11.405251
옮겨	-11.405296
▁1971	-11.405304
어졌	-11.405357
▁최악의	-11.405403
▁지않아	-11.405441
▁상호	-11.405621
커피	-11.405714
송이	-11.405727
▁이른	-11.405730
▁넘겨	-11.405732
▁이런일	-11.406102
▁사촌	-11.406208
▁닭	-11.406229
▁먹었	-11.406254
문을	-11.406298
▁불안	-11.406424
돼지	-11.406434
▁지금부터	-11.406509
▁올림픽	-11.406662
▁그랬지	-11.406673
▁언	-11.406956
일어났	-11.406959
▁케하	-11.407006
▁보석	-11.407097
어두운	-11.407128
▁을잘알고있	-11.407165
▁기둥	-11.407259
▁목격	-11.407296
신념	-11.407402
▁모르겠다	-11.407423
폴리	-11.407706
▁키를	-11.408064
푸른	-11.408183
▁를삼	-11.408228
불구	-11.408461
▁가가장	-11.408507
▁공공	-11.408532
첩	-11.408536
관측	-11.408612
▁때부터	-11.408852
제명	-11.408930
▁에게편지	-11.408969
▁선지자들을	-11.409011
부합	-11.409206
▁소위	-11.409337
시력	-11.409348
근본	-11.409471
바쳐	-11.409480
이냐	-11.409500
지의	-11.409526
▁치고	-11.409541
▁그러나나	-11.409595
했느뇨	-11.409600
▁같았	-11.409628
▁원숭이	-11.409641
▁두지	-11.409739
▁한장소	-11.409858
▁를돌	-11.409916
▁큰무리	-11.409923
▁고맙다	-11.410059
더뇨	-11.410164
▁프린터	-11.410280
▁균형	-11.410357
▁과교제	-11.410365
▁아니하니	-11.410408
트럭	-11.410443
▁기울	-11.410484
외치	-11.410498
▁31.	-11.410519
소멸	-11.410689
추진	-11.410786
▁초록색	-11.410808
▁의지도자	-11.410847
▁을파괴	-11.410916
▁도아니	-11.411019
청각	-11.411038
▁까지계속	-11.411052
▁에게무슨	-11.411525
했나요	-11.411564
▁견고	-11.411597
▁관점	-11.411718
엄청나게	-11.412089
▁의위협	-11.412161
소형	-11.412200
▁을약속	-11.412224
본지	-11.412296
▁해리	-11.412354
▁설명할	-11.412365
▁이여러분	-11.412493
▁빠졌	-11.412514
중한	-11.412610
▁가끝나	-11.412702
▁바알	-11.413040
국가주의	-11.413289
고있다는것	-11.413319
▁을가질	-11.413373
사형	-11.413479
▁트위터	-11.413644
▁1987	-11.413754
드로	-11.413813
▁를막	-11.413820
표본	-11.413832
▁한남자	-11.413917
해준다	-11.413957
아리	-11.413979
▁금기	-11.413989
큰바벨론	-11.414094
▁비가	-11.414164
▁사라지	-11.414492
신선	-11.414580
▁변형	-11.414631
▁하게만들	-11.414766
일에	-11.414817
ag	-11.414824
▁밀어	-11.415437
▁했다는	-11.415443
셰	-11.415759
▁미국에서	-11.416156
고등학교	-11.416239
야겠다	-11.416380
할지모릅니다	-11.416522
▁이십	-11.416648
출혈	-11.416705
동작	-11.416817
부작용	-11.416844
▁의산	-11.416847
▁어떻	-11.416898
▁이제그	-11.416930
▁을할	-11.417020
획득	-11.417048
아테네	-11.417064
주시는	-11.417123
다른모든	-11.417143
▁초기그리스도인	-11.417225
▁발을	-11.417489
잠자리	-11.417558
기금	-11.417561
▁있거든요	-11.417696
▁마이	-11.417863
▁의체험담	-11.418174
▁짓는	-11.418301
▁하는거야	-11.418424
▁에처	-11.418763
co	-11.418835
▁으로침례	-11.418846
▁공통	-11.418938
▁와의관계	-11.419002
▁를기다리	-11.419089
반란	-11.419202
▁사람이야	-11.419309
▁봐봐	-11.419590
높다	-11.419703
▁싶어서	-11.419706
▁하니까	-11.419882
▁당신께서	-11.419985
our	-11.419995
불완전성	-11.419997
▁죽이는	-11.420013
▁학대	-11.420110
추억	-11.420593
난민	-11.420622
▁이있는지	-11.420660
▁됐습니다	-11.420759
▁의천	-11.420774
▁탑	-11.420978
속임수	-11.420987
▁(“	-11.420999
무려	-11.421058
▁천국에	-11.421064
마구	-11.421244
진동	-11.421271
몸무게	-11.421412
▁를할때	-11.421439
화된	-11.421458
소홀	-11.421516
예시	-11.421527
▁가세요	-11.421555
통신원기	-11.421584
▁묶	-11.421593
▁리처드	-11.421694
좋은일	-11.421714
▁를두	-11.421782
▁변화가	-11.421861
▁있겠지	-11.421871
단언	-11.421933
섬긴	-11.421985
맡겨	-11.422022
fe	-11.422093
능히	-11.422132
▁에잠	-11.422234
▁이번에는	-11.422256
소모	-11.422311
▁1930	-11.422349
▁을청	-11.422358
▁편안	-11.422378
▁무엇입니까	-11.422385
▁로마가톨릭	-11.422546
어스	-11.422595
하나하나	-11.422596
▁우울	-11.422619
죄책감	-11.422729
알코올	-11.422829
보겠습니다	-11.422836
성적부도덕	-11.422968
나타나는	-11.422975
똑같이	-11.423027
연관	-11.423104
▁택시	-11.423183
▁거잖아	-11.423216
▁인형	-11.423679
▁일으키	-11.423814
▁위성	-11.423892
▁New	-11.424057
▁프로젝트를	-11.424171
▁만나는	-11.424315
이모든	-11.424319
▁금속	-11.424324
▁보내고	-11.424389
축일	-11.424395
았던	-11.424438
원숭이	-11.424469
▁황제	-11.424697
은다음	-11.424940
동부	-11.425011
▁을상상	-11.425045
▁을다루	-11.425186
▁은언제	-11.425221
▁이거의없	-11.425258
▁칭찬	-11.425279
▁것인데	-11.425344
각종	-11.425446
퉁	-11.425481
▁이라는책	-11.425538
▁에걸친	-11.425540
▁하고자하는	-11.425568
인격체	-11.425665
국경	-11.425713
▁장막	-11.425722
▁No	-11.425805
▁그분에게	-11.425819
뉴욕	-11.425889
▁가있읍니까	-11.425931
▁주변에	-11.425934
장벽	-11.426000
▁그러다	-11.426016
근로자	-11.426050
08	-11.426130
공연	-11.426165
치게	-11.426168
▁의미래	-11.426212
▁에의지	-11.426482
교묘	-11.426635
▁을두고	-11.426706
▁내릴	-11.426741
▁처녀	-11.426753
여유	-11.426895
남기	-11.426949
순전	-11.427002
▁은믿음	-11.427021
▁숫자가	-11.427024
▁의지시	-11.427131
이니이다	-11.427138
▁휴대폰	-11.427238
어두움	-11.427249
▁의인생	-11.427645
업무	-11.427757
유발	-11.427772
▁이시다	-11.427996
▁이며그	-11.428009
▁쉽지	-11.428022
▁각기	-11.428058
▁머지않아	-11.428266
▁행복한	-11.428268
▁하지도않	-11.428280
▁고아	-11.428308
▁교통	-11.428356
▁은기원	-11.428427
▁판사	-11.428555
종말	-11.428567
음란	-11.428578
흡연자	-11.428581
▁개인적	-11.428617
▁가시	-11.428674
▁관용을	-11.428682
▁범죄자	-11.428729
깁니다	-11.428808
▁되어야한다	-11.428863
▁모르죠	-11.428868
▁를무시	-11.428874
허가	-11.429159
77	-11.429213
▁이없었습니다	-11.429261
▁억달러	-11.429280
▁앨리스	-11.429304
▁될수있습니다	-11.429341
구두	-11.429353
할지라도	-11.429396
▁싶은데	-11.429399
▁처음에	-11.429414
관념	-11.429418
오순절	-11.429459
▁공간을	-11.429460
계층	-11.429745
빼앗아	-11.429749
미혹	-11.429846
전염병	-11.429990
수십	-11.429996
엉	-11.430005
▁아시는	-11.430129
궤도	-11.430138
▁받는사람	-11.430182
▁자세	-11.430195
▁에관해말	-11.430352
보냈습니다	-11.430519
햄	-11.430665
경험담	-11.430818
▁은여호와하나님	-11.431152
▁이들을	-11.431178
▁토론	-11.431314
서서	-11.431535
우리가족	-11.431558
▁은아니	-11.431616
지못하였	-11.431632
파괴적	-11.431647
실에	-11.432010
긋	-11.432075
강렬	-11.432093
멋진	-11.432246
▁바닥에	-11.432279
징벌	-11.432332
▁에볼루션	-11.432384
▁으로하여금	-11.432416
셨는데	-11.432440
부대	-11.432473
▁파란색	-11.432486
쿠폰	-11.432581
대우	-11.432664
성에	-11.432773
▁남쪽	-11.432778
▁감지	-11.432818
턱	-11.433024
▁에게여호와	-11.433115
▁환영합니다	-11.433125
▁표정	-11.433129
▁헤어	-11.433211
▁빼면	-11.433226
하잖아요	-11.433344
가루	-11.433370
▁신고	-11.433372
덮	-11.433414
시청	-11.433426
▁속이	-11.433431
디오	-11.433496
▁고그	-11.433521
십자가	-11.433541
두려운	-11.433664
▁는없	-11.433671
대는	-11.433757
부서	-11.433788
하지말라	-11.433851
끝났	-11.433871
▁머리가	-11.433981
▁확인할	-11.433998
바빌로니아	-11.434105
▁문명	-11.434211
▁도둑	-11.434232
아름답고	-11.434296
▁가처음	-11.434333
em	-11.434389
▁한결정	-11.434392
▁몰래	-11.434529
중간	-11.434680
입자	-11.434692
▁을알고있다	-11.434827
▁놈을	-11.434837
젊	-11.434968
▁이강	-11.434978
▁은아내	-11.434999
▁세계전역	-11.435053
▁무슨일	-11.435060
▁경험을	-11.435217
▁없기	-11.435312
▁기다릴	-11.435409
▁으로인정	-11.435635
▁경기도평택우체국사서함	-11.435829
▁년통치	-11.435914
▁당연하지	-11.435939
사별	-11.435969
▁플라스틱	-11.435975
해줘	-11.436002
▁그러나여호와	-11.436042
사망자	-11.436130
▁유령	-11.436357
쌍	-11.436362
값진	-11.436395
▁그러나성서	-11.436494
시면서	-11.436570
▁근심	-11.436635
▁>	-11.436728
▁61	-11.437035
▁곤충	-11.437124
능	-11.437192
오전	-11.437331
▁그리고는	-11.437351
관여	-11.437360
▁물질적	-11.437362
▁배터리	-11.437562
▁2)	-11.437775
을수있	-11.437804
▁그러한일	-11.437830
건가	-11.437832
담겨있	-11.437901
험	-11.437905
자손	-11.438052
▁있었으니	-11.438089
오랜	-11.438139
▁안식일	-11.438152
▁해지고	-11.438180
의학적	-11.438223
하곤	-11.438251
은밀	-11.438400
▁답이	-11.438434
에스겔	-11.438547
▁캠프	-11.438580
수는	-11.438811
배포	-11.438906
슬리	-11.438916
헛	-11.439075
분파	-11.439491
▁을살펴보	-11.439548
곡물	-11.439550
라서	-11.439596
스틴	-11.439638
킴	-11.439679
▁속도를	-11.439743
지않겠습니까	-11.439928
▁버렸	-11.440015
▁크기를	-11.440121
나올	-11.440295
이고요	-11.440373
없애	-11.440421
▁이쪽으로	-11.440463
만들어진	-11.440729
▁머물	-11.440895
▁기준	-11.440907
▁을공격	-11.441040
포도	-11.441054
▁에서어떤	-11.441157
맹렬	-11.441158
▁re	-11.441174
▁아니오	-11.441185
자들에게	-11.441257
다는생각	-11.441416
심리학	-11.441448
▁행위를	-11.441489
▁베푸시	-11.441492
▁찾았어	-11.441539
▁이좋을것	-11.441553
la	-11.441566
▁꼬리	-11.441717
▁해주는것	-11.441724
추측	-11.441775
▁에서는이렇게	-11.441851
연례	-11.441896
▁밟	-11.442030
▁그리하여그	-11.442111
국한	-11.442165
▁경외하	-11.442287
▁그치	-11.442446
변호사	-11.442462
▁훔쳐	-11.442478
▁을끊	-11.442561
미루	-11.442603
▁용서를	-11.442636
약함	-11.442718
▁이르지	-11.442719
▁을입증	-11.442757
전개	-11.442761
흥미진진	-11.442763
▁하게되면	-11.442855
만난	-11.442959
최소한	-11.443020
▁양을	-11.443040
마가	-11.443056
▁도있읍니다	-11.443112
육신	-11.443142
고말씀	-11.443145
▁남자친구	-11.443147
▁변명	-11.443232
▁협상	-11.443336
스럽게	-11.443530
동맥	-11.443595
하지않았다	-11.443638
대의	-11.443694
▁에많은	-11.443701
▁는정말	-11.443707
▁따뜻	-11.443831
살기	-11.443885
약화	-11.444164
▁는가족	-11.444204
▁를언급	-11.444322
▁만드	-11.444334
작동	-11.444356
▁말하라	-11.444404
께요	-11.444454
우두머리	-11.444500
▁해본적	-11.444538
하냐	-11.444642
보여준	-11.444752
▁그렇고	-11.444756
된것	-11.444780
공동체	-11.444848
남동생	-11.444858
있으니	-11.444905
야한다는것	-11.444974
예술	-11.445063
▁을잃은	-11.445074
▁를베푸	-11.445085
밝혀	-11.445207
전선	-11.445250
데도	-11.445358
누릴	-11.445445
수컷	-11.445488
주석	-11.445510
하거든	-11.445538
▁이시라	-11.445571
▁흰	-11.445579
무거운	-11.445627
어떤의미	-11.445635
적응	-11.445754
보복	-11.445758
▁저거	-11.445863
수요	-11.446025
」)	-11.446073
▁보트	-11.446079
쾌	-11.446081
▁과우리	-11.446097
▁보다더많은	-11.446136
▁하늘에서	-11.446164
동굴	-11.446229
즐거이	-11.446240
▁좋겠	-11.446252
▁로말	-11.446339
▁오래전	-11.446468
앗	-11.446504
면적	-11.446784
육체적	-11.446887
봤어요	-11.446973
뱃	-11.446987
▁를준비	-11.447069
▁나타내는	-11.447165
▁키우	-11.447642
▁이집	-11.447650
포장	-11.447665
▁하셨고	-11.447749
서쪽	-11.447793
▁배가	-11.447809
생물학자	-11.447940
▁이벤트	-11.448007
제출	-11.448032
▁1976	-11.448110
/5	-11.448341
▁싸울	-11.448402
▁에대한관심	-11.448509
▁으로하느님	-11.448685
▁재산을	-11.448696
자원봉사자	-11.448709
아는사람	-11.448767
▁동전	-11.448833
▁학자	-11.449043
▁호르몬	-11.449049
▁을달성	-11.449055
▁으로부터의	-11.449097
리우	-11.449153
▁이들어있는	-11.449201
세우	-11.449204
두어	-11.449591
▁인한	-11.449678
▁책임이	-11.449742
씁니다	-11.449766
▁감추	-11.449871
▁고난	-11.449908
▁읽고	-11.449973
적대	-11.450028
▁의필요성	-11.450135
▁뽑아	-11.450156
▁고쳐	-11.450411
예기	-11.450435
▁와어머니	-11.450503
▁으로만족	-11.450530
▁은지상	-11.450540
▁한영	-11.450554
▁윌리엄	-11.450891
뜨거운	-11.451069
▁깨어	-11.451309
▁하기위해서는	-11.451331
국립	-11.451331
▁휴가	-11.451423
▁아니하리라	-11.451484
▁모듈	-11.451489
멸종	-11.451498
▁이렇게하여	-11.451597
▁이영원	-11.451711
스토	-11.451733
▁부릅니다	-11.451790
준다면	-11.451861
천년기	-11.452085
▁못하더라	-11.452100
둘다	-11.452223
침해	-11.452235
▁수집	-11.452273
그지방	-11.452372
▁인도하여	-11.452653
▁하다는	-11.452742
▁에관해서	-11.452807
간호	-11.452844
▁고문	-11.452910
▁주십시오	-11.453035
타인	-11.453045
군중	-11.453215
서로다른	-11.453256
▁솔직	-11.453277
베드로둘째	-11.453506
게되기	-11.453553
브리	-11.453576
번성	-11.453586
▁싶다	-11.453856
돌아와	-11.453870
모유	-11.453989
▁이있었읍니다	-11.454255
▁말하였더라	-11.454325
09	-11.454334
ick	-11.454412
가량	-11.454423
▁주위	-11.454432
드를	-11.454454
따른다	-11.454622
뛰어나	-11.454683
듣기	-11.454800
며그	-11.454859
▁의병	-11.454860
시속	-11.454968
혐의	-11.455038
살펴본	-11.455079
종파	-11.455092
병사	-11.455155
▁망치	-11.455644
▁이라고부르	-11.455746
면밀	-11.455750
▁에살던	-11.455778
▁을구원	-11.455800
▁을맛보	-11.455858
같아	-11.455868
생존자	-11.456027
▁넣고	-11.456048
▁23,	-11.456152
▁이내게	-11.456187
보급	-11.456249
▁불쌍한	-11.456434
몇명	-11.456639
스런	-11.456859
지켜	-11.456903
▁33.	-11.456903
▁언덕	-11.456963
▁에노출	-11.456988
즐거워하	-11.457176
▁에관계	-11.457181
손해	-11.457320
전국	-11.457338
씨가	-11.457420
▁에서하느님	-11.457446
▁시킵니다	-11.457458
지하	-11.457593
될가능성	-11.457639
숫자	-11.457864
할아버지	-11.457965
▁를기울여	-11.458016
카리	-11.458031
헤엄	-11.458068
▁눈으로	-11.458112
▁가많이	-11.458148
▁치프	-11.458157
보낼	-11.458196
▁어머니는	-11.458342
▁을상기	-11.458344
연방	-11.458408
나봐	-11.458464
액수	-11.458536
쿨	-11.458570
기차	-11.458614
웅장	-11.458854
▁반열	-11.458898
▁호수	-11.459113
▁95	-11.459163
▁여년전	-11.459184
▁바꾸는	-11.459283
당신자신	-11.459460
▁을부르	-11.459916
▁기본적인	-11.459964
▁이해하	-11.460052
▁방향을	-11.460160
▁지금도	-11.460300
▁아심	-11.460363
▁를존중	-11.460369
군주	-11.460385
▁명중	-11.460480
리면	-11.460589
▁는아내	-11.460592
알수있습니다	-11.460705
▁이모	-11.460732
갖추	-11.460735
읽고	-11.460780
싼	-11.460785
▁너회가	-11.460788
고양이	-11.460790
▁브라	-11.460867
드릴게요	-11.460936
드립니다	-11.461020
▁루시	-11.461046
지각	-11.461060
여러지역	-11.461148
▁께서는이렇게	-11.461296
떠난	-11.461475
이사실	-11.461490
ind	-11.461690
▁의보고	-11.461912
▁똑똑하	-11.461960
▁두사람	-11.462017
갈색	-11.462032
눕	-11.462054
▁어째서	-11.462056
끝날	-11.462113
법을	-11.462141
▁다양	-11.462195
▁늦게	-11.462254
값을	-11.462634
자진적	-11.462639
숲속	-11.462983
행하여	-11.462988
알게	-11.463024
▁행복해	-11.463078
경작	-11.463078
▁드러내	-11.463155
▁를지지	-11.463240
고합니다	-11.463241
▁청년	-11.463309
상이	-11.463387
들이여	-11.463622
▁맞았	-11.463639
ow	-11.463646
▁무척	-11.463660
▁사용해서	-11.463660
ord	-11.463781
▁치아니하	-11.463859
대양	-11.463967
싫어	-11.463976
▁아니었어	-11.464145
▁1918	-11.464407
정화	-11.464538
고알려준다	-11.464584
▁고래	-11.464865
야생	-11.464867
▁경배	-11.464893
▁도없습니다	-11.464924
개척	-11.464983
▁지구의	-11.465013
▁마무리	-11.465058
▁는사랑	-11.465170
▁되었음을	-11.465206
▁이있으면	-11.465215
▁재능	-11.465238
▁대부분은	-11.465293
그모든	-11.465316
▁증거를	-11.465435
만족감	-11.465466
▁살게	-11.465487
▁항목을	-11.465639
▁는더	-11.465682
▁대장	-11.465711
옛날	-11.465719
▁한물	-11.465862
▁를향해	-11.465899
았을것	-11.466129
간과	-11.466227
녹음	-11.466238
짜리	-11.466352
▁수영	-11.466370
코스	-11.466565
그땅	-11.466597
▁공항	-11.466658
▁한다는사실	-11.466771
▁를하면서	-11.466794
▁가그것	-11.466795
▁조차도	-11.467112
경기장	-11.467187
달아	-11.467201
쉽다	-11.467228
이모든것	-11.467237
▁피아노	-11.467298
▁안됩니다	-11.467300
야채	-11.467333
▁을쳐서	-11.467359
동거	-11.467361
▁그렇게할때	-11.467368
▁않았죠	-11.467429
▁예중	-11.467451
▁알라	-11.467526
한여자	-11.467668
▁유익	-11.467703
▁으로든	-11.467854
▁안나	-11.467916
것은	-11.468068
피어	-11.468072
구제	-11.468090
오라	-11.468331
준수	-11.468358
난다	-11.468471
딸아이	-11.468500
ell	-11.468740
앉아서	-11.468752
멍에	-11.468779
▁기록을	-11.468887
▁에있었다	-11.468945
▁적도	-11.468977
▁로컬	-11.469112
▁PHP	-11.469165
▁을드러내	-11.469213
01	-11.469292
변함	-11.469317
뻔	-11.469350
자라는	-11.469566
▁으로기름부음	-11.469904
▁몰라도	-11.469931
▁암컷	-11.469988
▁되기때문	-11.470110
▁진단	-11.470187
▁왕국회관	-11.470468
▁하루에	-11.470492
▁인말	-11.470510
는데있어서	-11.470554
▁선택할	-11.470667
▁에대해어떤	-11.470690
▁착륙	-11.470730
▁느뇨	-11.470895
▁음악을	-11.470920
▁은그런	-11.470995
바깥	-11.471018
햇빛	-11.471087
왕권	-11.471197
▁도없는	-11.471248
성서출판물	-11.471376
▁된한	-11.471393
▁에나가	-11.471429
▁의새	-11.471498
▁사악	-11.471549
▁충고	-11.471734
었으면	-11.471818
▁걱정하지	-11.471886
▁을나타낸다	-11.471938
새벽	-11.472136
▁찌	-11.472413
모른다	-11.472430
소득	-11.472584
▁에틀림	-11.472594
▁암흑	-11.472773
▁옵션을	-11.472843
하겠지	-11.472915
▁의경고	-11.472947
▁시설	-11.473122
보내신	-11.473177
알지못	-11.473284
▁베이	-11.473334
89	-11.473422
600	-11.473445
▁아니할	-11.473448
▁살아있	-11.473539
신세계역	-11.473545
읽는것	-11.473627
▁할일	-11.473653
표적	-11.473789
인줄	-11.474039
프레드	-11.474175
▁생각한	-11.474267
얼룩	-11.474411
▁받는것	-11.474452
▁갔어	-11.474573
의회	-11.474714
있는동안	-11.474736
▁와는반대	-11.474792
갖게될것	-11.474807
▁사진이	-11.474859
▁귀의하	-11.474862
얼마안있어	-11.474909
싫어하	-11.474926
▁을끌	-11.474936
된다는것	-11.475011
▁he	-11.475145
▁에대한성서	-11.475163
▁없으	-11.475631
축적	-11.475727
가르쳐	-11.475877
듣는것	-11.475915
살았습니다	-11.476253
촉진	-11.476281
▁은결혼	-11.476385
▁1969	-11.476398
팬	-11.476402
기온	-11.476523
이니까요	-11.476569
▁을갖게되	-11.476685
▁로운사람	-11.476889
스트리	-11.476924
▁에빠진	-11.476956
북아메리카	-11.477072
▁을처음	-11.477107
▁He	-11.477244
▁다음날	-11.477333
준것	-11.477457
부언	-11.477571
▁끌고	-11.477573
장기적	-11.477624
▁한길	-11.477800
말고	-11.477808
▁보여줘	-11.477836
▁기쁘	-11.477849
좋다	-11.477875
▁가다른사람	-11.477903
▁한두려움	-11.478126
기다리고있	-11.478127
이어서	-11.478147
▁전쟁이	-11.478236
그말	-11.478268
▁스캔	-11.478276
으셨다	-11.478334
청결	-11.478371
▁그애	-11.478490
그이상	-11.478563
▁우유	-11.478663
첫째자리	-11.478677
번역자	-11.478703
▁도우리	-11.478747
꾀	-11.478885
▁물에	-11.478915
받아들인	-11.478976
▁을멀리	-11.479027
▁수혈	-11.479034
▁을보는것	-11.479042
님께	-11.479173
▁을나타낸	-11.479193
일때	-11.479197
out	-11.479206
만드는것	-11.479268
희귀	-11.479307
▁없네요	-11.479349
아동	-11.479383
전파자	-11.479473
내마음	-11.479546
▁일상	-11.479589
질투	-11.479590
느낀	-11.479620
본다면	-11.479644
▁을주었다	-11.479678
▁틀렸	-11.479809
▁같네	-11.479829
▁싶을	-11.479918
▁곡선	-11.480131
값비싼	-11.480205
살면서	-11.480572
유치	-11.480719
모여	-11.480772
무수	-11.480927
▁사도베드로	-11.481186
미가	-11.481467
▁맡아	-11.481490
▁생각했어요	-11.481580
▁생각하면	-11.481599
▁최종	-11.481730
강제수용소	-11.481779
빌리	-11.481902
▁에계신아버지	-11.482026
▁말해줘	-11.482131
▁인영향	-11.482191
▁흔들	-11.482261
말인가	-11.482267
▁걘	-11.482358
달동안	-11.482423
게되었습니까	-11.482429
뽑	-11.482540
▁절망	-11.482553
테니까요	-11.482833
▁를사	-11.482922
죽는	-11.483022
▁은가족	-11.483047
▁댁	-11.483083
든간	-11.483250
네스	-11.483254
▁상태를	-11.483267
던가	-11.483299
▁오스트리아	-11.483365
▁장사	-11.483391
썼다	-11.483396
구석	-11.483432
서방	-11.483521
쿼	-11.483541
이탈	-11.483543
▁의미를	-11.483573
▁는땅	-11.483627
▁편지를	-11.483892
어부	-11.483974
궁극적	-11.483975
결점	-11.484218
▁은고대	-11.484344
▁을버리	-11.484414
▁표시합니다	-11.484414
블라	-11.484430
▁천재	-11.484589
▁보셨	-11.484653
▁을살펴볼	-11.484746
늙	-11.484779
▁을실제	-11.484797
▁당신한테	-11.484818
머리직분	-11.484969
▁되지않았다	-11.485050
출판	-11.485057
▁보다도더	-11.485114
▁없었죠	-11.485206
▁할사람	-11.485234
자금	-11.485261
▁업데이트	-11.485358
빠져나	-11.485535
국가적	-11.485603
죄악	-11.485634
▁가그렇게	-11.485678
나갔다	-11.485679
틀잡	-11.485984
많았습니다	-11.486028
▁거민	-11.486049
▁도망가	-11.486090
▁해낼	-11.486121
쓰기	-11.486122
나타났	-11.486182
돌이켜	-11.486281
관리인	-11.486350
전도지	-11.486428
페이지	-11.486464
▁문제입니다	-11.486508
찔	-11.486560
▁건전	-11.486630
놀랍게	-11.486683
활발	-11.486702
▁그것의	-11.486756
▁하와이	-11.486756
▁구원을	-11.486802
리기	-11.486893
우선	-11.486918
소용	-11.486954
▁특수	-11.487216
▁we	-11.487265
얘기	-11.487267
▁을가져다주	-11.487350
▁목소리를	-11.487426
▁온다	-11.487839
농사	-11.487893
첨가	-11.488031
▁이나오	-11.488109
많은점	-11.488118
35	-11.488297
▁그램	-11.488396
도서관	-11.488458
▁을더많이	-11.488463
▁완벽하게	-11.488519
▁마음속에	-11.488786
알수있다	-11.488890
▁레바논	-11.488913
산상수훈	-11.488985
▁아스	-11.489033
▁데살로니가	-11.489070
▁맹세하	-11.489228
▁좋아해	-11.489368
바라보	-11.489468
▁있겠네요	-11.489477
▁을하게	-11.489522
▁다리를	-11.489785
추가	-11.489791
원문	-11.489824
26	-11.489828
▁땅의	-11.489889
▁를피하	-11.489993
▁열매	-11.490008
▁진실한	-11.490145
▁은지구	-11.490158
하였나니	-11.490187
▁의산물	-11.490203
집필자	-11.490219
넘쳐	-11.490250
▁지갑	-11.490272
▁곰	-11.490309
▁은곧	-11.490330
▁개가	-11.490347
살아나	-11.490500
▁죽기	-11.490519
▁해보세요	-11.490587
▁의지원	-11.490801
드가	-11.490831
▁받을수있	-11.490839
▁원해	-11.490866
▁스러운것	-11.490869
만들	-11.490960
이지역	-11.491136
▁이기도	-11.491230
▁가여러분	-11.491295
사무엘	-11.491373
,000,000	-11.491406
▁말씀하시	-11.491455
▁에반대	-11.491847
서기관	-11.491864
▁식은	-11.492035
▁으로자기	-11.492163
뿐만	-11.492254
▁34:	-11.492469
바지	-11.492480
무한	-11.492613
▁페이스북	-11.492633
▁두개	-11.492724
▁700	-11.492781
▁을미쳤	-11.492884
들려	-11.492889
홍	-11.492940
5,000	-11.493042
여호수아	-11.493257
이었고	-11.493274
[...]
