<unk>	0.000000
<s>	0.000000
</s>	0.000000
،	-3.471166
▁في	-3.587369
.	-3.758197
▁من	-4.043150
▁على	-4.466120
▁أن	-4.773933
▁إلى	-4.778923
▁(	-4.913379
▁-	-5.068844
▁و	-5.075806
َ	-5.087131
/	-5.135124
▁التي	-5.177211
)	-5.285964
▁عن	-5.365569
ً	-5.425656
ا	-5.463394
▁المتحدة	-5.473248
ُ	-5.485203
ه	-5.514226
ة	-5.528817
▁أو	-5.659550
ها	-5.661570
▁	-5.723615
▁الأمم	-5.755646
ِ	-5.793668
؛	-5.796034
ي	-5.816171
▁ب	-5.837360
:	-5.842688
▁ل	-5.889512
▁هذه	-5.949388
▁ذلك	-5.949510
▁"	-5.985008
▁اللجنة	-6.002215
▁مع	-6.004063
▁هذا	-6.018896
▁،	-6.085460
م	-6.085920
▁الذي	-6.116410
ْ	-6.132124
▁ما	-6.136763
▁لا	-6.176858
ّ	-6.183600
▁بين	-6.184412
ت	-6.203999
ن	-6.215352
▁غير	-6.220907
▁وفي	-6.221421
▁العامة	-6.224963
▁بشأن	-6.240690
ات	-6.257548
ين	-6.357728
ب	-6.368630
▁العام	-6.380485
▁.	-6.438137
ـ	-6.443878
▁الدول	-6.455288
ل	-6.458561
د	-6.465795
▁ي	-6.468757
▁الدولية	-6.470044
▁الدولي	-6.473919
▁الإنسان	-6.508316
▁عام	-6.548093
ر	-6.570956
▁أيضا	-6.571174
▁العمل	-6.585549
▁جميع	-6.611846
▁ال	-6.615547
▁ت	-6.642218
▁البلدان	-6.666924
▁حقوق	-6.690366
▁الأول	-6.716614
▁بما	-6.722305
ية	-6.738724
َّ	-6.752447
▁قد	-6.790127
ون	-6.809731
▁م	-6.814106
▁الأمن	-6.824701
▁وقد	-6.830567
▁الجمعية	-6.842578
▁لم	-6.847782
هم	-6.849383
▁أ	-6.852347
▁أجل	-6.873864
▁فيما	-6.875550
,	-6.880237
▁كل	-6.880514
▁المجلس	-6.883658
▁كما	-6.887516
▁خلال	-6.888514
▁مجلس	-6.891696
▁إن	-6.900826
أ	-6.900887
▁1	-6.907826
▁المتعلقة	-6.914839
▁المادة	-6.920682
▁الأمين	-6.926041
▁الأطراف	-6.926936
"	-6.927499
▁وال	-6.931578
▁أي	-6.959468
▁مشروع	-7.002798
▁القرار	-7.003862
ج	-7.009077
▁ف	-7.010185
و	-7.012779
▁تنفيذ	-7.014466
▁بها	-7.026257
▁يمكن	-7.028639
نا	-7.040223
▁أنه	-7.046105
▁السلام	-7.051362
▁الفقرة	-7.060893
▁الوطنية	-7.069597
▁يتعلق	-7.077393
▁الثاني	-7.077464
▁بأن	-7.082598
▁ذات	-7.087377
▁ومن	-7.092512
▁كان	-7.099407
وا	-7.106941
ع	-7.110182
▁القانون	-7.129241
▁تلك	-7.132444
ان	-7.134892
▁فيها	-7.139716
▁أخرى	-7.162203
▁المعلومات	-7.164229
▁2	-7.171060
▁ولا	-7.175837
▁تقرير	-7.177557
▁ينبغي	-7.181281
▁لل	-7.182646
ك	-7.184838
▁الأعمال	-7.186214
▁بعد	-7.189897
▁عمل	-7.196044
▁هو	-7.199484
▁مجال	-7.203105
▁كانون	-7.203717
▁()	-7.206437
▁بال	-7.211535
▁إطار	-7.225385
▁التنمية	-7.232996
▁لجنة	-7.233645
▁3	-7.239360
▁A	-7.256866
▁الأعضاء	-7.266528
ال	-7.271750
▁تعزيز	-7.271778
▁السيد	-7.281844
س	-7.282145
▁الدولة	-7.286327
▁المائة	-7.291609
▁الخاص	-7.296343
ق	-7.297824
▁الخاصة	-7.313394
▁فإن	-7.315999
▁جدول	-7.316362
▁المرأة	-7.323670
▁برنامج	-7.333216
▁وأن	-7.348042
ِّ	-7.350433
▁التعاون	-7.355494
▁تقديم	-7.365814
▁عملية	-7.367386
▁الأخرى	-7.370656
▁4	-7.379784
▁الدورة	-7.384613
).	-7.393434
▁عليها	-7.403061
▁دولار	-7.406515
▁عدد	-7.409065
▁بعض	-7.411890
▁الفريق	-7.412402
▁ن	-7.438360
▁هي	-7.439522
▁الاتفاقية	-7.450022
ف	-7.450104
▁وضع	-7.450394
▁5	-7.456246
▁تشرين	-7.462974
▁المساعدة	-7.467066
▁المعنية	-7.468429
▁الموارد	-7.468736
▁المعني	-7.470938
▁التقرير	-7.472206
A	-7.472843
▁يكون	-7.484256
▁عدم	-7.489862
▁إذا	-7.490979
▁ان	-7.493363
▁الصلة	-7.509834
ح	-7.513224
▁الاقتصادية	-7.516294
▁الأطفال	-7.520655
ــ	-7.523436
▁ضد	-7.524115
▁كانت	-7.526548
ى	-7.527084
▁المجتمع	-7.529796
▁به	-7.532870
▁الذين	-7.536178
▁ٱل	-7.539950
▁العالمي	-7.542796
▁وإذ	-7.560308
▁وفقا	-7.562587
▁بموجب	-7.576393
▁الحكومية	-7.578244
▁الم	-7.586000
▁أفريقيا	-7.596695
▁6	-7.597324
ديسمبر	-7.604023
▁أكثر	-7.606964
▁الأساسية	-7.607108
▁ك	-7.609251
▁البند	-7.610110
▁المالية	-7.615886
▁نحو	-7.616699
▁قبل	-7.618213
-	-7.624419
▁النامية	-7.626499
▁رئيس	-7.627079
▁دون	-7.629513
▁تحقيق	-7.636033
▁إدارة	-7.643895
▁وعلى	-7.651628
▁بناء	-7.654362
▁العالمية	-7.660545
▁الحكومة	-7.661087
ما	-7.662261
▁7	-7.669796
▁تكون	-7.670651
▁لها	-7.671427
▁المؤرخ	-7.675352
▁مثل	-7.677627
▁الأسلحة	-7.680272
▁الرئيس	-7.681497
▁؛	-7.683066
▁النظر	-7.692904
▁الفترة	-7.694942
▁الطرف	-7.703378
):	-7.703896
▁وي	-7.706130
▁مكتب	-7.716451
▁منظمة	-7.716459
▁مؤتمر	-7.720383
▁أعمال	-7.723347
▁وت	-7.729418
▁الاتحاد	-7.729785
▁لدى	-7.730588
▁جمهورية	-7.732112
▁8	-7.735550
▁الاقتصادي	-7.737990
▁حتى	-7.743275
▁طريق	-7.744497
▁الإقليمية	-7.745392
▁حالة	-7.750758
▁قرار	-7.752887
▁العامل	-7.759561
▁عمليات	-7.762460
▁المحكمة	-7.766599
▁منها	-7.775342
▁المنظمات	-7.775447
▁سيما	-7.776799
▁عليه	-7.781737
▁تم	-7.794450
s	-7.795955
▁بشكل	-7.796433
▁حيث	-7.797979
▁البشرية	-7.798423
▁الوقت	-7.802480
▁ع	-7.807860
C	-7.807870
▁10	-7.808496
▁أعضاء	-7.812633
▁الدعم	-7.816875
▁المقرر	-7.816944
▁التدابير	-7.819674
▁زيادة	-7.820973
▁نظام	-7.822843
▁البرنامج	-7.828971
▁15	-7.834321
▁وذلك	-7.839499
▁النظام	-7.839945
ز	-7.841731
▁المؤتمر	-7.847502
▁وهي	-7.847742
▁المنظمة	-7.849188
▁الإدارة	-7.849220
▁الرئيسية	-7.850600
▁الإنمائية	-7.851078
▁9	-7.859894
▁اتفاقية	-7.860971
."	-7.861863
▁هناك	-7.870653
▁الآن	-7.870927
▁لحقوق	-7.878696
▁حزيران	-7.883443
▁[	-7.886539
▁الوطني	-7.890163
▁المسائل	-7.893405
▁الولايات	-7.893671
▁المرفق	-7.903561
▁العالم	-7.907557
▁وهو	-7.909671
يونيه	-7.912465
▁استخدام	-7.914184
▁الجهود	-7.916075
▁معلومات	-7.925403
▁الأنشطة	-7.926472
▁وينبغي	-7.930198
▁نطاق	-7.930773
▁تقدم	-7.933030
▁رقم	-7.934691
▁لعام	-7.935219
▁الواردة	-7.936041
▁النووية	-7.936066
▁الأمانة	-7.937277
▁تدابير	-7.942241
▁الخدمات	-7.944908
▁إنشاء	-7.946201
▁إلا	-7.947205
▁أساس	-7.949120
▁12	-7.950861
L	-7.951745
▁للأمم	-7.953338
▁خاصة	-7.957703
▁إجراء	-7.957903
▁قانون	-7.962317
▁of	-7.965654
▁وما	-7.966815
▁للجنة	-7.967576
▁بصورة	-7.974307
▁الاجتماعية	-7.977967
▁بالنسبة	-7.980818
▁الإرهاب	-7.982800
▁النساء	-7.987612
▁جانب	-7.995532
▁الى	-7.997062
▁مجموعة	-8.001712
▁حكومة	-8.002978
▁تموز	-8.006183
▁the	-8.008023
اء	-8.009088
▁المحلية	-8.009415
▁السلاح	-8.010157
▁أنشطة	-8.012578
▁العنف	-8.014116
▁11	-8.017496
▁اتخاذ	-8.020247
▁التعليم	-8.020980
▁الفرعية	-8.022528
▁14	-8.025738
▁القائمة	-8.028535
▁يجب	-8.032286
يوليه	-8.032595
▁الميزانية	-8.037608
▁أهمية	-8.038160
▁منذ	-8.041205
▁30	-8.044827
▁الصدد	-8.047237
▁والتنمية	-8.049905
▁الديمقراطية	-8.056211
▁الجلسة	-8.060843
▁فيه	-8.061085
▁20	-8.066477
▁وجود	-8.068151
▁إليها	-8.069317
▁التمييز	-8.070385
▁وكذلك	-8.070463
▁القانونية	-8.074045
▁18	-8.074899
▁حالات	-8.077231
▁دعم	-8.078604
▁يلي	-8.093882
▁المنطقة	-8.095955
▁دورتها	-8.096531
▁أيلول	-8.096925
▁الجديدة	-8.098443
▁الموظفين	-8.098816
▁الفقر	-8.100057
▁فقد	-8.104089
▁الإنسانية	-8.106253
▁مما	-8.106474
▁مكافحة	-8.109628
سبتمبر	-8.116391
▁الإجراءات	-8.116893
▁16	-8.117767
▁البيانات	-8.120081
▁الرسمية	-8.122471
▁خدمات	-8.122545
▁مسألة	-8.122967
▁التجارة	-8.123889
▁المتصلة	-8.124885
▁عند	-8.125109
▁توفير	-8.127404
▁السياسية	-8.127443
▁13	-8.130357
▁حفظ	-8.133245
▁اللازمة	-8.138786
▁بلدان	-8.140604
▁and	-8.141315
▁البلد	-8.141842
▁17	-8.146024
▁الوثيقة	-8.147079
ط	-8.151958
نوفمبر	-8.154317
ٍ	-8.155422
▁الأولى	-8.155655
▁•	-8.156041
▁المستدامة	-8.157144
▁الحالة	-8.159559
▁المتعلق	-8.160096
▁الحق	-8.161032
مارس	-8.163438
▁الساعة	-8.164622
▁مليون	-8.167371
▁المواد	-8.170023
▁وب	-8.172183
▁19	-8.173691
▁الأهداف	-8.174529
▁أثناء	-8.174964
▁الثانية	-8.178865
▁البعثة	-8.179762
▁السكان	-8.180367
▁التالية	-8.181284
▁السياسات	-8.183948
▁وأ	-8.189243
▁الأوروبي	-8.190002
تين	-8.191360
▁تقوم	-8.191429
▁المستوى	-8.192810
▁الإنمائي	-8.196161
أكتوبر	-8.201386
▁الأشخاص	-8.203278
▁إعادة	-8.205982
▁فترة	-8.207479
▁عقد	-8.209324
ش	-8.210090
▁الاجتماع	-8.213284
ـــ	-8.213513
▁دولة	-8.217953
ذ	-8.220046
▁ا	-8.220390
▁آخر	-8.220392
▁فريق	-8.224774
▁ومع	-8.226866
▁تحسين	-8.230027
▁المناطق	-8.231800
▁حد	-8.231977
▁وقت	-8.233308
▁جديدة	-8.234193
▁له	-8.234389
▁السابقة	-8.235238
▁برامج	-8.235972
▁سي	-8.236527
▁سنة	-8.237290
▁إ	-8.238232
ض	-8.239010
▁والم	-8.244424
▁؟	-8.248216
▁العملية	-8.251715
▁التابعة	-8.253026
▁تحديد	-8.253988
▁S	-8.255834
▁المشتركة	-8.257998
▁إجراءات	-8.258599
▁حسب	-8.259126
▁آذار	-8.260625
▁منطقة	-8.261250
▁والمنظمات	-8.262469
▁المشروع	-8.263265
▁لمكافحة	-8.265632
▁الحصول	-8.266765
▁المكتب	-8.268525
▁كذلك	-8.269305
▁نيسان	-8.270826
▁والاجتماعية	-8.272484
Add	-8.273295
مايو	-8.273963
▁31	-8.277581
▁21	-8.278560
▁ولكن	-8.281674
▁الحكومات	-8.282181
▁مستوى	-8.283190
▁أيار	-8.285929
▁جديد	-8.287045
▁حماية	-8.289859
▁نقص	-8.289964
▁بل	-8.292439
ص	-8.294989
▁2005	-8.295695
▁المقدمة	-8.298256
▁بغية	-8.298849
أبريل	-8.302462
▁الطفل	-8.302948
▁وم	-8.307040
▁ممثل	-8.307173
▁س	-8.308856
انظر	-8.309314
▁سبيل	-8.310450
]	-8.311691
خ	-8.317198
▁خطة	-8.318789
▁العربية	-8.319991
▁2000	-8.320188
▁المؤسسات	-8.326525
▁داخل	-8.326759
S	-8.328557
▁الصحة	-8.331266
▁يتم	-8.335791
تها	-8.339598
هما	-8.339836
▁الجنائية	-8.340591
▁22	-8.340947
▁طلب	-8.341155
▁إزاء	-8.344382
▁نفسه	-8.346051
▁البرامج	-8.346382
▁ألف	-8.347771
▁التقدم	-8.348010
▁اليوم	-8.349235
▁أحد	-8.354460
▁نزع	-8.357710
▁25	-8.359000
▁المساواة	-8.360546
▁لأن	-8.360662
▁فضلا	-8.361977
▁ست	-8.364510
▁2001	-8.364651
▁والتي	-8.366536
▁التقارير	-8.371059
▁الثالثة	-8.371538
▁الأصلية	-8.376081
▁23	-8.376214
▁الإقليمي	-8.378256
▁أنها	-8.380452
▁خاص	-8.380766
▁2004	-8.381618
▁المشاركة	-8.382803
▁علما	-8.385226
▁استعراض	-8.386389
▁000	-8.387967
▁المدني	-8.388567
▁الصغيرة	-8.389021
▁القضاء	-8.389318
▁بسبب	-8.390099
▁منع	-8.390466
▁الخبراء	-8.393572
▁القدرات	-8.395435
▁مواصلة	-8.396480
▁والاجتماعي	-8.397052
▁الصعيد	-8.397219
▁والأمن	-8.399098
▁عندما	-8.403687
▁كبير	-8.403709
▁إليه	-8.404145
يناير	-8.405406
تكلم	-8.405523
يا	-8.406231
▁التنفيذ	-8.408731
▁ق	-8.418194
▁الوثائق	-8.422904
▁اعتماد	-8.425940
▁إعداد	-8.428646
▁السنتين	-8.429275
▁انظر	-8.430202
▁بعثة	-8.432165
▁حق	-8.437777
▁نتائج	-8.439353
▁2002	-8.439608
▁حاليا	-8.440005
▁اتفاق	-8.441629
▁الحقوق	-8.442843
▁2006	-8.443871
▁أحكام	-8.444822
▁لهذه	-8.448283
▁الأمر	-8.449507
▁28	-8.450146
▁القيام	-8.450378
▁الاستشارية	-8.450524
▁مختلف	-8.450944
▁أكبر	-8.450995
▁ثم	-8.453551
▁تحت	-8.455625
▁الرامية	-8.462606
▁ضرورة	-8.464025
▁المعقودة	-8.465226
▁24	-8.467673
▁أمام	-8.469574
▁المسألة	-8.469737
▁المناعة	-8.471101
▁إذ	-8.472620
▁آب	-8.473565
▁سنوات	-8.478175
▁وكان	-8.478971
▁صاحب	-8.480612
▁الصحية	-8.481104
▁الشرطة	-8.482617
▁منظومة	-8.486041
▁إعلان	-8.487309
▁اللاجئين	-8.488017
▁لتعزيز	-8.489243
▁الجريمة	-8.489379
"،	-8.489796
▁حول	-8.489879
▁26	-8.490643
▁أشكال	-8.490748
▁لي	-8.494656
▁بذلك	-8.497041
▁كبيرة	-8.497293
▁أقل	-8.500631
▁الحالات	-8.502533
▁الفصل	-8.502825
▁المشاريع	-8.503170
ته	-8.503642
ار	-8.503848
▁وغيرها	-8.505877
▁ول	-8.511116
E	-8.512012
▁أفضل	-8.512778
▁مركز	-8.513718
ام	-8.513815
▁النحو	-8.515219
ُّ	-8.515296
▁وتعزيز	-8.515610
▁تقييم	-8.518914
▁ويمكن	-8.522390
▁أعلاه	-8.525051
▁الداخلية	-8.525123
CN	-8.525451
▁27	-8.525859
▁الصندوق	-8.526335
▁يوم	-8.529409
▁لفترة	-8.531196
▁دور	-8.534319
▁الاحتياجات	-8.534661
▁المبادئ	-8.537848
▁ولم	-8.539320
▁اجتماع	-8.540452
▁ليس	-8.541191
▁قائمة	-8.543036
▁العراق	-8.544075
▁عبر	-8.547575
▁لكي	-8.549585
▁الأمريكية	-8.549616
▁إسرائيل	-8.551753
▁بحقوق	-8.554602
▁جهود	-8.555256
ث	-8.556820
▁لذلك	-8.559294
▁الاجتماعات	-8.559953
▁يقدم	-8.560073
▁لكل	-8.562981
▁ضمان	-8.564438
▁البيئة	-8.565239
▁سياق	-8.565352
▁السيدة	-8.566078
▁تشمل	-8.566164
▁تتعلق	-8.571560
أغسطس	-8.572083
▁القضايا	-8.572251
▁واحد	-8.572420
▁الشعوب	-8.573226
▁الاتجار	-8.575830
▁29	-8.579192
▁البلاغ	-8.580737
▁القطاع	-8.583595
▁وإلى	-8.583752
▁مشاريع	-8.585299
▁الأساسي	-8.585624
▁الجنسين	-8.588645
▁المسلحة	-8.589123
.1	-8.591555
▁محددة	-8.592270
▁السلطات	-8.592627
▁2007	-8.592716
غ	-8.593017
▁الممثل	-8.593700
▁2003	-8.594502
▁الشؤون	-8.595848
▁الحاجة	-8.601446
▁دول	-8.602924
▁الشامل	-8.603871
▁شباط	-8.604616
▁تنظيم	-8.604749
▁تمويل	-8.606279
▁عامة	-8.607560
▁الحالية	-8.608075
▁مجالات	-8.608921
▁يتصل	-8.609153
▁المشترك	-8.609557
▁باء	-8.611361
▁لتنفيذ	-8.612299
▁المؤقت	-8.612866
▁الخامسة	-8.614590
▁الإدارية	-8.614686
▁القرارات	-8.616011
▁ضمن	-8.617144
▁عملا	-8.617349
▁إمكانية	-8.618670
▁حين	-8.620323
فبراير	-8.620695
▁وهذا	-8.623483
▁الأموال	-8.625972
▁تقارير	-8.626209
▁التقنية	-8.627822
▁عدة	-8.628439
▁وغير	-8.630125
▁تشير	-8.631044
▁الحد	-8.632806
▁المدنية	-8.632933
▁للجمعية	-8.633227
▁الثالث	-8.634459
▁للدول	-8.637331
▁().	-8.639993
▁جنوب	-8.640699
▁التدريب	-8.643302
▁وجه	-8.649087
▁ألا	-8.650239
▁التنفيذي	-8.652201
▁التجارية	-8.654242
▁الأخيرة	-8.654750
▁الأراضي	-8.655032
▁وقال	-8.656156
▁عشر	-8.656652
▁بيانات	-8.658010
▁إنه	-8.659500
▁الإعلام	-8.661791
▁ح	-8.663190
▁الكونغو	-8.665798
▁تطلب	-8.666521
▁أما	-8.668779
▁لهذا	-8.669513
▁نهاية	-8.670914
▁الأفريقي	-8.671045
▁مشاركة	-8.675008
▁القمة	-8.678913
▁قال	-8.679337
▁الاجتماعي	-8.679818
▁يقوم	-8.680772
▁لتحقيق	-8.683511
كم	-8.685799
▁إضافية	-8.687790
▁وزارة	-8.690643
▁مساعدة	-8.690672
▁الأفريقية	-8.694000
▁والخمسين	-8.695266
▁الجزء	-8.697637
▁المجال	-8.697659
▁نتيجة	-8.699230
▁نموا	-8.699614
ــــ	-8.707083
▁العديد	-8.707267
▁الوكالات	-8.711113
▁السنوات	-8.711267
▁الاستراتيجية	-8.717391
▁يجري	-8.717876
▁الداخلي	-8.717926
▁الفضاء	-8.718105
▁لما	-8.718770
▁التوصيات	-8.720968
▁شخص	-8.725210
▁دولية	-8.726077
▁نسبة	-8.726422
▁تطبيق	-8.729495
▁2008	-8.731828
▁شؤون	-8.733292
▁مدى	-8.733531
▁الكامل	-8.734028
▁بالتعاون	-8.735895
▁البروتوكول	-8.739285
▁النتائج	-8.740216
▁صندوق	-8.742558
▁العهد	-8.742653
▁الحماية	-8.742728
▁لجميع	-8.744184
▁وإن	-8.744281
▁الدائم	-8.747844
▁واحدة	-8.748569
▁لن	-8.748844
▁التنسيق	-8.749233
▁الله	-8.749660
▁الصراع	-8.754323
▁الاستعراض	-8.755519
▁E	-8.757682
▁الخارجية	-8.758661
▁للتنمية	-8.758711
▁لضمان	-8.760853
▁توصيات	-8.761627
▁الوفود	-8.761806
▁الحكم	-8.765063
▁استراتيجية	-8.766369
▁إقامة	-8.770175
▁مراعاة	-8.770687
▁العسكرية	-8.771215
▁وبناء	-8.771399
▁مسائل	-8.771631
▁الاتفاق	-8.771681
▁الرابعة	-8.772124
▁تزال	-8.772802
▁يتعين	-8.773777
▁عشرة	-8.774591
▁الجدول	-8.775567
▁للفترة	-8.776044
▁فقط	-8.778640
▁الحدود	-8.779473
▁التوجيهية	-8.783470
▁والتعاون	-8.785481
▁الفلسطينية	-8.787395
يات	-8.788321
▁in	-8.788385
▁التمويل	-8.788529
▁عنها	-8.789973
▁المناخ	-8.790601
▁بصفة	-8.791126
▁تشكل	-8.795249
▁الحياة	-8.798010
▁لشؤون	-8.799335
▁رسالة	-8.800710
▁السلطة	-8.801805
▁التالي	-8.804992
▁المخدرات	-8.805945
▁المحلي	-8.808547
▁الهيئات	-8.809270
▁قرارات	-8.809795
▁يجوز	-8.810617
▁بالانكليزية	-8.811680
▁القضائية	-8.815192
▁ويجب	-8.818297
▁المياه	-8.818641
▁للبلدان	-8.823439
▁مباشرة	-8.823579
▁لأغراض	-8.825647
ير	-8.826069
▁الهيئة	-8.826455
▁الهدف	-8.827180
▁الوصول	-8.828011
▁المفوضية	-8.830909
▁وإعادة	-8.831717
ول	-8.832781
▁المزيد	-8.836207
▁موارد	-8.836970
▁حل	-8.839379
▁وثائق	-8.839645
▁الاعتبار	-8.840058
▁المحرز	-8.841218
▁التابع	-8.842040
▁الممارسات	-8.843691
▁تنسيق	-8.844736
▁المالي	-8.844781
▁مرة	-8.846284
اب	-8.846622
▁آسيا	-8.846711
▁النمو	-8.847321
▁أولا	-8.847530
▁السادسة	-8.849695
▁المثال	-8.850278
▁موظفي	-8.851094
▁معاهدة	-8.853180
▁المعايير	-8.854074
▁أوروبا	-8.854280
▁المحددة	-8.856552
▁الآراء	-8.856761
▁القلق	-8.858217
▁النقل	-8.859138
؟	-8.859232
▁نقل	-8.860971
▁السنة	-8.861115
▁(1)	-8.861666
▁نفس	-8.863384
الإيدز	-8.863626
▁يشكل	-8.863798
▁تكاليف	-8.864397
ائ	-8.867112
▁لمنع	-8.867126
▁الأجل	-8.867526
▁تؤكد	-8.868660
▁50	-8.870176
▁بأنه	-8.870209
▁وطنية	-8.873007
▁باسم	-8.873223
▁نص	-8.874585
▁بهدف	-8.875466
رة	-8.877815
▁التنفيذية	-8.880380
▁الوارد	-8.880669
▁الخدمة	-8.881804
▁مؤسسات	-8.881816
▁المستقبل	-8.883062
▁القوانين	-8.885015
▁جنيف	-8.888013
▁البرنامجية	-8.888636
▁جدا	-8.889314
▁المقررة	-8.890572
▁بد	-8.890753
▁معالجة	-8.892295
▁لقد	-8.895732
▁الرعاية	-8.896188
▁2005،	-8.896541
▁سياسات	-8.897028
▁تقريرا	-8.898608
▁ج	-8.899715
▁المسؤولية	-8.900905
▁قرارها	-8.901258
▁وفد	-8.904961
▁الطبيعية	-8.905639
▁السياسي	-8.906442
▁الحرب	-8.906467
▁تطوير	-8.906817
▁الطلب	-8.906952
▁العمليات	-8.909921
▁وتنفيذ	-8.910030
▁القانوني	-8.910483
▁الإنساني	-8.911886
▁للألفية	-8.912733
▁المدنيين	-8.916634
▁العادية	-8.917507
▁الحسابات	-8.918838
في	-8.919570
▁انتشار	-8.921059
▁أمر	-8.922039
▁فعالة	-8.922421
اد	-8.923289
أو	-8.923787
▁الدائمة	-8.923832
▁التقييم	-8.924266
▁الحوار	-8.925720
▁رسمية	-8.925784
▁تشجيع	-8.925797
▁الطاقة	-8.926806
▁خارج	-8.926920
▁الشعب	-8.927007
▁ولاية	-8.928161
▁1-	-8.928201
▁الجديد	-8.929296
▁نهج	-8.929735
▁التوصل	-8.929977
ور	-8.933473
▁المجالات	-8.935205
▁تقرر	-8.935925
▁سن	-8.936575
▁العدل	-8.937994
▁الصراعات	-8.939009
هن	-8.942111
▁المناقشة	-8.942113
▁تعمل	-8.942170
▁لهم	-8.942751
▁كوسوفو	-8.944099
▁التكاليف	-8.944332
▁أود	-8.944885
▁المملكة	-8.945300
▁للمرأة	-8.947228
تي	-8.949351
▁الاستثمار	-8.949771
▁سواء	-8.949864
▁رصد	-8.951391
▁الجنس	-8.952338
▁شكل	-8.955787
▁نشر	-8.958091
▁البحر	-8.959280
▁للم	-8.960997
▁ر	-8.961291
▁السودان	-8.962043
▁أية	-8.962044
▁محكمة	-8.962890
▁الإعلان	-8.963230
▁مؤخرا	-8.964513
▁الجهات	-8.965693
▁40	-8.966537
▁والعشرين	-8.967299
▁أمور	-8.967371
▁2-	-8.968499
▁دراسة	-8.968547
▁نوع	-8.969183
▁المتاحة	-8.969563
▁المتعددة	-8.969781
▁وعدم	-8.969902
▁القوات	-8.969965
▁معينة	-8.970398
▁مشاورات	-8.970779
▁وحدة	-8.971266
▁معظم	-8.971880
▁المقدم	-8.972073
▁ممارسة	-8.972819
▁الإطار	-8.973246
▁أفراد	-8.975073
▁المقترحة	-8.975164
▁وتقديم	-8.976048
▁آلية	-8.977645
▁المجموعة	-8.978478
▁بيد	-8.980549
▁وحماية	-8.980735
▁قدرة	-8.981786
▁الجنسي	-8.981900
▁توافق	-8.983227
▁الظروف	-8.983397
▁النص	-8.983956
ظ	-8.984067
▁]	-8.984081
▁نيويورك	-8.984721
▁ثلاثة	-8.987291
▁القدرة	-8.988116
▁فعالية	-8.988436
▁2004،	-8.988449
▁الأهمية	-8.988878
▁الموضوع	-8.988958
▁بهذا	-8.989777
▁أفغانستان	-8.989916
▁وبرنامج	-8.990131
▁وبخاصة	-8.990224
▁الأرض	-8.991483
▁الحالي	-8.992495
▁هيئة	-8.993157
▁قطاع	-8.993448
▁لدعم	-8.994168
▁شبكة	-8.994752
▁الأحكام	-8.996700
▁يزال	-8.997964
▁المركز	-9.000160
▁مناطق	-9.001311
▁الن	-9.001443
▁الروسي	-9.002474
▁يشمل	-9.002481
▁2006،	-9.003572
▁الماضي	-9.004520
▁1999	-9.004966
▁الخارجي	-9.006333
▁الاتصال	-9.008634
▁قضايا	-9.011041
▁اجتماعات	-9.011807
▁قواعد	-9.011922
▁وسي	-9.012346
▁الالتزام	-9.012777
▁قضية	-9.013829
▁ومنظمة	-9.013942
▁التقني	-9.015199
▁العنصري	-9.017272
▁2001،	-9.018394
▁بهذه	-9.018510
▁المعنون	-9.018586
▁الجرائم	-9.018716
▁قدم	-9.018806
عد	-9.020669
▁مبادئ	-9.021732
▁أهداف	-9.022149
▁آليات	-9.022714
▁الأولوية	-9.022770
▁المعاهدة	-9.024810
▁الت	-9.024841
▁الأفراد	-9.026283
▁كفالة	-9.028406
▁الاستثنائية	-9.030266
▁عرض	-9.030459
▁فرص	-9.030617
ني	-9.031078
▁الوضع	-9.031446
▁ش	-9.033551
▁مختلفة	-9.034688
▁2000،	-9.036442
▁الرقابة	-9.036659
حاء	-9.036895
▁تنمية	-9.037457
▁البيئية	-9.037478
▁الأسرة	-9.038333
▁نظم	-9.038557
دة	-9.039693
▁بوصفها	-9.040462
ود	-9.040803
▁الوكالة	-9.040988
▁الشرقية	-9.041193
▁المعاهدات	-9.043399
▁ممكن	-9.044400
▁الدوليين	-9.046264
▁بالفعل	-9.047642
▁لتقديم	-9.049252
▁نفسها	-9.053329
▁مذكرة	-9.056311
▁استمرار	-9.056902
▁ضوء	-9.057119
▁قامت	-9.057557
▁المؤقتة	-9.057650
▁مزيد	-9.058658
▁موجهة	-9.059057
▁إدراج	-9.059459
▁الأمنية	-9.062325
▁تضطلع	-9.066601
▁الالتزامات	-9.066760
▁وخاصة	-9.067081
▁النهج	-9.067744
▁مناقشة	-9.067795
▁ونحن	-9.068437
▁الجمهورية	-9.069194
▁الكوارث	-9.069749
▁الفنية	-9.070070
▁الأوروبية	-9.071305
▁التحضيرية	-9.071951
▁أصحاب	-9.075466
▁دورة	-9.075882
▁موضوع	-9.076448
▁بيان	-9.076477
▁فإنه	-9.077262
▁خ	-9.079473
▁سوف	-9.079820
▁ه	-9.081080
▁الرئيسي	-9.082067
▁إصلاح	-9.082960
▁التوصية	-9.084392
▁تكنولوجيا	-9.084733
▁بدور	-9.085737
▁وبعد	-9.087595
▁القوة	-9.087944
▁والثقافية	-9.088831
▁البحرية	-9.089159
▁التصويت	-9.089243
▁الفقرات	-9.089332
▁للأمين	-9.091237
▁مرفق	-9.092296
مة	-9.093472
▁تلاحظ	-9.093874
▁الدفاع	-9.095465
اع	-9.096199
▁السابق	-9.096665
▁الفرعي	-9.097011
▁تاريخ	-9.098027
▁وست	-9.098033
▁توفر	-9.098362
▁تتخذ	-9.098834
▁وثيقة	-9.099028
▁الاقتضاء	-9.100769
▁حلقة	-9.101179
▁سبل	-9.103151
▁آثار	-9.103954
يين	-9.104095
▁بينها	-9.106492
▁لمجلس	-9.106989
▁دورته	-9.107101
▁والاتصالات	-9.108415
▁ووفقا	-9.108469
▁مسؤولية	-9.109254
▁ثلاث	-9.109366
▁الخطة	-9.109509
▁للقانون	-9.110132
▁2007،	-9.111276
▁العاملة	-9.111585
▁2002،	-9.112091
▁الجنسية	-9.112403
▁to	-9.112500
▁هيئات	-9.113527
▁لحماية	-9.115969
▁شاملة	-9.116068
▁ولذلك	-9.116135
▁لكن	-9.116169
▁وكانت	-9.117638
▁توجد	-9.118700
▁بلد	-9.118721
▁ولل	-9.119449
▁منظمات	-9.120202
▁مؤرخة	-9.121391
▁حاجة	-9.121750
▁النووي	-9.122435
▁المنشأة	-9.124434
▁الانتشار	-9.124518
▁السامية	-9.124523
▁ون	-9.125295
▁يوجد	-9.125609
▁الألغام	-9.125709
▁التركيز	-9.126040
▁متابعة	-9.126591
▁المخصصة	-9.127449
▁معايير	-9.128255
▁يؤدي	-9.128304
▁تتضمن	-9.128631
▁المناسبة	-9.128819
يل	-9.128876
▁العدالة	-9.128990
▁المناسب	-9.129586
▁قام	-9.129587
▁نظرا	-9.129621
▁الرابع	-9.130282
'	-9.130302
▁القواعد	-9.131786
▁بدون	-9.133650
.2	-9.134480
▁المؤتمرات	-9.135371
▁معدل	-9.136417
▁وظيفة	-9.137441
▁للمجلس	-9.137449
▁3-	-9.137564
▁الفلسطيني	-9.138712
▁بطريقة	-9.138919
▁كافة	-9.139616
▁السياسة	-9.139969
▁يهوه	-9.140697
▁التعذيب	-9.141045
▁للسكان	-9.142143
▁يلزم	-9.144852
▁الاهتمام	-9.145318
▁السياق	-9.148010
▁قاعدة	-9.148398
اس	-9.150710
▁تنص	-9.150797
▁د	-9.151500
▁تأكيد	-9.151707
▁الهادئ	-9.152507
▁بحلول	-9.153655
▁طرف	-9.153778
منصوص	-9.156351
▁الإنترنت	-9.156363
▁وإدارة	-9.157354
▁جرى	-9.158048
▁يتضمن	-9.158209
فيما	-9.158997
▁كثيرا	-9.161358
▁المرحلة	-9.161440
▁مجموع	-9.162520
▁قيام	-9.163465
▁جيم	-9.163896
تان	-9.164316
▁الاقتصاد	-9.164583
▁والبلدان	-9.164936
ing	-9.165151
▁قوات	-9.165444
▁قوة	-9.166114
▁تنظر	-9.166254
▁احترام	-9.166698
▁الصادر	-9.168760
▁المقترح	-9.168939
▁العليا	-9.169300
▁الناس	-9.169737
▁التحديات	-9.169739
▁يكن	-9.169958
ed	-9.169971
▁ترحب	-9.171027
▁تيمور	-9.171912
;	-9.172178
▁وعلاوة	-9.173160
▁الميدان	-9.174446
▁تمثل	-9.174674
▁ظل	-9.175185
▁الأونكتاد	-9.175392
▁يمثل	-9.177000
▁الرغ	-9.178188
▁أداء	-9.178720
▁أساسية	-9.179063
▁لمدة	-9.179739
▁الشرق	-9.180454
▁احتياجات	-9.183187
▁وهذه	-9.183377
▁نظر	-9.183381
▁2003،	-9.183859
▁وإذا	-9.183863
▁الوظائف	-9.184051
▁(2)	-9.184491
▁الا	-9.184644
▁الأجانب	-9.187719
▁لت	-9.187917
▁الفئة	-9.188210
▁السابعة	-9.188396
▁المقر	-9.188943
▁الواقع	-9.189368
▁البيان	-9.189384
▁وبالتالي	-9.191523
▁يطلب	-9.192996
org	-9.194104
▁بتنفيذ	-9.195143
▁بتقديم	-9.195651
▁المشاكل	-9.195680
▁مبلغ	-9.196092
▁مشتركة	-9.197239
▁وجمهورية	-9.197579
▁الريفية	-9.199244
▁ليست	-9.199296
▁كوريا	-9.199963
لا	-9.200805
▁تواصل	-9.200866
▁35	-9.201667
▁الآثار	-9.202259
مفوضية	-9.202613
▁فال	-9.202840
▁جلسة	-9.202871
▁بحيث	-9.203133
▁قيد	-9.204247
▁والسيد	-9.205180
▁الملحق	-9.205412
▁وبالإضافة	-9.205787
▁لبرنامج	-9.207079
▁للمساعدة	-9.207108
▁هل	-9.207690
▁قدمت	-9.208416
▁أثر	-9.208521
▁لمؤتمر	-9.208680
▁مرحلة	-9.209242
▁تماما	-9.210118
▁وعن	-9.211584
▁والمؤسسات	-9.212784
▁مراكز	-9.213446
▁إيجاد	-9.213822
▁ثانيا	-9.214122
▁أعرب	-9.214439
▁التقليدية	-9.214917
▁العقد	-9.215545
▁والذي	-9.215580
▁الكيميائية	-9.216831
▁بالحقوق	-9.217166
▁كبيرا	-9.217253
▁بوصفه	-9.217267
▁بجميع	-9.219049
▁الاستقرار	-9.221122
▁منح	-9.222718
▁التكنولوجيا	-9.223114
▁ووضع	-9.223521
▁2008،	-9.223849
▁كي	-9.223992
▁اللاتينية	-9.224139
▁الامتثال	-9.224499
▁بذل	-9.227106
▁المعاملة	-9.227705
▁وأضاف	-9.229218
▁أدناه	-9.229549
▁الطوارئ	-9.231421
▁بينما	-9.232205
وي	-9.232939
un	-9.233708
▁المشار	-9.234047
e	-9.234221
▁بروتوكول	-9.235924
▁مقابل	-9.238202
▁ففي	-9.238221
▁الأداء	-9.238544
▁حال	-9.239059
▁الدراسة	-9.240077
▁او	-9.240499
▁تعيين	-9.240767
▁تبادل	-9.241275
▁الشباب	-9.241291
▁إضافة	-9.243066
▁القائم	-9.244718
▁اليونيسيف	-9.245505
▁لإدارة	-9.246920
▁الاضطلاع	-9.246947
▁هامة	-9.247506
▁مكان	-9.247664
▁الضروري	-9.249589
▁المذكورة	-9.249651
▁الثامنة	-9.250439
▁وهناك	-9.250450
▁فئة	-9.250691
▁الشركات	-9.251234
▁وأعرب	-9.252229
▁المجتمعات	-9.252285
▁فيروس	-9.252724
▁عديدة	-9.252820
▁شأن	-9.254460
▁التصدي	-9.254811
▁قبيل	-9.255638
▁قائلا	-9.256154
▁الكتاب	-9.257111
▁وتم	-9.257854
▁أمريكا	-9.258762
▁بأي	-9.260365
▁المفاوضات	-9.262045
▁مقدمة	-9.262109
▁لتحسين	-9.262901
▁استعمال	-9.263507
يد	-9.263551
▁وزير	-9.264908
▁المحتلة	-9.265377
▁التاسعة	-9.265418
▁32	-9.265937
▁سياسة	-9.266044
▁الأوسط	-9.266114
▁الاختياري	-9.266356
▁والمجتمع	-9.267252
▁بالإضافة	-9.267973
ئ	-9.267988
▁البحار	-9.268048
▁حدود	-9.269621
.5	-9.270658
▁التحقيق	-9.271046
▁الصين	-9.271070
▁الانتخابات	-9.271109
▁البعثات	-9.271708
▁جملة	-9.271738
▁أدلى	-9.271851
▁المقبلة	-9.272321
▁هؤلاء	-9.272488
▁بالمرأة	-9.273585
▁اعتمدت	-9.274028
▁العضوية	-9.274499
▁وظائف	-9.275221
▁وزيادة	-9.275327
▁قدر	-9.276465
▁القطرية	-9.276512
▁الغربية	-9.276648
▁C	-9.277081
▁المتخذة	-9.277985
▁مبدأ	-9.279722
▁للتعاون	-9.280480
▁ظروف	-9.280687
.3	-9.280847
▁جزءا	-9.282295
▁للعمل	-9.282320
▁والستين	-9.282374
▁ضحايا	-9.282865
▁الشعبية	-9.283662
▁الوحدة	-9.284769
لمعالجة	-9.284957
▁عناصر	-9.285333
▁37	-9.285528
▁الختامية	-9.286080
▁34	-9.286468
▁الفرع	-9.287585
▁وسوف	-9.288187
▁أساسا	-9.288559
▁للبيئة	-9.288815
▁التزام	-9.289232
▁الشمالية	-9.290446
▁القضية	-9.293102
▁كامل	-9.293401
3	-9.294707
▁والأطفال	-9.295256
▁p	-9.295481
▁استنادا	-9.295824
▁جمع	-9.296014
▁لصالح	-9.296464
▁المحاكم	-9.297771
▁فحسب	-9.297837
▁است	-9.299174
▁الصكوك	-9.299417
رت	-9.300091
▁رغم	-9.300413
▁شركة	-9.301340
▁تدعو	-9.301901
▁الصفحة	-9.304395
▁شعبة	-9.305141
▁للمادة	-9.305673
▁صلة	-9.305866
▁de	-9.306251
▁45	-9.307076
▁الوسطى	-9.307308
▁تؤدي	-9.307656
▁١	-9.307734
▁وكما	-9.307803
▁القرن	-9.307812
▁تغير	-9.308883
▁تكفل	-9.309193
▁الغرض	-9.309830
▁المقدس	-9.310051
▁الآخرين	-9.311228
▁المساهمة	-9.311932
▁وليس	-9.313067
▁كافية	-9.315565
▁يشير	-9.315621
▁الدراسية	-9.316611
▁واسع	-9.316652
▁100	-9.316741
▁39	-9.316929
▁لبنان	-9.317445
▁المبلغ	-9.318018
▁الحادية	-9.318214
▁لو	-9.320009
▁الكاريبي	-9.320164
▁الشراكة	-9.320190
▁الذاتي	-9.321074
▁بنسبة	-9.321233
▁الألفية	-9.321896
▁المبادرات	-9.321939
▁عنه	-9.323006
▁البالغ	-9.323187
▁بوجه	-9.325183
اح	-9.326771
▁33	-9.327260
▁المدير	-9.328351
▁ميدان	-9.328933
▁المصلحة	-9.331665
من	-9.332201
▁والخدمات	-9.332627
▁حظر	-9.332961
▁النطاق	-9.333232
▁العاملين	-9.334018
▁با	-9.334937
▁القطري	-9.335419
▁الماضية	-9.335965
▁سيراليون	-9.335987
تهم	-9.336134
▁السنوية	-9.337307
▁36	-9.337382
▁الرصد	-9.337989
▁ينص	-9.339421
▁عضو	-9.339830
▁اليابان	-9.340556
▁المرجع	-9.341385
ـ)	-9.341495
▁غرفة	-9.342155
تنا	-9.342163
الم	-9.342295
▁مستويات	-9.342843
▁وتحسين	-9.342943
▁ميثاق	-9.343361
يم	-9.344924
▁وتوفير	-9.346471
وع	-9.346644
▁توسيع	-9.347551
اتفاقية	-9.348804
كر	-9.349710
▁البحث	-9.349738
▁العناصر	-9.351123
▁الجماعة	-9.351266
▁عددا	-9.352049
▁الإشارة	-9.352254
▁المشروعة	-9.354193
▁لأي	-9.354662
▁لكفالة	-9.354858
▁تيسير	-9.355299
2	-9.355850
▁باستخدام	-9.356473
▁مشكلة	-9.357211
▁العلاقات	-9.357611
▁تعتبر	-9.357986
▁المسؤولين	-9.358770
▁والاقتصادية	-9.358974
▁4-	-9.359059
المادة	-9.360435
▁عملها	-9.361102
▁اللجوء	-9.361118
▁السلع	-9.361765
▁الانتقالية	-9.361939
▁فرصة	-9.362651
▁توجيه	-9.363032
▁آراء	-9.363233
▁خطط	-9.363533
▁حدوث	-9.364054
▁60	-9.364893
▁موقع	-9.365302
▁الشخص	-9.365785
▁الهجرة	-9.366125
▁النظم	-9.367197
لة	-9.368075
▁إصدار	-9.368093
قد	-9.368163
▁المؤرخة	-9.368350
▁عما	-9.369311
▁الوزراء	-9.369476
▁شامل	-9.369973
▁الخصوص	-9.370337
▁المدارس	-9.371585
▁حرية	-9.372291
▁اللجان	-9.372329
▁تحليل	-9.373121
▁كندا	-9.373849
▁الدستور	-9.373863
▁المتخصصة	-9.374641
وس	-9.375198
▁for	-9.376810
▁الأقل	-9.377636
▁السنوي	-9.378772
▁لمنظمة	-9.379122
▁الملكية	-9.379802
▁مصادر	-9.379867
▁الفساد	-9.380595
▁بوضع	-9.382517
▁تحيط	-9.382764
▁سيكون	-9.383768
▁صياغة	-9.383779
▁الإسرائيلية	-9.383905
▁الع	-9.384023
▁يزيد	-9.386312
B	-9.386353
▁العنصرية	-9.386951
▁وحقوق	-9.389227
▁الإسلامية	-9.389744
▁والمساعدة	-9.390433
▁دولي	-9.391188
▁إنتاج	-9.391516
▁الجنوب	-9.391773
▁حكومية	-9.391868
▁فيينا	-9.392794
▁ورد	-9.393290
▁قدرات	-9.394511
▁زالت	-9.394558
▁إيران	-9.394730
▁اللغات	-9.395455
▁أسلحة	-9.395617
▁أمانة	-9.395944
▁يبدو	-9.395959
▁تدريب	-9.397975
▁ممثلي	-9.398089
▁والهرسك	-9.399488
▁تضع	-9.399549
▁اعتمد	-9.399937
▁قانونية	-9.401258
▁وسائل	-9.401490
▁السلم	-9.403162
إ	-9.404064
▁a	-9.406018
▁تعديل	-9.406106
▁الصادرة	-9.406150
▁العلمية	-9.406518
▁1998	-9.406827
▁التطورات	-9.407101
▁استراتيجيات	-9.408207
▁رئيسية	-9.408584
▁وأشار	-9.409178
▁جزر	-9.409393
▁القاعدة	-9.409653
▁المشاورات	-9.410360
▁دي	-9.410640
▁بدء	-9.410690
▁42	-9.410914
▁الأصليين	-9.410986
اف	-9.411729
▁للأطفال	-9.411911
▁الكثير	-9.413441
▁عاما	-9.414543
▁المتوقع	-9.415496
▁انتهاكات	-9.415520
▁اتفاقات	-9.415643
▁عبارة	-9.416015
▁وخلال	-9.416771
▁وقف	-9.417674
▁دوليا	-9.417930
▁'1'	-9.418738
▁الشأن	-9.418960
▁التخطيط	-9.419272
▁صنع	-9.419550
▁قيمة	-9.420241
▁والسياسية	-9.422266
▁الفرص	-9.422697
▁المانحة	-9.423087
▁لنا	-9.423130
▁48	-9.423925
▁بالنيابة	-9.425450
▁وكالات	-9.425871
▁الأ	-9.426189
▁38	-9.428169
▁الأغذية	-9.428280
▁قدره	-9.429441
▁مراجعة	-9.431016
▁بالمخدرات	-9.431506
▁المتقدمة	-9.432551
▁قررت	-9.432937
▁إحدى	-9.433062
▁المهاجرين	-9.433260
▁كوبا	-9.433465
▁الرسالة	-9.434415
▁تسوية	-9.435519
▁وتشمل	-9.436467
▁سكان	-9.436622
تابع	-9.436946
▁حدة	-9.437448
▁الدخل	-9.437498
▁لوضع	-9.440257
▁المباشر	-9.441039
▁والتمييز	-9.441178
▁المهم	-9.441348
▁تقريرها	-9.442086
▁الموقع	-9.442947
▁تواجه	-9.443274
▁مثلا	-9.443739
▁تشجع	-9.444345
AC	-9.444516
▁للدولة	-9.444643
▁المشورة	-9.444858
▁5-	-9.444933
▁اقتراح	-9.447835
▁رأي	-9.448518
▁الجارية	-9.450521
▁44	-9.450825
▁سيادة	-9.450945
.4	-9.451031
▁'2'	-9.451317
مسألة	-9.451624
▁on	-9.452055
▁ط	-9.452416
▁وأنه	-9.452877
▁ص	-9.453003
نة	-9.454211
▁تغيير	-9.454547
▁الولاية	-9.454660
▁التجاري	-9.454723
▁سوى	-9.455110
▁المعهد	-9.455527
▁أوجه	-9.456082
▁النفقات	-9.456248
▁اهتمام	-9.456593
▁الثقة	-9.456694
▁المكاتب	-9.457058
▁للطاقة	-9.457143
▁للقضاء	-9.457563
▁الاتحادية	-9.459161
عة	-9.459754
▁يعمل	-9.460236
▁والبرامج	-9.460740
▁ببيان	-9.460993
▁توصي	-9.461480
▁دولارات	-9.462939
▁انتهاء	-9.463127
▁حساب	-9.463272
ؤ	-9.464666
▁جهودها	-9.465638
▁الوفاء	-9.465688
▁الخطوات	-9.467142
▁مناسبة	-9.467162
▁المحيط	-9.468867
▁إقليمية	-9.469199
1	-9.470182
▁تقريره	-9.470351
▁43	-9.471162
▁49	-9.472178
▁مهمة	-9.472433
▁2005.	-9.472726
▁واللجنة	-9.473248
▁لحفظ	-9.473259
▁يعتبر	-9.473516
▁المدرجة	-9.473776
▁المبدأ	-9.474165
▁مبادرة	-9.474376
▁الميدانية	-9.475254
▁والميزانية	-9.475482
▁الجنساني	-9.475487
▁مواد	-9.475565
اه	-9.475651
▁كثير	-9.475837
▁مالية	-9.476484
▁إدماج	-9.477544
▁الجماعية	-9.477870
▁أعلى	-9.478091
▁الدور	-9.478437
اق	-9.478554
▁السلمية	-9.478917
▁بمقتضى	-9.478986
▁ذاته	-9.479120
▁41	-9.479334
▁النهوض	-9.479642
▁الفلسطينيين	-9.480724
▁الأحداث	-9.481001
▁كثيرة	-9.481356
▁جوانب	-9.481858
▁لتلك	-9.482443
▁الدين	-9.483416
▁بالم	-9.483990
▁النهائي	-9.484539
▁والعدالة	-9.484645
▁ثمة	-9.485283
▁المستويات	-9.485849
▁الهامة	-9.486198
▁للمحكمة	-9.486320
▁المت	-9.488148
▁المبذولة	-9.488513
▁الموضوعية	-9.488792
▁47	-9.488847
▁الاتصالات	-9.489723
▁2009	-9.490536
▁46	-9.490701
▁والإقليمية	-9.490776
▁ثالثا	-9.491292
▁قوانين	-9.493598
▁تقريبا	-9.493679
▁الحكومي	-9.494043
▁التشريعات	-9.494992
▁متعددة	-9.495159
▁إقرار	-9.496452
▁والتدريب	-9.496558
▁المخاطر	-9.498426
▁الجنسانية	-9.498775
al	-9.498858
بل	-9.500010
▁51	-9.500703
▁التنظيمية	-9.502149
▁يبلغ	-9.502642
مت	-9.503345
▁الجوانب	-9.504136
▁الإضافية	-9.504643
▁ودون	-9.504848
▁الانتهاكات	-9.507280
▁وأود	-9.507388
▁دفع	-9.508137
▁إنفاذ	-9.508226
▁مراقبة	-9.509114
▁اللازم	-9.510632
▁الاتفاقات	-9.511462
▁ودعم	-9.512397
▁الإبلاغ	-9.512688
▁الموجهة	-9.512766
▁الموجودة	-9.512872
ٌ	-9.513127
▁داخليا	-9.513621
▁المختلفة	-9.513882
d	-9.514058
▁المناقشات	-9.514074
▁أم	-9.515162
▁دال	-9.515414
▁مقر	-9.515729
▁*	-9.516338
▁الديون	-9.516704
▁الفرصة	-9.517699
▁لديها	-9.517753
القرار	-9.517951
▁فرنسا	-9.518032
▁الإرهابية	-9.518448
▁معدلات	-9.518577
▁الباب	-9.520012
▁هنا	-9.520400
▁بلدا	-9.520676
▁حكم	-9.521577
▁ذكر	-9.521824
▁الزراعية	-9.522376
▁طلبت	-9.524596
▁تعميم	-9.525947
▁بكل	-9.527099
▁الإلكترونية	-9.527192
▁دائرة	-9.528061
▁بواسطة	-9.528066
▁الضحايا	-9.528250
▁والتعليم	-9.528643
▁الجماعات	-9.529667
▁إيلاء	-9.530039
▁بإنشاء	-9.530992
▁أنواع	-9.531485
▁التصديق	-9.531725
▁تعد	-9.532911
▁المجموعات	-9.534073
▁الرسمي	-9.535452
▁المبادرة	-9.536248
▁المنتدى	-9.536710
▁الصومال	-9.537412
▁الأقاليم	-9.538208
▁أول	-9.538468
▁العدد	-9.538980
▁والحريات	-9.540108
▁والتكنولوجيا	-9.540440
▁المكسيك	-9.542626
▁دارفور	-9.543205
▁ألمانيا	-9.543837
▁تستخدم	-9.544130
▁عضوا	-9.545001
▁زال	-9.546519
▁المطالبات	-9.547154
▁لأحكام	-9.547482
▁نائب	-9.548356
▁دولارا	-9.550549
▁مقرر	-9.550666
▁ذوي	-9.551012
▁تجاه	-9.554576
▁التأكيد	-9.557028
▁التشريعية	-9.557705
▁الممتلكات	-9.557897
▁والاتحاد	-9.559669
▁توزيع	-9.560448
‹	-9.560563
▁52	-9.560841
▁بيئة	-9.560923
▁الميثاق	-9.561251
▁›	-9.561687
وم	-9.561769
▁المتفق	-9.561805
▁55	-9.563547
▁حركة	-9.564518
▁فإنها	-9.565354
▁الخامس	-9.565414
▁6-	-9.565810
▁رؤساء	-9.567012
▁كيف	-9.567507
▁ديفوار	-9.567531
▁ميزانية	-9.567847
▁77	-9.568080
▁الهند	-9.568249
▁الأسواق	-9.570064
▁هدف	-9.570559
y	-9.570928
▁شرق	-9.571105
▁والعمل	-9.571215
▁الكلمة	-9.572368
▁هم	-9.572869
.6	-9.575008
▁والدول	-9.576284
▁53	-9.576356
▁الإصلاح	-9.576855
▁المختصة	-9.577620
▁المسلح	-9.578437
▁العمال	-9.579391
▁58	-9.580799
▁العولمة	-9.581306
▁الإجمالي	-9.583173
لت	-9.583287
▁يؤكد	-9.583356
▁خبراء	-9.583555
▁الأجنبي	-9.584092
▁1999،	-9.584486
▁المطلوبة	-9.584489
▁التزامات	-9.584760
▁تعرب	-9.585003
▁تعريف	-9.585039
▁الوفد	-9.585485
▁الأساس	-9.585745
▁الوعي	-9.586272
▁يعد	-9.587060
▁للنظر	-9.587187
▁غينيا	-9.587317
▁معا	-9.587740
▁الناشئة	-9.587836
▁لبناء	-9.587958
▁المنظور	-9.588378
▁الفاعلة	-9.588920
o	-9.589354
▁فعال	-9.589652
▁الإسرائيلي	-9.589675
▁المشمولة	-9.590827
▁مدة	-9.591999
▁بلغ	-9.592474
4	-9.593338
▁مت	-9.594147
▁وق	-9.594901
اج	-9.595395
▁يتطلب	-9.595432
▁فهم	-9.595676
▁الشاملة	-9.595738
▁والت	-9.596329
▁بالغ	-9.596456
▁نظرت	-9.597384
▁مقدم	-9.597618
بعثة	-9.598067
▁للغاية	-9.598421
▁تبلغ	-9.598484
▁الأولية	-9.598485
▁وبال	-9.598543
▁ورغم	-9.598847
▁جرائم	-9.599458
▁الواجب	-9.599800
/2	-9.600068
▁الكبرى	-9.601096
▁شروط	-9.602194
▁مشاكل	-9.602348
▁الصناعية	-9.602982
▁التقدير	-9.603038
▁البوسنة	-9.603668
▁سلطة	-9.603732
▁بتعزيز	-9.604280
▁للمؤتمر	-9.604362
▁المعتمدة	-9.606331
▁تكن	-9.606590
▁مدير	-9.607595
5	-9.607804
▁المستقلة	-9.607809
▁تؤثر	-9.607935
▁الرجال	-9.608998
▁يعني	-9.609219
▁إطلاق	-9.610491
▁بقرار	-9.611163
▁للموظفين	-9.611651
▁الأقليات	-9.611721
▁للأسلحة	-9.611884
▁الترتيبات	-9.612213
▁يدعو	-9.612299
▁ولقد	-9.612432
▁الشركاء	-9.612470
6	-9.612520
▁تبذلها	-9.612844
▁بالنظر	-9.613304
▁والأربعين	-9.613778
▁المشاركين	-9.614614
▁للفقرة	-9.614772
▁الموافقة	-9.616471
▁بوروندي	-9.616832
▁تصويت	-9.618337
▁التام	-9.619213
▁الإداري	-9.619934
▁توصية	-9.620173
▁أسباب	-9.620823
m	-9.620846
▁مؤسسة	-9.621007
▁الرفيع	-9.621057
c	-9.621355
▁ينظر	-9.621461
▁الاستفادة	-9.621776
▁ومنطقة	-9.622532
▁عقدت	-9.622677
▁ملايين	-9.622804
▁الهياكل	-9.623266
8	-9.623437
▁لزيادة	-9.623710
▁والقانون	-9.623754
يه	-9.624263
▁علم	-9.624384
▁مستقلة	-9.624971
▁دائما	-9.625319
▁عموما	-9.625470
▁الأخير	-9.625674
▁موجز	-9.625762
▁بعثات	-9.626905
*	-9.628909
▁الاستجابة	-9.629118
▁الفعال	-9.629422
▁غ	-9.629560
▁2006.	-9.629632
▁خمس	-9.630064
▁والتنسيق	-9.630166
▁لتحديد	-9.630378
▁واسعة	-9.630506
▁يواصل	-9.630848
▁بن	-9.630933
▁تعاون	-9.631327
▁رعاية	-9.631528
▁واضحة	-9.632266
▁الصعيدين	-9.632502
▁الأسماك	-9.635004
▁مصر	-9.635935
▁غرب	-9.636684
▁الفئات	-9.637300
وف	-9.637491
▁أشهر	-9.637496
▁أمن	-9.638270
▁كيفية	-9.638310
▁السامي	-9.638428
▁والخمسون	-9.640297
▁بقدر	-9.640729
▁الدوري	-9.640772
▁أشار	-9.641265
a	-9.641388
▁الآليات	-9.641761
▁وقالت	-9.642594
وب	-9.643126
7	-9.643186
▁المتعدد	-9.643744
▁الطرفين	-9.644447
▁للدورة	-9.644713
▁القطاعات	-9.644735
▁العظمى	-9.646642
▁والأسلحة	-9.647332
▁تساعد	-9.647888
▁بدعم	-9.647957
▁فعل	-9.648115
ٱل	-9.648516
▁الاعتراف	-9.649993
▁الممارسة	-9.650199
▁ذي	-9.650355
▁والإجراءات	-9.651670
▁التنوع	-9.651677
▁وغيره	-9.651786
▁غضون	-9.651814
▁بتقرير	-9.652284
▁تسجيل	-9.652517
▁تقع	-9.652569
▁دليل	-9.654462
▁بمبلغ	-9.655231
▁المطالبة	-9.655684
▁خطوات	-9.655865
▁سياسية	-9.655920
▁وحتى	-9.656763
▁كاملة	-9.656831
Rev	-9.656954
9	-9.656973
▁تعتمد	-9.657518
▁طويلة	-9.657770
▁الممكن	-9.658152
▁البرازيل	-9.658742
▁الكاملة	-9.658743
▁ونظرا	-9.658877
▁جزء	-9.659100
/1	-9.660319
▁الدورات	-9.660814
▁العوامل	-9.661788
▁جامعة	-9.661949
▁المترتبة	-9.662066
▁بفيروس	-9.663149
▁شهر	-9.663225
▁الق	-9.663513
▁شعب	-9.663522
بة	-9.663611
▁تناول	-9.664621
▁خفض	-9.665135
▁كاملا	-9.665977
▁للحصول	-9.667062
▁الطبية	-9.667228
▁الأدنى	-9.667488
▁الاستراتيجي	-9.668955
▁شيء	-9.669218
رات	-9.670378
▁الجزاءات	-9.670817
▁لاتفاقية	-9.671206
▁التمتع	-9.671586
▁يسمح	-9.671790
▁لقانون	-9.672232
▁خارجية	-9.672478
▁وتحقيق	-9.673594
▁تنفيذها	-9.674609
▁بدلا	-9.674720
▁الأم	-9.674966
▁عمله	-9.675219
▁حجم	-9.675531
▁يخص	-9.675897
▁ويجري	-9.676167
▁تأثير	-9.676206
▁1997	-9.676331
▁الطريق	-9.676439
▁التبرعات	-9.676529
▁مبادرات	-9.676540
▁1995	-9.677361
▁مقترحات	-9.677804
▁الشبكة	-9.677865
▁2004.	-9.677951
▁انتهاك	-9.678119
▁قسم	-9.678878
▁دورات	-9.678956
▁طلبات	-9.679269
▁الإجراء	-9.679439
▁بدأت	-9.679670
▁التفتيش	-9.679773
▁الجوية	-9.679793
▁تصبح	-9.679856
▁قالت	-9.679906
▁وتقييم	-9.680119
▁الساحلية	-9.680354
▁0	-9.680447
▁الرأي	-9.680454
▁ذاتها	-9.680689
▁أدى	-9.680840
▁علينا	-9.680926
▁7-	-9.681845
▁المعقود	-9.682714
▁وبرامج	-9.683434
▁المهام	-9.683879
▁عالمية	-9.685079
▁الواضح	-9.685329
▁الأسر	-9.685388
▁تحقق	-9.685660
▁54	-9.687029
▁قانوني	-9.688131
توقيع	-9.688990
▁الإقليم	-9.688995
لي	-9.689209
▁وأخيرا	-9.689371
▁والجريمة	-9.690310
▁لإجراء	-9.690419
▁فهي	-9.692080
▁56	-9.692308
▁موعد	-9.692732
يح	-9.693021
▁اتخذت	-9.693384
وح	-9.693924
▁2001.	-9.694651
▁والمحيط	-9.694770
▁عليهم	-9.695280
▁٣	-9.695310
▁بالقرار	-9.695348
▁الصحي	-9.696257
▁٢	-9.696296
▁جعل	-9.696980
▁والثلاثين	-9.697005
▁منهم	-9.698377
▁الفضائية	-9.698625
الفقرة	-9.699107
▁جريمة	-9.699180
▁ترتيبات	-9.699984
▁عادة	-9.701041
▁اختيار	-9.701978
.1)	-9.702363
▁حياة	-9.702779
▁باعتبارها	-9.702985
▁تهدف	-9.703135
▁فرض	-9.703334
▁بمن	-9.703384
2-	-9.704185
▁الجنائي	-9.704199
▁للجميع	-9.705087
▁الاعتماد	-9.705182
▁منه	-9.705280
▁تقدير	-9.705604
▁الرجل	-9.705914
▁يسوع	-9.706166
▁الثقافية	-9.706259
▁مجددا	-9.706304
▁الحادي	-9.706734
-1	-9.707110
://	-9.707150
▁بالعمل	-9.707211
▁الضرورية	-9.707293
▁المشكلة	-9.707854
▁هيكل	-9.707997
▁بعدم	-9.708565
▁أصبح	-9.708856
▁تتسم	-9.709552
▁ترد	-9.711612
▁وأشارت	-9.711849
▁مجتمع	-9.711941
▁وبين	-9.712298
▁الإيرادات	-9.712457
▁الطابع	-9.712593
▁الأصول	-9.712709
▁الأرجنتين	-9.712716
▁الإعدام	-9.713112
▁أصبحت	-9.714177
▁الوزاري	-9.715331
ائل	-9.715353
▁السفر	-9.715419
يق	-9.716361
▁استجابة	-9.716632
▁بالأسلحة	-9.717065
▁المخصص	-9.718313
▁وضمان	-9.718710
▁الجزرية	-9.719056
▁قلقها	-9.719908
▁للإدارة	-9.720518
▁تخفيض	-9.720845
▁جهة	-9.721143
▁الذرية	-9.721207
▁السلوك	-9.721905
▁الناجمة	-9.721991
▁تحدد	-9.723377
▁خدمة	-9.723864
▁للسلام	-9.725264
▁اعتبارها	-9.725627
▁العقاب	-9.726416
▁لتمويل	-9.726579
▁وقانون	-9.726980
▁_	-9.727073
▁الزواج	-9.727473
es	-9.728767
▁غزة	-9.728842
▁أولوية	-9.728926
▁أماكن	-9.729022
▁ولجنة	-9.729760
▁2007.	-9.730330
▁صعيد	-9.730906
▁وذكر	-9.731480
▁٥	-9.732168
www	-9.732475
▁وثمة	-9.732999
▁انه	-9.733029
▁2000.	-9.733301
▁المصدر	-9.733549
▁للبعثة	-9.733972
▁مفهوم	-9.734365
يف	-9.734553
▁مشترك	-9.734720
نت	-9.734804
▁الثلاثة	-9.735307
▁الدعوة	-9.737385
▁والصين	-9.737673
▁ترى	-9.737674
▁الخفيفة	-9.738163
▁الأثر	-9.738870
.7	-9.738880
دين	-9.738896
▁لأنه	-9.739408
▁أربعة	-9.739421
▁International	-9.740210
▁إقليم	-9.740749
▁الثلاث	-9.741430
▁يضطلع	-9.741441
▁الحال	-9.741460
▁بدأ	-9.742991
وت	-9.743002
وق	-9.743262
▁سبق	-9.743872
▁السفير	-9.744299
▁وتحديد	-9.745767
M	-9.746413
▁بالأشخاص	-9.746873
▁كوت	-9.747406
▁باكستان	-9.747701
▁شأنه	-9.748076
▁مواجهة	-9.748995
▁حلقات	-9.749563
▁خمسة	-9.749589
▁والموارد	-9.749813
▁ورقة	-9.753523
▁سلطات	-9.753714
ـــــ	-9.754492
▁كلمة	-9.754635
▁بأهمية	-9.755757
▁جلسات	-9.755946
▁الشكوى	-9.756877
▁دورا	-9.756926
▁وفده	-9.758313
▁بوضوح	-9.758927
▁بداية	-9.759377
▁المتوسط	-9.759441
▁النموذجي	-9.759583
▁اللذين	-9.759591
▁حوالي	-9.759858
▁شك	-9.761129
▁معاملة	-9.761641
▁8-	-9.762025
▁الاستشاري	-9.763460
بر	-9.763578
▁للاتحاد	-9.763764
▁الأسباب	-9.764087
▁مقارنة	-9.764241
▁بغرض	-9.764743
▁انتخاب	-9.764792
▁والإدارة	-9.764934
▁لعملية	-9.765394
▁دعوة	-9.765432
▁500	-9.765592
▁التحكيم	-9.767843
▁سلام	-9.768538
▁انعقاد	-9.768876
▁تحث	-9.768960
▁والنساء	-9.769140
▁الإلكتروني	-9.769459
▁إنهاء	-9.769514
▁البيولوجي	-9.769868
▁أجهزة	-9.770086
▁الدمار	-9.770462
▁تتطلب	-9.770609
▁انخفاض	-9.771048
▁خط	-9.771443
▁اتخذتها	-9.771853
▁النهائية	-9.772272
▁والتوصيات	-9.772661
▁السبب	-9.772669
▁المرتبطة	-9.773932
▁وسائط	-9.774418
▁كم	-9.774905
▁لمكتب	-9.775124
▁المدعي	-9.775706
▁المؤسسية	-9.776340
▁ايضا	-9.776401
▁٤	-9.776538
▁تتناول	-9.776710
▁بالتقرير	-9.776728
▁حوار	-9.776747
▁باتخاذ	-9.777101
▁لتوفير	-9.777113
▁الاقتراح	-9.777445
▁اعت	-9.777986
▁وتطلب	-9.778605
▁كاف	-9.779055
اط	-9.779694
▁B	-9.780945
▁بحماية	-9.780952
جمهورية	-9.781240
▁جميعا	-9.781652
▁السورية	-9.781772
.8	-9.782034
▁57	-9.782784
▁بالكامل	-9.782820
رغم	-9.782963
▁الراهنة	-9.783317
▁باب	-9.783512
▁فمن	-9.783602
▁يساعد	-9.783736
▁الزيادة	-9.783901
▁فعلا	-9.783957
▁الش	-9.784013
▁ومكتب	-9.784390
▁البحوث	-9.784595
▁الرب	-9.784712
▁2002.	-9.784752
▁المواطنين	-9.785357
▁وتلاحظ	-9.786864
▁أسعار	-9.787024
▁تشكيل	-9.787172
▁أقصى	-9.788711
▁اليونيدو	-9.788901
▁تجري	-9.788960
يتها	-9.789128
فت	-9.789253
I	-9.789268
▁هايتي	-9.789681
▁والمالية	-9.790919
▁ستة	-9.791871
▁درجة	-9.792155
▁خطر	-9.792862
▁وقعت	-9.793135
▁حدث	-9.793694
▁رأس	-9.793705
▁القضاة	-9.793909
▁المنافسة	-9.793942
▁(2001)	-9.794499
▁الإنتاج	-9.794661
▁تمر	-9.795282
t	-9.795447
▁لاستعراض	-9.795483
▁الأزمة	-9.795545
▁تعرض	-9.795663
▁بحق	-9.795723
▁المعونة	-9.795911
▁يكفل	-9.796144
قة	-9.796760
▁شتى	-9.796851
▁العقوبة	-9.796863
▁إحراز	-9.797252
▁أمين	-9.798025
▁الأولويات	-9.798868
▁الآلية	-9.799662
▁دعما	-9.800511
▁القضائي	-9.800905
▁المعدات	-9.801235
▁الاستخدام	-9.801888
او	-9.802626
▁أساسي	-9.802930
▁إدخال	-9.803367
▁الانضمام	-9.803488
10	-9.803813
▁(3)	-9.804276
▁تتيح	-9.804714
▁الإ	-9.804871
▁تخطيط	-9.804940
▁فرقة	-9.805200
▁السادس	-9.805561
▁الب	-9.805891
▁وتوصي	-9.806042
▁وسط	-9.806231
▁ومنذ	-9.806699
المملكة	-9.807097
-2	-9.807150
▁الغابات	-9.807211
▁ترمي	-9.807631
▁البنود	-9.807700
▁صحة	-9.807804
▁للحد	-9.807848
▁200	-9.807935
دي	-9.807993
▁المضادة	-9.809598
▁قاعة	-9.810196
▁جرت	-9.811340
▁المذكور	-9.811866
▁الاحتجاز	-9.812184
عت	-9.812216
▁الغذاء	-9.812709
▁الفقرتين	-9.813087
▁P	-9.813258
▁رد	-9.813595
▁فوق	-9.813703
▁التشيكية	-9.813807
▁2008.	-9.814392
▁بند	-9.814690
ست	-9.814794
▁يصبح	-9.815221
▁وقوع	-9.815480
▁والزراعة	-9.815504
▁الشخصية	-9.815534
▁لعمليات	-9.815962
▁رفع	-9.815975
▁ممثلو	-9.816190
▁تضمن	-9.816544
▁البنك	-9.817181
▁9-	-9.817291
/63/	-9.817649
▁الملائمة	-9.817913
▁ارتفاع	-9.818098
▁قرر	-9.818295
▁الآخر	-9.818940
▁الطرق	-9.818961
▁59	-9.819342
▁تتصل	-9.819446
▁للاتفاقية	-9.819873
▁الاستعمار	-9.820915
▁أعربت	-9.821542
▁بلدي	-9.822477
▁تمكين	-9.822577
i	-9.823021
▁وترد	-9.823236
▁تصميم	-9.823257
▁The	-9.823462
قت	-9.824356
▁المطلوب	-9.824692
▁العسكري	-9.824912
▁والصحة	-9.825420
▁أساليب	-9.825611
▁السوق	-9.825723
▁البرلمان	-9.826268
▁محل	-9.827126
▁تدرج	-9.827481
▁سجل	-9.828089
▁التاريخ	-9.828663
▁للفريق	-9.829057
▁هام	-9.829439
مشاركة	-9.830027
▁قمة	-9.830361
▁إنجاز	-9.830584
▁القيود	-9.830965
▁تبين	-9.831087
سيادة	-9.831610
▁التفاوض	-9.831617
▁أربع	-9.831870
▁والدولية	-9.832218
▁وخدمات	-9.832347
▁تحتاج	-9.832775
▁بأنشطة	-9.832998
▁إزالة	-9.833014
▁تخصيص	-9.834903
▁يعيشون	-9.834946
▁لإعادة	-9.834985
▁النار	-9.835244
▁مرافق	-9.835284
▁للنساء	-9.835494
▁أقرب	-9.835908
st	-9.836252
▁الفعالة	-9.836564
▁النزاع	-9.836840
▁مؤشرات	-9.838129
▁العلاقة	-9.838191
▁بأنها	-9.838919
▁السعودية	-9.839145
▁ليشتي	-9.839341
er	-9.839342
▁الإدماج	-9.839510
▁يت	-9.839795
▁المشردين	-9.839888
▁تعقد	-9.840424
▁ليبريا	-9.840624
n	-9.842012
▁التحقق	-9.842690
▁والاستقرار	-9.842793
▁ومنع	-9.842862
▁إتاحة	-9.845069
▁السن	-9.845853
▁الحظر	-9.846302
▁يود	-9.847180
▁وفدي	-9.847230
▁العودة	-9.847688
▁والأ	-9.847781
▁إندونيسيا	-9.848583
▁المال	-9.848778
▁قبرص	-9.848830
▁الزراعة	-9.848834
▁وصول	-9.848969
▁أداة	-9.849179
▁والولايات	-9.849904
▁أطراف	-9.849962
▁سنويا	-9.852211
را	-9.852347
▁بفعالية	-9.852791
▁البشري	-9.853504
▁معاهدات	-9.854404
بي	-9.854539
▁وطلبت	-9.854634
▁٦	-9.855571
▁كانوا	-9.855782
▁باعتماد	-9.855808
▁يوفر	-9.855845
▁يتيح	-9.856294
▁موظف	-9.856548
▁مساهمة	-9.857068
▁القيمة	-9.857167
▁إثيوبيا	-9.857270
▁الأكثر	-9.857787
▁70	-9.857891
▁يوما	-9.858152
على	-9.858436
▁عالم	-9.858480
▁مهام	-9.858889
▁وفضلا	-9.859386
▁أستراليا	-9.859485
▁I	-9.859812
▁الاستنتاجات	-9.860308
▁2003.	-9.861825
مد	-9.862130
▁وتشجيع	-9.862577
▁لجمهورية	-9.862973
▁المحضر	-9.865450
▁ز	-9.866260
▁وردت	-9.866293
▁مجموعات	-9.866420
▁والدعم	-9.866850
en	-9.867148
منظومة	-9.867984
▁يقول	-9.868076
▁الفعلي	-9.869001
▁حيز	-9.869617
▁تركز	-9.871181
-3	-9.871189
▁دراسية	-9.871475
▁فلا	-9.871587
▁شأنها	-9.872109
▁والاتجار	-9.872327
▁الدراسات	-9.872543
▁يقرر	-9.872594
▁المستخدمة	-9.874505
▁المانحين	-9.874906
▁القدس	-9.875283
▁الإعلامية	-9.875448
▁المحتويات	-9.875605
▁العلم	-9.875715
▁واستخدام	-9.877357
▁ومنظمات	-9.877576
مثل	-9.877647
▁بلغت	-9.877674
▁المؤسسة	-9.877730
اتها	-9.878624
▁أوسع	-9.879071
▁يرجى	-9.879316
▁تقدمها	-9.880612
▁نوعية	-9.880805
▁نظرها	-9.881823
▁التعليمية	-9.881959
▁1996	-9.882162
▁الملاحظات	-9.882915
▁بالفقرة	-9.882928
▁المتكاملة	-9.883827
▁سلامة	-9.883869
▁الضرر	-9.884463
يس	-9.884863
▁خطيرة	-9.885181
▁الكبيرة	-9.885312
▁للمجتمع	-9.885576
▁المراقبة	-9.885639
▁الس	-9.886008
▁الاستغلال	-9.886625
▁رواندا	-9.887135
▁بلوغ	-9.887266
▁مماثلة	-9.887311
▁'	-9.889520
▁للمنظمة	-9.890042
▁معهد	-9.890573
▁الفكرية	-9.890728
▁هاء	-9.891799
▁بصيغته	-9.892506
▁المحدد	-9.892513
▁أطفال	-9.892522
▁تنطوي	-9.893024
▁تؤيد	-9.893435
▁التعليق	-9.894508
1-	-9.894570
▁تحمل	-9.894888
▁الشراكات	-9.894975
▁أهم	-9.895012
▁للتنفيذ	-9.895268
▁الطلبات	-9.895478
▁لبريطانيا	-9.895617
▁تضم	-9.896303
▁سلسلة	-9.896437
▁بشأنها	-9.897141
▁'3'	-9.897156
▁طريقة	-9.897185
▁عالمي	-9.897452
▁حصول	-9.898103
▁المقترحات	-9.898380
▁الكربون	-9.899278
▁10-	-9.899860
▁العقود	-9.899934
▁تعزز	-9.900052
▁بخصوص	-9.900511
▁M	-9.901235
▁فنلندا	-9.901907
▁نسخة	-9.901937
▁موضع	-9.902112
▁الجميع	-9.902244
▁مجرد	-9.902378
▁الاتفاقيات	-9.904241
اذ	-9.904305
▁تشارك	-9.904756
▁النوع	-9.905468
▁الإحصائية	-9.905481
▁رفض	-9.906423
▁العمالة	-9.906707
▁السابع	-9.906720
▁وسيلة	-9.907330
▁يرد	-9.909901
▁متعدد	-9.909926
▁حسابات	-9.910555
▁تسمح	-9.910938
▁ممارسات	-9.911029
▁اي	-9.911216
▁تمييز	-9.911369
▁ولهذا	-9.911535
▁التوالي	-9.911754
D	-9.912205
▁منظور	-9.913057
▁النفاذ	-9.913499
▁وضعت	-9.913502
▁الشفافية	-9.913636
▁مقدمي	-9.914018
▁وكل	-9.914573
اث	-9.914608
▁دخول	-9.914667
▁الجوي	-9.914874
▁المتوقعة	-9.915292
مواصلة	-9.915463
▁ورئيس	-9.915679
تراوح	-9.915714
▁المقبل	-9.916425
▁الوقاية	-9.916680
▁يتسنى	-9.917072
▁!	-9.917548
▁المصير	-9.917667
▁61	-9.917876
▁البالغة	-9.917878
▁رابعا	-9.917934
-4	-9.918104
▁والمعلومات	-9.918247
▁اسم	-9.918306
▁الدينية	-9.918467
▁الأغراض	-9.918549
▁نفقات	-9.918791
▁المفروضة	-9.918900
▁هاما	-9.919053
از	-9.919564
دت	-9.919857
▁مناقشات	-9.919969
▁شمال	-9.920360
▁الاحتلال	-9.920457
▁63	-9.920472
▁وس	-9.920663
▁الرابطة	-9.920685
▁تزويد	-9.920780
.9	-9.921535
▁الدبلوماسية	-9.921979
▁الإسلامي	-9.922151
▁قبول	-9.922884
▁والدولي	-9.922915
▁وإنشاء	-9.923237
▁جاء	-9.923575
▁توافر	-9.923725
▁وتنظيم	-9.924230
▁وحدات	-9.924244
▁المهمة	-9.924780
▁المرافق	-9.925159
▁اتباع	-9.925357
T	-9.925376
▁ملموسة	-9.925445
▁والتقييم	-9.926606
▁معرفة	-9.927055
▁١٩	-9.928073
▁وأعربت	-9.928248
▁الموحدة	-9.929020
▁احد	-9.929429
F	-9.929548
P	-9.931785
▁الفعلية	-9.932431
اك	-9.932735
▁الراهن	-9.932775
▁وزراء	-9.932855
▁المستمر	-9.933275
رتبة	-9.933612
▁وتشجع	-9.933995
▁الجلسات	-9.934289
▁الشروط	-9.934592
▁الوحيد	-9.934711
▁وأكد	-9.935380
▁الاستئناف	-9.935444
▁وكيل	-9.935655
▁والقضاء	-9.935739
▁توجيهية	-9.935807
▁تحويل	-9.936707
▁أننا	-9.937400
▁تحديات	-9.938012
▁فئات	-9.938349
▁البشر	-9.938435
_	-9.938607
▁الشركة	-9.938843
وه	-9.939097
▁يتمثل	-9.939357
▁الأحيان	-9.939617
3-	-9.939876
▁تزيد	-9.940000
▁الجمهور	-9.940431
▁مدينة	-9.940556
▁أيام	-9.940751
عدم	-9.941619
▁وأدلى	-9.941853
▁يتجاوز	-9.942148
▁للتصدي	-9.942465
دم	-9.942534
▁القادمة	-9.942581
▁وجميع	-9.942843
▁مصدر	-9.942999
▁الاستقلال	-9.943723
▁تدخل	-9.944337
▁أكد	-9.944485
▁أفرقة	-9.944891
▁المنتجات	-9.945058
▁المعارف	-9.945448
▁اعتبار	-9.945916
▁الكويت	-9.946496
▁الحضرية	-9.946534
▁تستهدف	-9.946966
▁لتقييم	-9.948442
ٰ	-9.948831
▁وإ	-9.949077
▁تنفذ	-9.949872
▁الطريقة	-9.950158
▁الحفاظ	-9.950587
▁يرى	-9.950678
▁ومجلس	-9.950681
▁أدنى	-9.950692
▁يد	-9.951247
دا	-9.951408
▁ملائمة	-9.952199
در	-9.953360
▁62	-9.953408
▁تعليم	-9.953667
▁المحاكمة	-9.953929
▁هولندا	-9.954632
▁الممثلين	-9.955421
▁عامل	-9.955868
زع	-9.956165
▁الأدلة	-9.956194
▁مر	-9.956531
▁ترغب	-9.956718
▁تابعة	-9.957932
▁المراقب	-9.958018
▁أشارت	-9.958802
▁قدمتها	-9.959207
▁سوق	-9.959329
▁للأفراد	-9.959603
▁التكلفة	-9.960157
▁لأفريقيا	-9.960492
▁بمرحلة	-9.961112
▁والفتيات	-9.962168
▁الإيدز	-9.962406
▁الطويل	-9.962605
▁الشكل	-9.962784
6-	-9.962988
▁رابطة	-9.963097
يع	-9.963263
▁1994	-9.963284
▁F	-9.963665
▁الدليل	-9.963922
▁الانتخابية	-9.964350
البند	-9.964648
▁نصف	-9.964655
▁الموجودات	-9.964714
▁عقب	-9.965117
▁المجلد	-9.965285
▁بإجراء	-9.965540
بت	-9.965588
▁الأجهزة	-9.965815
▁العقوبات	-9.966004
▁http	-9.966628
▁مكاتب	-9.967295
▁قطاعات	-9.967299
▁لتمكين	-9.967570
▁الأحوال	-9.968250
▁80	-9.968618
▁كولومبيا	-9.968939
▁قدرها	-9.969246
ation	-9.969586
▁مد	-9.969606
▁يحدد	-9.969808
▁(2004)	-9.970701
▁أعمالها	-9.971593
▁تستند	-9.971985
▁تتجاوز	-9.972301
▁نحن	-9.972916
يب	-9.973149
15	-9.973709
▁كيوتو	-9.975254
▁إننا	-9.975371
▁فهو	-9.975598
▁الناحية	-9.975763
▁لموظفي	-9.976601
▁الصحراء	-9.978012
▁سويسرا	-9.978388
▁تلبية	-9.979388
▁ستكون	-9.979417
▁تركيا	-9.979458
20	-9.979856
▁بقوات	-9.980031
▁الجزائر	-9.980549
▁النشاط	-9.981156
▁يحدث	-9.981156
عقد	-9.981422
▁للموارد	-9.982238
▁التعديلات	-9.982324
▁استغلال	-9.982503
▁والوكالات	-9.982679
▁تحرير	-9.983124
▁كبار	-9.983644
▁نجاح	-9.984646
▁وافقت	-9.985557
▁وتنفيذها	-9.986701
▁متوسط	-9.986856
▁إلغاء	-9.986966
▁واتخاذ	-9.987741
▁البعض	-9.988103
▁بلده	-9.988151
▁جلستها	-9.988598
▁الإعسار	-9.988633
▁ارتكاب	-9.989120
▁الأحمر	-9.989395
▁الثنائية	-9.989987
▁مصالح	-9.990598
▁والأنشطة	-9.990830
▁سوء	-9.990927
▁لأ	-9.990966
▁المنقحة	-9.992176
▁فلسطين	-9.992218
▁الوسائل	-9.992683
▁المبالغ	-9.992912
▁وعمليات	-9.993191
▁لقرار	-9.993214
▁ونتيجة	-9.994402
▁وإضافة	-9.994674
▁الأولي	-9.994810
▁إعمال	-9.994851
▁المبكر	-9.995599
▁يعتمد	-9.995698
▁الاستراتيجيات	-9.996018
▁المحتملة	-9.996062
▁أوصت	-9.996201
▁التعبير	-9.996219
▁يتخذ	-9.996767
▁الخبرة	-9.996867
▁الفقيرة	-9.997108
▁المعاملات	-9.997399
▁مواقع	-9.997498
▁الانتصاف	-9.997581
▁ميانمار	-9.997669
▁الغاية	-9.998157
اص	-9.998440
▁ناحية	-9.998447
▁تشدد	-9.998503
جر	-9.998724
▁خطوة	-9.999383
▁أصل	-9.999390
▁بحث	-9.999418
▁تلقي	-9.999462
▁الأجنبية	-9.999799
▁ويتعين	-9.999963
▁تن	-9.999965
▁عنصر	-10.000011
▁أشخاص	-10.000033
▁11-	-10.000657
▁(4)	-10.001186
▁بالتنمية	-10.001496
13	-10.001700
▁السلامة	-10.002313
▁وراء	-10.002484
▁الرد	-10.002699
▁para	-10.002923
لب	-10.003986
▁اعتبارا	-10.004254
▁المدى	-10.004349
▁استخدامها	-10.005432
▁الحجم	-10.005991
▁تدعم	-10.006448
▁التأمين	-10.006498
▁وطلب	-10.006941
▁يجعل	-10.007305
▁الغذائي	-10.007653
4-	-10.008286
▁التسجيل	-10.008357
▁لإنشاء	-10.008739
▁والسياسات	-10.009266
▁علاوة	-10.009513
▁أخذ	-10.010137
▁مفاوضات	-10.010224
▁تأييد	-10.010497
5-	-10.011109
▁كلا	-10.011162
▁المهنية	-10.011180
▁www	-10.011377
▁نيوزيلندا	-10.012461
▁واست	-10.012776
▁المتوسطة	-10.013112
▁ومكافحة	-10.013205
▁أعطي	-10.013531
▁عبء	-10.014419
▁بعمليات	-10.014564
▁منتدى	-10.014786
▁الإنجاز	-10.015345
▁تعليقات	-10.015755
▁بالتالي	-10.016166
اي	-10.016374
▁قدمها	-10.016538
▁النفط	-10.018036
▁وإنما	-10.018077
عي	-10.018638
▁عقوبة	-10.018986
كل	-10.019143
▁بالإدارة	-10.019196
▁الأمراض	-10.019635
▁تحول	-10.019673
▁فت	-10.020274
▁أمرا	-10.020349
تغلب	-10.021794
▁نمو	-10.022415
رو	-10.022473
▁الأمور	-10.023006
7-	-10.023448
▁الخارج	-10.023762
▁تخفيف	-10.024178
▁أعقاب	-10.024250
▁والإقليمي	-10.024303
وية	-10.024939
▁إيطاليا	-10.025198
/56/	-10.025771
▁حلول	-10.025832
▁الاستئماني	-10.026019
▁وأضافت	-10.026372
▁القسري	-10.026605
▁المنازعات	-10.026774
▁لدول	-10.027791
▁المتابعة	-10.028086
متابعة	-10.028261
▁اذا	-10.028430
▁للتجارة	-10.028479
▁90	-10.029084
▁الناتج	-10.029381
▁والممارسات	-10.029544
▁الخ	-10.030153
▁النفايات	-10.030159
▁للمعلومات	-10.030261
▁D	-10.030667
▁يتسم	-10.031089
▁بهم	-10.031356
▁ولكنها	-10.031449
▁استحداث	-10.031488
30	-10.032100
▁الضمانات	-10.032217
▁المعوقين	-10.033039
▁منتظمة	-10.033429
12	-10.033453
▁نشاط	-10.033950
▁الكبير	-10.034057
▁تظل	-10.034268
▁سنتين	-10.034290
▁المتكامل	-10.034310
▁تود	-10.034316
▁العمر	-10.034456
▁النجاح	-10.035352
▁المهني	-10.035522
▁تحدث	-10.035600
▁موظفين	-10.036716
▁ويرد	-10.036741
▁سبب	-10.036763
▁٨	-10.037902
▁يوغوسلافيا	-10.038084
▁١٠	-10.038565
١	-10.038778
l	-10.039182
▁للخطر	-10.039317
▁أنشطتها	-10.039444
▁ونشر	-10.040007
▁التحقيقات	-10.040733
▁وتشير	-10.041371
▁بقوة	-10.042060
▁علاقات	-10.042414
▁ولاحظت	-10.042733
▁التصحر	-10.043243
▁بمثابة	-10.043263
▁الإيجابية	-10.043446
▁قلق	-10.043456
▁الأفعال	-10.043959
▁يرحب	-10.044949
لشؤون	-10.045560
▁ونقل	-10.045817
▁العاشرة	-10.045924
▁بحالة	-10.046039
▁المعنيين	-10.046453
▁والعنف	-10.046586
▁النزاعات	-10.046720
▁المعيشية	-10.046866
▁ويشمل	-10.047061
▁أبلغ	-10.048807
▁الفتيات	-10.048928
9-	-10.048983
▁هما	-10.049023
▁للت	-10.049468
*،	-10.049578
▁دائمة	-10.050048
▁مراحل	-10.050155
▁وقدمت	-10.050177
▁قدما	-10.050915
SR	-10.050943
▁وتدعو	-10.050984
▁إيجابية	-10.053433
▁المعرفة	-10.053555
▁كفاءة	-10.053580
▁تسعى	-10.053704
لمراقبة	-10.053915
▁١٥	-10.054013
▁كال	-10.054322
▁وكالة	-10.054770
▁300	-10.055482
▁وقدم	-10.055792
يون	-10.055852
▁تركيز	-10.056029
ري	-10.056267
▁بليون	-10.057154
▁ات	-10.057688
▁تأخذ	-10.058108
▁وصندوق	-10.058110
▁وتحث	-10.058674
بالنسبة	-10.059291
▁النرويج	-10.059331
▁(1999)	-10.059634
▁بعمل	-10.059696
▁وبما	-10.059999
▁بحسب	-10.060143
▁وع	-10.060238
▁بالحكم	-10.061490
▁أشكر	-10.061647
▁اقتصادية	-10.061716
▁65	-10.062548
▁بالتزاماتها	-10.062705
▁كجزء	-10.063066
▁لمشروع	-10.063304
▁بتوفير	-10.064301
17	-10.064839
▁٧	-10.064871
طلب	-10.066242
▁البيئي	-10.066250
▁المرتكبة	-10.066443
▁12-	-10.066712
▁رئيسي	-10.066802
▁تتم	-10.066886
▁بشدة	-10.067030
▁ذ	-10.067475
▁وسائر	-10.067831
▁بيجين	-10.068335
▁الكيانات	-10.068524
▁الجانب	-10.068770
▁حيثما	-10.068920
25	-10.069299
▁خاصا	-10.069307
▁بمساعدة	-10.069944
▁واضح	-10.069949
▁فإننا	-10.070668
▁التعويض	-10.070832
▁بالأطفال	-10.070930
▁جورجيا	-10.071050
▁(1	-10.071859
▁الإعاقة	-10.071900
▁انتقالية	-10.072042
▁ولاحظ	-10.072621
▁تنطبق	-10.072661
▁بالمادة	-10.072756
▁آخرين	-10.072919
▁1990	-10.072959
▁بدرجة	-10.073869
▁دراسات	-10.073929
عرب	-10.074217
▁المتمثل	-10.074881
▁بت	-10.074979
▁ربما	-10.075266
▁تسلم	-10.075971
تا	-10.076291
▁نقطة	-10.076332
▁الاتجاه	-10.077944
▁الكلي	-10.078199
▁يلاحظ	-10.078225
▁وتقوم	-10.078318
▁الابتدائية	-10.078621
▁تمثيل	-10.078748
8-	-10.079221
▁إجمالي	-10.079417
f	-10.079483
اهضة	-10.079687
▁المؤشرات	-10.079812
▁تمت	-10.080050
▁تشريعات	-10.080189
▁لانكا	-10.080378
▁00/10	-10.080690
▁لأسباب	-10.080808
▁يتفق	-10.080887
▁ورصد	-10.081121
▁L	-10.081515
▁التوقيع	-10.081779
▁موقف	-10.081960
▁حكومات	-10.082108
▁الخمس	-10.082252
▁الهجمات	-10.082582
11	-10.082881
▁تدريبية	-10.083656
▁الانتقال	-10.083783
▁يقل	-10.083935
▁أساسيا	-10.084112
▁اللغة	-10.084916
▁البناء	-10.085217
▁حقا	-10.085424
60	-10.085664
▁إحاطة	-10.085794
▁رئاسة	-10.085878
▁ببيانات	-10.086248
▁التعليقات	-10.087456
▁الأسود	-10.087638
▁الثقافي	-10.087898
▁75	-10.088559
▁القيادة	-10.088777
▁وتطوير	-10.088917
▁تزايد	-10.088994
هج	-10.089433
درج	-10.089746
▁السجون	-10.089751
▁روما	-10.089777
▁١٢	-10.089794
▁الشواغل	-10.091311
▁الضمان	-10.091377
▁الدخول	-10.091832
▁المساعدات	-10.092187
▁المواضيع	-10.092281
▁البديلة	-10.092333
▁والأمم	-10.092726
0	-10.092769
▁احتمال	-10.092782
▁العابر	-10.092801
▁أذربيجان	-10.092936
▁انتباه	-10.093010
▁دعا	-10.093026
14	-10.093179
▁أدوات	-10.093364
▁أجريت	-10.093846
▁بالت	-10.094262
▁أدت	-10.094326
▁يستند	-10.094713
▁1373	-10.095084
▁بالفرنسية	-10.095326
▁إسبانيا	-10.096404
▁تنفيذا	-10.097141
بشأن	-10.097145
▁امرأة	-10.097151
▁التكنولوجيات	-10.097472
▁ونزع	-10.098111
▁المن	-10.098267
▁السويد	-10.098501
▁التكامل	-10.098764
R	-10.099010
▁والسلام	-10.099579
▁أولويات	-10.100105
▁التغييرات	-10.100217
▁٩	-10.100410
▁صورة	-10.100632
▁وطني	-10.101112
▁شرط	-10.101976
▁المصالح	-10.102240
▁أقر	-10.102708
▁فورا	-10.103066
▁محدد	-10.103148
▁المشاركون	-10.103364
▁عقود	-10.103510
▁لأنشطة	-10.103670
اني	-10.103691
▁أوغندا	-10.103809
▁مباشر	-10.104105
▁بنود	-10.104201
▁نشوب	-10.104470
▁إما	-10.105563
▁بحرية	-10.106351
▁يؤيد	-10.106575
▁الشديد	-10.106858
▁مجموعه	-10.106967
▁الضوء	-10.107417
▁عامي	-10.107602
▁للأنشطة	-10.107938
▁والبيئة	-10.108367
▁للأطراف	-10.108562
▁الموحد	-10.108595
▁الدائرة	-10.108647
▁والمواد	-10.108814
▁وعليه	-10.108860
▁تت	-10.110135
▁طرفا	-10.110906
▁البداية	-10.111166
▁أوكرانيا	-10.111545
▁الخطيرة	-10.111568
u	-10.111622
▁عالية	-10.111637
▁الرئيسة	-10.111863
▁الواقعة	-10.112927
▁المدن	-10.112964
رض	-10.113173
▁باعتباره	-10.113704
▁مؤقتة	-10.113789
▁السعي	-10.114196
▁والقطاع	-10.114367
▁بسرعة	-10.114673
▁وكفالة	-10.114863
▁جراء	-10.115361
رب	-10.115468
▁عاتق	-10.116349
▁شخصا	-10.116874
▁64	-10.116898
▁إنها	-10.116923
▁اتخاذها	-10.117238
▁وتقدم	-10.117314
أن	-10.117854
▁أكدت	-10.117910
▁السواء	-10.118157
▁بحاجة	-10.118503
▁الخاضعة	-10.118862
مكافحة	-10.119516
▁تخضع	-10.120320
بات	-10.121424
▁الطيران	-10.121539
▁بلا	-10.122039
▁وسيكون	-10.122258
تنمية	-10.122414
▁المغرب	-10.122853
▁طابع	-10.123109
▁التوعية	-10.123354
▁دائم	-10.123967
▁بعنوان	-10.124152
يت	-10.124310
▁علاقة	-10.125370
رح	-10.125460
▁مراجعي	-10.125628
▁والحد	-10.125855
▁المركزية	-10.126299
▁يضع	-10.126374
▁الحلقة	-10.126381
▁طبقا	-10.127448
▁للمشاركة	-10.127570
▁بضرورة	-10.128316
ستخدم	-10.128347
▁علي	-10.128429
سر	-10.128589
▁ولن	-10.128653
▁مالي	-10.129050
▁وجرى	-10.129105
▁نساء	-10.129711
▁الاستثمارات	-10.129989
▁تعالج	-10.130505
ly	-10.130733
▁وقبل	-10.131944
▁تسليم	-10.132330
▁بإدارة	-10.132708
▁المباشرة	-10.132863
▁الإبادة	-10.134192
ic	-10.134228
▁١١	-10.134672
▁ملاحظات	-10.134848
بلغ	-10.134996
▁بعملية	-10.135288
▁المراجعة	-10.135366
▁قراره	-10.136097
▁الحائزة	-10.136200
26	-10.136232
▁سير	-10.136532
▁تسهم	-10.136940
▁قوية	-10.136985
▁بي	-10.137918
▁انعدام	-10.138082
▁المعروضة	-10.138352
▁نيروبي	-10.138596
▁(2006)	-10.139457
▁اهتماما	-10.140094
▁بالقلق	-10.140722
%	-10.140892
إعادة	-10.141273
▁وافق	-10.141322
▁الإحصاءات	-10.141897
▁الدستورية	-10.142354
▁محاولة	-10.142447
▁إضافي	-10.142734
▁تحديدا	-10.142741
▁أراضي	-10.142840
▁المركزي	-10.143029
▁عوامل	-10.143640
لم	-10.143987
▁دخل	-10.144299
▁القومي	-10.144562
▁تكوين	-10.144564
G	-10.144603
فة	-10.144659
▁R	-10.144794
حة	-10.144931
▁الزمني	-10.145016
▁13-	-10.145356
▁القبيل	-10.146018
▁والمرأة	-10.146235
▁المسؤولة	-10.146274
▁النقد	-10.146325
▁صدر	-10.146399
▁1993	-10.146453
▁بنشاط	-10.146691
▁الستين	-10.146841
▁تهيئة	-10.147111
▁المستقل	-10.147549
▁الإقامة	-10.147708
▁الأزمات	-10.147737
لمساعدة	-10.147761
▁طرق	-10.147926
▁تبدأ	-10.148108
▁الارض	-10.148330
▁وخصوصا	-10.149077
▁التحفظات	-10.149752
▁تتمثل	-10.149800
▁شيلي	-10.150195
عندما	-10.150304
19	-10.150354
يته	-10.150642
▁United	-10.150836
▁الصرف	-10.151082
▁سيدي	-10.151649
▁رسميا	-10.151742
▁أنغولا	-10.151832
▁تكلفة	-10.151894
▁الجيش	-10.152852
▁إشراك	-10.152933
▁الج	-10.153039
▁لرصد	-10.153831
▁القبض	-10.154781
▁الرقم	-10.156248
16	-10.156453
▁انتهاكا	-10.157086
▁تصل	-10.157617
▁1998،	-10.158182
▁طفل	-10.159345
▁الوثيق	-10.159358
تم	-10.159458
▁طبيعة	-10.159727
▁وجنوب	-10.160010
▁المنظومة	-10.160026
▁المجاورة	-10.160320
▁الحركة	-10.160988
▁ينطوي	-10.161021
or	-10.161333
▁الأمل	-10.161356
▁النسائية	-10.161908
▁والمسائل	-10.161957
▁للصندوق	-10.162233
▁أرض	-10.162517
تاح	-10.162575
▁توضيح	-10.163744
▁No	-10.164456
▁يوصي	-10.164933
▁يتناول	-10.164959
▁للبرنامج	-10.165470
▁وذكرت	-10.165509
▁نام	-10.165987
▁بالجهود	-10.166211
▁واحترام	-10.166466
▁ملزمة	-10.168180
▁T	-10.168253
▁المتكلمين	-10.168343
▁اعتمدتها	-10.169302
▁البحري	-10.169626
▁الهام	-10.170118
▁النقدية	-10.170421
▁مفوض	-10.170466
▁المحتمل	-10.170768
▁00/15	-10.171111
▁والشعوب	-10.171520
▁سري	-10.172265
▁طوال	-10.172424
▁أعلن	-10.172951
▁بيرو	-10.173190
▁تشغيل	-10.173244
▁الإغاثة	-10.173316
▁الشعبة	-10.173658
▁نيجيريا	-10.173733
▁ثقافة	-10.174566
▁وثيق	-10.175206
▁متاحة	-10.175209
▁فرد	-10.175395
▁14-	-10.175624
▁وحمايتها	-10.175782
▁المراكز	-10.176263
▁الكافية	-10.176293
▁المبينة	-10.176714
▁لنظام	-10.176728
-5	-10.176882
▁بالحق	-10.177650
▁الإنتاجية	-10.177676
▁مقدونيا	-10.177763
▁بأعمال	-10.177834
▁تاما	-10.177964
▁بتاريخ	-10.177979
▁موافقة	-10.178435
▁الف	-10.178858
▁والهيئات	-10.179081
b	-10.179874
▁الحرية	-10.180072
▁مغلقة	-10.181032
▁تعصب	-10.181036
▁سابقا	-10.181568
▁تعاني	-10.182513
▁المشتريات	-10.183542
▁وصف	-10.183564
▁والتدابير	-10.183877
▁الانتباه	-10.184218
▁باستمرار	-10.184524
ائها	-10.184671
▁ومؤسسات	-10.185097
▁النمسا	-10.185261
▁وتيسير	-10.185672
▁الميداني	-10.185812
▁للطفولة	-10.186122
40	-10.186517
▁الرتبة	-10.186593
▁سياسي	-10.186877
▁المكتسب	-10.187231
▁بإعداد	-10.187539
▁التشريع	-10.188254
▁الأوضاع	-10.188326
▁(2000)	-10.188446
▁منتصف	-10.189021
▁K	-10.190044
▁تمديد	-10.190098
▁تفاصيل	-10.190139
▁مخاطر	-10.190170
▁المتمثلة	-10.190616
▁الممكنة	-10.190687
▁لتيسير	-10.190922
▁كون	-10.191255
▁الوقود	-10.191290
▁اتخذ	-10.191828
▁لسنة	-10.193052
▁الأفرقة	-10.193153
▁الحمل	-10.193516
▁غواتيمالا	-10.193860
▁العرض	-10.194965
▁تستطيع	-10.195161
▁توقيع	-10.195392
▁ومما	-10.195616
▁متزايد	-10.196136
▁والمشاركة	-10.196795
▁صكوك	-10.196813
▁400	-10.197069
▁الجغرافي	-10.197345
p	-10.197355
▁يكفي	-10.197538
مان	-10.197666
▁يومي	-10.197880
اش	-10.198107
▁التهديد	-10.198146
▁يقع	-10.198313
▁2009،	-10.198624
▁والمبادئ	-10.199182
▁استعداد	-10.199511
▁73	-10.199684
@	-10.199822
▁عبد	-10.200031
▁إبلاغ	-10.200281
▁قابلة	-10.200455
▁يشجع	-10.200463
▁السريع	-10.200676
▁المتبقية	-10.200679
▁التحليل	-10.202242
▁أنشئت	-10.202794
▁يؤثر	-10.202874
▁والمادة	-10.202929
▁التعامل	-10.202971
▁وفود	-10.203058
▁التدريجي	-10.203063
▁الانبعاثات	-10.203218
▁التوجيه	-10.203218
▁تعيد	-10.203397
▁بزيادة	-10.203664
▁أموال	-10.203921
بجميع	-10.204172
▁الشفوية	-10.204185
▁شبكات	-10.204815
▁شرطة	-10.204988
27	-10.205025
▁الخبرات	-10.205786
▁G	-10.205853
▁الغ	-10.205881
),	-10.205947
▁الاشتراكات	-10.206326
▁العلاج	-10.206487
▁المواقع	-10.206564
▁تأمين	-10.206565
,"	-10.206773
▁حضور	-10.207471
▁H	-10.207581
▁تعبئة	-10.207810
▁تقل	-10.207920
إمكانية	-10.208120
▁وترحب	-10.208711
▁تعديلات	-10.209830
▁التكيف	-10.209920
22	-10.210245
▁الكفاءة	-10.210688
▁مشروعة	-10.211434
▁جهد	-10.211608
▁تعويض	-10.211697
▁1991	-10.212234
▁والثقافة	-10.212398
▁يحق	-10.212458
▁محدودة	-10.212710
▁ولايتها	-10.213091
▁مناسب	-10.213253
▁التصويبات	-10.214577
قرار	-10.214781
▁غسل	-10.215627
إن	-10.216025
▁خالية	-10.216116
▁ويقدم	-10.216322
it	-10.216755
▁لاحظ	-10.216911
WG	-10.217194
in	-10.217451
▁باللغات	-10.217831
▁تكنولوجيات	-10.218121
▁المصادر	-10.218268
مين	-10.219140
▁الحقيقة	-10.219162
▁أمكن	-10.219719
▁المتمتع	-10.219982
▁الشهر	-10.220127
▁المادية	-10.220165
▁اتحاد	-10.220194
▁مزيدا	-10.220908
▁66	-10.221100
▁يظل	-10.221398
▁انت	-10.221952
▁شراكة	-10.222188
▁للحدود	-10.222932
▁ث	-10.223235
▁ينطبق	-10.223370
▁تولي	-10.223550
▁نرى	-10.224391
H	-10.224509
▁الصناديق	-10.224762
▁الفلبين	-10.225117
▁طائفة	-10.225393
▁المصالحة	-10.225417
▁فتح	-10.225965
▁تقدما	-10.226076
▁القاسية	-10.226742
▁التدريبية	-10.227160
▁استئناف	-10.228526
تك	-10.228726
▁للقيام	-10.228826
▁السليمة	-10.229052
▁الجغرافية	-10.229294
▁للمنظمات	-10.229892
▁أشير	-10.230068
▁كرواتيا	-10.230747
مختلف	-10.231296
▁بلجيكا	-10.231557
▁الح	-10.231701
▁تفيد	-10.231835
▁والسيدة	-10.231870
▁15-	-10.232080
▁نقاط	-10.232288
▁الاستعراضي	-10.232564
▁اللبنانية	-10.232776
▁وتؤكد	-10.232813
وزارة	-10.233591
▁عضوية	-10.234006
▁تتمكن	-10.234192
▁١٤	-10.234392
▁وك	-10.235359
عتبر	-10.236564
▁تواجهها	-10.236608
▁منسق	-10.237171
▁الوحدات	-10.237564
قدم	-10.238321
▁المنشأ	-10.239361
▁المدة	-10.240108
▁أعماله	-10.240612
▁أعلنت	-10.240892
▁المستمرة	-10.241256
▁تطور	-10.241433
▁التسليم	-10.241549
▁وقع	-10.241770
▁الشمال	-10.242015
▁العسكريين	-10.242139
▁وأنشطة	-10.242156
▁رهنا	-10.242381
▁قانونا	-10.242762
▁الخيارات	-10.242849
▁تمكن	-10.242949
▁للتدريب	-10.243726
▁الصك	-10.243753
▁وغيرهم	-10.244324
▁السلبية	-10.244342
▁باستعراض	-10.244482
▁وأيرلندا	-10.244665
▁الحرة	-10.245489
▁67	-10.245854
▁القادم	-10.245941
▁الغذائية	-10.246325
▁Law	-10.246332
▁والرعاية	-10.246718
▁باستثناء	-10.246943
▁ككل	-10.247334
▁,	-10.247850
▁تتمتع	-10.247934
▁شارك	-10.248019
▁وأفراد	-10.248050
▁الفقراء	-10.248984
▁جهات	-10.249096
▁المقام	-10.249698
▁وترى	-10.249892
▁التطبيق	-10.250014
▁١٣	-10.250424
▁والتقنية	-10.250821
21	-10.251247
▁1992	-10.252039
▁وتنص	-10.252758
▁بإ	-10.252775
مر	-10.252921
▁المساهمات	-10.252943
▁واجب	-10.253049
قر	-10.253532
▁بالقضاء	-10.253980
▁الطائرات	-10.254042
صف	-10.254273
▁مياه	-10.254278
▁البت	-10.255064
إتاحة	-10.255357
▁والمجلس	-10.255450
▁بالتشاور	-10.256064
▁جزئيا	-10.256067
▁القول	-10.256148
▁لاحق	-10.256429
▁المتبعة	-10.256491
▁رسمي	-10.256522
CONF	-10.257829
▁Corr	-10.258491
▁البضائع	-10.258857
▁مفيدة	-10.258943
▁طويل	-10.258963
▁انتخابات	-10.259043
▁بالغابات	-10.259190
▁الأردن	-10.260139
▁لأنها	-10.260295
re	-10.260435
th	-10.260737
▁السفن	-10.260827
▁وج	-10.260869
▁والمساواة	-10.261615
▁العنصر	-10.262001
▁عنصرا	-10.262263
▁لتشجيع	-10.263097
▁هذين	-10.263357
▁ضمانات	-10.263959
▁وهكذا	-10.264000
▁بيت	-10.264103
▁بأحكام	-10.264552
▁الموظف	-10.264625
▁وخطة	-10.265306
▁أشد	-10.265504
▁الص	-10.265818
شر	-10.266053
▁يبدأ	-10.266705
▁والجمهورية	-10.266711
▁وإجراءات	-10.267060
▁النسبة	-10.267328
▁تنقيح	-10.267396
اري	-10.267483
▁لكم	-10.267626
▁السماح	-10.267818
▁للمواد	-10.267831
▁سلوك	-10.268056
▁للشعب	-10.268567
▁بالغة	-10.268684
▁الأسبوع	-10.268793
▁وتنسيق	-10.269345
مي	-10.269608
▁الثامن	-10.269916
29	-10.270972
▁قدمه	-10.271835
28	-10.271873
WP	-10.272112
▁التشريعي	-10.273125
▁للأشخاص	-10.273361
▁مستقبل	-10.273542
▁اقتصاداتها	-10.273572
▁وتبادل	-10.273719
▁ضعف	-10.273956
▁الط	-10.274196
▁السبل	-10.274503
لعدم	-10.274975
▁زيارة	-10.275481
▁لعمل	-10.275577
▁القاضي	-10.276332
80	-10.276391
▁نفاذ	-10.276678
▁اتصال	-10.276813
▁تقاسم	-10.277228
فر	-10.277374
▁الجماعي	-10.277450
▁والمعدات	-10.277720
▁ترك	-10.278407
▁تشعر	-10.279215
▁كنت	-10.279519
-7	-10.279591
▁بتلك	-10.279864
▁لمواصلة	-10.279897
▁وبينما	-10.280025
▁عسكرية	-10.280401
▁الإدارات	-10.280609
▁الكافي	-10.281085
بين	-10.281614
▁لاحقا	-10.281777
▁بحكم	-10.281923
جز	-10.281951
▁الخسائر	-10.282191
▁مطالبة	-10.282431
▁التحديد	-10.282522
▁بيساو	-10.282652
▁لمناقشة	-10.282730
/4	-10.282825
ائي	-10.283043
لأغراض	-10.283664
رعاية	-10.283838
▁اللاإنسانية	-10.284113
g	-10.284493
▁ولايته	-10.285621
▁غالبا	-10.285748
▁الصادرات	-10.285763
▁صربيا	-10.286013
▁تعكس	-10.286024
▁والمتوسطة	-10.286178
حت	-10.286315
▁وإقامة	-10.286645
زي	-10.286673
▁الحل	-10.286909
▁يصل	-10.287095
/55/	-10.287395
▁الاتجاهات	-10.287731
▁وأوصت	-10.287805
▁الدوحة	-10.287811
▁اقترح	-10.288144
▁بمنع	-10.288190
▁والستون	-10.288643
▁بيلاروس	-10.288797
عاد	-10.288983
▁العشرين	-10.289079
▁وفق	-10.289124
▁تقديرات	-10.290733
▁الإنجازات	-10.291348
▁قابل	-10.291674
▁الخيار	-10.291676
▁ولكنه	-10.292517
▁وكره	-10.292786
▁السجن	-10.294242
▁لإ	-10.294406
▁مسؤولة	-10.294878
▁تصدر	-10.295371
▁16-	-10.295451
▁متى	-10.295751
▁Add	-10.295761
▁رئيسا	-10.295954
▁المهارات	-10.296190
▁تقديرها	-10.296535
37	-10.296616
زم	-10.296691
دار	-10.296711
▁سفر	-10.296711
.4/	-10.297437
▁يعزز	-10.297578
▁المطاف	-10.297786
▁بنغلاديش	-10.297809
▁محلية	-10.298118
▁المنزلي	-10.298133
▁الجامعة	-10.298347
▁الجوفية	-10.298537
▁الإنجابية	-10.298612
فق	-10.298806
▁بكثير	-10.298809
▁التشاور	-10.299117
▁تبذل	-10.299117
▁خامسا	-10.299735
▁مساهمات	-10.299738
▁المحليين	-10.299747
رف	-10.300113
▁اختصاص	-10.300390
18	-10.300510
▁69	-10.301079
▁للقرار	-10.301112
▁الصعوبات	-10.301849
سي	-10.301907
an	-10.302999
▁يعرب	-10.303065
▁تدرك	-10.303168
▁متنوعة	-10.303674
▁ٱلله	-10.303906
▁حدثت	-10.304049
▁التقديرات	-10.304256
باسم	-10.304671
▁التقاعدية	-10.304713
▁كينيا	-10.305170
▁الجمعة	-10.305333
▁تقنية	-10.305802
اللجنة	-10.305866
FCCC	-10.305931
▁شركات	-10.306231
▁الدروس	-10.307015
▁وأكثر	-10.307193
▁يتمتع	-10.307223
▁نسبيا	-10.307323
رد	-10.307475
▁التعديل	-10.307618
دو	-10.307629
▁يعكس	-10.307922
▁ماليزيا	-10.308567
▁المساءلة	-10.309150
▁انتقال	-10.309657
▁وإعداد	-10.309731
▁التشغيلية	-10.311539
▁التفاهم	-10.311660
▁غيرها	-10.311705
▁تفسير	-10.312127
▁المستوطنات	-10.312574
▁يستخدم	-10.313028
▁بفضل	-10.313190
▁التأهيل	-10.313325
▁ملاحظة	-10.313542
▁مستمرة	-10.313781
▁by	-10.313949
▁الجهاز	-10.314266
▁بقضايا	-10.314660
▁إبرام	-10.315002
الأمم	-10.315139
▁التدخل	-10.315715
▁الليبية	-10.315746
▁صغيرة	-10.315787
▁روح	-10.316002
▁أدلة	-10.316068
▁الاثنين	-10.316080
▁بالمسائل	-10.317285
▁2008-2009	-10.317319
▁الخارجة	-10.317544
▁يعملون	-10.317604
▁قضائية	-10.317939
▁المضمون	-10.318301
▁جهاز	-10.318402
▁التنظيم	-10.318916
▁سان	-10.319156
▁الملائم	-10.319676
▁وعند	-10.320484
▁للشعوب	-10.320501
دون	-10.320936
90	-10.321131
▁الجنوبية	-10.321496
▁الهيكل	-10.321522
▁محاكمة	-10.321857
▁صك	-10.321928
عين	-10.321955
▁دستور	-10.322050
▁تنشأ	-10.323204
▁إساءة	-10.323435
▁لتغطية	-10.323746
▁العراقية	-10.323999
كي	-10.324122
▁القابلة	-10.324333
▁بنفس	-10.324361
▁بعيد	-10.324567
▁لجان	-10.324960
▁المفتوح	-10.325169
N	-10.325742
▁قائلة	-10.326146
▁الوحيدة	-10.327009
▁(19	-10.327623
▁المذكرة	-10.327710
▁وإجراء	-10.327755
▁الإسهام	-10.328337
▁بالتنسيق	-10.329624
▁أنشأت	-10.329878
▁باريس	-10.330075
▁لاحظت	-10.330311
▁أبلغت	-10.330503
▁لإعداد	-10.330837
▁نظره	-10.330862
▁الحكوميين	-10.330872
▁المتبادل	-10.331152
▁ويجوز	-10.331156
▁تقييد	-10.331193
حل	-10.331446
▁استكمال	-10.331975
▁الجهة	-10.332052
▁يسهم	-10.332217
▁يحيل	-10.332809
▁تتولى	-10.333138
▁تعترف	-10.333274
▁معروضا	-10.333904
▁الموظفون	-10.334261
▁بالألغام	-10.334523
▁وح	-10.335047
56	-10.335423
▁التوزيع	-10.335516
▁كيانات	-10.335662
▁للنظام	-10.335734
▁تقر	-10.337164
▁المادتين	-10.337294
70	-10.337330
▁بتنظيم	-10.337505
▁تراعي	-10.338121
▁المهينة	-10.338739
▁العقبات	-10.338745
▁التوازن	-10.339129
▁معرض	-10.339160
▁(2005)	-10.339617
▁المبين	-10.340472
▁تايلند	-10.340648
32	-10.340667
▁أوصى	-10.340752
▁Nations	-10.340863
▁الإصلاحات	-10.341005
49	-10.341219
▁الرؤساء	-10.341456
▁شهرا	-10.341486
▁الحسبان	-10.341532
▁الشكاوى	-10.341640
▁اللاحقة	-10.341974
▁صون	-10.342132
▁1999.	-10.342255
▁ودعا	-10.342394
▁نيبال	-10.342422
▁إعلامية	-10.342707
▁اجتماعية	-10.342987
▁حسن	-10.343513
212)	-10.343666
▁وتقرير	-10.343822
▁الشهود	-10.343831
▁الأخذ	-10.343886
▁واو	-10.344113
▁وقررت	-10.344357
▁الضرائب	-10.344501
▁وبلدان	-10.344546
▁نيابة	-10.344981
▁سائر	-10.345605
▁الجسيمة	-10.345803
▁بالمعلومات	-10.345803
▁وتطبيق	-10.346017
.1،	-10.346783
▁إنسانية	-10.346914
▁الدفع	-10.347041
▁اليوغوسلافية	-10.347058
▁والحق	-10.347321
▁ويقوم	-10.347564
▁الشبكي	-10.347908
▁الأونسيترال	-10.348033
▁17-	-10.348132
▁والحكومات	-10.348329
▁(2003)	-10.348626
▁الر	-10.348916
جري	-10.348922
▁68	-10.348969
▁معدات	-10.348993
▁مجالي	-10.349130
58	-10.349590
ثق	-10.349964
يو	-10.350586
▁600	-10.350638
▁تفعل	-10.350652
▁وبموجب	-10.351222
▁للحكومة	-10.351405
53	-10.351742
▁مصائد	-10.352402
▁ظلت	-10.352448
▁المنسق	-10.352456
▁اتخذته	-10.353279
▁لبعض	-10.354358
▁رئيسيا	-10.354566
ذا	-10.354645
▁تونس	-10.355490
▁بالأعمال	-10.355788
▁صوت	-10.355838
▁المدرسة	-10.356256
▁قتل	-10.356415
▁سانت	-10.356503
▁الإصابة	-10.356922
▁مفاده	-10.357040
▁الشراء	-10.357459
▁حملة	-10.357634
▁الخطرة	-10.357711
▁كو	-10.357771
▁المتبادلة	-10.357773
")	-10.357799
▁بانتظام	-10.357934
▁الزراعي	-10.357985
▁الإفلات	-10.358328
41	-10.358507
▁وتنمية	-10.358719
83	-10.359122
▁بولندا	-10.359297
▁بوجود	-10.359322
▁ويتضمن	-10.359868
▁أجزاء	-10.359900
▁افتتاح	-10.360176
▁التحتية	-10.360204
▁اتفق	-10.360569
▁الجاري	-10.361998
▁إكوادور	-10.362150
▁الطويلة	-10.362297
متلازمة	-10.362662
▁72	-10.362734
▁تجارية	-10.363053
▁الناقل	-10.363280
▁المحافظة	-10.363545
▁جماعات	-10.363732
▁والقواعد	-10.363951
▁حقيقة	-10.364782
لمواجهة	-10.364928
▁طول	-10.365192
▁وأكدت	-10.365986
▁فيهم	-10.366011
▁الاستقصائية	-10.366813
"؛	-10.367186
▁تدهور	-10.367268
▁البيولوجية	-10.367471
▁استنتاجات	-10.367640
▁إل	-10.367748
قترح	-10.368761
▁١٧	-10.368807
▁١٦	-10.368811
55	-10.368903
▁76	-10.369002
▁المواضيعية	-10.369540
▁ووسائل	-10.369543
▁تحد	-10.369667
▁W	-10.369698
▁دعت	-10.370650
▁السؤال	-10.370762
ar	-10.371040
خطة	-10.371043
65	-10.371164
▁2009.	-10.371724
حالة	-10.371978
▁الفرد	-10.372111
23	-10.372388
▁المتضررة	-10.372513
▁التغذية	-10.372529
▁قيادة	-10.372606
▁أولئك	-10.372653
طر	-10.373199
▁توجه	-10.373757
▁18-	-10.373827
▁الوطنيين	-10.373904
▁(2002)	-10.373999
▁يذكر	-10.374048
▁البلاد	-10.374092
سل	-10.374136
▁ذكرت	-10.374749
▁تجميع	-10.374786
▁الاطلاع	-10.374807
▁إعطاء	-10.374933
▁والتجارة	-10.374979
▁الخطر	-10.375191
▁المقيمين	-10.375447
جل	-10.375856
▁التحدي	-10.376072
▁لجمع	-10.376166
▁للجهود	-10.376330
▁الإطارية	-10.376823
▁تغطي	-10.377157
▁صفوف	-10.378003
▁العالي	-10.378078
▁للاجئين	-10.378315
▁شهود	-10.379361
▁مضمون	-10.379614
▁جمعية	-10.380033
▁الثابتة	-10.380626
▁الأسئلة	-10.381115
▁الإنفاق	-10.381215
▁71	-10.381376
▁ممثلة	-10.381574
▁يتمكن	-10.382101
▁موظفا	-10.382322
▁فاسو	-10.382433
▁لأعمال	-10.382566
▁(5)	-10.382678
▁الأحزاب	-10.382695
▁ومنها	-10.383326
▁وكندا	-10.383469
▁سيتم	-10.383540
▁المدرج	-10.383687
▁اكثر	-10.383927
▁تقد	-10.384418
أي	-10.384572
فا	-10.384605
▁سابق	-10.384634
▁الإعراب	-10.385680
▁لخدمات	-10.385933
▁تجد	-10.386313
▁ممن	-10.386572
شير	-10.386625
▁ولذا	-10.386686
h	-10.386694
50	-10.386984
▁الولادة	-10.387026
▁وأمن	-10.387071
▁مستقل	-10.387133
▁والإ	-10.387210
▁at	-10.387787
▁والأفراد	-10.387808
▁أسماء	-10.387927
▁محمد	-10.388079
▁الأرضية	-10.388268
▁الانحياز	-10.388428
▁الإضافي	-10.388749
ائه	-10.388927
▁واليابان	-10.389592
▁استقرار	-10.389775
غي	-10.389871
▁وبذلك	-10.390110
▁الدانمرك	-10.390581
▁والتسريح	-10.391235
قل	-10.391912
▁فقال	-10.392155
▁الد	-10.392176
▁بيع	-10.392205
▁قدمته	-10.392644
ضم	-10.393634
▁بموافقة	-10.393987
▁تحظى	-10.394239
▁القسم	-10.395293
▁2004-2005	-10.395504
▁وتوسيع	-10.395534
▁بالموارد	-10.395692
▁واعتمدت	-10.395719
يك	-10.395820
يان	-10.395838
▁قياس	-10.396254
▁وتمثل	-10.396318
▁والبحث	-10.396553
▁تغييرات	-10.396852
45	-10.397284
مو	-10.397371
▁القيم	-10.397412
يرى	-10.397967
▁أنهم	-10.398093
شي	-10.398930
▁والعلم	-10.398985
us	-10.399170
▁هوية	-10.399236
▁ضرورية	-10.399546
▁التثقيف	-10.399797
▁فأ	-10.399867
▁إقليمي	-10.400592
▁المستفادة	-10.401127
▁قطر	-10.401290
▁صوب	-10.401313
▁يهدف	-10.401423
▁شبه	-10.401515
▁المفوضة	-10.401545
▁التمثيل	-10.401616
▁صدور	-10.401618
▁وأعضاء	-10.402028
كت	-10.402569
وج	-10.402752
▁المرشحين	-10.402996
▁عل	-10.403152
▁بتمويل	-10.403190
▁ضروب	-10.403610
▁يحتاج	-10.403860
▁لاتخاذ	-10.403977
▁شغل	-10.404043
▁موريشيوس	-10.404201
▁قطع	-10.404481
▁المؤسسي	-10.404634
▁19-	-10.405163
r	-10.405449
▁وتوصيات	-10.405566
رون	-10.405671
▁القارة	-10.405697
▁الفعل	-10.405717
▁ونتائج	-10.405770
▁لفريق	-10.405904
▁تنظم	-10.406179
▁الحاضر	-10.406225
▁المست	-10.406300
▁قرارا	-10.406402
▁أنفسهم	-10.406474
▁التشديد	-10.408130
▁التماس	-10.408226
▁التخفيف	-10.408490
▁التحفظ	-10.408536
▁الحقائق	-10.408717
▁صراحة	-10.408805
▁2006-2007	-10.408814
▁دقيقة	-10.408853
▁لمساعد	-10.409058
▁المائية	-10.409271
▁تتعاون	-10.409923
35	-10.410094
▁ض	-10.410212
▁شاركت	-10.410562
▁المحيطات	-10.411004
▁منهجية	-10.411076
ء	-10.411199
▁بوسائل	-10.411289
▁الأدوات	-10.411386
31	-10.411453
▁الجيدة	-10.411519
▁خلاف	-10.412196
▁مواضيع	-10.412307
▁la	-10.412453
▁جيدا	-10.412529
▁تغطية	-10.412591
▁رئيسة	-10.412770
▁لحق	-10.413484
-19	-10.413664
▁جلسته	-10.413882
رس	-10.413977
▁المرض	-10.414016
راف	-10.414134
عب	-10.414201
ra	-10.414236
75	-10.414529
▁الأوزون	-10.414593
▁والأهداف	-10.414661
▁اليومية	-10.415050
▁إرهابية	-10.415057
▁تجعل	-10.416352
▁العربي	-10.416716
رين	-10.416892
▁التزامها	-10.416940
▁يحصل	-10.417308
▁قوائم	-10.417760
▁2002-2003	-10.418053
▁اتفاقيات	-10.419095
▁مسجل	-10.419111
▁الإيكولوجية	-10.419247
▁امتثال	-10.419282
▁معها	-10.419284
▁وقامت	-10.419300
▁التزاما	-10.419318
▁جو	-10.419634
▁وقام	-10.419651
▁الأصلي	-10.419889
▁وبرامجها	-10.420032
▁البرية	-10.420120
▁بصدد	-10.420420
▁المفوض	-10.420445
▁طرائق	-10.420484
▁جيدة	-10.420789
▁يركز	-10.420871
▁O	-10.420969
▁التنفيذيين	-10.421010
▁المعدل	-10.422526
▁تطبق	-10.422926
▁انضمت	-10.423168
▁التشغيل	-10.423544
▁تقول	-10.423681
▁أفعال	-10.423969
▁بالاشتراك	-10.424293
▁بعضها	-10.424687
▁البريد	-10.424710
▁الأنصبة	-10.424796
▁البطالة	-10.424844
▁فان	-10.425002
▁الاشتراك	-10.425659
▁عاملا	-10.427140
▁بصفته	-10.427581
▁لديهم	-10.427659
▁شفويا	-10.427711
te	-10.427844
▁الخبير	-10.428197
▁فرع	-10.428238
▁الصيغة	-10.428322
▁تأخير	-10.428966
إنهاء	-10.428973
▁رجال	-10.429319
▁السائدة	-10.429836
▁عودة	-10.429839
٢	-10.430017
▁الفعالية	-10.430290
▁وتعرب	-10.430387
▁فترات	-10.430481
▁التنبؤ	-10.430548
▁الخاصين	-10.430702
li	-10.431027
▁يتوقع	-10.431246
مناسبة	-10.431374
▁دار	-10.431497
▁مهما	-10.431653
▁Rights	-10.431920
▁شعوب	-10.431991
▁آن	-10.432109
▁التوظيف	-10.432157
لو	-10.432608
▁صوتا	-10.432679
▁74	-10.433221
▁حاسمة	-10.433539
▁الإرهابيين	-10.433556
74	-10.433978
▁بمزيد	-10.434090
▁والفقرة	-10.434229
▁مقاطعة	-10.434804
▁حرب	-10.434884
▁وبالرغ	-10.435315
دان	-10.435478
▁أرمينيا	-10.435526
66	-10.435753
▁لذا	-10.436197
▁كفاية	-10.436279
▁غياب	-10.436694
▁ممثلين	-10.436800
كون	-10.436975
▁الخطط	-10.437160
▁البرتغال	-10.437737
▁يتجزأ	-10.437764
▁وعدد	-10.438160
▁J	-10.438184
▁تذكر	-10.438506
▁المستشار	-10.438665
▁للتعليم	-10.438916
▁ولايات	-10.439118
▁المضيفة	-10.439802
k	-10.440120
▁'4'	-10.440130
▁إدارية	-10.440169
▁الذكر	-10.441340
بما	-10.441961
on	-10.442373
با	-10.442492
▁وتشكل	-10.442703
▁مواطن	-10.442751
الة	-10.442813
▁شراكات	-10.442935
▁شواغل	-10.443180
▁يصدر	-10.443210
▁هياكل	-10.443309
وز	-10.443585
▁تنزانيا	-10.443934
▁يستطيع	-10.444121
▁مطالبات	-10.444372
▁يقترح	-10.444477
▁يدعم	-10.444536
▁ويشكل	-10.444551
▁سابقة	-10.445126
39	-10.445312
▁الوزارات	-10.445590
▁وأنها	-10.445657
▁تتخذها	-10.445969
▁السابقين	-10.446192
▁تهيب	-10.446542
▁المجرمين	-10.446718
ــــــ	-10.446960
▁المدينة	-10.447363
▁يورو	-10.447594
▁البر	-10.447698
▁كمبوديا	-10.448010
▁وبالنظر	-10.448090
24	-10.448112
▁بلادي	-10.448161
▁نرحب	-10.448297
▁النقاش	-10.449008
▁مؤتمرات	-10.449345
▁جديدا	-10.449390
w	-10.449800
▁مرتكبي	-10.450235
▁شديد	-10.450455
▁الصيد	-10.450457
▁تعليق	-10.450550
▁يعود	-10.450774
▁بتغير	-10.450829
▁قادرة	-10.450833
V	-10.450930
▁يحيط	-10.451551
▁تتحمل	-10.451618
▁بينهم	-10.451956
▁الأجواء	-10.452606
▁يأخذ	-10.452638
▁اليونان	-10.452925
▁التصرف	-10.453208
ائية	-10.453365
سوء	-10.453459
▁وتدابير	-10.453464
46	-10.453538
▁والشباب	-10.453771
▁قدرتها	-10.454021
▁المقاطعات	-10.454219
▁الخميس	-10.454605
▁يا	-10.454607
▁التغيير	-10.455239
لام	-10.455307
▁يثير	-10.455399
▁التحرير	-10.455639
اة	-10.455828
▁وهيئات	-10.455978
▁20-	-10.456068
U	-10.456258
▁للإجراءات	-10.457102
ri	-10.457129
▁والع	-10.457194
▁المنتهية	-10.457549
52	-10.458817
95	-10.459118
▁طلبها	-10.459137
34	-10.459320
مجرد	-10.459460
▁الفردية	-10.459548
▁وهم	-10.460130
▁عقدها	-10.460133
▁اقتراحات	-10.460168
▁المضيف	-10.460354
▁المسؤوليات	-10.460391
▁وهما	-10.460498
▁التوجيهي	-10.461259
▁وبأن	-10.461391
▁مستقبلا	-10.461423
▁وتحليل	-10.461756
▁والإبلاغ	-10.461914
36	-10.462005
▁الأجر	-10.462016
69	-10.462036
▁وينص	-10.462067
▁لاستخدام	-10.463237
▁واحدا	-10.463389
.9/	-10.463448
▁حقيقية	-10.463515
▁فكرة	-10.463533
▁800	-10.463807
▁بنجاح	-10.463880
▁1997،	-10.463953
▁pp	-10.464424
CRP	-10.464515
▁لعقد	-10.464549
▁المظالم	-10.464763
▁يشارك	-10.465301
▁والنظام	-10.465612
▁مهم	-10.466184
▁البنية	-10.466281
▁N	-10.466382
79	-10.466431
▁مركبات	-10.466458
▁المسؤول	-10.466926
▁الشخصي	-10.467072
▁مصلحة	-10.467675
▁للنهوض	-10.467753
▁السكن	-10.467951
▁والمناطق	-10.468454
▁رومانيا	-10.468614
▁الأضرار	-10.468933
▁اتجاه	-10.469491
▁الممثلة	-10.470035
مون	-10.470154
سياسة	-10.470263
▁دمج	-10.470288
▁١٨	-10.470760
▁ويتم	-10.471262
▁مرتبات	-10.471419
▁ويمثل	-10.471787
▁بتحقيق	-10.472487
▁الابتدائي	-10.472740
▁الاحترام	-10.472758
▁أرجاء	-10.473159
▁مفتوحة	-10.473171
▁التاسع	-10.473264
▁خسائر	-10.473502
▁باللغة	-10.473894
/3	-10.473909
▁مفصلة	-10.473963
▁اليونسكو	-10.474712
▁الصعب	-10.475004
▁وحسب	-10.475268
▁سحب	-10.475505
▁النفس	-10.475558
▁والهند	-10.476035
▁المعتمد	-10.476192
▁الاحتفاظ	-10.476357
▁مكررا	-10.476681
▁والن	-10.477228
▁واصلت	-10.477983
▁وأي	-10.478251
▁المس	-10.478343
▁الوقائية	-10.478872
لدى	-10.478964
▁يبين	-10.479100
▁إشارة	-10.479128
يرا	-10.479309
-6	-10.479399
▁بالإنكليزية	-10.479753
▁الهوية	-10.479931
▁القطاعين	-10.480402
▁نموذج	-10.481332
▁وجزر	-10.482033
▁التعريف	-10.482077
▁أوضاع	-10.482927
▁الاستمرار	-10.482948
▁ترتيب	-10.482999
▁يحث	-10.483795
▁تمتع	-10.484270
▁الاقتراحات	-10.484473
▁بالبشر	-10.484682
راد	-10.485023
▁يتعرض	-10.485086
▁شديدة	-10.485611
▁بالدول	-10.485904
▁ووكالات	-10.486663
▁تتألف	-10.486754
ur	-10.487628
▁أسواق	-10.487662
▁الضعف	-10.488263
▁الأربعاء	-10.488553
▁منصب	-10.488640
▁ٱلت	-10.488774
▁رسم	-10.488842
▁وتعمل	-10.489025
▁أعد	-10.489513
▁تكرر	-10.489961
▁جماعة	-10.490026
▁المتزايد	-10.490061
▁21-	-10.490196
▁الضعيفة	-10.490553
▁تجديد	-10.490656
▁وعمل	-10.490668
رار	-10.491629
▁أصدرت	-10.491649
كا	-10.492063
▁كوستاريكا	-10.492430
▁تمس	-10.492554
غير	-10.492979
▁ظاهرة	-10.493191
▁يوافق	-10.493525
▁والخاص	-10.493770
▁الأجور	-10.493901
▁الاست	-10.494472
▁الحقيقي	-10.494530
راء	-10.494869
O	-10.495393
▁الز	-10.495510
▁المصابين	-10.495536
▁اعتراض	-10.495540
▁الك	-10.495663
▁الماس	-10.495984
▁للأ	-10.496722
▁وعملية	-10.496994
▁والمصالحة	-10.497869
▁يترتب	-10.497900
▁بطرق	-10.498102
▁بمشروع	-10.498288
▁معقولة	-10.499079
رق	-10.499118
▁مونتريال	-10.499247
كو	-10.499321
▁يتولى	-10.499328
▁يعقد	-10.500310
▁نووية	-10.500336
▁بالتجارة	-10.500346
▁أوضح	-10.500459
▁بالمسؤولية	-10.500530
تعبئة	-10.500642
▁المضي	-10.501885
ارة	-10.501919
▁التسوية	-10.501942
▁التزاماتها	-10.502358
▁اختتام	-10.502543
▁صعوبات	-10.502675
▁المبيع	-10.502686
وك	-10.502807
▁المرسوم	-10.503856
▁الوقائع	-10.505384
▁ثنائي	-10.505445
▁ومركز	-10.505650
▁النصف	-10.505795
▁والمعايير	-10.505965
للاطلاع	-10.506400
00	-10.507221
/11	-10.507234
لات	-10.507328
▁الرفيعة	-10.507575
▁بموجبه	-10.507620
▁إحالة	-10.507776
81	-10.507830
▁يقدمها	-10.507900
▁والس	-10.508012
▁لغرض	-10.508338
▁تقاريرها	-10.508353
▁يضم	-10.508680
▁الردود	-10.508687
▁الطارئة	-10.508724
▁مرور	-10.508968
▁أسس	-10.509465
▁البدنية	-10.509856
خر	-10.509876
▁نسمة	-10.510055
71	-10.510500
نغ	-10.510889
▁واعتماد	-10.511128
il	-10.511369
▁حكومتي	-10.511764
▁وربما	-10.512480
▁معنية	-10.512609
▁شهادة	-10.512613
▁منهما	-10.512709
سن	-10.512996
▁الزمنية	-10.513303
قدت	-10.513355
▁النشر	-10.513398
عدة	-10.513705
ch	-10.513770
▁الأعلى	-10.513891
▁القليلة	-10.514458
▁الديمقراطي	-10.515740
▁بالإسبانية	-10.515860
▁وفرنسا	-10.516580
91	-10.516602
▁55/2	-10.516725
▁المهتمة	-10.517056
▁الموقف	-10.517168
▁المستحقة	-10.517250
ta	-10.517951
▁ٱلر	-10.518040
▁بعقد	-10.518053
▁السيادة	-10.518081
▁خيارات	-10.518085
▁85	-10.518227
▁وضعها	-10.518605
▁قصيرة	-10.518748
▁التقيد	-10.518875
▁أسرهم	-10.519088
▁للولايات	-10.519197
▁الترجمة	-10.519307
as	-10.519348
▁700	-10.519917
▁يبذلها	-10.520473
▁بتحديد	-10.520817
▁للأغذية	-10.521049
▁مادة	-10.521172
▁لصندوق	-10.521211
▁ونظم	-10.521585
▁والفقر	-10.521668
▁زمنية	-10.521907
▁وبغية	-10.521935
▁للأمانة	-10.521986
▁تحديث	-10.522301
▁حصة	-10.522677
is	-10.522906
▁واستعراض	-10.523203
▁قيود	-10.523448
▁الوطن	-10.523564
▁واستنادا	-10.523904
/57/	-10.523959
▁الإشراف	-10.524025
▁سو	-10.524258
▁العنوان	-10.524453
رابطة	-10.524674
▁الصليب	-10.524881
▁المستدام	-10.524932
▁والق	-10.525223
▁ونظام	-10.525932
▁وحدها	-10.526233
▁وأوضح	-10.526635
▁والنقل	-10.526831
▁صيغة	-10.527020
▁الآسيوية	-10.527722
▁٢٠	-10.527781
HRC	-10.528155
▁ويكون	-10.528947
▁يخضع	-10.529062
▁لإقامة	-10.529157
▁الحديثة	-10.530018
▁مونتيري	-10.530041
▁ومبادئ	-10.530916
▁يساور	-10.530967
▁لتطوير	-10.531044
▁هاتين	-10.531648
▁تتوفر	-10.531681
▁الاقتصادات	-10.531897
54	-10.532359
▁المرور	-10.532688
33	-10.533441
هيئة	-10.533978
▁متزايدة	-10.534036
▁الكشف	-10.534183
▁ويتمثل	-10.534649
عرض	-10.534692
▁الإجمالية	-10.534966
▁ومشروع	-10.534969
رش	-10.535060
▁تبرعات	-10.535346
▁مقبول	-10.536599
57	-10.536915
▁فصل	-10.537431
ولا	-10.537607
▁وعي	-10.537614
دد	-10.538131
▁والتحديات	-10.538412
▁والمنظمة	-10.538630
▁أمثلة	-10.538757
▁اقتصاد	-10.538925
ضع	-10.539187
▁الأطلسي	-10.539362
▁الفرنسية	-10.539558
▁ديسمبر	-10.539865
▁والجهات	-10.539892
▁المتعاقدة	-10.540277
▁العرقية	-10.540397
▁العيش	-10.540626
▁السيطرة	-10.541069
▁واضحا	-10.541081
02	-10.541435
▁الإلزامية	-10.541528
▁لوقف	-10.541586
مشكلة	-10.541727
رى	-10.542305
▁وآليات	-10.542377
▁الشرعية	-10.542615
▁قراراتها	-10.542701
▁والاستثمار	-10.542742
زاع	-10.542847
▁وتتضمن	-10.543042
▁شاملا	-10.543358
▁وموظفي	-10.543406
▁78	-10.543643
▁(6)	-10.544464
▁للتربية	-10.544906
▁سلاح	-10.545000
▁شركاء	-10.545194
▁بإجراءات	-10.545328
▁البلاغات	-10.545395
▁تدمير	-10.545723
▁تصرف	-10.545924
▁والإدارية	-10.545964
▁يحقق	-10.546125
▁تحسن	-10.546790
44	-10.546891
▁مدونة	-10.547129
▁لحل	-10.547178
▁الحقيقية	-10.547302
▁إليهم	-10.547359
▁التوفيق	-10.547409
48	-10.547447
▁بهما	-10.547791
▁النارية	-10.547823
▁معه	-10.548347
▁الفجوة	-10.548408
داء	-10.548412
Sub	-10.548448
▁اضطلعت	-10.548448
▁الأربعة	-10.548559
آلاف	-10.549194
▁الاختفاء	-10.549517
▁23-	-10.550313
62	-10.550481
▁22-	-10.550765
▁يواجه	-10.550855
▁إحصاءات	-10.551650
▁مبالغ	-10.551786
▁مقترح	-10.552136
▁يرغب	-10.552619
▁لنزع	-10.552765
le	-10.552866
▁دعمها	-10.553069
▁بالأنشطة	-10.553149
▁وأثناء	-10.553179
▁إي	-10.553720
يتش	-10.553890
▁البغاء	-10.553932
▁الحيوية	-10.554342
▁الوظيفة	-10.555170
كافة	-10.555307
▁فعالا	-10.555317
▁للمقرر	-10.555427
▁التعرض	-10.555649
▁ويؤكد	-10.555876
▁الأربع	-10.556205
قاعدة	-10.556279
W	-10.556701
▁المضطلع	-10.556834
▁تلقى	-10.557096
▁لحالات	-10.557559
▁العقلية	-10.557581
▁لديه	-10.557701
▁واقترح	-10.557739
نظر	-10.558642
▁اس	-10.559108
▁زاد	-10.559281
▁وبعض	-10.559372
▁تصنيف	-10.559592
▁السنغال	-10.559821
▁وش	-10.560666
▁كلها	-10.560720
▁الضرورة	-10.560949
▁وعقد	-10.560988
▁السكانية	-10.561105
▁ساعة	-10.561378
▁الفوائد	-10.561482
▁المعمول	-10.561664
▁الصناعة	-10.561711
▁وشدد	-10.562012
▁الارتياح	-10.562036
▁يعرف	-10.562995
▁يمكننا	-10.563019
▁الأشهر	-10.563033
▁تدفع	-10.563170
لين	-10.563829
▁الجملة	-10.564037
▁In	-10.564053
▁قادة	-10.564530
▁للوكالة	-10.564530
اض	-10.565484
▁أنشئ	-10.565619
▁الإجرائية	-10.565732
▁لتنظيم	-10.565883
▁تجنب	-10.566064
▁عاجلة	-10.566135
▁السرعة	-10.566223
منشورات	-10.566287
حد	-10.566348
▁لتبادل	-10.566903
▁مثال	-10.567424
▁نود	-10.567658
▁المحدودة	-10.568300
▁بالرغ	-10.568483
▁re	-10.568583
▁يقتضي	-10.568761
▁2010	-10.568795
▁وفيات	-10.569155
يها	-10.569552
عمل	-10.570180
78	-10.570833
▁الإرادة	-10.570894
▁سعادة	-10.570899
▁لتقرير	-10.570909
▁الاتساق	-10.570973
▁المصارف	-10.571054
▁الضفة	-10.571528
▁وقواعد	-10.571568
▁المزمع	-10.571702
▁الرئاسة	-10.571722
▁بلغاريا	-10.572484
▁السجناء	-10.572676
▁("	-10.572742
▁Re	-10.572831
99	-10.572989
▁الثلاثاء	-10.573421
▁وعملا	-10.573642
▁مناسبا	-10.573692
▁تكافؤ	-10.573795
64	-10.574343
▁وتدريب	-10.574403
▁الفقرتان	-10.574481
▁وحكومة	-10.575252
▁اله	-10.575503
▁تحديا	-10.575994
قي	-10.576075
▁التأثير	-10.576426
▁تعيش	-10.576692
▁ابن	-10.576770
طل	-10.576778
▁رو	-10.577029
43	-10.577677
عيد	-10.578002
▁متطلبات	-10.578009
تكم	-10.578029
▁والديمقراطية	-10.578574
▁وجهة	-10.578700
▁وممثلي	-10.579068
▁الإطلاق	-10.579103
▁المدين	-10.579352
▁التهديدات	-10.579641
▁ولو	-10.579928
▁تفويض	-10.580046
▁الضارة	-10.580102
▁تحصل	-10.580163
▁يضمن	-10.580499
▁ريو	-10.580555
▁وإصلاح	-10.580559
▁اعتمدته	-10.581168
▁بالسجن	-10.581186
▁حديثا	-10.581838
ia	-10.582125
يتي	-10.583064
▁يمكنها	-10.583372
▁ضروري	-10.583504
▁الدائمين	-10.583612
▁النظيفة	-10.583818
▁1996،	-10.583987
▁النواتج	-10.584113
▁تساهم	-10.584218
▁بتوافق	-10.584464
▁أوروغواي	-10.584771
▁لإعلان	-10.585227
▁شراء	-10.585313
▁والرجل	-10.585485
▁الخمسة	-10.585647
▁87	-10.585661
▁بالتقدم	-10.586025
▁للتجارب	-10.586091
▁s	-10.586182
▁الحوادث	-10.586439
▁بتعيين	-10.587011
▁الأماكن	-10.587171
▁استنفاد	-10.587373
▁حذف	-10.587533
▁القتل	-10.587566
▁النقاط	-10.587870
68	-10.587949
▁والتكنولوجية	-10.588606
id	-10.588728
▁إثبات	-10.588912
61	-10.588960
▁للمشاريع	-10.589764
▁صعوبة	-10.589799
▁أراضيها	-10.589899
▁الإبقاء	-10.590000
▁إريتريا	-10.590010
انية	-10.590324
▁ام	-10.590560
▁الان	-10.591378
▁لاحتياجات	-10.591517
▁والنرويج	-10.591665
▁والمقرر	-10.592356
صر	-10.592405
▁مستدامة	-10.592703
▁مسؤوليات	-10.592775
▁قائم	-10.592834
▁منتجات	-10.592837
at	-10.592940
▁العلمي	-10.593133
▁ويبدو	-10.593342
▁لأقل	-10.594378
93	-10.594493
▁وتلك	-10.594495
.1.	-10.594697
▁ذا	-10.594730
▁يعانون	-10.594822
▁للرئيس	-10.595210
▁الأمني	-10.595371
▁ليوغوسلافيا	-10.595395
▁ملكية	-10.595412
▁تتفق	-10.595488
▁24-	-10.595580
▁اسرائيل	-10.595675
▁لضحايا	-10.595768
▁يدفع	-10.595957
دعى	-10.596392
▁إيرادات	-10.596459
▁الأمية	-10.596643
▁ثانية	-10.596803
85	-10.596984
▁قليلة	-10.597765
▁الدنيا	-10.597942
▁الأسرية	-10.598418
▁تدريجيا	-10.598438
▁79	-10.598529
▁ديربان	-10.598557
.,	-10.598618
▁المحتجزين	-10.598732
▁والمساءلة	-10.598743
▁المعاشات	-10.598783
▁لآسيا	-10.598983
▁تشاد	-10.599467
Corr	-10.599504
▁سبعة	-10.599943
▁المفيد	-10.600155
K	-10.600245
▁موظفو	-10.600406
▁مس	-10.600490
▁جهودا	-10.600549
▁للسياسات	-10.600575
▁الأخطار	-10.600722
▁لمنطقة	-10.600935
▁وبالمثل	-10.601436
▁جهوده	-10.601535
▁المستأنفة	-10.601670
▁لأعضاء	-10.602017
▁للمستوطنات	-10.602067
▁تدفقات	-10.602069
▁حزب	-10.602253
▁أحيانا	-10.602300
▁للمعايير	-10.602408
▁استهلاك	-10.602445
▁إلي	-10.602686
▁أعداد	-10.602944
▁آخرون	-10.603324
▁للعنف	-10.603789
عر	-10.604023
▁لأمريكا	-10.604631
▁اعتمده	-10.604793
▁اللاتي	-10.604810
▁السجل	-10.604972
▁تعرف	-10.605019
ٱ	-10.605624
▁العادل	-10.605644
▁لعدد	-10.605920
89	-10.606309
▁بصفتها	-10.606537
▁الدفيئة	-10.606661
▁غنى	-10.606987
▁إمكانيات	-10.607162
▁رفيع	-10.607231
▁يعيش	-10.607884
▁المحفل	-10.607967
▁يقضي	-10.607990
▁الأصل	-10.608174
▁فنزويلا	-10.608261
▁فما	-10.608908
▁تتاح	-10.609403
▁00/13	-10.609436
77	-10.609550
▁عمر	-10.609642
▁دواعي	-10.609701
▁بالضرورة	-10.609839
▁عقده	-10.609843
▁بتطبيق	-10.610062
▁تهديدا	-10.610125
▁والحماية	-10.610135
▁إليكم	-10.610192
▁صدرت	-10.610374
▁وإدارتها	-10.610495
▁لجهود	-10.610642
▁اذ	-10.610766
▁أغلبية	-10.611410
▁جيش	-10.611810
▁بالالتزامات	-10.611862
▁أزمة	-10.612370
▁التنقل	-10.613536
▁جنسية	-10.613791
▁لحساب	-10.613826
▁الصورة	-10.614117
▁الأرقام	-10.614162
▁يست	-10.614176
حي	-10.614797
▁مخصصة	-10.614921
سم	-10.615040
لوفاء	-10.615777
▁تعترض	-10.615872
▁ودول	-10.617576
▁بالبيئة	-10.617726
ئة	-10.617779
42	-10.617832
▁وإنهاء	-10.618166
▁81	-10.618302
▁بالمقارنة	-10.618584
▁مست	-10.618709
▁متكاملة	-10.618788
▁للاطلاع	-10.619035
▁عالميا	-10.619663
▁السياحة	-10.619724
سون	-10.620131
▁استقلال	-10.620311
▁طائرة	-10.620360
▁والموظفين	-10.620418
ذكر	-10.620507
▁الملك	-10.620767
▁والمكسيك	-10.620853
▁تجاوز	-10.621117
▁تمنح	-10.621163
▁ومؤتمرات	-10.621387
يز	-10.621582
▁ومؤتمر	-10.621603
▁أصول	-10.621607
/12	-10.621921
جاب	-10.621922
38	-10.621961
▁والمشردين	-10.622048
▁بالمساواة	-10.622400
▁الموجه	-10.622480
▁الرسائل	-10.622482
توقع	-10.622703
me	-10.622863
▁المكان	-10.622869
▁الإناث	-10.622948
▁الجدار	-10.623118
ad	-10.623124
▁منتظم	-10.623322
▁قيمتها	-10.623481
▁وصل	-10.624119
73	-10.624158
▁المتصل	-10.624204
▁الحلول	-10.624454
▁بالحاجة	-10.624552
▁الطوعية	-10.624793
▁قوي	-10.624858
▁نهجا	-10.625330
▁ثقة	-10.625694
▁والمجتمعات	-10.626111
▁لرئيس	-10.626203
▁الضماني	-10.626250
▁ازدياد	-10.626300
▁لك	-10.626586
▁لرواندا	-10.626658
▁التنافسية	-10.626711
▁تثير	-10.626726
▁الأمد	-10.626987
▁الستة	-10.627196
▁يستمر	-10.627580
▁استكشاف	-10.628085
▁تقدمه	-10.628350
تكلمت	-10.628402
▁موحدة	-10.628466
▁1995،	-10.628621
▁المئوية	-10.628703
▁تلقت	-10.628709
▁الزمن	-10.628958
▁كازاخستان	-10.629182
▁توصل	-10.629233
▁للبلد	-10.629396
▁المستديرة	-10.629595
▁83	-10.629629
▁كوسيلة	-10.629707
▁تكثيف	-10.629741
▁وقرار	-10.629761
▁الثقافات	-10.629892
76	-10.629895
▁ملتزمة	-10.630285
▁95	-10.630313
زا	-10.630632
▁والمرافق	-10.630699
▁الجزيرة	-10.630880
▁بقلق	-10.630990
حم	-10.631344
▁للشرطة	-10.631382
سام	-10.631583
طلق	-10.631721
▁بصرف	-10.631794
ًّ	-10.632096
▁مش	-10.632766
دية	-10.632895
▁سلوفينيا	-10.632934
طبيعة	-10.633089
فض	-10.633645
▁ممتنا	-10.633739
▁الطبيعة	-10.633804
▁كتاب	-10.633824
▁البحرين	-10.634472
▁أحدث	-10.634591
▁82	-10.634754
▁الإمكان	-10.634783
▁لبلدان	-10.634968
▁يغطي	-10.635596
▁غرار	-10.635724
▁بإمكان	-10.635861
▁عنوان	-10.635935
59	-10.636156
▁تترتب	-10.636497
▁لدور	-10.636736
▁بعين	-10.636773
▁وأعمال	-10.636813
▁مجتمعات	-10.636827
▁وإنتاج	-10.636890
▁المستند	-10.637007
▁حملات	-10.637104
▁25-	-10.637302
▁يقد	-10.637691
▁تظهر	-10.637797
▁ويشير	-10.637814
▁تقديمها	-10.637823
▁وسياسات	-10.637845
▁مماثل	-10.638370
63	-10.638378
▁والمشاريع	-10.638401
▁حصل	-10.638424
▁حكومته	-10.638429
▁وتشغيل	-10.638858
▁الصحيح	-10.638880
▁تبقى	-10.639024
87	-10.639369
▁خبرة	-10.639496
▁التجارب	-10.639522
▁الجنود	-10.639957
▁الإعداد	-10.640023
▁ٱلش	-10.640157
▁للحكومات	-10.640159
▁دو	-10.640273
▁رفعت	-10.640306
▁المجتمعية	-10.640574
▁إذن	-10.640803
▁الكاميرون	-10.640927
▁المدقع	-10.640972
جرى	-10.641414
▁الحر	-10.641549
▁تنقل	-10.641805
▁ودور	-10.642026
▁يعرض	-10.642053
▁وجوب	-10.642274
▁الل	-10.642498
▁الخط	-10.643193
▁والقيام	-10.643338
▁يتحقق	-10.643559
▁المحاسبية	-10.643666
▁بازل	-10.643695
ro	-10.643752
▁مدتها	-10.643858
قيادة	-10.644199
▁مولدوفا	-10.644279
▁شفوية	-10.644576
▁لشعب	-10.644608
خط	-10.645432
▁الدائنين	-10.645455
▁الأقصى	-10.645725
▁تستمر	-10.645808
▁للمبادئ	-10.646029
▁التفاعل	-10.646063
▁أمل	-10.646450
▁بمكان	-10.646675
▁الاتحادي	-10.646813
▁88	-10.647083
▁كلما	-10.647119
▁الملقاة	-10.647601
▁اعتباره	-10.647982
▁مرض	-10.648334
▁إرسال	-10.648547
06	-10.648597
▁الأفغانية	-10.648674
▁مقبولة	-10.648956
▁ويدعو	-10.649302
▁وجهات	-10.649423
▁القوى	-10.649534
▁الاندماج	-10.649749
▁الأسعار	-10.649795
/5	-10.649802
▁vol	-10.650254
▁الجماهيرية	-10.650568
▁بنقل	-10.650585
▁أحرز	-10.650644
▁والجبل	-10.650707
▁جنائية	-10.651112
▁فع	-10.651368
▁شملت	-10.651523
▁وفعالية	-10.651692
▁مسار	-10.651693
▁84	-10.651842
▁العاصمة	-10.651936
▁26-	-10.651977
▁وإننا	-10.652138
▁واعتمد	-10.652383
▁الصياغة	-10.652473
▁الجهد	-10.652603
▁للمراقبة	-10.652651
▁والواقع	-10.652702
▁إسهاما	-10.652844
▁جامايكا	-10.652915
المعترف	-10.652966
▁رؤية	-10.653171
▁والاقتصادي	-10.653512
▁الوزارة	-10.653850
مستوى	-10.654429
▁معين	-10.654821
▁قضاة	-10.655228
▁التقييمات	-10.655468
▁أوزبكستان	-10.655634
▁ويعمل	-10.655690
67	-10.655692
▁مساعد	-10.655833
▁التخلص	-10.656092
▁والبنك	-10.656222
72	-10.656443
84	-10.657042
▁استعادة	-10.657142
▁والالتزامات	-10.657165
▁l	-10.657585
▁تقتضي	-10.657615
▁السويدية	-10.657998
▁لمجموعة	-10.658295
▁توعية	-10.658812
▁السوري	-10.659333
جد	-10.659334
▁أنظمة	-10.659380
▁ارتكبت	-10.659504
▁الكفيل	-10.659565
▁الدستوري	-10.659648
▁إنمائية	-10.659681
▁الدعوى	-10.660182
▁غانا	-10.660199
▁التشجيع	-10.660484
▁هنغاريا	-10.660554
▁الست	-10.660739
▁الدومينيكية	-10.660862
▁للأونكتاد	-10.661015
▁لاهاي	-10.661366
▁ضحية	-10.661372
▁أجري	-10.661558
▁والبيانات	-10.661862
▁الواجبة	-10.661911
▁الحاشية	-10.662280
92	-10.662673
هاء	-10.662917
▁ساعات	-10.663169
▁وباء	-10.663242
▁للأعمال	-10.663436
▁تتعرض	-10.663461
زال	-10.663646
▁et	-10.663893
▁والاتصال	-10.664040
▁واقع	-10.664205
▁ببرنامج	-10.664566
▁98	-10.665417
▁رب	-10.665499
01	-10.665557
▁بيانا	-10.665654
▁بمسائل	-10.666026
طب	-10.666145
بار	-10.666497
▁القوي	-10.666612
لتلبية	-10.666633
بال	-10.666674
▁الشروع	-10.666841
رك	-10.666864
▁الاغتصاب	-10.666987
▁والنهوض	-10.667030
▁الادعاء	-10.667140
ter	-10.667620
▁مفتوح	-10.668021
اتهم	-10.668026
▁بالنساء	-10.668513
▁المقد	-10.668984
▁التضامن	-10.669713
▁بالصحة	-10.669870
▁بالموضوع	-10.669926
وص	-10.670104
سداء	-10.670286
▁ممكنة	-10.670348
▁الماء	-10.670482
▁تثبت	-10.670563
▁العابرة	-10.670596
▁العشر	-10.670606
▁قراري	-10.671001
▁بش	-10.671204
▁إجازة	-10.671248
▁وجدت	-10.671371
▁أوساط	-10.671447
▁سيجري	-10.671566
▁with	-10.671581
بط	-10.672091
▁نعتقد	-10.672447
▁فوائد	-10.672753
▁عادل	-10.673011
▁الموعد	-10.673096
▁طلبا	-10.673366
▁المنشورات	-10.673383
J	-10.673706
▁التصدير	-10.673844
▁بالاتفاقية	-10.674069
05	-10.674131
▁الشبكات	-10.674457
▁بعبارة	-10.674547
▁للمكتب	-10.674589
47	-10.674850
▁وضعتها	-10.675006
▁بنظام	-10.675315
▁الرشيد	-10.675682
▁بطلب	-10.675867
▁عادلة	-10.676087
▁كثب	-10.676224
▁لإيجاد	-10.676873
وث	-10.677052
فو	-10.677150
▁العضو	-10.677301
▁الأكبر	-10.678129
▁اقت	-10.678141
دوا	-10.678227
▁المخطط	-10.678228
▁كشف	-10.678314
▁Human	-10.678326
▁المصرفية	-10.678388
▁اشتراك	-10.678834
▁المساعد	-10.679190
عرف	-10.679363
▁كتب	-10.679694
قطع	-10.679962
▁ماذا	-10.680434
وها	-10.680771
▁لحكومة	-10.681026
▁بالدور	-10.681098
▁الوفيات	-10.682023
▁مؤقت	-10.682231
كس	-10.682418
▁توطيد	-10.682516
▁دوائر	-10.682894
▁الذخائر	-10.682914
▁مشروعا	-10.683019
▁عمليا	-10.683769
▁رسائل	-10.683844
▁تمارس	-10.684059
▁الأمهات	-10.684185
▁تنشيط	-10.684321
▁تعني	-10.684578
▁ونأمل	-10.684617
▁المفهوم	-10.685635
▁الإسكان	-10.686206
▁ردود	-10.686331
▁تسهيل	-10.686338
▁متكامل	-10.686395
/13	-10.687834
ent	-10.687912
داد	-10.688443
▁القتال	-10.688517
▁الختام	-10.688828
▁الأنظمة	-10.689036
▁أسبوع	-10.689064
▁سنغافورة	-10.689180
▁27-	-10.689200
▁صحية	-10.689220
▁الموئل	-10.689817
94	-10.689989
▁إنما	-10.689992
▁صور	-10.690247
▁اجتماعا	-10.690331
▁التعيين	-10.690499
▁كافيا	-10.691384
▁ترجمة	-10.691730
▁900	-10.692349
▁نطاقا	-10.692904
97	-10.693096
▁لممثل	-10.693369
▁غازات	-10.693440
▁الجمارك	-10.693464
▁تجمع	-10.693985
▁والأشخاص	-10.694069
▁مصرف	-10.694350
▁مسؤول	-10.694358
04	-10.694961
▁v	-10.695061
▁الثقافة	-10.695478
▁العالية	-10.695577
▁86	-10.695775
▁المفتوحة	-10.695801
▁وتعتبر	-10.695898
▁مراقب	-10.695966
دور	-10.696028
▁ومساعدة	-10.696061
▁وتدمير	-10.696253
▁الحساب	-10.696648
▁الدورية	-10.696737
os	-10.696753
▁ملائم	-10.696801
▁تجهيز	-10.697315
ظم	-10.697689
▁عدا	-10.697734
é	-10.697761
▁فرعية	-10.698101
▁والرصد	-10.698259
/19	-10.698462
▁وتوفر	-10.698492
دفع	-10.698700
▁مستمر	-10.699059
▁المرونة	-10.699183
▁تحققت	-10.699652
▁وإعلان	-10.700007
▁الجمركية	-10.700105
يكا	-10.700136
▁وتتمثل	-10.700313
▁تعقدها	-10.700889
ائر	-10.701113
▁ووزارة	-10.701342
الصورة	-10.701572
▁توحيد	-10.701759
▁بالعنف	-10.701847
▁بمسؤولية	-10.701926
▁تحكم	-10.702004
▁زادت	-10.702072
▁تدعيم	-10.702388
▁التسعينات	-10.702692
▁التجربة	-10.702766
▁النصوص	-10.702812
▁تدفق	-10.702901
▁والشفافية	-10.703219
▁ثنائية	-10.703477
▁استثنائية	-10.704260
▁ضروريا	-10.704381
▁والإرهاب	-10.704465
▁as	-10.704923
▁مسبقا	-10.704971
▁بوركينا	-10.705150
▁ويعتبر	-10.705191
▁محاكم	-10.705354
رسل	-10.706420
وري	-10.706556
▁انبعاثات	-10.706608
▁لإصلاح	-10.706626
▁تحفظ	-10.706927
la	-10.706938
▁الروابط	-10.707055
▁ممثلا	-10.707292
▁لكنها	-10.707355
▁وط	-10.707576
03	-10.707633
▁اتخذه	-10.707916
▁الانتهاء	-10.708077
عا	-10.708105
▁خطاب	-10.708189
▁اسمحو	-10.708191
88	-10.708318
▁الناجم	-10.708888
-10	-10.709547
▁التفويض	-10.709786
▁المحاسبة	-10.709969
▁حوادث	-10.710240
▁البدء	-10.710777
▁للرصد	-10.710801
سير	-10.711063
▁الأهلية	-10.711066
▁الأمثلة	-10.711149
▁القريب	-10.711241
▁شريطة	-10.711312
▁التفاصيل	-10.711529
07	-10.711533
▁المقررات	-10.712140
▁للأمن	-10.712189
▁طن	-10.712290
سا	-10.712494
▁العلوم	-10.712757
▁أسرة	-10.713046
ment	-10.713239
▁موجزة	-10.713943
وإذ	-10.714105
▁مو	-10.714150
▁المعنونة	-10.714264
▁إرساء	-10.714774
▁صناعة	-10.714817
صد	-10.715309
▁زاي	-10.715663
▁فحص	-10.716232
تهيئة	-10.716467
▁الإيجابي	-10.716732
▁الفيروس	-10.717294
▁تنفيذه	-10.717294
▁المنهجية	-10.717469
صياغة	-10.717856
▁أمنية	-10.718322
▁فإذ	-10.718557
٠	-10.718590
▁وفريق	-10.718929
رج	-10.719092
▁التلوث	-10.719127
96	-10.719275
▁الحاسمة	-10.719345
▁الشحن	-10.719436
▁الإجرامية	-10.719698
ائهم	-10.719713
▁تابع	-10.720146
▁حقيقي	-10.720380
▁تهدد	-10.720619
▁ونود	-10.720755
دخل	-10.720844
▁التأخير	-10.721333
ينا	-10.721588
▁وتمكين	-10.721990
▁الكاريبية	-10.722050
علن	-10.722556
▁خلق	-10.722670
▁المتأثرة	-10.723080
▁أفادت	-10.723389
▁العرب	-10.723571
▁للتصرف	-10.723730
▁بالمساعدة	-10.723862
▁المركبات	-10.723983
الأصل	-10.724015
ul	-10.724949
▁القومية	-10.725317
▁خلالها	-10.725318
▁be	-10.725656
▁وسن	-10.725863
▁قدراتها	-10.726101
ظهر	-10.726167
▁البن	-10.726368
▁احتجاز	-10.726420
▁سليمة	-10.726836
▁بالتدابير	-10.726881
▁الأخضر	-10.727151
ol	-10.727201
▁العديدة	-10.727627
▁المع	-10.728072
▁استشاري	-10.728115
▁العجز	-10.728213
بناء	-10.728230
▁ألبانيا	-10.728321
2000	-10.728644
▁والد	-10.728686
▁الأكاديمية	-10.728977
▁لأجل	-10.729190
▁تعود	-10.730219
▁89	-10.730239
▁محدود	-10.730283
▁صفحة	-10.730440
▁تعتزم	-10.730653
▁فقر	-10.730739
▁٢٢	-10.730742
▁تعاطي	-10.730762
▁ومضى	-10.731247
▁الأديان	-10.731296
▁وتمويل	-10.731335
▁لدينا	-10.731502
▁كبرى	-10.731673
▁لماذا	-10.731806
▁ٱ	-10.731968
▁ببعض	-10.732191
▁ثمانية	-10.732444
▁تجارة	-10.733239
▁دورية	-10.733352
▁إبداء	-10.733530
▁الإثنية	-10.733547
▁الادعاءات	-10.733631
▁28-	-10.735201
86	-10.735645
▁حيازة	-10.735736
▁أحداث	-10.736076
▁سداد	-10.736324
▁يسعى	-10.736493
▁للغابات	-10.737694
▁سلوفاكيا	-10.737893
▁جوهانسبرغ	-10.738440
▁00/18	-10.738531
v	-10.738878
▁التطور	-10.739100
▁ردا	-10.739237
▁السلفادور	-10.739319
▁تفرض	-10.739581
▁الثانوية	-10.739893
▁والحكم	-10.739964
▁سادسا	-10.740025
▁لاعتماد	-10.740079
▁٢٤	-10.740232
▁وتكنولوجيا	-10.740491
▁والجمعية	-10.740768
ion	-10.740784
▁الفور	-10.740861
▁مرات	-10.740919
▁للتحديات	-10.741061
▁باعتبار	-10.741823
▁أعمارهم	-10.742635
ران	-10.742767
▁الطبي	-10.743132
▁الطفولة	-10.743343
يش	-10.743772
▁تفاقم	-10.743855
آ	-10.744022
▁ونعتقد	-10.744547
▁قصد	-10.744561
▁والعمليات	-10.744810
▁بالسياسات	-10.745079
▁القادة	-10.745129
سو	-10.745169
▁التسامح	-10.745612
ادة	-10.745686
▁ٱلن	-10.745778
▁الطبيعي	-10.746112
▁قليل	-10.746125
▁السير	-10.747228
/9	-10.747309
▁اضطلع	-10.747392
▁التحالف	-10.747699
▁والمياه	-10.747824
▁فرادى	-10.748077
▁فنية	-10.748147
51	-10.748287
▁تعليمات	-10.748507
▁مضى	-10.748785
▁ٱلس	-10.748993
▁أولى	-10.749269
▁تسبب	-10.749335
▁قريبا	-10.749359
▁يتألف	-10.749658
▁تحل	-10.749819
▁العملي	-10.750324
قبل	-10.750515
▁المنقح	-10.750648
▁وعرض	-10.750696
▁بالقانون	-10.750934
▁التفكير	-10.751207
▁يثبت	-10.751218
▁وباكستان	-10.751653
وة	-10.751833
▁الميثيل	-10.751877
▁للاتصالات	-10.752110
شار	-10.752387
▁أس	-10.753333
▁أنشأ	-10.753474
ir	-10.753521
▁أولية	-10.753741
▁انا	-10.753968
▁بنن	-10.754005
▁المعدلة	-10.754061
▁97	-10.754234
كن	-10.754353
▁إيجابي	-10.754407
▁الممتدة	-10.754425
-8	-10.754626
▁92	-10.754745
▁بديلة	-10.754757
▁تنشئ	-10.754831
▁تفادي	-10.754919
▁حددت	-10.755031
▁المتهمين	-10.755056
II	-10.755089
▁البقاء	-10.755234
▁الطرفان	-10.755438
▁وجد	-10.755443
▁يعاني	-10.755461
▁وأيضا	-10.755548
▁يمارس	-10.755884
المقرر	-10.756148
▁(000	-10.756489
▁بزيارة	-10.756663
▁للاجتماع	-10.756707
▁تأهيل	-10.757251
▁بيئيا	-10.757323
▁الآونة	-10.757441
▁بالإجراءات	-10.757500
▁حث	-10.757792
▁الجمعيات	-10.757994
▁بكامل	-10.758269
▁زامبيا	-10.758343
▁بغض	-10.758362
▁العراقي	-10.758530
تعهد	-10.758572
82	-10.758713
▁30-	-10.758780
▁اتصالات	-10.759302
▁الاعتبارات	-10.759347
▁التحول	-10.759560
CO	-10.759677
▁حي	-10.759932
يتين	-10.759950
▁المائدة	-10.760015
▁قر	-10.760312
▁لكنه	-10.760435
▁للمؤسسات	-10.760486
▁تستفيد	-10.760509
▁والج	-10.760684
el	-10.761405
▁للتصويت	-10.761471
▁الرصيد	-10.761850
آلية	-10.762187
▁الجفاف	-10.762369
▁والوطنية	-10.762425
▁التنظيمي	-10.762548
▁لجعل	-10.762827
▁الانشطارية	-10.762860
▁وفعالة	-10.763531
▁بقانون	-10.763551
▁الأرصدة	-10.763633
▁كنا	-10.763782
▁تفي	-10.763800
▁للحسابات	-10.763833
▁تتبع	-10.763876
▁91	-10.763991
09	-10.764188
غالبية	-10.764450
▁بوليفيا	-10.764451
▁الأوسع	-10.764623
▁إدخالها	-10.764653
▁بدل	-10.764679
▁والجماعات	-10.764686
▁الحضارات	-10.764732
▁المتزايدة	-10.764962
▁الأبعاد	-10.764991
▁للتحقيق	-10.765079
▁وتكون	-10.765147
▁تشريعية	-10.765290
▁وإريتريا	-10.765547
▁بأقل	-10.765723
▁الواسعة	-10.765730
▁لقرارات	-10.765905
▁يقتصر	-10.766294
▁موجودة	-10.766392
▁خصوصا	-10.766404
▁المختلطة	-10.766605
▁قلقه	-10.766635
▁للتحقق	-10.766964
▁29-	-10.766980
▁الاعتمادات	-10.767284
▁التوسع	-10.767360
ارات	-10.767402
▁سنوية	-10.767569
رام	-10.767770
▁لطلب	-10.767927
▁الورقة	-10.768527
▁القذائف	-10.768666
▁لتنسيق	-10.768734
▁تجربة	-10.768879
▁ونرحب	-10.770070
▁التعجيل	-10.770566
▁تعهد	-10.770658
▁أعيد	-10.770883
▁والسلامة	-10.771201
/17	-10.771215
▁ليتوانيا	-10.771311
▁مسؤولا	-10.771389
ES	-10.772047
▁2000-2001	-10.772139
▁افتتحت	-10.772419
▁وحرية	-10.772840
▁ذو	-10.773696
▁الأمام	-10.773842
٣	-10.774417
▁للشباب	-10.774659
▁الإعلانات	-10.774838
▁وهولندا	-10.774857
▁U	-10.775084
▁حشد	-10.775084
/10	-10.775221
▁فور	-10.775624
▁الترويج	-10.776202
▁للكويت	-10.776546
▁عواقب	-10.776719
▁الذكور	-10.777072
▁موضوعية	-10.777092
▁بتقييم	-10.777098
معاملة	-10.777176
▁الهجوم	-10.777273
▁لأول	-10.777526
▁تأثيرا	-10.778269
الولايات	-10.778333
▁صحيح	-10.778387
▁الدوائر	-10.778650
▁للبيانات	-10.778792
ce	-10.778953
▁1994،	-10.779026
▁شهدت	-10.779102
▁وبصفة	-10.779308
▁احت	-10.779325
▁بالأ	-10.779377
كار	-10.779582
سب	-10.779747
▁الأفكار	-10.779923
▁النموذجية	-10.780135
▁اليه	-10.780200
▁مالطة	-10.780429
▁يشرفني	-10.780725
▁للاحتياجات	-10.781382
▁نظمت	-10.781485
▁الاشتراء	-10.781510
جن	-10.781597
▁الهاتف	-10.781775
▁المدفوعات	-10.781880
▁مداولات	-10.782088
▁بمهام	-10.782318
▁المواقف	-10.782629
▁93	-10.782636
▁اثنين	-10.782877
▁96	-10.783171
▁المنشآت	-10.783656
حيل	-10.783670
▁وحث	-10.783876
▁المنقولة	-10.783993
▁إطارا	-10.784077
▁اليمن	-10.784113
تعزيز	-10.784367
▁خطرا	-10.784508
▁والآليات	-10.784612
▁اتخذها	-10.784780
▁تجنيد	-10.784936
تخذ	-10.785494
حر	-10.785829
▁أحكاما	-10.785977
وط	-10.785987
▁120	-10.786457
▁يدل	-10.786692
▁النتيجة	-10.786807
▁المسيح	-10.786904
▁أخيرا	-10.787023
▁واتفق	-10.787356
▁وف	-10.787528
▁دعوى	-10.788033
▁وتبين	-10.788198
▁لغات	-10.788424
▁بعدد	-10.788740
▁وأشير	-10.788924
▁وأفادت	-10.789020
▁أسابيع	-10.789161
/14	-10.789262
▁c	-10.789598
عون	-10.789701
▁ولكي	-10.789813
▁البلدين	-10.790157
فل	-10.790191
▁مبكر	-10.790428
08	-10.790710
▁العائلي	-10.790870
/2003/	-10.790969
▁إشراف	-10.791296
▁بتوقيع	-10.791594
▁الإمارات	-10.791608
صل	-10.791759
▁التكنولوجية	-10.791901
▁الدائن	-10.791913
▁كلية	-10.792126
▁بمقدار	-10.792178
▁متعلقة	-10.792253
▁والبرازيل	-10.792390
.1).	-10.792492
▁المتهم	-10.792924
▁والمالي	-10.792944
▁لنشر	-10.793057
▁التعسفي	-10.793240
▁الحملة	-10.793357
▁العقاقير	-10.793421
▁صناديق	-10.793959
▁94	-10.795814
▁ولوحظ	-10.795852
▁المكتسبة	-10.795864
خو	-10.796026
▁ولما	-10.796135
▁نزاع	-10.796320
▁صد	-10.796868
▁غي	-10.797667
يئ	-10.797730
▁اجتماعه	-10.797779
▁العدوان	-10.798033
لال	-10.798121
▁استخدمت	-10.798176
-20	-10.798500
زل	-10.799058
▁للقطاع	-10.799077
▁عددها	-10.799200
▁المسجلة	-10.799434
▁آنفا	-10.799520
▁سعر	-10.799524
▁جوانبه	-10.799542
▁الرق	-10.799809
▁العاملات	-10.799883
▁السرية	-10.799913
▁صيد	-10.800143
▁الأشكال	-10.800297
▁يتوقف	-10.800363
▁لنقل	-10.800588
z	-10.800884
▁المملوكة	-10.800957
▁ودعت	-10.801011
تقرير	-10.801386
▁الملموسة	-10.801678
▁المستعمرة	-10.801684
▁اخرى	-10.801856
▁مك	-10.801891
▁الفني	-10.801893
▁التغيرات	-10.801937
-9	-10.802009
98	-10.802364
▁البضاعة	-10.802724
▁للمخدرات	-10.803078
▁الوالدين	-10.803151
▁1540	-10.803191
▁بالإرهاب	-10.803456
▁توقع	-10.803722
▁عجز	-10.803974
▁(7)	-10.804000
▁التعاونية	-10.804105
▁رسوم	-10.804260
إساءة	-10.804309
▁ظهور	-10.804494
▁إسهام	-10.804657
▁وان	-10.804806
▁تقبل	-10.804938
▁ضباط	-10.805143
▁٢١	-10.805737
خت	-10.805870
▁أسلوب	-10.806094
منح	-10.806130
▁والتخطيط	-10.806458
▁العامين	-10.806495
▁المنح	-10.806840
▁وتركيا	-10.806870
▁المدرسية	-10.807022
▁الدفعة	-10.807158
▁المرتبات	-10.807635
▁قدرا	-10.807878
▁ممتلكات	-10.807961
التي	-10.808162
▁لمن	-10.808262
▁ونيوزيلندا	-10.808656
▁الرئيسيين	-10.808748
▁أطر	-10.809138
▁تحتوي	-10.809278
▁تطبيقها	-10.809408
▁للهجرة	-10.809786
▁(2007)	-10.809885
▁أقدم	-10.810281
▁ولأن	-10.810693
▁مستشار	-10.810857
▁تسل	-10.810927
▁بحوث	-10.811619
▁للصراع	-10.811687
▁أيدي	-10.812341
▁للبحث	-10.812415
▁السجلات	-10.812681
▁ومراقبة	-10.813625
ذك	-10.813870
tion	-10.815147
▁يرتبط	-10.815184
▁وبشكل	-10.815441
▁يراعي	-10.815443
▁والمتعلق	-10.815655
▁أقرت	-10.815732
▁أصلا	-10.815862
▁99	-10.816649
▁يحد	-10.817369
▁ومد	-10.817502
▁منفصلة	-10.817787
▁1988	-10.818164
▁والتطوير	-10.818744
▁يحمل	-10.819383
▁الفينيل	-10.819486
▁ملك	-10.819556
▁وآيرلندا	-10.819556
▁يمنح	-10.819997
▁دين	-10.820118
▁لاتفاق	-10.820125
▁بان	-10.820385
▁للحوار	-10.820397
▁ومصر	-10.820404
▁الأو	-10.820768
▁بالديون	-10.820930
▁بمركز	-10.820949
تش	-10.821049
▁والتقدم	-10.821071
▁والهدف	-10.821336
عكس	-10.821383
▁(2008)	-10.821538
▁150	-10.821541
ادي	-10.821968
▁ومعالجة	-10.822006
▁31-	-10.822020
يلا	-10.822078
▁والطفل	-10.822198
▁لأوروبا	-10.822415
▁التابعين	-10.822697
▁تام	-10.822814
▁تقضي	-10.822841
▁تشريع	-10.823443
▁فييت	-10.823448
▁لفائدة	-10.823448
▁آلاف	-10.824361
▁سبع	-10.824573
▁تحظر	-10.824607
دمت	-10.824615
▁لكسمبرغ	-10.824792
▁المعاصرة	-10.824880
▁ويطلب	-10.824977
▁الملحة	-10.825538
▁والشؤون	-10.825583
▁ثاني	-10.825877
▁32-	-10.825931
▁فلم	-10.826056
ضة	-10.826118
▁تقليل	-10.826400
▁ستعقد	-10.826513
▁وقرارات	-10.826577
▁المعقدة	-10.826646
/59/	-10.826647
▁بالإجماع	-10.826711
▁أبو	-10.827008
▁البنات	-10.827064
▁فل	-10.827237
ذي	-10.827371
▁الزئبق	-10.827468
▁ومدى	-10.827509
▁حضر	-10.827627
▁تنتهي	-10.828338
▁وضرورة	-10.828458
يرة	-10.829037
▁الثنائي	-10.829418
▁الوظيفي	-10.829860
▁المديرة	-10.829943
▁والذين	-10.830420
كراهية	-10.830759
بع	-10.831217
▁1989	-10.831477
▁للتوصل	-10.831586
▁المح	-10.831686
▁بري	-10.831962
▁لتسوية	-10.832372
▁ولد	-10.832405
/16	-10.832736
▁والسلطات	-10.832865
وني	-10.832895
▁عرضت	-10.832970
▁لهما	-10.833076
▁لبرامج	-10.833080
درس	-10.833578
▁الحزب	-10.833618
▁حاسم	-10.833712
▁واعت	-10.834068
▁والا	-10.834199
▁تفضي	-10.834231
▁باهتمام	-10.834703
▁ادعاءات	-10.834737
▁33-	-10.834847
ولة	-10.834919
▁التبادل	-10.835587
▁الأمومة	-10.836020
▁العبارة	-10.836096
▁وجمع	-10.836107
/8	-10.836138
▁حيال	-10.836298
▁سل	-10.836376
INF	-10.836580
▁ربط	-10.836686
▁المستويين	-10.836714
▁يحظر	-10.836962
▁تأخر	-10.837006
▁والحصول	-10.837710
▁جيد	-10.837787
نشئ	-10.837988
▁بالأمن	-10.838000
▁يعترف	-10.838580
▁الفرق	-10.838784
▁مقررات	-10.838833
▁سد	-10.839024
▁مواطني	-10.839139
▁المفروض	-10.839391
▁توضح	-10.839399
▁معني	-10.839950
▁القروض	-10.840053
▁يسمى	-10.840117
▁وشارك	-10.840207
▁العرقي	-10.840225
وض	-10.840414
▁أجرى	-10.841190
▁بولس	-10.841413
▁Mr	-10.841447
▁حقوقهم	-10.841648
▁أعدت	-10.841794
بلغت	-10.841911
▁لغة	-10.842926
▁نؤكد	-10.843003
▁الضريبية	-10.843111
▁واستخدامها	-10.843191
▁شا	-10.843353
▁والمبادرات	-10.843597
▁تنظيمية	-10.843938
▁UNEP	-10.844172
▁أسرع	-10.844301
جبهة	-10.844534
▁هنالك	-10.844729
▁تقتصر	-10.844788
▁تعاونا	-10.844904
قام	-10.845148
▁بالاتجار	-10.845303
▁وحلقات	-10.845664
▁والح	-10.845709
▁قضاء	-10.846208
▁الإثني	-10.846248
▁الافتقار	-10.846301
▁للتفاهم	-10.846387
▁المطروحة	-10.846478
▁الاستهلاك	-10.846571
▁أطرافا	-10.847074
▁الاستعانة	-10.847305
▁شمل	-10.847427
▁تهم	-10.847467
بية	-10.847775
▁وكثيرا	-10.847873
▁استبعاد	-10.847961
et	-10.848018
.10	-10.848044
▁بجهود	-10.848219
▁وبلغ	-10.848338
▁والثاني	-10.848640
استعادة	-10.848736
▁اللائي	-10.848918
صة	-10.849507
وسي	-10.849773
▁والقرارات	-10.849845
زة	-10.850045
▁وتؤيد	-10.850136
▁بالاستناد	-10.850357
▁للسيد	-10.850539
▁المراقبين	-10.850821
▁واستراتيجيات	-10.850905
▁النمطية	-10.851114
▁القرارين	-10.851472
▁الإحاطة	-10.851536
▁حدد	-10.851709
▁وخطط	-10.851965
مع	-10.852196
▁بالميزانية	-10.852219
غل	-10.852398
▁المنخفضة	-10.852883
▁أسماؤهم	-10.852944
▁العاشر	-10.853296
▁والحقوق	-10.853431
/18	-10.853637
▁للعملية	-10.853865
▁أيرلندا	-10.854241
▁ورومانيا	-10.854249
▁والتنفيذ	-10.854522
▁تكرار	-10.854558
▁المعد	-10.854774
▁تقديره	-10.854873
راك	-10.854891
▁الضمانية	-10.854979
▁f	-10.855105
▁جبل	-10.855366
▁الجدد	-10.856009
▁متطوعي	-10.856029
▁أغلب	-10.856060
▁المرتبط	-10.856152
▁نيكاراغوا	-10.856374
▁35-	-10.856480
▁وعقب	-10.856520
▁توقف	-10.856688
▁الاعتداء	-10.856841
▁المحاكمات	-10.856856
▁بدقة	-10.856915
▁وكيف	-10.856977
▁الاحتفال	-10.857574
▁تقييمات	-10.857695
▁أواخر	-10.857814
▁البحيرات	-10.857991
▁نفذت	-10.858289
▁واحتلاله	-10.858414
▁مسلحة	-10.858491
▁التاريخية	-10.858776
▁المستنفدة	-10.858831
مات	-10.859138
قيد	-10.859157
▁للميزانية	-10.859170
سجل	-10.859308
▁أحاط	-10.859319
▁des	-10.859434
▁للتعذيب	-10.859629
▁والتمويل	-10.859799
▁يوضح	-10.860254
▁وحق	-10.860640
▁وتوزيع	-10.860650
im	-10.860710
▁المستهدفة	-10.860804
▁زمبابوي	-10.860874
▁الناتجة	-10.860987
▁(8)	-10.861110
قسم	-10.861477
▁طراز	-10.861574
▁برئاسة	-10.861612
▁أصدر	-10.861636
▁فلورية	-10.861920
▁إحداث	-10.861936
▁اقترحت	-10.862099
▁الحين	-10.862212
▁الجنسيات	-10.863131
▁لتكنولوجيا	-10.863141
▁للاضطلاع	-10.863785
▁يدخل	-10.863914
▁&	-10.864333
ترجم	-10.864360
▁فهل	-10.864464
▁والنظر	-10.864580
لون	-10.864690
يرو	-10.864732
▁الواسع	-10.864752
▁المنفذة	-10.864874
ورد	-10.864987
فين	-10.864988
▁المتكررة	-10.865202
▁واستغلال	-10.865587
▁أجر	-10.865599
▁يقدر	-10.865713
▁تقديمه	-10.865945
▁بإدراج	-10.866342
▁#	-10.866484
▁والرجال	-10.866610
مراجعة	-10.866689
▁الوزير	-10.867070
▁كمية	-10.867084
▁الأحياء	-10.867174
▁الانخفاض	-10.867235
نتج	-10.867648
▁تعاونها	-10.867837
▁بنشر	-10.868098
خذ	-10.868111
▁بحالات	-10.868325
▁that	-10.868495
▁مدرسة	-10.868637
▁التعاقدية	-10.868654
▁يعالج	-10.869257
بعد	-10.869258
▁خيار	-10.869374
رأى	-10.869843
▁إثر	-10.869865
▁ليشمل	-10.869889
ولي	-10.869901
▁محليا	-10.870427
حال	-10.870608
▁القمر	-10.870896
ترك	-10.871349
/15	-10.872018
▁ومتابعة	-10.872220
▁الأونروا	-10.872225
▁لاتفيا	-10.872305
▁يوجه	-10.872476
▁النوعية	-10.872754
▁وتوجد	-10.873379
▁وأبلغت	-10.873599
وفي	-10.873791
▁en	-10.874007
جمع	-10.874051
▁والسويد	-10.874151
▁ورقات	-10.874254
▁تقييما	-10.874578
▁فائدة	-10.874750
▁قويا	-10.875097
▁منهاج	-10.875118
▁أؤكد	-10.875179
▁للدعم	-10.875352
▁للنقل	-10.875549
▁الفوري	-10.876163
▁نؤيد	-10.876300
▁أجراها	-10.876551
▁والخبراء	-10.876645
▁صالح	-10.877045
▁الفضائي	-10.877110
سوف	-10.877125
▁رجل	-10.877149
▁الاختيار	-10.877376
▁الاستماع	-10.877411
▁للإ	-10.877561
▁kg	-10.877633
▁للسلطة	-10.877758
▁نعم	-10.877894
▁بات	-10.878034
▁تحقيقا	-10.878062
▁ملاك	-10.878075
▁للبرامج	-10.878091
▁الاسم	-10.878251
▁2001)	-10.878342
▁وفاة	-10.878751
▁جميعها	-10.878778
▁للجلسة	-10.878809
▁مؤقتا	-10.879099
▁الانسان	-10.879339
▁مل	-10.879475
▁لقواعد	-10.879571
حرز	-10.879617
▁الاحتياطي	-10.879815
▁أعدتها	-10.880034
▁تأييدا	-10.880110
▁انضمام	-10.880615
▁المراجع	-10.880657
▁فقدان	-10.881376
▁بارتكاب	-10.881802
▁البلدية	-10.882061
▁يرمي	-10.882123
▁للخدمات	-10.882130
▁الجودة	-10.882365
▁بالذكر	-10.882776
▁لتطبيق	-10.883176
▁السليم	-10.883325
▁جماعية	-10.883424
▁المتجددة	-10.883784
▁تكلم	-10.883835
▁وإيجاد	-10.884192
▁بس	-10.884371
▁قريب	-10.884408
▁أمم	-10.884416
▁وهل	-10.884588
اعت	-10.884638
▁صوغ	-10.884647
أغلبية	-10.884734
▁البرنامجي	-10.884805
[	-10.884896
▁للحالة	-10.884995
▁للحقوق	-10.885195
▁للأحكام	-10.885467
▁اعتمدها	-10.885686
▁ونيجيريا	-10.885886
▁للتمييز	-10.886019
دال	-10.886254
▁السلكية	-10.886596
▁الجوع	-10.886600
▁المناصب	-10.886662
صدق	-10.886664
▁أل	-10.886669
▁متصلة	-10.886713
▁وتواصل	-10.886741
▁اختصاصات	-10.886833
شعبة	-10.886998
▁اقتصادي	-10.887166
▁الإنفاذ	-10.887201
▁التحضير	-10.887248
يلي	-10.887497
▁نداء	-10.887651
▁ظهر	-10.887773
▁واستمرار	-10.888032
▁إضفاء	-10.888088
▁دورها	-10.888193
▁والكيانات	-10.888336
▁الطلاب	-10.888524
▁بتحسين	-10.888549
▁وحفظ	-10.888625
ريد	-10.888692
المرجع	-10.888742
▁توجيهات	-10.888837
▁متخصصة	-10.889009
▁المتواصل	-10.889052
خص	-10.889261
نفذ	-10.889280
▁يقر	-10.889685
▁سرية	-10.889713
▁ويشجع	-10.890409
/6	-10.890646
▁سباق	-10.890748
▁أبرز	-10.890847
▁للتدابير	-10.890919
▁الزيارات	-10.890959
▁القطاعية	-10.890966
▁تي	-10.891300
▁الحصار	-10.891316
▁لوحظ	-10.891340
▁المتح	-10.891483
▁يعطي	-10.892123
▁ونرى	-10.892173
▁افتراض	-10.892207
▁مستدام	-10.892353
▁تختلف	-10.892392
▁تشهد	-10.892994
هذه	-10.893041
▁34-	-10.893141
▁جهودنا	-10.893515
▁استحقاقات	-10.893727
▁وستكون	-10.893727
▁برنامجا	-10.893796
له	-10.894043
▁المعيشة	-10.894118
غا	-10.894144
▁منغوليا	-10.894319
▁لدورتها	-10.894645
▁يوميا	-10.894782
فترات	-10.894909
▁نشط	-10.895101
▁مقد	-10.895353
▁تتلقى	-10.895435
▁صادر	-10.895808
▁المرجعية	-10.895976
▁الحواجز	-10.896094
▁سعيا	-10.896419
▁أحاطت	-10.896664
▁عم	-10.896750
تل	-10.896823
▁تتوافر	-10.897104
▁وحده	-10.897266
▁وأساليب	-10.897445
▁برصد	-10.897751
إحدى	-10.898289
▁نهر	-10.898515
لك	-10.898674
▁تقريري	-10.898816
▁V	-10.898972
▁هذ	-10.899164
شكل	-10.899175
▁اختبار	-10.899201
▁الذكرى	-10.899548
ity	-10.899673
▁المحامين	-10.900456
].	-10.900546
▁سلمية	-10.900572
de	-10.900603
دام	-10.900788
.15	-10.900853
▁أح	-10.900858
▁الموجز	-10.900885
ut	-10.900954
▁أخذت	-10.900994
صب	-10.901278
▁للرقابة	-10.901974
▁آ	-10.902122
▁ثالث	-10.902327
طبق	-10.902364
▁والمؤتمرات	-10.902439
▁ومسائل	-10.902649
se	-10.902923
▁والطاقة	-10.903090
▁الملاحظة	-10.903160
ارت	-10.904051
▁للأوزون	-10.904055
▁واللاسلكية	-10.904055
▁لبلوغ	-10.904082
طو	-10.904168
▁الجانبين	-10.904292
▁أنشطته	-10.904487
▁العادي	-10.904799
▁مدار	-10.905215
▁الضغط	-10.905251
ac	-10.905559
▁أحمد	-10.905687
▁وأفضل	-10.905825
▁con	-10.905910
▁العاجلة	-10.905927
راض	-10.906108
▁بنما	-10.906206
▁شهادات	-10.906210
▁والحاجة	-10.907187
زاعات	-10.907410
▁لدراسة	-10.907493
▁فلن	-10.907825
جي	-10.907966
▁تحسينات	-10.908042
▁مبرر	-10.908265
معرفة	-10.908409
▁را	-10.908507
▁للتقدم	-10.908701
▁فض	-10.908867
▁تخصص	-10.909204
▁عرضة	-10.909391
وال	-10.909421
▁تستحق	-10.909633
▁النهاية	-10.909698
الاتحاد	-10.909785
▁نقاش	-10.910559
▁والسودان	-10.910632
▁الصفحات	-10.911064
▁تش	-10.911605
▁طرد	-10.912452
▁استيراد	-10.912539
▁جواز	-10.912582
▁بيانه	-10.912663
▁بير	-10.912721
جاز	-10.912731
▁النقطة	-10.912800
▁والب	-10.913229
نسبة	-10.913348
▁ابتداء	-10.913503
▁والشركاء	-10.913535
▁إلقاء	-10.913546
▁وسويسرا	-10.913733
▁عهد	-10.913792
▁فعليا	-10.914154
▁والمحكمة	-10.914221
▁ديمقراطية	-10.914285
▁محامي	-10.914663
▁آخذة	-10.914830
int	-10.914993
▁الشواغر	-10.915217
الا	-10.915437
▁الترتيب	-10.915600
▁سيعقد	-10.915617
▁أسفر	-10.915868
▁وشيلي	-10.915930
▁60/1	-10.915983
▁ثابتة	-10.916034
▁طبقة	-10.916155
▁36-	-10.916340
▁عددهم	-10.916540
▁أسئلة	-10.916641
▁name	-10.917253
فرقة	-10.917386
▁المثقلة	-10.917451
▁وأردف	-10.917456
▁وذ	-10.917536
جو	-10.917694
▁والاستراتيجيات	-10.917808
to	-10.918040
روا	-10.918327
▁وقائع	-10.918349
▁تحترم	-10.918480
▁وجهت	-10.918486
▁فن	-10.918781
▁القصوى	-10.918845
▁ومعايير	-10.919368
▁ووسائط	-10.919448
يوم	-10.920621
▁المتطلبات	-10.920630
▁ويلزم	-10.920637
▁الثمانية	-10.920691
▁المنازل	-10.920844
▁بدوره	-10.920976
▁بدفع	-10.920991
▁المحاضر	-10.921202
▁الاختصاص	-10.921418
▁الائتمان	-10.921554
٦	-10.921704
▁ترخيص	-10.921823
lo	-10.921925
عل	-10.922183
▁الاقتراع	-10.922374
▁الخسارة	-10.922422
▁العميق	-10.922640
▁وجعل	-10.922833
▁داخلية	-10.922958
▁الحدث	-10.923053
▁خطورة	-10.923469
▁والشرطة	-10.923572
▁التذييل	-10.923808
▁المطالب	-10.923828
رع	-10.923998
▁والقدرة	-10.924020
▁طالب	-10.924043
▁مهارات	-10.924480
شا	-10.924483
▁والوثائق	-10.924620
مس	-10.924624
▁محور	-10.924842
▁ويرجى	-10.924878
▁الهادفة	-10.924973
▁يقرب	-10.925150
▁وقرر	-10.925155
دى	-10.925305
▁المحتل	-10.925666
▁الديني	-10.925830
▁فردا	-10.926199
بور	-10.926594
لغ	-10.926601
▁وأهداف	-10.926657
▁والجنوب	-10.926787
▁تفتيش	-10.926815
▁هائلة	-10.926891
رجى	-10.927029
▁شهد	-10.927385
▁وثيقا	-10.927512
▁إخطار	-10.927670
▁تقليص	-10.927835
بول	-10.927901
▁واستطرد	-10.928052
▁زمني	-10.928123
▁للق	-10.928164
▁للسنة	-10.928331
▁نسخ	-10.928341
PRST	-10.928423
▁مصطلح	-10.928450
▁الأطر	-10.928486
▁الجولان	-10.928634
▁الزيارة	-10.928766
▁ارتكب	-10.929072
▁وحيث	-10.929156
▁وألمانيا	-10.929262
▁مشاركتها	-10.929403
▁الإنجليزية	-10.929611
▁كلمات	-10.929953
▁لخطر	-10.929957
▁1993،	-10.929974
▁المد	-10.930163
▁الرسوم	-10.930240
▁وتعزيزها	-10.930394
▁ومشاريع	-10.930491
▁الكيفية	-10.930652
▁ميادين	-10.931247
/2008/	-10.931477
▁الأعوام	-10.931875
▁التأييد	-10.931994
▁وستصدر	-10.932118
▁ورحبت	-10.932140
▁السمكية	-10.932162
▁يظهر	-10.932330
شغل	-10.932374
▁سلبية	-10.933147
▁معيار	-10.933214
زيل	-10.933231
▁خطير	-10.933237
▁الملاحة	-10.933658
▁وتحقيقا	-10.933731
▁يعادل	-10.934087
اته	-10.934204
▁عملهم	-10.934265
▁مناخ	-10.934354
غتنم	-10.934978
▁أعتبر	-10.935154
دل	-10.935303
▁ونائب	-10.935448
▁يواجهها	-10.935734
▁توضع	-10.935963
▁وكوبا	-10.935969
▁الاستبيان	-10.935972
▁مبلغا	-10.936442
ورو	-10.936878
co	-10.936931
▁التركية	-10.936940
▁تقدر	-10.936984
▁1987	-10.937147
▁اما	-10.937239
ne	-10.937480
▁تمنع	-10.938375
▁البيع	-10.938710
▁استشارية	-10.938877
▁تلتزم	-10.939583
▁وأوصى	-10.939664
▁وحالات	-10.939741
▁بممارسة	-10.939750
▁للدفاع	-10.940265
▁مؤشر	-10.940314
▁التكميلية	-10.940334
منظمة	-10.940349
▁والتحقق	-10.940663
▁الفائدة	-10.940723
▁استرداد	-10.940866
محاكمة	-10.941669
سمح	-10.941671
▁الشعبي	-10.941748
الفنلندية	-10.941754
▁السريعة	-10.942097
▁المقدرة	-10.942833
مار	-10.942902
▁جنب	-10.943286
▁ووكالاتها	-10.943480
▁قانونيا	-10.943677
▁ساعد	-10.943861
▁Convention	-10.943970
▁اللائق	-10.944203
▁روسيا	-10.944309
▁الواحد	-10.944468
▁جان	-10.944598
▁والأعمال	-10.944818
▁المراحل	-10.945033
▁الإنذار	-10.945205
▁بدورها	-10.945476
▁أولي	-10.945588
▁نصوص	-10.945653
▁وحضر	-10.946550
▁شخصية	-10.946594
▁توازن	-10.946859
▁للمسائل	-10.947253
▁صدقت	-10.947536
▁بالسكان	-10.947547
رن	-10.947650
▁الكلمات	-10.947663
▁تعهدت	-10.947741
▁وتقارير	-10.947956
▁بربادوس	-10.948064
وان	-10.948251
▁الملاريا	-10.948266
▁بينهما	-10.948338
▁٢٣	-10.948541
▁المسجل	-10.949170
▁والف	-10.949247
▁استخدم	-10.949370
▁المحاصيل	-10.949589
▁'5'	-10.949695
▁وودز	-10.949712
▁المباني	-10.949766
▁الطب	-10.949852
▁معنى	-10.950068
▁قصار	-10.950430
▁تضاف	-10.950481
▁الاول	-10.950557
▁وبيرو	-10.950662
قا	-10.950830
▁بتعميم	-10.950877
▁حر	-10.950971
▁الوساطة	-10.951130
▁متساوية	-10.951177
▁المعتقد	-10.951309
▁ومجموعة	-10.951421
▁يعتقد	-10.951623
▁39-	-10.951632
▁حيوية	-10.952125
▁جر	-10.952336
▁للطفل	-10.952450
▁بأسره	-10.952517
▁نصيب	-10.952530
▁لدولة	-10.952629
2002	-10.952910
▁الممولة	-10.953065
▁البيت	-10.953273
▁المتأتية	-10.953289
▁عائدات	-10.953605
▁واصل	-10.953740
درجة	-10.953839
▁لاحقة	-10.954295
▁الأمان	-10.954452
رقم	-10.954576
▁المداولات	-10.954622
▁حياتهم	-10.955101
▁نظرة	-10.955216
▁ري	-10.955479
▁بمعلومات	-10.955487
▁37-	-10.955533
▁يحظى	-10.955821
بري	-10.956022
▁طاولة	-10.956064
طف	-10.956300
▁مراقبي	-10.956480
٤	-10.956539
▁المسندة	-10.956726
▁انتظار	-10.957302
▁شرح	-10.957314
▁معهم	-10.957495
▁شن	-10.957661
ره	-10.957834
/7	-10.958122
▁ناميبيا	-10.958295
▁قي	-10.958339
▁حكومي	-10.959115
▁إستونيا	-10.959368
▁برامجها	-10.959379
.12	-10.959481
▁بمعدل	-10.959574
▁الثابت	-10.960202
▁والمقررات	-10.960258
▁أجرت	-10.960405
▁الكويتية	-10.960535
▁الأيام	-10.960615
▁القائل	-10.960634
ريا	-10.960682
يتا	-10.960685
▁جون	-10.961045
▁دعمه	-10.961279
ci	-10.961281
▁يمنع	-10.961468
▁يحتمل	-10.961543
▁وكولومبيا	-10.961566
▁59/2	-10.961646
▁القبول	-10.962332
▁السلمي	-10.962728
ورا	-10.962830
▁حصلت	-10.962833
▁يعيد	-10.963021
htm	-10.963079
▁مناصب	-10.963396
وجه	-10.963550
▁غو	-10.963847
▁105	-10.963886
▁البلديات	-10.963918
▁والحكومة	-10.964719
▁سليمان	-10.964767
▁الأصوات	-10.965022
▁الهواء	-10.965050
▁فرق	-10.965310
▁التوتر	-10.965350
▁الديباجة	-10.965461
▁طاجيكستان	-10.965474
▁للمر	-10.965601
▁لمبادئ	-10.965988
▁لأداء	-10.966708
▁تطورات	-10.966739
▁جيبوتي	-10.967094
▁الأبيض	-10.967269
▁أيدت	-10.967491
pdf	-10.967685
▁كتابة	-10.967735
▁يشدد	-10.967780
▁التقديرية	-10.967869
▁بإنفاذ	-10.967901
▁خبير	-10.967910
▁والاتفاقية	-10.968083
▁شر	-10.968143
▁ارت	-10.968253
▁شيئا	-10.968302
▁38-	-10.968536
▁تصدير	-10.968674
▁يأتي	-10.968721
محكمة	-10.968765
▁للإرهاب	-10.968784
▁القصور	-10.968971
▁الأغلبية	-10.969320
▁الأسس	-10.969398
ارية	-10.969412
▁موحد	-10.969432
▁وخ	-10.969433
بذل	-10.969448
▁جدوى	-10.969609
▁الروسية	-10.969703
▁الظاهرة	-10.969742
▁وشملت	-10.969768
▁للمفوضية	-10.970176
▁بالمدارس	-10.970180
▁المتاح	-10.970330
▁للمشورة	-10.970344
▁يدرك	-10.970450
▁استثمار	-10.970573
▁مصدرا	-10.970934
▁المعالجة	-10.971039
▁ويتطلب	-10.971621
▁‐	-10.971644
▁الأنواع	-10.971739
▁المنظم	-10.971930
▁De	-10.971979
▁المحامي	-10.972129
عات	-10.972192
▁والبيئية	-10.972303
▁تفاهم	-10.972432
▁السياسيين	-10.972579
▁تعطي	-10.972672
▁للتداول	-10.972681
▁بالتنفيذ	-10.973516
▁بحر	-10.973820
▁تحيل	-10.973935
▁الأدوية	-10.973961
▁ملموس	-10.974174
/2002/	-10.974294
▁تملك	-10.974616
▁بروكسل	-10.974649
▁لقمع	-10.974801
▁ضرر	-10.974850
▁يساهم	-10.974877
▁الإفراج	-10.975229
▁رفضت	-10.975394
▁المصرف	-10.975540
▁العناية	-10.975636
▁للضحايا	-10.975723
▁الذاتية	-10.975780
▁الشاحن	-10.975831
▁تمشيا	-10.975845
▁بريتون	-10.975861
▁بالاحتلال	-10.976455
▁يشعر	-10.976624
▁تعلم	-10.976796
ورة	-10.977043
▁التربية	-10.977091
)).	-10.977119
نشأ	-10.977387
▁يمك	-10.977486
▁الصحافة	-10.977509
▁العائدات	-10.977761
▁لتحرير	-10.977977
جار	-10.978124
▁الطوعي	-10.978235
▁الدم	-10.978307
بق	-10.978701
▁الأرواح	-10.978999
ers	-10.979523
قص	-10.979835
▁سجلات	-10.979881
▁تتحقق	-10.980168
▁تهديد	-10.980208
▁وتعاون	-10.980499
▁المسار	-10.980664
▁1985	-10.980688
2001	-10.980773
▁إداري	-10.980904
▁العفو	-10.981018
▁لالتزاماتها	-10.981133
▁رأت	-10.981566
اخ	-10.981589
▁المأذون	-10.981646
▁قلة	-10.981721
▁ويوجد	-10.981903
▁1998.	-10.981916
▁ينظم	-10.981977
▁الخام	-10.982034
أخذ	-10.982036
▁تحقيقات	-10.982303
▁كار	-10.982969
٥	-10.982984
▁يو	-10.983147
الت	-10.983311
▁تامة	-10.983613
الية	-10.983725
▁نمط	-10.983768
▁والنتائج	-10.983834
▁التصنيف	-10.984073
▁صرف	-10.984455
▁سريان	-10.984686
▁تمك	-10.985160
▁القديمة	-10.985172
▁معقول	-10.985302
▁البريطانية	-10.985309
ga	-10.985774
▁للانتخابات	-10.985794
▁الجدير	-10.985918
▁جنبا	-10.985959
▁توظيف	-10.985995
▁تسديد	-10.986014
▁بالعربية	-10.986409
▁مدارس	-10.986477
باع	-10.986559
▁رغبة	-10.986969
▁أقوى	-10.987019
▁المنطوق	-10.987045
▁ينفذ	-10.987166
▁ضبط	-10.987239
▁حققت	-10.987544
▁ملف	-10.987609
▁موئل	-10.987646
▁البرلماني	-10.987655
▁سؤال	-10.987685
▁جودة	-10.988338
▁التغطية	-10.988621
▁والوطني	-10.988802
▁والتقني	-10.989225
▁والجرائم	-10.989348
▁60/2	-10.989387
▁الإدلاء	-10.989620
ma	-10.990057
▁الحواشي	-10.990456
شك	-10.990499
▁ويرحب	-10.990682
▁تصويب	-10.990939
▁يستهدف	-10.990979
▁أسر	-10.991037
▁بالبلدان	-10.991349
▁بضمان	-10.991396
رز	-10.991720
▁المرء	-10.991760
▁والفرنسية	-10.991947
▁الصور	-10.991971
▁المؤ	-10.992078
▁اجتمع	-10.992168
▁الشرط	-10.992929
▁عين	-10.993117
▁للحماية	-10.993340
▁يفضي	-10.993368
علم	-10.993439
▁موناكو	-10.993451
▁استمر	-10.993535
▁المعروض	-10.993602
▁56/2	-10.993851
▁تست	-10.993852
▁استقصائية	-10.993872
▁وأحكام	-10.993948
▁ورحب	-10.994020
▁وتن	-10.994198
▁عقوبات	-10.994385
▁اع	-10.995030
▁للحق	-10.995393
▁ملزم	-10.995437
▁بتوجيه	-10.995441
▁القراءة	-10.995582
▁جداول	-10.995788
▁تؤديه	-10.996242
▁40-	-10.996244
▁الضحية	-10.996305
▁والاعتداء	-10.996920
▁والهياكل	-10.997198
دات	-10.997211
بيل	-10.997627
▁تنضم	-10.997657
دعوة	-10.997690
▁صلب	-10.998119
▁خطأ	-10.998156
▁وتجد	-10.998219
اكس	-10.998343
٨	-10.998529
▁أفريقي	-10.998816
▁لتخفيف	-10.999022
▁from	-10.999026
▁القدر	-10.999057
▁تضمين	-10.999059
▁معنون	-10.999152
بان	-10.999273
▁ويتوقع	-10.999702
▁علاج	-10.999849
▁الثانوي	-10.999851
▁واليوم	-10.999928
▁والأسرة	-11.000093
لان	-11.000483
▁مرارا	-11.000739
نسق	-11.000776
▁وتكاليف	-11.000927
▁انخفض	-11.000996
▁وأمريكا	-11.001297
▁أطلق	-11.001307
am	-11.001790
تسم	-11.001884
▁وستواصل	-11.001949
▁ببناء	-11.001953
▁تشك	-11.002218
▁الأسماء	-11.002282
and	-11.002556
▁ووافقت	-11.003066
▁العروض	-11.003165
ثبت	-11.003268
▁لاجئ	-11.003374
▁والمحلية	-11.004136
▁المتكلم	-11.004416
نف	-11.004671
▁والسل	-11.004758
٧	-11.004806
▁إدماجهم	-11.004807
▁الدعاوى	-11.004909
▁not	-11.004988
▁التعلم	-11.005293
▁والجماعة	-11.005578
▁محام	-11.005604
▁سليم	-11.005832
▁الموافق	-11.005884
Name	-11.005946
▁حينما	-11.006594
▁الحضري	-11.006903
▁ووزير	-11.007159
▁ترتبط	-11.007336
▁المشتركين	-11.007356
▁إحلال	-11.007541
/2009	-11.008754
▁مراجع	-11.008817
▁وتجري	-11.008972
/61/	-11.009151
طرح	-11.009163
▁الرأس	-11.009383
▁ومراكز	-11.009496
▁آمنة	-11.009774
▁والعشرون	-11.009840
▁جولة	-11.009890
▁توليد	-11.010077
▁وكرواتيا	-11.010340
▁سجن	-11.010358
▁المماثلة	-11.010411
▁الوباء	-11.010470
▁استكهولم	-11.010492
▁بالتعويض	-11.010637
▁مناسبات	-11.010970
▁Co	-11.011351
▁قيم	-11.011421
▁ويلاحظ	-11.011488
di	-11.011503
▁بذلت	-11.011887
▁نماذج	-11.012197
▁الروما	-11.012277
بس	-11.012492
▁وسيتم	-11.012522
▁DC	-11.012551
▁النقص	-11.012590
▁أنماط	-11.012836
▁نية	-11.012984
▁تق	-11.013065
▁قط	-11.013223
▁معاناة	-11.013391
▁ووحدة	-11.013462
▁بالإ	-11.013498
/58/	-11.013516
▁مشاوراته	-11.013595
▁ووافق	-11.013680
▁سنوي	-11.013784
▁أسهم	-11.013795
▁وبصورة	-11.014308
▁لكون	-11.014361
راج	-11.014374
▁تشييد	-11.014706
▁شرقي	-11.014769
وات	-11.015431
▁الصناعات	-11.015949
▁للقوة	-11.015965
ألف	-11.016058
▁للمهاجرين	-11.016168
▁وأدى	-11.016474
▁تجارب	-11.016529
رسي	-11.016627
▁الأفضل	-11.016802
▁امام	-11.017062
▁السارية	-11.017115
▁المبكرة	-11.017231
man	-11.017430
▁وتوباغو	-11.017482
▁بالحماية	-11.018028
▁ومؤشرات	-11.018099
▁الاستوائية	-11.018140
▁البوليفارية	-11.018555
▁بفعل	-11.018610
▁والحوار	-11.018732
▁والبروتوكولات	-11.018900
خي	-11.018944
▁المستخدم	-11.018954
▁تناولها	-11.019077
الوثيقة	-11.019348
▁أبدا	-11.019355
▁اعتمادات	-11.019415
▁الزوج	-11.019607
▁Report	-11.020124
حق	-11.020401
▁ويحث	-11.020412
▁اعتبر	-11.020737
▁تعوق	-11.020740
بث	-11.020913
▁توكيلاو	-11.020994
▁وإصدار	-11.021148
▁زراعة	-11.021216
▁وفدها	-11.021256
ايا	-11.021555
▁سفير	-11.021668
صار	-11.021802
▁اجتماعها	-11.022049
▁القاري	-11.022568
▁ومعدات	-11.022929
▁والأمانة	-11.022968
▁التطوير	-11.023024
▁المقاتلين	-11.023197
ائد	-11.023425
▁مدنية	-11.023512
▁61/2	-11.023693
▁المعارضة	-11.023913
▁إتمام	-11.024158
▁يتحمل	-11.024311
▁عميق	-11.024364
▁إمكانات	-11.024832
▁المسيحية	-11.025232
▁المدفوعة	-11.025410
حدد	-11.025617
▁غاية	-11.025694
▁مسلح	-11.025761
▁41-	-11.025784
الي	-11.025790
.2/	-11.025925
▁للمساءلة	-11.026293
▁مخطط	-11.026498
لاند	-11.026707
▁منشورات	-11.026959
▁باتجاه	-11.026968
فتح	-11.027136
▁بعينها	-11.027358
▁مواءمة	-11.027517
▁وفر	-11.027527
.9/5	-11.027558
▁بالقضايا	-11.027767
▁ثماني	-11.027834
▁وممارسات	-11.027979
نس	-11.028217
▁السبيل	-11.028803
▁المسبقة	-11.028923
▁والاستغلال	-11.029020
▁وكذا	-11.029899
تشر	-11.029930
▁الدكتور	-11.030416
تو	-11.030428
لح	-11.030428
.1/	-11.030594
▁رصيد	-11.030663
▁صافي	-11.030892
2005	-11.031054
▁وتخفيف	-11.031164
برنامج	-11.031232
▁والتصدي	-11.031374
▁نسبته	-11.031424
▁للوصول	-11.031437
رر	-11.031602
قو	-11.031802
▁الشرب	-11.032158
▁وانعدام	-11.032195
ha	-11.032338
رية	-11.032634
مور	-11.032820
▁التدفقات	-11.033149
▁مخصص	-11.033420
▁حقه	-11.033614
▁تفهم	-11.033667
▁بالتأكيد	-11.033689
▁والتوعية	-11.033698
ستر	-11.034239
/20	-11.034724
10)	-11.035033
▁والتحليل	-11.035220
▁كر	-11.035355
▁بالتعليم	-11.035847
▁بنزع	-11.036090
▁والسكان	-11.036295
▁وقطاع	-11.036429
سة	-11.036502
▁اقتصاديا	-11.036572
▁يهدد	-11.036638
▁2000)	-11.036738
▁الثغرات	-11.036866
شو	-11.036909
▁شخصيا	-11.037095
▁بوسع	-11.037514
▁الجرد	-11.037563
▁مور	-11.037776
▁خاضعة	-11.037899
▁للتقرير	-11.037977
▁اللامركزية	-11.038416
لاق	-11.038419
▁الأسف	-11.039010
ريك	-11.039249
الرتب	-11.039333
▁وسلامة	-11.039372
▁للتحكيم	-11.039715
▁التسلح	-11.039819
▁مخ	-11.040233
▁تبي	-11.040237
▁وإيطاليا	-11.040508
▁وبدأ	-11.040557
▁أصوات	-11.041016
▁للوحدات	-11.041289
▁بمبادرة	-11.041414
▁النشطة	-11.041540
▁سين	-11.041553
DP	-11.041603
▁وأبلغ	-11.042253
▁رفاه	-11.042563
▁التعويضات	-11.042603
▁الجذرية	-11.042651
▁المبرمة	-11.043122
http	-11.043382
بون	-11.043402
/2001/	-11.043572
فيد	-11.043672
عتمد	-11.043683
▁دينية	-11.043688
▁42-	-11.043977
▁ممكنا	-11.044135
▁تأتي	-11.044376
▁البرلمانية	-11.044582
▁ني	-11.044584
أثر	-11.044686
000	-11.044750
▁بون	-11.044795
▁أعوام	-11.044816
فاق	-11.044932
▁الموت	-11.045074
▁الجنوبي	-11.045166
▁بالمبادئ	-11.045174
▁التراث	-11.045262
▁المشتري	-11.045341
op	-11.045356
صاب	-11.045609
▁عرضا	-11.045635
▁والمكاتب	-11.045764
٩	-11.045833
▁المدعى	-11.046062
▁والوسائل	-11.046474
▁بع	-11.046510
▁لمشاريع	-11.046565
موظف	-11.046573
▁مصداقية	-11.046618
▁الصعد	-11.046659
اوي	-11.046738
▁التربة	-11.046842
▁وأعلن	-11.046896
▁سر	-11.046956
▁نهائي	-11.047112
اؤها	-11.047159
3).	-11.047559
▁نظاما	-11.047574
▁انها	-11.047736
Y	-11.047865
يستعاض	-11.047930
▁للجان	-11.047945
▁الملوثات	-11.047947
▁والبحر	-11.048317
▁الخطوة	-11.048321
▁الاستخبارات	-11.048421
▁1967	-11.048611
▁تسعة	-11.048746
▁منطوق	-11.048911
▁الإباحية	-11.049100
▁المسددة	-11.049335
▁ثالثة	-11.049345
▁إصلاحات	-11.049475
▁حان	-11.049743
▁الميادين	-11.049878
▁ويبين	-11.050203
▁كثيرون	-11.050234
▁معي	-11.050606
▁الآتية	-11.050729
▁غزو	-11.051077
▁كيان	-11.051142
▁ورفع	-11.051223
▁العمومية	-11.051248
▁تبعا	-11.051553
▁تصور	-11.051665
▁Service	-11.051818
▁دا	-11.051946
وفا	-11.051963
▁بالبند	-11.052045
▁صلاحية	-11.052246
▁قائد	-11.052574
▁is	-11.052694
▁المرجح	-11.052729
▁لتشمل	-11.052736
▁1325	-11.052785
▁اتفقت	-11.052958
دعو	-11.053104
▁تناولت	-11.053270
▁فرصا	-11.053326
رم	-11.053498
جه	-11.053514
▁التامة	-11.053556
▁البعد	-11.053577
▁إبقاء	-11.054144
▁محضر	-11.054173
▁سأ	-11.054218
▁ويعد	-11.054591
▁الشديدة	-11.054658
▁بالمواد	-11.054718
▁أقليات	-11.055014
▁والبرنامج	-11.055027
▁شي	-11.055300
▁الاستئمانية	-11.055735
دري	-11.055952
▁1949	-11.055969
▁نواب	-11.056080
▁استدامة	-11.056334
▁ومكافحته	-11.056515
▁international	-11.056822
▁المتضررين	-11.056934
▁والأطراف	-11.056991
▁الإجهاض	-11.057169
▁التصميم	-11.057310
عود	-11.057343
يط	-11.057445
▁الرئاسية	-11.057567
▁قرابة	-11.058343
▁تقترح	-11.058434
▁بعناية	-11.058647
▁وصلت	-11.058727
▁أهدافها	-11.058820
▁المسنين	-11.058825
الأ	-11.059527
▁للبعثات	-11.059561
▁108	-11.059612
وصي	-11.059913
ance	-11.060719
▁والاتفاقات	-11.060866
▁الجبهة	-11.060968
▁تسخير	-11.061015
▁الأجسام	-11.061034
▁مساعدات	-11.061127
▁عملي	-11.061458
▁يقصد	-11.061728
▁مقعد	-11.061926
▁والقضايا	-11.062058
▁اعتقال	-11.062354
▁يدرج	-11.062428
▁الضوابط	-11.062536
▁يشهد	-11.062841
تقدم	-11.062849
.2)	-11.063083
▁بمهمة	-11.063227
▁103	-11.063263
▁والكويت	-11.063456
▁تبسيط	-11.063617
▁العرفي	-11.063673
▁ليختنشتاين	-11.063679
▁للجنوب	-11.063736
لف	-11.064107
▁مدريد	-11.064265
/60/	-11.064314
▁الالتحاق	-11.064459
▁فخامة	-11.064697
▁تقليدية	-11.064743
امي	-11.065057
▁وإندونيسيا	-11.065082
▁or	-11.065095
عطى	-11.065099
لع	-11.065524
برا	-11.065644
▁عليهما	-11.065797
▁تس	-11.066652
راق	-11.066867
انا	-11.067013
▁وغينيا	-11.067084
▁لاو	-11.067227
▁التفاوت	-11.067319
▁وممثل	-11.067461
▁لخفض	-11.067614
▁التقليدي	-11.067840
▁إنجازات	-11.068020
▁وتود	-11.068024
▁مختارة	-11.068094
كبار	-11.068145
راع	-11.068377
▁مواردها	-11.068404
▁جزيرة	-11.068758
▁للصحة	-11.069111
▁الروح	-11.069118
▁مجالس	-11.069244
▁اليومي	-11.069279
▁المستفيدة	-11.069399
▁(2	-11.069613
▁الكثيرة	-11.069638
▁الكراهية	-11.069723
▁لمراجعة	-11.069801
▁المشتبه	-11.069818
▁فتئت	-11.069870
▁وموارد	-11.069923
دعم	-11.069925
▁ملخص	-11.069943
▁ويوصي	-11.070126
▁ونشرها	-11.070478
▁خلصت	-11.070786
▁المر	-11.070995
▁وأوكرانيا	-11.071084
▁بقية	-11.071090
▁للخبراء	-11.071185
▁شرعت	-11.071633
▁والتقرير	-11.071696
▁باحترام	-11.072327
▁للمناقشة	-11.072328
▁بتنسيق	-11.072817
▁كونغ	-11.073321
الهاتف	-11.073666
▁هندوراس	-11.073673
▁انخفاضا	-11.074011
زو	-11.074224
▁الإثبات	-11.074809
▁يكونوا	-11.074928
▁الرباعية	-11.075035
▁الحديث	-11.075145
▁ستواصل	-11.075161
ائق	-11.075234
▁المق	-11.075337
▁صراع	-11.075371
▁يعاقب	-11.075702
▁تر	-11.075802
▁الطعن	-11.075819
جلس	-11.075827
▁ازداد	-11.076015
▁اد	-11.076104
▁معالجتها	-11.076283
ضر	-11.076689
▁43-	-11.076879
▁44-	-11.076891
▁الرجوع	-11.077560
▁المديرين	-11.077854
▁1982	-11.077884
x	-11.078353
▁أعضائها	-11.078479
▁الاقتطاعات	-11.078560
▁طرح	-11.078576
يث	-11.078927
▁يفيد	-11.079263
▁يقدمه	-11.079448
▁يحول	-11.080015
▁التقاعد	-11.080278
▁بالمشاركة	-11.080290
▁بالوظائف	-11.080429
▁المؤيدون	-11.080583
▁للإبلاغ	-11.081119
فصل	-11.081225
توجه	-11.081339
▁والص	-11.081409
▁التحسينات	-11.081468
▁بقاء	-11.081948
▁منخفضة	-11.081986
دمج	-11.082044
▁تسع	-11.082428
▁خلف	-11.082500
▁المحكمتين	-11.082509
▁المدافعين	-11.082553
▁للإعلام	-11.083153
▁خريطة	-11.083651
▁وأصحاب	-11.083669
▁وعد	-11.083741
▁الصغير	-11.083744
▁استثناء	-11.083983
▁بروح	-11.084051
▁لليونيسيف	-11.084090
▁وأنا	-11.084331
▁خطوط	-11.084575
▁المهاجرات	-11.084598
Part	-11.084849
▁مفيدا	-11.085195
▁مارس	-11.085457
▁e	-11.085491
▁وعقدت	-11.085512
▁المستفيدين	-11.085526
▁الإقرار	-11.085541
▁النقض	-11.085595
▁الانسحاب	-11.085694
▁الحضور	-11.085732
▁نظ	-11.086003
ونغ	-11.086309
حس	-11.086415
▁ضوابط	-11.086435
ينغ	-11.086635
▁خطيرا	-11.086751
▁أدرجت	-11.087179
▁شدد	-11.087205
▁وإنفاذ	-11.087510
▁المناهج	-11.087612
▁والدعوة	-11.088144
▁مقرره	-11.088243
▁الإشعار	-11.088349
▁وإطار	-11.088451
▁متفق	-11.088452
اليونيسيف	-11.088457
/2005/	-11.088468
▁لندن	-11.088591
عنى	-11.088665
▁عسكري	-11.088734
▁للنص	-11.088871
▁وإرسالها	-11.089261
▁ولعل	-11.089594
▁التعليمي	-11.089913
▁لمناهضة	-11.090028
Q	-11.090100
القانون	-11.090182
▁مستعدة	-11.090213
▁ورأى	-11.090241
▁الإخلال	-11.090246
قيم	-11.090324
▁وحل	-11.090377
▁متن	-11.090475
▁أحرزته	-11.090676
▁وطأة	-11.090677
▁بدراسة	-11.090846
▁الصلات	-11.090858
▁54/2	-11.090861
▁الرقمية	-11.091129
▁عكس	-11.091166
▁معقدة	-11.091240
جامعة	-11.091269
▁للالتزامات	-11.091386
▁تدبير	-11.091503
▁Ch	-11.091573
منتدى	-11.091619
▁يس	-11.091784
▁المكرسة	-11.091917
▁وواصلت	-11.091930
▁m	-11.092271
▁الحلقات	-11.092680
▁حرمان	-11.092684
غو	-11.093220
تبع	-11.093284
▁توف	-11.093557
▁المرحلي	-11.093676
▁للاستجابة	-11.093733
▁الأمريكي	-11.093734
▁وتعد	-11.093920
▁يش	-11.093947
▁للقلق	-11.094805
▁لجن	-11.094935
▁وسيجري	-11.095186
حسن	-11.095305
▁ويساور	-11.095405
▁ينتمون	-11.095411
▁مفوضة	-11.095439
▁الكلية	-11.095547
▁110	-11.095596
▁نشطة	-11.096184
▁المقررين	-11.096263
▁تعرضت	-11.096341
▁تكامل	-11.096483
vi	-11.097070
▁مستند	-11.098003
إحالة	-11.098152
▁للاستثمار	-11.098287
عهد	-11.098290
وضع	-11.098330
▁ترتكب	-11.098380
▁بإصلاح	-11.098413
▁البروم	-11.098630
▁بالتزام	-11.098763
/2007/	-11.098784
ist	-11.099086
na	-11.099117
▁صادرات	-11.099188
▁يوحنا	-11.099265
▁101	-11.099514
▁الناطق	-11.099685
▁تشتمل	-11.099763
▁بوتسوانا	-11.100147
▁لحضور	-11.100149
▁المعقودتين	-11.100354
▁والجهود	-11.100425
▁يشك	-11.100471
▁تخص	-11.100924
ـــــــ	-11.100967
▁ومشاركة	-11.101018
▁وذات	-11.101230
▁1986	-11.101268
▁التكنولوجي	-11.101343
▁مظاهر	-11.101496
▁للقوات	-11.101844
▁قيرغيزستان	-11.102186
▁هجمات	-11.102294
▁للح	-11.102324
▁إضافيا	-11.102646
▁طبية	-11.103020
▁والقرار	-11.103030
▁والتقارير	-11.103485
لزم	-11.103604
▁أمريكي	-11.103875
▁مباني	-11.103945
▁تقسيم	-11.104060
▁الشرعي	-11.104127
▁تبت	-11.104186
▁البرمجة	-11.104989
▁ارتفع	-11.105188
▁بمكتب	-11.105210
▁حمل	-11.105252
▁يقبل	-11.105551
▁نو	-11.105681
▁مق	-11.105864
موا	-11.105927
المتعلقة	-11.106215
▁أسوأ	-11.106724
▁الممنوحة	-11.107879
▁والترتيبات	-11.108191
خبر	-11.108203
▁يجر	-11.108533
▁تراجع	-11.108652
قانون	-11.109379
▁المقيم	-11.109493
▁تندرج	-11.109607
عامل	-11.109771
▁بالحد	-11.110145
▁جسيمة	-11.110217
▁المتوفرة	-11.110439
▁إبراز	-11.110924
▁بول	-11.110980
▁والوصول	-11.111053
▁جنسيا	-11.111074
▁الخمسين	-11.111152
▁Development	-11.111225
▁أرقام	-11.111269
▁45-	-11.111452
سيا	-11.111679
▁للمشاكل	-11.111727
▁الميزانيات	-11.111809
▁بورتوريكو	-11.111883
▁أشكاله	-11.111927
▁والقانونية	-11.111934
▁أبناء	-11.111974
▁المور	-11.112128
▁صعبة	-11.112132
▁تقيد	-11.112213
▁مناقشتها	-11.112247
▁الموجود	-11.112418
▁والالتزام	-11.112480
لق	-11.112567
ذهب	-11.112589
▁المادي	-11.112595
▁(1998)	-11.112659
▁بالسيد	-11.112730
▁سيقدم	-11.112761
▁٢٥	-11.112805
▁ارتباطا	-11.112885
▁pro	-11.113115
▁وبوجه	-11.113175
▁الجبل	-11.113327
▁الاعتقال	-11.113334
▁وص	-11.113338
▁انتصاف	-11.113410
▁تربط	-11.113432
▁باراغواي	-11.113527
▁النموذج	-11.113676
▁بالمعايير	-11.113717
▁والفريق	-11.113997
▁بالحالة	-11.114155
▁d	-11.114328
▁توريد	-11.114365
▁والوكالة	-11.114469
▁استعراضا	-11.114558
ئي	-11.114789
▁جوهرية	-11.114848
▁وأصبح	-11.115034
▁طيه	-11.115101
▁مشتركا	-11.115137
▁المكلفين	-11.115399
▁كليا	-11.115437
▁متسقة	-11.115464
▁المخزونات	-11.115916
▁2010-2011	-11.116712
▁تهريب	-11.116716
▁أب	-11.116792
▁أيا	-11.117043
حلقة	-11.117196
▁المقصود	-11.117635
▁مئات	-11.117856
▁لتدريب	-11.117872
▁تفتقر	-11.117911
قدر	-11.118063
قصد	-11.118176
تمسك	-11.118191
▁بني	-11.118259
▁بإصدار	-11.118322
بقي	-11.118450
-12	-11.118687
▁بوصفهم	-11.118734
▁صغير	-11.118826
▁تع	-11.118943
▁بالع	-11.118986
▁أحيل	-11.119079
▁شعور	-11.119143
▁الناجحة	-11.119607
كين	-11.119662
▁وفنلندا	-11.119699
▁1992،	-11.119802
▁بموجبها	-11.120015
▁اكتساب	-11.120026
دول	-11.120049
▁مقررا	-11.120612
نشئت	-11.120745
▁بقصد	-11.120844
لقي	-11.120955
▁تعلن	-11.120972
▁كوفي	-11.121258
▁بمنح	-11.121582
/2004/	-11.121617
▁الأبرياء	-11.121808
▁الاستحقاقات	-11.121887
▁يتعارض	-11.122190
▁والصراعات	-11.122218
▁جنساني	-11.122339
▁زه	-11.122417
▁سياساتها	-11.122440
▁ونوع	-11.122808
▁وبدون	-11.123008
▁التمييزية	-11.123304
ts	-11.123460
باس	-11.123527
▁يتضح	-11.123547
▁لنتائج	-11.123885
▁الموقعة	-11.123897
▁يبقى	-11.124096
▁محاولات	-11.124247
▁للقواعد	-11.124769
▁أظهرت	-11.124890
▁الام	-11.124963
▁ويبلغ	-11.124995
▁بالطفل	-11.125057
هو	-11.125083
▁بتدابير	-11.125106
▁تعليمية	-11.125336
▁الموضوعي	-11.125511
▁بانكوك	-11.125721
▁والمجموعات	-11.125779
حكم	-11.126230
▁أجنبية	-11.126267
وخ	-11.126604
▁ينشئ	-11.126812
وتو	-11.126870
▁ويوفر	-11.126939
▁كور	-11.126980
▁المنتجة	-11.127003
▁تحفظات	-11.127105
▁46-	-11.127280
▁أوامر	-11.127287
▁شديدا	-11.127290
▁مخيمات	-11.127427
▁دقيق	-11.127634
غار	-11.127664
▁الجو	-11.127703
صير	-11.127972
▁التآزر	-11.128173
▁بنتائج	-11.128319
▁التجمع	-11.128912
احة	-11.128963
▁لحظر	-11.129055
▁فهذا	-11.129354
رجع	-11.129781
▁تضمنت	-11.129874
▁صباح	-11.130017
▁تأييدها	-11.130511
ٍّ	-11.131083
▁دخلت	-11.131188
پ	-11.131222
▁التعرف	-11.131232
▁المزارعين	-11.131334
▁ضرب	-11.131411
4).	-11.131677
وزع	-11.131680
ضاف	-11.131834
▁أتشرف	-11.131845
▁بإعلان	-11.131882
▁يسبق	-11.132130
▁اختلاف	-11.132156
ناقش	-11.132210
▁الطرد	-11.132210
▁تشويه	-11.132512
▁الخروج	-11.132618
▁تجرى	-11.132627
▁بالموافقة	-11.133307
عالي	-11.133360
▁تشريعاتها	-11.133401
▁حاسما	-11.133430
انغ	-11.133450
▁موزامبيق	-11.133817
▁وأقر	-11.134130
▁توغو	-11.134140
▁تأييده	-11.134198
▁وليست	-11.134213
▁ومرفقها	-11.134233
▁والعلاج	-11.134293
▁الإمدادات	-11.134297
سلط	-11.134431
▁الإلزامي	-11.134557
▁رؤوس	-11.134632
▁رحب	-11.134830
▁فيجي	-11.135303
▁والحفاظ	-11.135428
▁كارثة	-11.135578
▁أع	-11.135615
▁جوهر	-11.135643
▁تأسيس	-11.135773
مول	-11.135839
▁اجل	-11.136779
نقل	-11.136940
▁يتراوح	-11.137088
▁الأفغاني	-11.137293
▁الحدودية	-11.137485
▁(9)	-11.137641
ig	-11.137713
فس	-11.137836
▁للقضايا	-11.137924
ائف	-11.138045
▁والاحتياجات	-11.138242
▁للتخفيف	-11.138489
▁طارق	-11.138492
▁للع	-11.138617
▁برا	-11.138629
▁47-	-11.138638
▁القسرية	-11.139299
▁سطح	-11.139428
▁لإجراءات	-11.139832
▁نظامها	-11.139939
▁يحل	-11.139972
ضي	-11.140369
▁بالإشارة	-11.140421
▁يحكم	-11.140524
▁بالنظام	-11.140627
▁ونطاق	-11.140707
▁والوقاية	-11.140718
ارا	-11.140722
▁كسب	-11.141115
▁يستحق	-11.141445
▁وأقل	-11.141584
▁استمرت	-11.141633
▁بنوع	-11.141838
▁رفيعة	-11.141953
▁الدقيق	-11.142005
▁قائما	-11.142222
تون	-11.142253
PV	-11.142394
▁للسلطات	-11.142456
▁والخبرات	-11.142457
▁وارتفاع	-11.142743
▁وتقاسم	-11.142772
▁سريعة	-11.143194
أرصاد	-11.143263
جين	-11.143306
▁وبروتوكول	-11.143339
▁التأكد	-11.143551
طريقة	-11.143573
▁دام	-11.143616
▁نجد	-11.143797
▁وأوضحت	-11.143898
عزى	-11.144016
▁للآراء	-11.144249
▁57/2	-11.144368
▁ومواد	-11.144594
▁شرعية	-11.144624
▁وطنيا	-11.144635
▁القابل	-11.144668
نظم	-11.144787
▁1991،	-11.144931
▁اعتراف	-11.145094
شن	-11.145235
▁تقني	-11.145919
▁الانكليزية	-11.146179
▁ساعدت	-11.146320
▁أريد	-11.146532
▁الصينية	-11.146913
▁يفرض	-11.146935
▁الاستعمال	-11.147038
▁الشوارع	-11.147184
وغ	-11.147461
▁السداد	-11.147762
بأغلبية	-11.147967
▁السنين	-11.148054
▁زيارات	-11.148203
▁آل	-11.148361
▁أتاح	-11.148368
▁المل	-11.148613
▁يقومون	-11.148876
▁القصير	-11.148930
▁وتع	-11.149071
▁واجتماعات	-11.149267
▁كميات	-11.149315
▁الدرجة	-11.149547
▁الكهرباء	-11.149686
▁للعراق	-11.149699
▁مليار	-11.149851
▁تؤخذ	-11.150039
▁55/1	-11.150146
▁نشأت	-11.150148
▁عاملة	-11.150690
▁والغرض	-11.150714
▁إرادة	-11.150947
▁درجات	-11.150960
ti	-11.151143
▁تولى	-11.151174
▁للكوارث	-11.151288
▁شكوى	-11.151736
▁إمدادات	-11.151818
▁لائحة	-11.151958
▁ووظيفة	-11.151969
▁مخزونات	-11.152205
ive	-11.152388
▁104	-11.152496
▁ويود	-11.152704
▁لاستمرار	-11.152717
▁للعمليات	-11.153058
▁+	-11.153273
▁Chief	-11.153297
▁للس	-11.153322
تلبية	-11.153586
▁المقدسة	-11.153608
▁والفرص	-11.153666
▁الجزر	-11.153778
▁بلدها	-11.153784
▁المتفجرات	-11.154196
طرد	-11.154685
وار	-11.154912
▁المانح	-11.154944
▁المعلقة	-11.154978
▁والعهد	-11.155068
▁ضم	-11.155070
▁وتشدد	-11.155343
▁الدبلوماسي	-11.155353
قائمة	-11.155398
▁قرب	-11.155410
▁الكتب	-11.155635
▁امتداد	-11.155675
▁أسفرت	-11.155822
▁يعتزم	-11.155975
▁٢٨	-11.156533
▁الشكر	-11.156644
▁ثلث	-11.156672
▁لمعايير	-11.156835
▁وسع	-11.156893
▁عادية	-11.156914
▁لإنتاج	-11.157187
▁والاستجابة	-11.157273
يتهم	-11.157567
▁والإعلان	-11.157578
▁ولي	-11.157930
▁107	-11.157961
ليس	-11.157974
وش	-11.158128
▁لتغير	-11.158207
▁دليلا	-11.158293
▁الصغر	-11.158397
▁أجرتها	-11.158401
▁الاشتباك	-11.158477
▁الطرائق	-11.158739
▁وسيراليون	-11.159195
io	-11.159282
▁فشل	-11.159414
▁يجد	-11.159704
▁بطرس	-11.159770
▁البائع	-11.159843
▁112	-11.159884
▁للاجتماعات	-11.160039
▁ايام	-11.160184
▁المؤسف	-11.160248
▁تعدد	-11.160279
▁مبين	-11.160316
▁ونقلها	-11.160333
▁ومعلومات	-11.160466
▁والأمين	-11.160691
▁للتمويل	-11.160791
صرف	-11.160833
▁اعتمادها	-11.160969
▁وتعيين	-11.161021
▁اتساق	-11.161156
طول	-11.161240
▁لرؤساء	-11.161264
ضرورة	-11.161910
جة	-11.162030
▁داود	-11.162210
▁منزل	-11.162251
▁والبروتوكول	-11.162364
▁الطوائف	-11.162820
منع	-11.162874
سند	-11.162903
▁بفترة	-11.163005
▁المشعة	-11.163098
▁تنوع	-11.163100
▁يطبق	-11.163500
مسائل	-11.163754
▁الإحالة	-11.163788
▁وكينيا	-11.163829
▁الحروب	-11.163934
▁تجاهل	-11.164033
7).	-11.164087
▁الأس	-11.164115
▁وشعب	-11.164208
▁بالس	-11.164397
▁دإ	-11.164504
▁الوجود	-11.164505
سان	-11.164666
▁الفرنسي	-11.164690
▁السفينة	-11.164743
▁يعزى	-11.164753
▁الهندي	-11.164858
▁وسري	-11.164858
اسي	-11.165119
▁الانفرادية	-11.165292
▁جي	-11.165574
▁الحميدة	-11.165578
قوة	-11.165936
▁إدراك	-11.166733
اشي	-11.166763
▁was	-11.166930
▁بأسرها	-11.166960
مشروع	-11.167310
▁للأراضي	-11.167603
▁خلص	-11.167982
▁تزداد	-11.168003
▁الصناعي	-11.168012
▁مئوية	-11.168368
▁والإشراف	-11.168368
▁واقت	-11.168472
ستن	-11.168735
لجنة	-11.168942
▁الإذن	-11.168953
▁هدفا	-11.168955
▁للمنتدى	-11.169175
▁أطلقت	-11.169557
▁للتنسيق	-11.170071
▁تيسر	-11.170093
▁أغراض	-11.170154
وكالة	-11.170655
▁والفئات	-11.170684
▁الطالبان	-11.170687
إزاء	-11.170821
▁الموص	-11.170926
▁وكفاءة	-11.170931
▁مزايا	-11.170938
لاء	-11.170964
▁الإنصاف	-11.171188
▁شرطا	-11.171342
عاقب	-11.171361
مير	-11.171380
.11	-11.171808
▁الريف	-11.171887
صوت	-11.171900
▁ويحدد	-11.172009
حوالي	-11.172112
سك	-11.172120
▁وبسبب	-11.172425
▁المرتزقة	-11.172455
▁سياسيا	-11.172512
▁بالمياه	-11.172532
مدت	-11.172811
حين	-11.172824
▁والإنمائية	-11.172874
عالج	-11.172897
▁تبدو	-11.172912
▁بالصيغة	-11.172997
▁النفسية	-11.173020
▁الشرقي	-11.173257
الدورة	-11.173534
▁مرجعية	-11.173560
▁بمبادئ	-11.173800
▁كول	-11.173857
الوسائل	-11.173944
▁تعين	-11.174116
تمتع	-11.174263
▁للشراكة	-11.174297
/2006/	-11.174381
▁والنظم	-11.174764
▁نهائية	-11.175118
▁الجمع	-11.175448
▁الترخيص	-11.175866
▁لأفراد	-11.176021
▁يستفيد	-11.176225
▁117	-11.176297
طال	-11.176316
▁حددتها	-11.176478
جس	-11.176696
▁المحادثات	-11.176765
▁منفصل	-11.176834
▁والمت	-11.176865
▁1981	-11.176902
8).	-11.176950
نية	-11.177188
▁تعتقد	-11.177192
▁أجنبي	-11.177196
▁والترجمة	-11.177732
▁مسبقة	-11.177743
ill	-11.177814
▁وتضم	-11.177845
▁فينبغي	-11.177986
j	-11.178168
▁وتوجيه	-11.178334
▁1267	-11.178702
كندا	-11.178727
▁عملت	-11.178730
▁مركزا	-11.178741
▁مواقف	-11.178804
▁(3	-11.179007
▁وآسيا	-11.179007
▁التوافق	-11.179117
▁أد	-11.179140
▁الصباح	-11.179647
غلق	-11.179729
ده	-11.179853
▁مسؤولي	-11.180063
▁عناية	-11.180086
جريت	-11.180326
طة	-11.180339
نشر	-11.180408
▁هونغ	-11.180512
▁للاستعراض	-11.180690
ies	-11.180707
▁ومرافق	-11.180781
حب	-11.180941
▁والمغرب	-11.180978
▁المنخفض	-11.181010
▁يطالب	-11.181069
صح	-11.181102
▁الكمية	-11.181226
▁والاستفادة	-11.181477
▁لتدابير	-11.181510
▁بلدنا	-11.181643
▁تقديرنا	-11.181666
ودي	-11.182140
▁مب	-11.182177
▁استراتيجي	-11.182178
▁واللاجئين	-11.182228
▁فعلية	-11.182252
▁1980	-11.182413
▁للمعوقين	-11.182744
ضمن	-11.182791
▁تف	-11.183039
▁نعرب	-11.183245
▁كيما	-11.183306
▁(10)	-11.183524
▁وغواتيمالا	-11.183578
شجع	-11.184089
▁والممثل	-11.184207
▁أوضحت	-11.184276
▁السائد	-11.184314
▁انتهت	-11.184366
▁وتتعلق	-11.184461
▁الدقيقة	-11.184507
لية	-11.184521
▁وشامل	-11.185050
▁الآباء	-11.185160
▁معالي	-11.185741
▁يع	-11.185820
▁للأسرة	-11.185842
▁المفعول	-11.185852
▁وبدأت	-11.185938
نق	-11.185948
ذل	-11.186001
▁وهنغاريا	-11.186060
▁تعبر	-11.186178
رنا	-11.186275
يتان	-11.186333
▁الخلفية	-11.186374
▁لتوسيع	-11.186377
▁الفوارق	-11.186418
مه	-11.186420
▁الحرمان	-11.186762
▁2004)	-11.186891
▁الإخطار	-11.187116
غن	-11.187675
شخص	-11.187742
▁إجماليه	-11.187777
▁مدرجة	-11.187987
▁106	-11.188086
▁اللوات	-11.188355
▁بالتحديد	-11.188423
أسرع	-11.188429
▁والفلبين	-11.188578
▁الأمثل	-11.189011
▁موت	-11.189082
▁استفادة	-11.189207
▁وألا	-11.189334
▁الالكترونية	-11.189672
▁خسارة	-11.189734
رتب	-11.189746
واء	-11.189934
▁ساموا	-11.190049
▁زعماء	-11.190328
▁مواتية	-11.190568
▁والإعلام	-11.190792
▁وماليزيا	-11.190916
▁مبنى	-11.190940
▁II	-11.190983
▁المعلنة	-11.191027
▁واستجابة	-11.191070
▁ندرك	-11.191116
▁فريقا	-11.191204
▁وبولندا	-11.191236
راب	-11.191321
▁ممثلون	-11.191349
▁طبيعية	-11.191399
▁تأجيل	-11.191836
▁والمؤسسية	-11.191917
▁صادرة	-11.192221
▁وتهدف	-11.192310
كان	-11.192326
▁ستقدم	-11.192458
▁أخ	-11.192492
▁والتكنولوجيات	-11.192528
▁يؤ	-11.193165
▁التعصب	-11.193451
▁تحالف	-11.193665
▁العادة	-11.194223
ويل	-11.194276
▁اشتراكاتها	-11.194335
▁إغلاق	-11.194372
مك	-11.194530
▁محد	-11.194644
اليابان	-11.194658
▁ويهدف	-11.194936
▁خصائص	-11.194971
▁بشؤون	-11.194979
▁البارزة	-11.194996
▁التوقيت	-11.195028
▁بسهولة	-11.195084
▁بإقامة	-11.195162
يض	-11.195163
▁انطباق	-11.195368
مواطن	-11.195807
▁للتوعية	-11.196000
um	-11.196003
▁أعده	-11.196033
▁الشيء	-11.196435
▁وأهمية	-11.196445
▁للهيئة	-11.196679
pa	-11.196702
▁المجالس	-11.196743
▁القانونيين	-11.196778
▁بقبول	-11.196808
▁ينشأ	-11.196904
▁الشيوخ	-11.197067
▁130	-11.197294
▁ذكره	-11.197607
ge	-11.197614
▁الكيان	-11.197622
▁ثبت	-11.197766
▁ويعرب	-11.198186
▁تصديق	-11.198266
الفترة	-11.198387
▁انطلاقا	-11.198401
▁وجدول	-11.198429
▁خير	-11.198461
▁تكييف	-11.198643
منطقة	-11.198690
زوج	-11.198743
▁المجموع	-11.198763
كب	-11.199005
▁States	-11.199195
▁شرع	-11.199346
▁فر	-11.199541
▁أرحب	-11.199805
ate	-11.199879
▁الفنيين	-11.199924
▁تمييزية	-11.199941
/2000/	-11.200175
▁سابعا	-11.200228
▁بتكنولوجيا	-11.200409
▁زواج	-11.200501
▁والنمسا	-11.201048
▁الفنلندية	-11.201099
▁الإعانات	-11.201128
▁للتقييم	-11.201166
▁نكون	-11.201224
▁الإيجار	-11.201421
▁48-	-11.201488
▁جد	-11.201505
▁بأكملها	-11.201548
▁قصر	-11.201716
▁إيجابيا	-11.201802
▁إطلاع	-11.202065
▁رقابة	-11.202070
▁والبرتغال	-11.202151
طيلة	-11.202202
▁بوصف	-11.202685
17)	-11.202691
▁وبالتعاون	-11.202868
طي	-11.202869
▁109	-11.202897
يدة	-11.202904
ستعمل	-11.203062
ضعف	-11.203523
▁لولايتها	-11.203644
▁الجوهرية	-11.203739
▁والتزام	-11.203790
▁قمع	-11.203942
▁الوظيفية	-11.204070
▁فورية	-11.204070
CRC	-11.204215
تواصل	-11.204247
فع	-11.204595
▁المساكن	-11.204671
▁الفضلى	-11.204827
▁111	-11.204912
▁بالتحقيق	-11.204928
▁الاعتداءات	-11.204997
▁أبعاد	-11.205273
▁مرسوم	-11.205274
▁مفاهيم	-11.205496
▁1990،	-11.205733
▁والخاصة	-11.205891
▁سام	-11.205893
▁مدغشقر	-11.205899
▁استعمالها	-11.206014
▁وقوات	-11.206202
▁الأساليب	-11.206253
2003	-11.206762
▁وتحدد	-11.206781
▁وتقييمها	-11.206912
▁رأينا	-11.207092
▁al	-11.207145
رث	-11.207211
▁الفهم	-11.207329
▁قرية	-11.207375
▁انقضاء	-11.207720
عطي	-11.207778
تقليل	-11.207788
▁الموجزة	-11.207931
عودة	-11.208035
يج	-11.208040
▁49-	-11.208071
da	-11.208568
▁بالتفصيل	-11.209222
▁الطعون	-11.209259
▁أسهمت	-11.209408
▁القرى	-11.209492
▁2005)	-11.209576
▁ترحيب	-11.209640
▁الطعام	-11.210035
▁الرياضية	-11.210445
خدم	-11.210549
حف	-11.210629
▁السل	-11.210663
▁بالي	-11.210793
جبر	-11.210799
▁التزامه	-11.210827
▁الجامعات	-11.211093
فريق	-11.211187
▁بالا	-11.211245
▁مخلفات	-11.211404
ملء	-11.211540
▁للوقاية	-11.211599
▁والنمو	-11.211716
▁لمبدأ	-11.211746
▁المعارضون	-11.211864
▁الموجودين	-11.211895
▁البديل	-11.212163
▁بشروط	-11.212197
CP	-11.212262
▁وسلوفينيا	-11.212581
عم	-11.212725
▁لتجديد	-11.212744
▁تعويضا	-11.212824
▁والمتابعة	-11.212846
أفرقة	-11.213001
▁مشاعر	-11.213197
▁والش	-11.213556
▁واجبات	-11.213611
▁للشركات	-11.213731
حضر	-11.213885
▁لبلد	-11.214105
?	-11.214268
▁اللا	-11.214364
▁اختتمت	-11.214529
قع	-11.214782
▁متاح	-11.214784
▁تتوقف	-11.214796
▁ومالي	-11.214878
اكا	-11.214996
▁وسل	-11.216007
▁ضخمة	-11.216097
▁الصعبة	-11.216102
مبادرة	-11.216373
Sect	-11.216493
COP	-11.216584
▁بديل	-11.216755
▁إكمال	-11.216938
▁والكفاءة	-11.216945
▁تدل	-11.217141
▁أدخلت	-11.217172
▁رحبت	-11.217333
▁الأن	-11.217351
▁الاستعاضة	-11.217546
▁أطول	-11.217978
دني	-11.218070
▁والإنسانية	-11.218129
▁250	-11.218176
▁1984	-11.218223
▁طلبه	-11.218270
▁بار	-11.218308
▁واختتم	-11.218613
▁الإسرائيليين	-11.218699
▁وإسرائيل	-11.219069
▁وتايلند	-11.219087
فات	-11.219398
توقف	-11.219599
▁وثانيا	-11.219885
رفع	-11.220008
▁اجراءات	-11.220031
▁البدني	-11.220031
▁واللجان	-11.220067
-3)	-11.220148
ترجمة	-11.220154
روي	-11.220174
▁تبذله	-11.220181
▁نعمل	-11.220330
▁التوطين	-11.220712
▁والتحقيق	-11.220765
▁وأفاد	-11.220921
▁والأقاليم	-11.221138
▁المعيار	-11.221155
▁50-	-11.221383
▁أبابا	-11.221512
عثور	-11.221702
▁تحقيقها	-11.222231
▁بمعاهدات	-11.222301
-4،	-11.222372
▁تمتثل	-11.222446
▁والأمنية	-11.222550
▁102	-11.222748
▁الشمالي	-11.222939
▁اللوائح	-11.222989
▁للمعهد	-11.223079
▁حصر	-11.223143
▁واسمحو	-11.223145
▁الهيكلي	-11.223182
▁والأنظمة	-11.223242
فيل	-11.223320
▁يزداد	-11.223378
▁المراهقين	-11.223379
▁وإزالة	-11.223516
▁اللبناني	-11.223671
ڠ	-11.223943
▁الممتنعون	-11.224185
▁سبتمبر	-11.224303
▁انخفضت	-11.224327
em	-11.224556
حص	-11.224787
▁مز	-11.224884
▁ووضعت	-11.225017
▁والثانية	-11.225049
▁تطالب	-11.225158
▁للا	-11.225529
▁استراليا	-11.225615
▁حرة	-11.225634
-11	-11.226030
▁توثيق	-11.226402
▁المنزلية	-11.226527
رئيس	-11.227168
▁الإحصائي	-11.227196
عقوبة	-11.227208
▁لان	-11.227403
▁تخل	-11.227465
▁إجرامية	-11.227485
PR	-11.227512
▁المتواصلة	-11.227797
▁تستعرض	-11.227847
ناصر	-11.228052
خلص	-11.228065
▁اقتناع	-11.228078
▁للأم	-11.228111
▁سرعة	-11.228879
▁بضعة	-11.228895
▁وامتناع	-11.229049
لإزالة	-11.229141
▁عقبة	-11.229414
tim	-11.229473
تماشى	-11.229587
com	-11.229855
آب	-11.230124
سار	-11.230190
▁صغار	-11.230490
▁يعلم	-11.230631
▁وتدعم	-11.230643
كما	-11.230691
▁لتأمين	-11.230764
زام	-11.231471
▁وقوة	-11.231503
▁123	-11.231532
▁بجمع	-11.231551
باء	-11.231628
▁ومسؤوليات	-11.231663
▁الرياضة	-11.231804
▁والدروس	-11.231846
▁تبرير	-11.231899
▁قليلا	-11.232079
لبحوث	-11.232138
▁خل	-11.232442
▁الفق	-11.232496
قتل	-11.232537
▁المستشفيات	-11.232576
▁ومنهاج	-11.233026
▁المتفجرة	-11.233120
▁برو	-11.233144
▁التطبيقات	-11.233268
▁وفرص	-11.233480
ابي	-11.233559
▁مديري	-11.233575
▁ودائم	-11.233822
▁عملنا	-11.233840
شف	-11.233895
▁لإنجاز	-11.234089
▁والمعاقبة	-11.234276
▁المعينين	-11.234298
▁an	-11.234447
روس	-11.234838
▁صارمة	-11.234921
▁CEDAW	-11.235005
▁والذخائر	-11.235177
▁118	-11.235198
آخ	-11.235436
المرأة	-11.235464
▁مارك	-11.235708
▁لقياس	-11.235995
▁انهم	-11.236246
▁والعمالة	-11.236442
▁[]	-11.236582
▁الترابط	-11.236938
▁والك	-11.237089
▁التحويلات	-11.237227
▁بعرض	-11.237465
▁ونفذت	-11.237634
▁والأمراض	-11.237779
▁طائرات	-11.238329
▁كأداة	-11.238461
▁116	-11.238531
▁حاء	-11.238801
▁أمله	-11.238984
▁الإسراع	-11.239017
▁ناجحة	-11.239061
▁الاستخدامات	-11.239126
▁ونظرت	-11.239197
▁Ma	-11.239211
▁ينتظر	-11.239252
▁الاختصاصات	-11.239254
▁تعر	-11.239445
▁المقبولة	-11.239518
▁أقاليم	-11.239532
▁لولاية	-11.239578
ho	-11.239591
طا	-11.239833
▁تعليلا	-11.239978
▁منسقة	-11.240000
▁2010.	-11.240063
المنتمين	-11.240145
▁وتوطيد	-11.240150
▁إحصائية	-11.240305
▁نصت	-11.240369
شبكة	-11.240738
▁الاعتراض	-11.241194
▁للتعويض	-11.241258
▁يساوره	-11.241334
▁ونص	-11.241465
▁التشغيلي	-11.241499
▁لتسهيل	-11.241807
▁تعلق	-11.242476
كتاب	-11.242480
▁التدبير	-11.242620
▁القاهرة	-11.242678
▁Pro	-11.243038
▁علوم	-11.243047
▁ووجود	-11.243122
ثر	-11.243378
حافظ	-11.243417
▁الحيوي	-11.243536
▁تعل	-11.243662
▁تجاري	-11.243788
▁والرقابة	-11.243791
خرج	-11.243989
▁أيد	-11.244031
▁World	-11.244062
▁وشاملة	-11.244090
فان	-11.244143
▁المكاسب	-11.244359
▁المستصوب	-11.244402
▁بولاية	-11.244481
▁المستمد	-11.244590
▁هجوم	-11.244765
▁مؤسسية	-11.244899
▁مرتبطة	-11.245111
▁أعدته	-11.245376
▁القوية	-11.245500
▁لوائح	-11.245533
▁والممثلين	-11.245612
▁مجمل	-11.245912
▁الأجيال	-11.246024
▁الاستعداد	-11.246030
▁قيل	-11.246113
▁أثبتت	-11.246280
▁تمثيلا	-11.246305
▁إدارات	-11.246428
▁حياته	-11.246590
▁2008)	-11.246867
ونها	-11.247024
▁احتمالات	-11.247192
▁1978	-11.247228
الخطوات	-11.247535
ذر	-11.247925
▁المدر	-11.248040
زعم	-11.248164
▁ومكان	-11.248175
▁أقصاه	-11.248426
▁مارينو	-11.248428
/21	-11.248442
▁مباشرا	-11.248506
/1999/	-11.248570
▁امتثالا	-11.248648
▁وخفض	-11.248730
▁والعلاقات	-11.248740
▁التوجه	-11.248892
فن	-11.248903
.18	-11.249235
▁البهاما	-11.249300
▁ومصالح	-11.249423
▁وغالبا	-11.249569
▁ورواندا	-11.249866
▁بالسلام	-11.250169
▁rights	-11.250253
توافق	-11.250509
▁تعنى	-11.250557
▁فهناك	-11.250675
▁تمول	-11.250708
▁الربط	-11.250744
▁ساهمت	-11.250882
▁والاجتماعات	-11.250903
▁عقبات	-11.250918
▁الألمانية	-11.251374
▁نشرت	-11.251493
شت	-11.251643
▁also	-11.252068
▁صفحات	-11.252246
▁المتبقي	-11.252409
فار	-11.252507
▁ميزانيات	-11.252690
▁بذلتها	-11.252723
▁محو	-11.252796
▁والنفقات	-11.252903
دع	-11.253132
▁وتقدير	-11.253396
▁ووجه	-11.253907
▁بإبلاغ	-11.254046
لوا	-11.254334
mo	-11.254467
▁بدائل	-11.254625
▁تعامل	-11.254780
html	-11.254862
مكن	-11.254894
▁والدفاع	-11.255096
ie	-11.255236
▁والجزائر	-11.255424
▁سريع	-11.255683
▁وتبلغ	-11.255908
▁الإقليميين	-11.255964
▁يبذل	-11.255974
يونيتا	-11.256305
▁الشر	-11.256356
▁2002)	-11.256383
كام	-11.256527
▁ارض	-11.257067
▁والتصديق	-11.257188
▁الغجر	-11.257224
ادات	-11.257228
▁نأمل	-11.257339
▁التضخم	-11.257356
▁للحكم	-11.257537
▁2011	-11.257558
قط	-11.257594
▁حلف	-11.257600
▁مسؤولين	-11.257758
▁التلاميذ	-11.258039
▁الواردات	-11.258086
▁ولئ	-11.258089
▁دم	-11.258129
▁المكلفة	-11.258178
لاح	-11.258378
▁ومنح	-11.258609
▁الخطوط	-11.258812
رفق	-11.258842
▁إدانة	-11.258879
▁يونيه	-11.258939
▁أعتقد	-11.258991
▁تحمي	-11.259391
▁لإصدار	-11.259712
▁وشددت	-11.259822
▁حصص	-11.259829
▁تدريبا	-11.259947
الحصول	-11.260173
نشط	-11.260443
▁المبعوث	-11.260650
▁لأحد	-11.260695
▁بالدعم	-11.260704
▁نلاحظ	-11.260967
▁بالأهداف	-11.261060
5).	-11.261095
▁لله	-11.261116
▁تدين	-11.261326
▁المنوطة	-11.261380
▁51-	-11.261528
▁والدور	-11.261545
▁تريد	-11.261596
زيارة	-11.261755
▁لقاء	-11.261769
▁والصناديق	-11.261956
▁مفادها	-11.262063
▁وحركة	-11.262121
▁وأجهزة	-11.262418
▁تبدي	-11.262586
▁كأساس	-11.262802
▁المحيطة	-11.262940
باط	-11.263005
▁وواصل	-11.263237
▁فقرة	-11.263284
2).	-11.263315
▁النسبية	-11.263444
▁وأعتقد	-11.263629
▁باستعمال	-11.263728
▁برحت	-11.263830
يري	-11.263890
وبة	-11.263909
▁يطرح	-11.264050
▁للمياه	-11.264060
▁بموضوع	-11.264120
▁الموق	-11.264196
عام	-11.264435
▁ويت	-11.264874
▁مطالب	-11.264942
وارد	-11.265467
▁ابي	-11.265517
جا	-11.265531
لحفاظ	-11.265809
▁الكلور	-11.265810
▁وحكومات	-11.265881
▁المساس	-11.265989
▁ندعو	-11.266187
▁بالاقتران	-11.266515
▁فعلي	-11.266527
▁دامت	-11.266564
▁المضمونة	-11.266576
▁تأمل	-11.266665
▁قضائي	-11.266973
▁قلم	-11.267131
▁التدمير	-11.267159
ونات	-11.267168
▁بالقيام	-11.267220
▁أجور	-11.267593
يوس	-11.267637
▁واليونان	-11.267700
▁والتزامات	-11.267789
▁تنشر	-11.267830
▁أوقات	-11.267885
▁النيابة	-11.268442
▁يسبب	-11.268462
▁وبلغت	-11.268565
▁الامتناع	-11.268568
▁وتحويل	-11.268653
▁نسب	-11.268822
▁لسن	-11.268992
▁القصيرة	-11.269039
▁الوجه	-11.269118
▁يرجع	-11.269158
▁والمؤتمر	-11.269669
▁أضرار	-11.269849
▁الخطية	-11.269907
▁يتعرضون	-11.270105
تطور	-11.270128
▁وإنني	-11.270156
▁زي	-11.270376
▁مشورة	-11.270432
▁صحيحة	-11.270483
▁محتملة	-11.270527
▁للأسر	-11.270636
▁انسحاب	-11.270796
▁پ	-11.270843
.25	-11.270886
▁والصراع	-11.271193
▁الث	-11.271497
▁عروض	-11.271731
▁للسلم	-11.271914
▁والآثار	-11.272163
▁والمتعددة	-11.272227
▁are	-11.272358
▁والآن	-11.272515
قصر	-11.272640
بني	-11.272667
▁الإشعاع	-11.272764
▁الحرجة	-11.272769
▁الخصائص	-11.273089
▁جهدا	-11.273160
▁العرق	-11.273213
▁تطبيقات	-11.273247
▁الكر	-11.273320
▁دقائق	-11.273347
افي	-11.273377
نى	-11.273443
▁ورأت	-11.273640
23)	-11.273799
▁58/1	-11.273799
ary	-11.273812
▁للمنطقة	-11.273870
▁للجماعة	-11.274160
▁بالفيروس	-11.274162
طالب	-11.274296
▁الآسيوي	-11.274521
▁موجزا	-11.274542
City	-11.274571
روب	-11.274858
ثن	-11.275177
▁وأمانة	-11.275216
▁كوبنهاغن	-11.275260
▁ريثم	-11.275395
9).	-11.275579
حسب	-11.275647
▁co	-11.275719
▁الاس	-11.276260
▁n	-11.276379
▁المديرية	-11.276420
▁يترك	-11.276463
▁New	-11.276580
▁الكهربائية	-11.276605
▁إيداع	-11.276701
▁بالاحتياجات	-11.276750
▁أك	-11.276987
▁والتسامح	-11.277000
▁وأحد	-11.277058
▁لصاحب	-11.277102
الات	-11.277106
▁والسلم	-11.277700
▁سلع	-11.277854
▁التواصل	-11.277971
▁بالقدر	-11.278062
▁إسهامات	-11.278179
6).	-11.278267
ICEF	-11.278441
▁نشوء	-11.278497
ندو	-11.278552
▁لأكثر	-11.278695
▁إيضاح	-11.279032
▁تصدق	-11.279072
▁ولتحقيق	-11.279107
فضل	-11.279330
▁وتشعر	-11.279633
▁يتبين	-11.279808
▁المنافع	-11.279932
▁الأب	-11.280022
▁الاجراءات	-11.280326
▁إيفاد	-11.280378
▁المساعي	-11.280634
▁اجتماعي	-11.280998
▁ترويج	-11.281051
وكا	-11.281101
▁والتعبير	-11.281107
▁استلام	-11.281234
▁كن	-11.281719
▁صلاحيات	-11.281876
▁والتثقيف	-11.282008
▁التناسلية	-11.282042
▁توقعات	-11.282078
مواجهة	-11.282107
▁السيارات	-11.282181
شركة	-11.282218
▁امتلاك	-11.282285
▁سلبا	-11.282511
▁وشاركت	-11.282515
▁وسبل	-11.282695
▁المتوخى	-11.282819
▁المتعاقد	-11.282836
خير	-11.282943
▁والهجرة	-11.283023
أقصى	-11.283042
▁إيصال	-11.283101
▁قراراته	-11.283161
▁140	-11.283186
▁المنبثقة	-11.283264
لإغاثة	-11.283411
▁ملحوظ	-11.283479
▁وبلجيكا	-11.283697
-10/	-11.283708
ريس	-11.283723
تسخير	-11.283814
▁الأجزاء	-11.284041
راس	-11.284112
▁شاغل	-11.284121
▁للتعامل	-11.284215
▁معروف	-11.284234
لند	-11.285022
بالانكليزية	-11.285223
▁مهامها	-11.285417
▁التعهد	-11.285418
▁الأحيائية	-11.285496
▁بأكثر	-11.285577
▁المطبقة	-11.285593
▁موجود	-11.285696
▁لخدمة	-11.285735
صافيه	-11.285772
ضا	-11.285935
/62/	-11.286056
▁القوائم	-11.286200
خذت	-11.286227
نهاية	-11.286964
▁التوقعات	-11.287032
▁إدراجها	-11.287050
▁ميل	-11.287198
▁بولايتها	-11.287375
▁والقوانين	-11.287773
▁ليصبح	-11.288015
▁وتهيب	-11.288016
▁الناخبين	-11.288418
▁مطار	-11.288623
▁إلحاق	-11.288751
ثة	-11.288788
▁تقوية	-11.288795
جيل	-11.288841
▁والمحلي	-11.288935
باب	-11.289022
فعل	-11.289225
▁نائبة	-11.289228
▁التزامنا	-11.289762
▁52-	-11.290006
▁الفرعيتين	-11.290276
▁Committee	-11.290339
▁122	-11.290828
▁الكلوري	-11.290894
▁للرعاية	-11.291086
▁والصناعة	-11.291244
▁نس	-11.291287
▁وأصبحت	-11.291488
▁واليونيسيف	-11.291529
▁للإصلاح	-11.291553
▁الحاكم	-11.291630
▁صفة	-11.291738
▁التفسير	-11.291792
▁مسبق	-11.292146
▁آنذاك	-11.292207
▁الميزنة	-11.292253
▁والبوسنة	-11.292336
▁لإدراج	-11.292376
▁يولي	-11.292520
▁ولبنان	-11.292724
▁الخرائط	-11.292816
▁قاضي	-11.292819
تتولى	-11.292823
▁مركزية	-11.293056
▁ازدادت	-11.293223
▁سيطرة	-11.293370
-13	-11.293450
▁بطاقات	-11.293755
▁عقدتها	-11.293827
▁والفعالية	-11.293830
▁وجهود	-11.294101
▁عب	-11.294141
▁النامي	-11.294320
▁114	-11.294654
أرصدة	-11.294676
▁محفل	-11.294736
▁الرؤية	-11.294966
▁وتغير	-11.295115
▁النواب	-11.295401
▁جارية	-11.295537
سكي	-11.295611
▁المعاش	-11.295745
روف	-11.295810
▁للفقر	-11.296241
عوا	-11.296304
▁الحرجية	-11.296707
res	-11.296759
▁ديون	-11.296797
▁الربع	-11.296864
▁تنتج	-11.296977
▁وعبر	-11.297016
▁يحتوي	-11.297063
▁مدفوعات	-11.297105
▁الهيكلية	-11.297204
نش	-11.297259
دير	-11.297276
▁الرامي	-11.297301
▁يوليه	-11.297401
▁والإنجابية	-11.297413
.17	-11.297591
▁للمساواة	-11.297619
▁أخطار	-11.297714
فهم	-11.297778
▁CRC	-11.297822
اقة	-11.297904
▁تحليلا	-11.297954
قوا	-11.298053
▁أبعد	-11.298075
▁أفاد	-11.298140
▁العكس	-11.298146
▁ختام	-11.298154
▁أعباء	-11.298157
▁تسري	-11.298400
▁والقوات	-11.298914
▁وفرض	-11.298969
▁وطبقا	-11.299131
▁خال	-11.299136
▁للاتجار	-11.299168
▁والتعمير	-11.299170
▁حادث	-11.299199
▁إشعار	-11.299248
▁أفكار	-11.299264
▁ملاوي	-11.299409
▁بص	-11.299499
▁اليد	-11.299509
▁نشعر	-11.299573
▁ترشيح	-11.299650
▁والعراق	-11.299686
▁1977	-11.299727
▁أدلت	-11.299773
▁الكونغولي	-11.299881
▁الفورية	-11.299960
IV	-11.300121
كال	-11.300134
▁السلبي	-11.300296
تناسب	-11.300315
▁المتنوعة	-11.300319
▁تعبير	-11.300347
▁بلدانهم	-11.300416
▁الكندية	-11.300514
▁زوج	-11.300762
▁خصيصا	-11.300899
يفة	-11.300942
▁153	-11.301107
▁ادعاء	-11.301248
▁بخلاف	-11.301327
▁الحيوانات	-11.301423
▁والدانمرك	-11.301434
▁وفورات	-11.301489
▁مبتكرة	-11.301521
▁الإسبانية	-11.301588
▁الاستدامة	-11.301648
▁See	-11.301770
▁المعروف	-11.301784
▁توصلت	-11.301799
اعة	-11.301877
خل	-11.301929
▁اعتبرت	-11.302093
يكو	-11.302110
▁مج	-11.302171
▁المنتظمة	-11.302378
▁سكانها	-11.302543
▁مجموعها	-11.302981
حدث	-11.303405
▁وأفريقيا	-11.303529
▁يصعب	-11.304019
▁الكبار	-11.304083
عن	-11.304254
▁وتشارك	-11.304326
▁والبالغ	-11.304373
▁عاجل	-11.304517
▁استثمارات	-11.304686
▁والإداري	-11.304853
▁محادثات	-11.304983
نص	-11.305002
▁كوثيقة	-11.305022
جميع	-11.305087
▁والاعتماد	-11.305222
اكي	-11.305243
▁بمعالجة	-11.305273
▁ميدانية	-11.305444
▁بكفاءة	-11.305572
▁يشترك	-11.305626
▁سلبي	-11.305655
▁بالأمر	-11.305827
▁تتبعها	-11.305883
▁منشور	-11.306022
▁العطاءات	-11.306045
▁صلات	-11.306233
▁الاستشاريين	-11.306559
▁مواعيد	-11.306622
ve	-11.306629
▁يقيم	-11.306662
فرنسا	-11.306769
▁مؤ	-11.306787
▁مثيل	-11.306922
▁شاهد	-11.306961
▁بالاتصال	-11.307007
▁مساحة	-11.307011
▁مرتكب	-11.307145
صدر	-11.307335
▁بالإيدز	-11.307446
▁تركمانستان	-11.307467
▁يتلقى	-11.307785
▁فريدة	-11.307801
▁تشترك	-11.307819
▁يسر	-11.308019
▁w	-11.308084
▁منهجي	-11.308125
ناها	-11.308289
▁اعتماده	-11.308536
▁قصوى	-11.308791
نسي	-11.308865
▁يفعل	-11.309240
▁بيئية	-11.309383
ca	-11.309531
▁والدولة	-11.309682
▁بلاغ	-11.309716
قار	-11.309718
دولارات	-11.310276
▁المبرم	-11.310327
ou	-11.310329
▁أقول	-11.310372
▁y	-11.310401
▁53-	-11.310884
▁أيسلندا	-11.310985
▁والتخفيف	-11.311136
▁الدوام	-11.311256
سين	-11.311276
▁المرهونة	-11.311430
▁الحساسة	-11.311434
▁تذك	-11.311456
▁لقطاع	-11.311655
▁طال	-11.311660
▁وسلوفاكيا	-11.312078
▁اتفاقا	-11.312088
ألمانيا	-11.312253
▁بولايته	-11.312253
▁التعمير	-11.312403
لاحظ	-11.312544
▁تقويض	-11.313060
▁بخدمات	-11.313131
بحث	-11.313188
▁اخت	-11.313237
▁المستقبلية	-11.313464
الجمهورية	-11.313755
▁مطلوب	-11.313869
▁المتوخاة	-11.314080
▁تستجيب	-11.314080
أكبر	-11.314095
▁محطة	-11.314168
▁La	-11.314325
▁ومت	-11.314378
▁الزخم	-11.314590
▁والملاريا	-11.314670
▁التخلي	-11.314678
▁الكونغولية	-11.314761
▁وبم	-11.314808
▁قوانينها	-11.314816
▁بعيدة	-11.314949
▁النداء	-11.315104
▁وجامعة	-11.315418
طبقة	-11.315511
▁الاحتيال	-11.315558
▁وأوغندا	-11.315784
▁لسياسات	-11.315858
▁تحتفظ	-11.315923
إضافة	-11.316051
▁المرة	-11.316091
▁للمدير	-11.316109
تقل	-11.316331
▁1997.	-11.316420
▁الوفاة	-11.316671
▁والتصويب	-11.316737
▁عنف	-11.316788
▁وتحيط	-11.316883
▁وقائية	-11.316948
▁تجميد	-11.317069
▁النائب	-11.317201
▁الرئاسي	-11.317248
لاستفادة	-11.317263
▁الانتعاش	-11.317367
▁مطلع	-11.317537
▁بنية	-11.317562
يكي	-11.317904
▁الفرقة	-11.317907
▁والشركات	-11.317925
▁والأحكام	-11.318046
▁والقدرات	-11.318228
CEDAW	-11.318236
واصل	-11.318473
▁عديم	-11.318591
▁الغالب	-11.318839
▁٢٦	-11.318902
▁بياني	-11.318913
▁نامية	-11.318981
▁عندئذ	-11.319106
▁منظم	-11.319401
▁للف	-11.319473
▁الرائدة	-11.319818
▁وقمع	-11.319851
▁يفهم	-11.320148
▁وحثت	-11.320169
▁والصكوك	-11.320304
▁بشرية	-11.320333
▁اتجاهات	-11.320347
▁ماري	-11.320616
ديس	-11.320700
وظيفة	-11.320728
مصر	-11.321255
ابة	-11.321400
▁إبطاء	-11.321775
كوم	-11.321948
بلايين	-11.322018
نح	-11.322074
▁الغرفة	-11.322173
▁St	-11.322237
▁يعين	-11.322247
سهم	-11.322453
خارطة	-11.322685
▁إخضاع	-11.322874
▁لوساكا	-11.323262
▁نقلها	-11.323289
▁بالشكر	-11.323562
▁الخطب	-11.323727
▁جدد	-11.323760
▁جنود	-11.323969
▁اللجن	-11.323999
الصين	-11.324120
ستعرض	-11.324151
The	-11.324237
▁ويتولى	-11.324278
▁بالذكرى	-11.324514
▁1979	-11.324840
تسوية	-11.325132
تلقى	-11.325250
▁لشغل	-11.325499
▁ورصدها	-11.326193
محاربة	-11.326298
▁رهن	-11.326313
▁بتشجيع	-11.326369
▁بالأمانة	-11.326374
قال	-11.326459
▁الامر	-11.326501
▁وختاما	-11.326546
اغ	-11.326601
▁معاملات	-11.326817
▁عملياتها	-11.327466
▁حدا	-11.327551
▁تكليف	-11.327818
لاك	-11.327884
▁والعاملين	-11.328052
▁b	-11.328143
▁والسنغال	-11.328308
▁الفاكس	-11.328323
▁مقبولية	-11.328737
▁واشنطن	-11.328775
▁والمشورة	-11.328938
تعلم	-11.328968
▁الدورتين	-11.329520
▁الكلام	-11.329832
▁لمحة	-11.330549
زويلا	-11.330809
ant	-11.330820
▁بالموظفين	-11.331032
▁وشؤون	-11.331340
▁توسع	-11.331531
حوا	-11.331757
▁للمشروع	-11.331912
▁المنتظم	-11.331923
فاعل	-11.332004
▁طويلا	-11.332018
▁خبرات	-11.332101
▁وتركز	-11.332123
▁الأفيون	-11.332262
▁هن	-11.332645
▁مجلة	-11.332918
اسم	-11.332995
▁54-	-11.333123
زعزعة	-11.333135
▁والتكاليف	-11.333143
▁توخي	-11.333279
/24	-11.333312
▁للسياسة	-11.333708
▁أحوال	-11.333769
▁المنزل	-11.333896
▁والاقتصاد	-11.333945
ستكمل	-11.334013
▁مائدة	-11.334043
▁115	-11.334196
▁لموارد	-11.334261
▁الخاضع	-11.334328
رصد	-11.334385
▁مشروعي	-11.334400
▁حقها	-11.334544
▁يعلن	-11.334544
حيط	-11.334549
▁بالمثل	-11.335072
▁النيجر	-11.335244
▁تلزم	-11.335437
▁أعضائه	-11.335498
▁محتمل	-11.335536
▁للن	-11.335748
▁التأخر	-11.335803
▁بالروسية	-11.335841
▁وأما	-11.336137
▁الض	-11.336419
▁منصوص	-11.336425
▁يسلم	-11.336536
▁والتنوع	-11.336567
▁وصناديقها	-11.336610
ريب	-11.336879
▁مرتين	-11.337454
فاء	-11.337490
▁فليس	-11.337667
بقية	-11.337687
▁2006)	-11.337988
▁موسى	-11.338072
▁نظمها	-11.338093
▁ديمقراطي	-11.338215
▁المحافل	-11.338254
▁والثالث	-11.338255
▁TD	-11.338258
▁وأرجو	-11.338377
▁ويؤدي	-11.338397
▁المعدية	-11.339005
▁وصربيا	-11.339560
▁بلدانها	-11.339582
▁زو	-11.339964
▁1974	-11.340089
خب	-11.340178
▁لتناول	-11.340392
دائرة	-11.340405
▁بقيمة	-11.340495
وى	-11.340496
باكستان	-11.340554
▁٠٠٠	-11.340672
▁عرضه	-11.340697
▁تمتد	-11.340800
▁1951	-11.340815
▁المتمردين	-11.340976
▁المفاهيم	-11.341017
▁والتكامل	-11.341017
صادق	-11.341189
▁مثالا	-11.341228
▁للأهداف	-11.341433
▁الآلاف	-11.341760
▁تتعارض	-11.341879
▁اليها	-11.341882
▁ٱلص	-11.341937
▁تبني	-11.342140
▁فعاليتها	-11.342175
▁الناجح	-11.342510
▁وبا	-11.342585
▁وكيفية	-11.342884
نظ	-11.343118
▁لتوجيه	-11.343142
▁والمسؤوليات	-11.343154
سع	-11.343262
-3،	-11.343287
▁مجانا	-11.343432
▁امر	-11.343557
▁وضعه	-11.343659
▁وعلينا	-11.343725
▁كورنثوس	-11.344009
▁لمركز	-11.344074
درا	-11.344147
▁الستون	-11.344279
▁ركزت	-11.344691
▁أدوار	-11.344967
▁وبلغاريا	-11.344996
▁زمن	-11.345012
▁غرض	-11.345257
▁طبقات	-11.345768
قلق	-11.345773
if	-11.346437
▁للنمو	-11.346463
▁كلتا	-11.346464
▁إصابة	-11.346475
▁إرهابي	-11.346534
▁الأربعين	-11.346568
▁نهائيا	-11.346579
1).	-11.346764
▁الأوقات	-11.346768
▁المطلقة	-11.346873
▁آر	-11.347040
▁والمراهقين	-11.347053
▁ديارهم	-11.347054
أداء	-11.347057
▁يمثلون	-11.347299
▁55-	-11.347309
▁الرأسمالية	-11.347357
▁بحد	-11.347384
▁والسلع	-11.347994
▁الدراسي	-11.348023
▁بالمنظمات	-11.348178
زية	-11.348466
oc	-11.348597
▁الكامنة	-11.348627
▁المسيحيين	-11.348693
▁دوراتها	-11.348788
▁تحاول	-11.348863
▁ثابت	-11.348998
المنتدى	-11.349203
▁لإطلاق	-11.349310
▁لسكان	-11.349347
▁الحوامل	-11.349493
▁يخدم	-11.349881
▁والمركز	-11.350371
AR	-11.350402
▁وردا	-11.350724
▁مصير	-11.350784
هيب	-11.351028
▁توفرها	-11.351233
▁لعرض	-11.351234
▁المش	-11.351411
▁فنحن	-11.351580
▁لوجود	-11.351604
▁واقتناعا	-11.352246
▁لميثاق	-11.352278
مواءمة	-11.352280
▁اخ	-11.352750
▁وبيانات	-11.353195
▁عد	-11.353228
▁وتو	-11.353278
▁اللتي	-11.353300
▁بالتزامات	-11.353346
▁بالهجرة	-11.353400
▁وظل	-11.353647
-30	-11.353805
فئة	-11.353819
▁الاحتجاج	-11.353881
حقوق	-11.353924
▁الداعمة	-11.353948
▁المعلمين	-11.354111
20)	-11.354221
▁التعاقد	-11.354367
▁بارتياح	-11.354392
يء	-11.354414
▁عليا	-11.355125
▁1973	-11.355501
▁للطلب	-11.355550
end	-11.355749
بدي	-11.355767
▁ومدير	-11.355855
▁فسي	-11.356027
▁القياس	-11.356075
▁121	-11.356139
▁بوقف	-11.356188
sh	-11.356267
▁يواجهون	-11.356413
▁بوتان	-11.356478
رها	-11.356514
▁للمكاتب	-11.356544
روع	-11.356722
▁أخطر	-11.356811
▁القائمين	-11.356844
▁صحيفة	-11.356844
▁بالح	-11.356854
▁ولأ	-11.356957
▁المدونة	-11.357136
▁بتعديل	-11.357155
▁ترينيداد	-11.357308
GC	-11.357471
▁غل	-11.357475
نها	-11.357646
▁بتطوير	-11.357679
▁وتفيد	-11.357776
كة	-11.357966
▁والصندوق	-11.358001
▁الإيكولوجي	-11.358163
▁وانخفاض	-11.358792
▁المفرط	-11.359014
▁موثوق	-11.359164
▁سمع	-11.359919
▁Edit	-11.359963
▁ساهم	-11.360249
متى	-11.360371
▁113	-11.360535
▁ثامنا	-11.360861
▁الاختلافات	-11.360902
وء	-11.360924
▁التو	-11.361607
▁للمحاكمة	-11.361614
▁عادي	-11.361631
▁يبت	-11.361840
▁عريضة	-11.361883
▁الجامع	-11.362272
▁ومعظم	-11.362317
▁للتفاوض	-11.362532
ددت	-11.362655
▁العادلة	-11.362723
▁بالذات	-11.362798
▁برمتها	-11.362824
▁التوجيهات	-11.362845
استراتيجية	-11.362960
▁كيميائية	-11.363028
الذي	-11.363067
▁والتضامن	-11.363262
ئت	-11.363303
▁واجتماعية	-11.363313
▁اليهود	-11.363502
▁وقيل	-11.363749
▁حديثة	-11.363946
▁واستخدامه	-11.364017
▁موجودات	-11.364165
▁ببرامج	-11.364335
▁المقاطعة	-11.364693
▁متر	-11.365396
▁وبربودا	-11.365505
▁مقدار	-11.365658
▁لغرب	-11.365707
جير	-11.365729
▁والبشرية	-11.365817
تشرين	-11.365911
سواتل	-11.365984
▁الزعماء	-11.365993
▁والممتلكات	-11.366198
▁حددها	-11.366476
▁لإدماج	-11.366486
▁خطرة	-11.366802
▁مي	-11.366899
▁15/13	-11.366905
مذكرة	-11.366973
/22	-11.367110
رجح	-11.367214
▁ووثائق	-11.367289
بشر	-11.367299
جملة	-11.367603
▁تتأثر	-11.367652
▁يبعث	-11.367825
▁وشجعت	-11.367917
▁وقتا	-11.368007
برز	-11.368222
▁بتأييد	-11.368236
▁125	-11.368310
▁بدءا	-11.368331
▁لقيام	-11.368436
فال	-11.368886
▁جزاءات	-11.368986
▁أثيرت	-11.369102
.19	-11.369194
▁وتعليم	-11.369285
▁Section	-11.369549
▁تايوان	-11.369869
▁يضاف	-11.369902
▁ذكرها	-11.369976
▁فلسطينية	-11.370027
كمل	-11.370270
▁أوثق	-11.370338
▁كلور	-11.370722
▁اجتماعيا	-11.370849
▁ضغط	-11.371000
▁سراح	-11.371015
▁والمكتب	-11.371039
▁إثارة	-11.371049
▁مفرطة	-11.371209
▁بالإمكان	-11.371284
▁حيوي	-11.371297
▁للعدالة	-11.371421
▁الاتهام	-11.371434
▁صادق	-11.371572
▁بعيدا	-11.371694
انات	-11.371945
▁وفيروس	-11.372020
▁الشيخوخة	-11.372375
▁1996.	-11.372427
▁قلب	-11.372435
▁آمن	-11.372513
تجاوز	-11.372705
▁العاجل	-11.372811
ازي	-11.373024
ضاعف	-11.373035
▁المكلف	-11.373320
▁أديس	-11.373536
▁طفلا	-11.373573
▁الغربي	-11.374084
▁وشروط	-11.374213
شين	-11.374268
▁المجالين	-11.374343
▁ورؤساء	-11.374371
▁مواطنيها	-11.374535
▁المنعقد	-11.374812
▁الرتب	-11.374846
▁موريتانيا	-11.374885
▁الكا	-11.375000
▁واحتياجات	-11.375013
يسر	-11.375014
▁شفافية	-11.375234
▁معظمها	-11.375234
▁المص	-11.375237
▁الصف	-11.375259
▁لمعاهدة	-11.375299
▁واجه	-11.375436
▁تنتهك	-11.375620
هرب	-11.375816
▁تجر	-11.376184
ابر	-11.376360
▁باحتياجات	-11.376433
▁2003)	-11.376442
▁عنان	-11.376468
▁المستعملة	-11.376564
إعطاء	-11.376671
▁والتوجيه	-11.376765
▁طنا	-11.376799
▁حكما	-11.376825
▁اسمه	-11.376969
▁التخصصات	-11.376969
▁المخ	-11.377028
▁الختامي	-11.377082
ميزانية	-11.377092
▁تفوق	-11.377099
▁للص	-11.377130
▁السودانية	-11.377245
جيم	-11.377330
▁ومراعاة	-11.377349
▁روتردام	-11.377371
قلة	-11.377516
▁**	-11.377636
▁سلبيا	-11.377812
▁والتجارية	-11.377859
▁الإنعاش	-11.378010
▁ملاءمة	-11.378674
عاش	-11.378707
▁أفريقية	-11.378711
▁سيؤدي	-11.378714
▁الحادث	-11.378988
▁الاستنتاج	-11.379012
▁g	-11.379102
سكن	-11.379195
▁الارتفاع	-11.379416
▁56-	-11.379820
▁المرضى	-11.380352
▁الترحيب	-11.380517
▁السواتل	-11.380591
▁النشط	-11.380598
▁يختار	-11.380681
▁بالاتفاق	-11.380745
▁أكسيد	-11.381092
▁المادتان	-11.381115
▁ومقررات	-11.381221
▁وإنه	-11.381266
ندي	-11.381369
▁منحة	-11.381431
▁وفرت	-11.381468
غوا	-11.381647
▁المحد	-11.381763
▁روابط	-11.381788
▁سار	-11.381831
ديم	-11.382048
▁Con	-11.382277
▁والمن	-11.382342
▁وأستراليا	-11.382450
▁شكلت	-11.382665
بحلول	-11.382744
▁السي	-11.382908
ec	-11.382971
▁نشرة	-11.383205
▁الحبس	-11.383335
▁اطار	-11.383541
تولى	-11.383634
▁تركيب	-11.383770
▁آثارها	-11.383883
son	-11.383914
▁Official	-11.383989
▁دقة	-11.384243
▁تعويضات	-11.384256
▁قابلية	-11.384310
▁يستلزم	-11.384318
▁احتلال	-11.384441
▁علامات	-11.384481
▁تكميلية	-11.384501
▁أكتوبر	-11.384802
▁المفقودين	-11.384909
▁بسياسات	-11.384943
▁وتحليلها	-11.385003
▁وممارسة	-11.385020
▁مضاعفة	-11.385102
▁يمس	-11.385274
▁للإعلان	-11.385362
آن	-11.385431
▁لوسيا	-11.385721
▁التعدين	-11.385842
▁حجر	-11.385889
▁للخطة	-11.385972
ستفيد	-11.386332
نيويورك	-11.386403
▁العائلة	-11.386533
▁لهن	-11.386746
▁مندوب	-11.386923
▁فردية	-11.387228
▁قراءة	-11.387446
▁وأدت	-11.387472
▁والسيطرة	-11.387495
▁أتاحت	-11.387692
▁النقدي	-11.387692
▁موظفيها	-11.387753
▁الحية	-11.387762
▁لوزراء	-11.387791
ct	-11.387946
دخ	-11.388113
▁إنسان	-11.388116
▁المعرضة	-11.388327
▁الكل	-11.388455
▁وأحاطت	-11.388685
▁بالدورة	-11.388691
▁Room	-11.388752
▁البو	-11.388909
▁بنهج	-11.389106
▁الإرشاد	-11.389395
▁لويس	-11.389423
▁الإسلام	-11.389475
▁للتوصيات	-11.389647
▁الخليج	-11.389653
إرجاء	-11.390018
▁العائلية	-11.390162
▁الزوجين	-11.390276
وحدة	-11.390388
▁تميز	-11.390473
فرد	-11.390641
▁المنسقين	-11.390723
شارك	-11.391156
▁138	-11.391268
▁الحوافز	-11.391312
▁Commission	-11.391336
▁المؤكد	-11.391640
▁المنطبقة	-11.392211
▁الشيخ	-11.392515
▁الإصابات	-11.392564
▁ترفض	-11.393022
ميل	-11.393039
▁المنف	-11.393163
▁برلمان	-11.393398
كسب	-11.393453
sc	-11.393505
▁بحضور	-11.393521
▁التغير	-11.393523
▁وانتشار	-11.393540
▁وقبرص	-11.394049
▁الغير	-11.394067
▁واتخذت	-11.394169
▁Y	-11.394263
▁أبدت	-11.394667
▁صف	-11.394672
▁ومر	-11.394952
يتنا	-11.394987
هل	-11.395232
▁غابون	-11.395240
▁والمستوطنات	-11.395248
▁119	-11.395262
▁عال	-11.395342
▁معروفة	-11.395350
▁الرغبة	-11.395447
▁وليتوانيا	-11.395746
▁بعضا	-11.395936
نات	-11.395992
▁المزدوج	-11.396043
▁وقدره	-11.396623
▁يجتمع	-11.396629
حذف	-11.396635
▁لتوصيات	-11.396751
▁الاولاد	-11.396994
▁٣٠	-11.397557
ard	-11.397779
▁se	-11.397803
▁قادر	-11.397950
▁يتمتعون	-11.398036
▁1975	-11.398042
▁ستقوم	-11.398400
▁المدخلات	-11.398773
▁بقضية	-11.398828
▁ويؤيد	-11.398936
▁'6'	-11.398963
▁الإعمار	-11.398969
مث	-11.399056
▁عمال	-11.399242
▁استيفاء	-11.399563
▁وجهها	-11.399595
▁مستمرا	-11.399678
▁بالقرب	-11.399827
▁الثلاثين	-11.399858
▁وطالب	-11.399982
▁(12)	-11.400080
ترا	-11.400117
gr	-11.400136
▁مستقرة	-11.400136
▁وتت	-11.400322
ريف	-11.400487
رضت	-11.400725
▁برح	-11.400759
ap	-11.400974
▁الاعسار	-11.401212
▁يحتاجون	-11.401399
▁متوسطة	-11.401571
▁التدهور	-11.401612
▁المشترية	-11.401670
▁Reporting	-11.401688
تعاون	-11.401905
▁وتصميم	-11.402004
/23	-11.402137
غام	-11.402314
▁المناسبات	-11.402711
▁Geneva	-11.402763
▁عمان	-11.402852
III	-11.402924
▁والأربعون	-11.403144
ag	-11.403161
▁تقيم	-11.403409
باك	-11.403527
▁الخالية	-11.403536
▁سجلت	-11.403637
▁والحياة	-11.403823
▁إلكترونية	-11.403911
حصل	-11.404017
▁56/1	-11.404046
مها	-11.404206
▁والحالة	-11.404263
est	-11.404328
▁كا	-11.404335
▁لمزيد	-11.404404
▁للتأكد	-11.404555
▁العمرية	-11.404859
▁تخدم	-11.405058
▁صيانة	-11.405067
▁124	-11.405137
▁ومقرر	-11.405306
▁وافية	-11.405441
▁جرد	-11.405534
▁تلقائيا	-11.405586
▁والسياسي	-11.405686
▁التعيينات	-11.405710
تستند	-11.405749
▁الموضوعة	-11.405804
▁human	-11.405976
▁للتقارير	-11.405977
▁مؤرخ	-11.405987
▁والخبرة	-11.406054
وكي	-11.406055
PC	-11.406075
▁مص	-11.406320
2006	-11.406360
صور	-11.406375
حفز	-11.406474
ينطبق	-11.406500
▁ومصادر	-11.406656
ke	-11.406696
▁مون	-11.406700
▁وبنغلاديش	-11.406706
▁مذك	-11.406726
سات	-11.407121
▁والتنظيم	-11.407339
▁والقيود	-11.407344
▁الحربية	-11.407370
▁مذكرات	-11.407415
▁التمهيدية	-11.407529
▁البالغين	-11.407833
زر	-11.407860
▁المخيمات	-11.408064
▁للتثقيف	-11.408109
▁الميلاد	-11.408233
▁الحديدية	-11.408236
▁تلتمس	-11.408311
▁مرتفعة	-11.408333
▁بشرط	-11.408352
▁الحرص	-11.408535
▁مكاسب	-11.408640
▁بابوا	-11.408829
▁مقداره	-11.408960
▁المستهدف	-11.409000
▁الإمداد	-11.409027
▁وتنفذ	-11.409070
▁وسأ	-11.409164
ثبات	-11.409317
حشد	-11.409333
go	-11.409426
▁Al	-11.409569
▁وغيرهما	-11.409646
▁ٱس	-11.409689
▁تناقش	-11.409697
▁الصافية	-11.409785
هت	-11.409858
▁استيعاب	-11.409936
ty	-11.409957
الموئل	-11.410570
▁حينها	-11.410593
▁العبور	-11.410725
▁المستندات	-11.410874
▁المعدلات	-11.410878
▁إعلام	-11.410896
▁يفترض	-11.411274
▁أبرمت	-11.411399
▁تحقيقه	-11.411479
▁بليز	-11.411539
▁إحاطته	-11.411627
▁التصنيع	-11.411885
▁الحصص	-11.412086
▁للخدمة	-11.412134
خصص	-11.412187
▁الإن	-11.412304
فاد	-11.412309
▁يحتفظ	-11.412389
▁الفيديو	-11.412536
▁عبور	-11.412747
▁لقضايا	-11.413071
لاجئ	-11.413489
راجع	-11.413675
▁يتصرف	-11.413810
▁المتأثرين	-11.413818
▁بح	-11.413883
أمين	-11.414013
▁والمراقبة	-11.414083
▁1244	-11.414197
▁النية	-11.414398
▁للتصويب	-11.414490
▁أرباب	-11.414493
▁سرور	-11.414628
▁الأفارقة	-11.414816
ine	-11.414853
يهما	-11.415259
عضوية	-11.415298
▁57-	-11.415565
▁تحديدها	-11.415714
▁استطلاع	-11.415873
▁التحكم	-11.416146
ell	-11.416186
▁جاءت	-11.416309
▁=	-11.416370
▁عنوانه	-11.416656
▁عصر	-11.416849
▁وجب	-11.416976
▁التحضيري	-11.417044
ستور	-11.417577
▁باتفاق	-11.417696
مساهمة	-11.417718
حاول	-11.417742
▁وأنشطتها	-11.417773
▁لإنفاذ	-11.417782
▁بعضهم	-11.418113
▁وبن	-11.418554
▁وكوستاريكا	-11.418565
gov	-11.418784
▁ومعهد	-11.418978
▁الاعتقاد	-11.419085
▁t	-11.419181
▁المتلقية	-11.419407
موئل	-11.419524
▁الموج	-11.419577
رسال	-11.419673
▁يختلف	-11.419719
▁والفعال	-11.419777
الشؤون	-11.419868
▁الأوساط	-11.419909
▁التنافس	-11.419950
▁بروميد	-11.419974
▁أظهر	-11.419979
▁ليكون	-11.420177
لتين	-11.420272
▁الجيد	-11.420347
▁بشأنه	-11.420601
٠٠	-11.420623
لتمس	-11.420710
▁الحطام	-11.420714
der	-11.421098
▁وتعزز	-11.421434
▁(4	-11.421531
▁أعدها	-11.421567
▁وحالة	-11.421637
راعي	-11.421673
▁National	-11.421688
▁امتناع	-11.421688
▁ضعفا	-11.421941
▁المنع	-11.422018
▁القر	-11.422054
وقف	-11.422934
مدينة	-11.422939
▁لجدول	-11.422959
▁مخصصات	-11.423210
▁نصها	-11.423233
يدي	-11.423256
▁إقليمها	-11.423258
▁التقلي	-11.423331
سافر	-11.423631
▁والسلطة	-11.423790
IS	-11.423879
▁UN	-11.424186
▁وإعمال	-11.424263
▁وإقرار	-11.424588
▁المضافة	-11.424649
مرة	-11.424693
▁الشهادات	-11.424827
▁du	-11.424941
▁تشي	-11.424953
▁السبعة	-11.425206
▁وتتطلب	-11.425250
▁للمناطق	-11.425293
▁الوقف	-11.425303
▁الغلاف	-11.425309
▁وبفضل	-11.425317
▁بكاملها	-11.425447
▁الانفرادي	-11.425665
▁الصحفية	-11.425801
جاه	-11.425886
▁المنحدر	-11.425968
ضعت	-11.426227
▁تلا	-11.426311
المكسيك	-11.426377
▁والمشاكل	-11.426443
min	-11.426560
▁مدن	-11.426638
▁مستكملة	-11.426641
▁(11)	-11.426762
▁ينتج	-11.426830
▁ونحث	-11.427073
▁للأزمة	-11.427094
▁الإعادة	-11.427137
دعي	-11.427691
▁معترف	-11.427711
▁واقترحت	-11.428082
شيلي	-11.428123
▁قاع	-11.428152
▁ملحة	-11.428299
▁بور	-11.428322
بقاء	-11.428429
▁المحدود	-11.428482
مح	-11.428537
▁ونظر	-11.428616
▁تفصيلا	-11.428643
▁يسهل	-11.428745
▁الآخرون	-11.428801
تفهم	-11.428834
▁وقضايا	-11.429273
▁التشرد	-11.429289
▁لتعيين	-11.429633
▁دولتين	-11.429724
-4)	-11.429796
▁يلتمس	-11.429836
▁بالعهد	-11.429988
▁قطرية	-11.430092
ائنا	-11.430099
▁معارف	-11.430151
▁والأولويات	-11.430181
=	-11.430345
▁تفصيلية	-11.430398
▁مقاعد	-11.430593
▁182	-11.430607
الفقرات	-11.430639
▁أدرج	-11.430758
▁المنطقي	-11.430994
▁للخطب	-11.431136
▁اليونيب	-11.431266
▁وتمت	-11.431308
مصدر	-11.431392
▁والاتفاق	-11.431756
▁وموظف	-11.431978
▁يمكنك	-11.432053
▁بالطبع	-11.432450
▁وصنع	-11.432634
▁60-	-11.432727
▁والدينية	-11.432819
▁242	-11.432861
▁والعالمي	-11.432947
إضفاء	-11.433002
رتكب	-11.433054
▁العائدين	-11.433246
▁للمعاشات	-11.433578
▁يف	-11.433865
▁باست	-11.433924
▁مدرج	-11.433978
▁هيئته	-11.434062
▁للصراعات	-11.434103
▁فعلت	-11.434111
▁يتعذر	-11.434405
▁والخ	-11.434642
▁مكونات	-11.434677
دها	-11.434778
▁سب	-11.434807
▁بصحة	-11.434833
▁خارجة	-11.434869
▁Verba	-11.435251
ؤرخ	-11.435292
▁طوعي	-11.435352
سبب	-11.435484
▁room	-11.435574
▁بالالتزام	-11.435606
▁قيمته	-11.435861
الغرفة	-11.435961
▁واستمر	-11.436447
ثان	-11.436472
كوبا	-11.436707
▁شكاوى	-11.436778
▁وبوروندي	-11.436856
▁لمجتمع	-11.436939
▁جن	-11.437070
6/	-11.437214
▁عرضها	-11.437545
▁الحي	-11.437581
▁المشارك	-11.437604
▁58-	-11.437805
▁وتعديل	-11.437845
ومي	-11.437901
▁آخذ	-11.438351
▁54/1	-11.438478
COM	-11.438530
▁انتم	-11.438757
▁برفع	-11.438874
المواد	-11.438910
▁وأوجه	-11.439029
▁وصون	-11.439112
▁الوصاية	-11.439282
▁غوام	-11.439410
▁فاعلة	-11.439503
لز	-11.439506
▁بكفالة	-11.439554
▁كلمته	-11.439563
▁وانت	-11.439723
▁سلم	-11.439935
▁وتعتقد	-11.440182
▁المتبع	-11.440236
▁ورفاه	-11.440269
▁دل	-11.440392
▁رمز	-11.440412
▁المعروفة	-11.440413
▁أمد	-11.440514
▁Original	-11.440580
▁القاعة	-11.440686
▁منافع	-11.440785
▁1983	-11.440867
سج	-11.440967
▁المحتملين	-11.441003
▁لهؤلاء	-11.441171
▁المستخلصة	-11.441252
▁حقهم	-11.441476
▁وتعرض	-11.441521
▁الفكرة	-11.441596
▁الشعور	-11.441620
▁ونؤكد	-11.441674
زت	-11.441829
▁المعاناة	-11.441952
▁الخطورة	-11.441968
▁59-	-11.442209
تزايد	-11.442442
اسة	-11.442654
▁ووحدات	-11.442656
حرص	-11.442723
▁ولاتفيا	-11.442992
▁تتكون	-11.443380
لبدء	-11.443609
▁قل	-11.443640
▁هامش	-11.443810
▁للممثل	-11.443837
▁الطلاق	-11.443856
الس	-11.444013
▁حقيقيا	-11.444125
▁السري	-11.444254
▁كف	-11.444399
▁ارتفعت	-11.444401
▁السماء	-11.444481
▁نعرف	-11.444507
▁أحدهما	-11.444619
▁مزارع	-11.444878
▁Plaza	-11.444942
وصى	-11.445086
▁خان	-11.445582
▁الثورية	-11.445765
غر	-11.445983
▁بغداد	-11.446024
.3)	-11.446091
▁معيشة	-11.446091
▁والامتثال	-11.446285
▁مقاصد	-11.446286
روما	-11.446363
▁النسخ	-11.446495
▁الشخصيات	-11.446542
▁مدني	-11.446611
▁لمشاكل	-11.447057
▁الأحيائي	-11.447074
UNEP	-11.447089
وين	-11.447258
▁واتفاق	-11.447385
▁الحاسوب	-11.447482
▁والمحافظة	-11.447496
gu	-11.447526
▁دارت	-11.447603
▁المقارنة	-11.447623
▁ENGLISH	-11.447838
ot	-11.448093
▁مخالفة	-11.448354
عز	-11.448627
▁وأسرهم	-11.448706
▁لبحث	-11.448734
ضطلع	-11.448863
▁تسفر	-11.448966
▁الكفاح	-11.449110
▁1999)	-11.449247
▁الشريكة	-11.449284
-23	-11.449333
▁اللون	-11.449600
حذر	-11.449703
نون	-11.449763
▁منقح	-11.449801
▁عي	-11.449995
▁المتحدث	-11.450118
سخ	-11.450144
▁وو	-11.450197
▁تمكنت	-11.450257
▁تخزين	-11.450333
▁للمخاطر	-11.450384
▁اعتبارات	-11.450502
▁والشراكة	-11.450819
▁وتساءلت	-11.450899
▁يتمشى	-11.451158
▁العزم	-11.451209
▁بالج	-11.451460
▁مكثفة	-11.451489
▁مغادرة	-11.451595
تهما	-11.451618
▁المنصب	-11.451759
▁الداعي	-11.451876
▁مؤداه	-11.452039
تقوية	-11.452236
▁اش	-11.452604
فظ	-11.452671
▁بالولايات	-11.452682
سفر	-11.452820
تأخر	-11.452922
▁اشتراط	-11.452945
▁اشت	-11.453115
▁تدرس	-11.453203
▁وتحديث	-11.453215
▁واقتصادية	-11.453259
▁مرشح	-11.453284
▁وتكديس	-11.453379
حكومة	-11.453485
▁والمنطقة	-11.453507
▁ناقش	-11.453522
▁ورعاية	-11.453544
▁تستخدمها	-11.453700
▁ملائما	-11.453776
▁سلمي	-11.454035
▁قلقة	-11.454231
▁يتخذها	-11.454309
▁تح	-11.454416
▁اعمال	-11.454524
▁وجرائم	-11.454795
الجماهيرية	-11.454909
▁المج	-11.454931
▁يجمع	-11.455132
▁الجداول	-11.455431
مغلقة	-11.455557
▁والابتكار	-11.455752
▁إدارتها	-11.455790
▁آفاق	-11.456168
▁ويقترح	-11.456443
▁ومستوى	-11.456472
▁الإزالة	-11.456595
▁سببا	-11.456963
▁والمعنون	-11.457128
▁وحد	-11.457203
▁ترفع	-11.457426
اليونسكو	-11.457477
▁اكتشاف	-11.457497
عبد	-11.457505
عالم	-11.457701
▁للأسف	-11.457702
▁العنقودية	-11.457793
▁للاتفاق	-11.457892
اعي	-11.457912
ثار	-11.457997
▁كيلومترا	-11.458134
▁والر	-11.458205
▁أندورا	-11.458237
.14	-11.458442
حث	-11.458944
▁1971	-11.459152
▁سورية	-11.459157
▁وجودها	-11.459342
▁الشمسية	-11.459458
عجز	-11.459489
ish	-11.459599
▁الإي	-11.459639
▁والان	-11.459722
▁محلي	-11.459818
▁امتيازات	-11.460276
زين	-11.460366
▁مجمع	-11.460399
▁والإصلاح	-11.460563
اعية	-11.460835
▁درس	-11.460859
▁62/2	-11.460939
▁180	-11.461189
▁الأعراق	-11.461420
▁وبي	-11.461603
▁يكمن	-11.461711
▁والمسؤولية	-11.461720
▁المستحق	-11.462249
▁مبكرة	-11.462385
رئ	-11.462465
▁جوية	-11.462695
▁بمراقبة	-11.462808
▁ضماني	-11.462934
▁جلستيها	-11.462938
▁نحث	-11.463150
▁مختصة	-11.463549
إذا	-11.463651
▁تسترشد	-11.463896
▁واف	-11.463932
▁وإدماج	-11.463950
▁تقود	-11.464033
▁ودفع	-11.464585
▁اعترف	-11.464677
شد	-11.464735
يدا	-11.464869
▁لنجاح	-11.464971
ial	-11.465045
▁فيهما	-11.465099
▁طوعية	-11.465235
▁1990.	-11.465521
▁وأدوات	-11.465548
▁شو	-11.465558
SBI	-11.465574
ex	-11.465768
▁128	-11.465776
▁الداخل	-11.465786
▁وتسهيل	-11.465790
▁الائتمانات	-11.465818
IN	-11.465905
▁خطية	-11.465977
▁المصطلحات	-11.466088
▁لفت	-11.466143
▁وتطبيقها	-11.466165
▁جماعي	-11.466318
▁ومكاتب	-11.466341
▁للمركز	-11.466345
▁بذلها	-11.466400
▁وتسعى	-11.466407
▁التطوعي	-11.466573
▁المتخذ	-11.466629
▁تجريم	-11.466781
▁التدخلات	-11.466813
ورقة	-11.466868
تحرك	-11.467045
▁بدا	-11.467106
▁الحصر	-11.467122
▁وصيانة	-11.467237
▁الفترات	-11.467323
▁حامل	-11.467514
تحفظ	-11.467517
▁بقيام	-11.467608
فضي	-11.468385
▁غيانا	-11.468461
▁61/1	-11.468653
▁الأسابيع	-11.468855
EC	-11.468938
تح	-11.468968
▁دفعت	-11.469107
▁(1991)	-11.469109
▁الصومالية	-11.469234
hi	-11.469420
▁الأوراق	-11.469548
▁للأرض	-11.469552
▁معروض	-11.469553
▁بالقوة	-11.469745
▁تو	-11.470015
▁واتفقت	-11.470037
▁احتياجاتها	-11.470253
▁استبيان	-11.470457
▁للمشردين	-11.470469
▁بالن	-11.470538
▁الأدوار	-11.470820
ens	-11.470871
▁البندين	-11.471123
حتمل	-11.471333
▁للشخص	-11.471465
تعرض	-11.472511
▁وحيد	-11.472569
▁التأديبية	-11.472626
▁وأطفال	-11.473216
▁محطات	-11.473469
▁لاجتماع	-11.473532
▁2010،	-11.473557
▁والمهارات	-11.473584
بيان	-11.473700
.9/6	-11.473722
إندونيسيا	-11.473727
▁الخوف	-11.473764
▁ونو	-11.473789
▁يتبع	-11.473880
است	-11.473902
▁تنف	-11.473957
▁الاختبار	-11.473964
▁الجناة	-11.473979
▁160	-11.474005
اعتمد	-11.474118
▁وتعميم	-11.474288
▁واردة	-11.474298
▁ولكننا	-11.474447
▁جعلت	-11.474517
▁ومختلف	-11.474517
▁طبيعي	-11.474566
▁المؤلف	-11.474588
▁والمع	-11.474959
▁يلحق	-11.475060
▁اقتصادات	-11.475288
▁للولاية	-11.475800
تمويل	-11.475866
▁مدخلات	-11.475945
▁احتياطي	-11.476189
▁والجوع	-11.476260
▁والصرف	-11.476273
▁والكتابة	-11.476353
▁تلبي	-11.476365
▁وبهذا	-11.476447
▁ويعتقد	-11.476641
▁آيرلندا	-11.476777
ian	-11.476779
▁تحصيل	-11.477041
▁يكرر	-11.477073
▁حاول	-11.477181
باد	-11.477316
زواج	-11.477582
سوق	-11.477765
▁تذكير	-11.477981
▁بأكمله	-11.478069
/60/6	-11.478212
ادية	-11.478403
▁مضي	-11.478519
دس	-11.478740
▁اورشليم	-11.478778
▁تبرز	-11.478832
▁والفساد	-11.479072
▁ذهب	-11.479185
▁نافذا	-11.479205
▁وقدرات	-11.479615
▁اعتمادا	-11.479616
▁المتغيرة	-11.479630
▁ومنسق	-11.479889
▁ضيق	-11.480588
ونه	-11.480657
om	-11.480670
▁2015	-11.480698
نموذج	-11.481284
تاريخ	-11.481632
▁بتوسيع	-11.481960
▁للشيخوخة	-11.482121
▁الفكر	-11.482569
▁للعاملين	-11.482632
▁المدرسي	-11.482689
ولد	-11.482903
▁المزايا	-11.483034
▁علمية	-11.483326
▁بأسلوب	-11.483388
ولو	-11.483409
▁بتيسير	-11.483652
▁المسموح	-11.483675
▁رتبة	-11.483872
▁والثلاثون	-11.484356
▁يشتمل	-11.484582
▁ييسر	-11.484674
▁مرونة	-11.484740
▁إعلانات	-11.484746
التعاون	-11.484807
TD	-11.484850
▁وتدهور	-11.484856
▁زار	-11.485054
بعث	-11.485073
▁بالخدمات	-11.485081
▁ومعاقبة	-11.485127
▁يتسبب	-11.485359
▁يبرر	-11.485811
ثقافة	-11.485913
▁تغي	-11.486016
/30	-11.486101
▁الفروق	-11.486106
▁المرسل	-11.486112
▁تعذر	-11.486571
▁طاء	-11.486614
▁كهذه	-11.486656
نجز	-11.486795
▁المز	-11.486868
▁الذ	-11.486975
ru	-11.487004
تشرف	-11.487058
▁والساعة	-11.487085
يلة	-11.487241
▁موسكو	-11.487261
▁والتغذية	-11.487275
▁وأوروبا	-11.487473
بوت	-11.487625
▁أثار	-11.487673
جعل	-11.487744
▁بيتر	-11.487843
Records	-11.487859
محاولة	-11.487917
▁وكيانات	-11.488218
▁61-	-11.488245
▁اشترك	-11.488310
▁قصور	-11.488332
▁تلق	-11.488400
▁للاتصال	-11.488427
▁الجزئي	-11.488519
▁للتبرعات	-11.488561
▁الساتلية	-11.488667
▁يستعرض	-11.488728
تنفيذ	-11.488757
▁والاحترام	-11.488849
.21	-11.488885
▁بمعايير	-11.489134
▁يسفر	-11.489155
▁للرجال	-11.489264
▁أرسلت	-11.490147
جنوب	-11.490271
▁والمدير	-11.490327
▁اليقين	-11.490344
▁الرضع	-11.490348
زان	-11.490685
▁نشرها	-11.490952
▁قدرته	-11.490989
▁بتعاون	-11.491004
ديان	-11.491108
▁التمويلي	-11.491188
▁العلماء	-11.491293
▁والبحوث	-11.491409
▁باقتراح	-11.491446
▁إف	-11.491484
nd	-11.491523
افة	-11.491619
▁وقل	-11.491632
▁تعي	-11.491733
▁يأذن	-11.491860
▁الدقة	-11.491911
▁والأجهزة	-11.492162
▁وكوت	-11.492337
▁للعقد	-11.492393
▁المواليد	-11.492429
▁المستهلكين	-11.492562
▁هان	-11.492723
▁بادئ	-11.492820
▁٢٧	-11.492883
▁ماليا	-11.493060
كشف	-11.493185
▁للك	-11.493208
حمل	-11.493459
▁أمس	-11.493582
▁تصحيح	-11.493675
▁الحاسوبية	-11.494038
he	-11.494584
▁يدعي	-11.494613
▁النماذج	-11.494677
▁للقوانين	-11.494712
▁صرب	-11.494933
▁كله	-11.494980
عزل	-11.495168
▁وعضو	-11.495214
▁المؤشر	-11.495515
▁العم	-11.495560
▁٣١	-11.495584
▁لرفع	-11.495711
▁يدعى	-11.495777
▁ومرفق	-11.495787
▁هكذا	-11.495959
ذه	-11.496344
▁وتسجيل	-11.496350
قات	-11.496571
رشح	-11.496759
▁يختص	-11.496861
لذان	-11.497087
▁الغنية	-11.497091
▁وآ	-11.497125
▁والكوارث	-11.497206
▁البري	-11.497230
▁والظروف	-11.497287
▁1969	-11.497334
▁بقرارات	-11.497557
▁للهيئات	-11.497640
▁مايو	-11.497746
وغو	-11.497764
▁الاخ	-11.497943
▁المقبولية	-11.498305
▁مير	-11.498519
▁٢٩	-11.498535
▁وحيثما	-11.498587
▁ST	-11.498642
شرف	-11.498795
▁العواقب	-11.498887
مية	-11.499191
▁للأسباب	-11.499349
▁الهائلة	-11.499390
▁تترك	-11.499478
▁وبوليفيا	-11.499696
ثير	-11.499710
▁ويتيح	-11.499779
▁الحصانة	-11.499934
▁البل	-11.500023
▁هاتف	-11.500388
سترعي	-11.500413
▁مدر	-11.500469
▁مواضيعية	-11.500491
▁نق	-11.500501
▁انضم	-11.500559
▁وتشاد	-11.500580
-16	-11.500591
▁لمحاكم	-11.500607
▁مجد	-11.500783
▁دوره	-11.501084
▁بالسياسة	-11.501164
▁1970	-11.501271
▁اللاحق	-11.501749
▁الأخلاقية	-11.501822
▁القصد	-11.501868
▁كليهما	-11.502106
▁النفسي	-11.502319
▁يريد	-11.502490
.23	-11.502888
▁التحسن	-11.503009
ونا	-11.503166
▁المعي	-11.503183
▁دفاع	-11.503261
▁لإعمال	-11.503307
▁بالبيان	-11.503340
").	-11.503367
▁نافذة	-11.503398
▁سريعا	-11.503675
land	-11.503921
▁يفي	-11.503972
▁اللاجئ	-11.504068
▁ومو	-11.504083
ated	-11.504475
▁والتفتيش	-11.504483
▁المقابل	-11.504671
▁لمقرر	-11.505012
▁المستعملين	-11.505127
▁فى	-11.505539
▁بأعلى	-11.505569
يفا	-11.505602
▁Ibid	-11.505911
▁report	-11.506000
لبي	-11.506045
نحو	-11.506047
▁الملحقة	-11.506054
شهود	-11.506063
▁وشد	-11.506068
▁ساو	-11.506090
ay	-11.506180
▁لأصحاب	-11.506213
▁الاستشعار	-11.506661
▁مقاومة	-11.506742
▁المسؤولون	-11.506867
▁فتئ	-11.506884
▁62-	-11.507081
▁رعايا	-11.507108
▁بالتمييز	-11.507123
▁ظهرت	-11.507228
▁والاستخدام	-11.507253
▁بصفتي	-11.507318
ثم	-11.507363
▁الصحفيين	-11.507463
▁والعدل	-11.507805
▁وأعلنت	-11.507869
إدارة	-11.507903
▁كرامة	-11.508074
▁المأوى	-11.508293
▁قروض	-11.508303
لسماح	-11.508406
▁تراخيص	-11.508415
▁إعاقة	-11.508425
عدد	-11.508489
▁نت	-11.508636
فاف	-11.508751
▁وتغيير	-11.508821
يقة	-11.508867
▁بالق	-11.508870
▁اليونانية	-11.508917
▁يتعاون	-11.509048
عاق	-11.509123
▁اختار	-11.509193
▁نف	-11.509318
▁الاستعجال	-11.509490
▁التحريض	-11.509704
▁الواحدة	-11.509863
▁الحاصل	-11.509870
▁يعبر	-11.510110
▁التجريبية	-11.510335
الإ	-11.510503
▁الصيانة	-11.510571
▁وزيرة	-11.510593
▁عرف	-11.510633
▁التشييد	-11.510641
▁بنحو	-11.510677
▁للممارسة	-11.510724
▁بمبدأ	-11.510791
▁بيروت	-11.510894
▁جديرة	-11.510909
▁مقتل	-11.510946
3/	-11.511028
▁نحتاج	-11.511047
صناعة	-11.511206
▁الاستفتاء	-11.511222
▁ونقص	-11.511401
لحق	-11.511415
▁نقدية	-11.511610
▁ملحوظة	-11.511615
نيا	-11.511935
▁تضامن	-11.511997
ations	-11.512295
▁تفرضها	-11.512306
▁حكومتها	-11.512311
▁وارد	-11.512476
خيبة	-11.512664
▁ومالطة	-11.512666
▁تعداد	-11.512740
▁نتطلع	-11.512804
▁متواصل	-11.512858
ربي	-11.512932
تنقل	-11.513194
ابا	-11.513288
▁ومساعد	-11.513357
▁الكرامة	-11.513452
▁وتأمين	-11.513933
▁الجن	-11.514092
شرك	-11.514186
برت	-11.514220
▁تتصدى	-11.514262
▁المحرومين	-11.514522
استضافة	-11.514663
▁وظروف	-11.514866
▁بالإعدام	-11.514882
▁سيقوم	-11.514885
رسم	-11.514894
optional	-11.514919
▁تبحث	-11.515018
▁ويحدون	-11.515195
▁بإيجاز	-11.515243
▁وبيلاروس	-11.515426
ab	-11.515478
▁الشهادة	-11.515543
▁الجولة	-11.515552
▁يفتقر	-11.515603
▁بالشفافية	-11.515629
▁الإطاري	-11.515749
▁وتخفيض	-11.515766
▁فوري	-11.515796
▁لزم	-11.515876
▁الاختطاف	-11.516024
▁يملك	-11.516088
قابلة	-11.516191
▁مخيم	-11.516307
▁للانضمام	-11.516324
▁سفن	-11.516416
غان	-11.516422
▁استنتاج	-11.516929
سأل	-11.516974
▁1960	-11.517149
▁وتؤدي	-11.517210
▁وتتألف	-11.517224
▁وزارات	-11.517340
▁والإنصاف	-11.517408
▁الرمز	-11.517411
طور	-11.517425
فحص	-11.517460
▁بولايات	-11.517505
▁لتقدير	-11.517901
▁وتتيح	-11.518020
▁Ro	-11.518026
▁وتقع	-11.518042
▁تنفيذية	-11.518064
▁مكون	-11.518130
▁مارشال	-11.518135
▁والأسر	-11.518151
▁وندعو	-11.518328
▁اقتض	-11.518352
▁سرد	-11.518393
▁تكمن	-11.518426
▁الوف	-11.518490
▁وسألت	-11.518541
▁نطاقها	-11.518568
▁الجمعي	-11.518575
▁الكنيسة	-11.518582
تحدث	-11.518769
con	-11.518798
▁1972	-11.519071
▁فإنني	-11.519127
▁مستديرة	-11.519217
▁كثيرين	-11.519383
▁وتونس	-11.519484
نيابة	-11.519491
▁للملاحة	-11.519579
.20	-11.519732
▁القي	-11.519884
▁الابتكار	-11.520144
▁اجتمعت	-11.520174
▁باولو	-11.520318
▁نشره	-11.520372
▁الغاز	-11.520649
▁ضمانا	-11.520687
قين	-11.520762
▁مفيد	-11.520828
▁تطبيقه	-11.521105
طار	-11.521195
▁للدخل	-11.521236
▁حوافز	-11.521258
▁الدولتين	-11.521286
▁00	-11.521497
▁الاكتفاء	-11.521535
▁للعديد	-11.521754
دورة	-11.521785
▁سكن	-11.521832
▁الذات	-11.522051
▁وتيرة	-11.522212
سويسرا	-11.522436
▁صريح	-11.522451
إحصاءات	-11.522695
▁الغايات	-11.522847
▁ملفات	-11.523104
البرازيل	-11.523147
تشي	-11.523335
▁المزعومة	-11.523403
تكلفة	-11.523455
▁بالكفاءة	-11.523599
▁الخلافات	-11.523642
▁وآخرون	-11.523694
▁المقاعد	-11.524117
▁لتفادي	-11.524170
المادتان	-11.524343
7/	-11.524458
▁."	-11.524575
▁والمؤشرات	-11.524673
▁للعلاقات	-11.525025
ضاع	-11.525042
▁رك	-11.525049
حاكم	-11.525240
▁بالشكل	-11.525242
▁وتستخدم	-11.525352
▁الانتخاب	-11.525535
▁رغبتها	-11.525578
▁متساو	-11.525599
▁الموانئ	-11.525630
▁فو	-11.526072
▁تعقيدا	-11.526487
ملايين	-11.526527
▁لجنوب	-11.526552
▁بأنهم	-11.526588
استعراض	-11.526593
لفت	-11.526703
750,	-11.526784
▁بالامتثال	-11.526847
مدونة	-11.526986
port	-11.527026
▁جار	-11.527414
▁للأصول	-11.527524
▁الربح	-11.527805
▁والدراسات	-11.527943
فك	-11.528010
▁المنطبق	-11.528111
▁التاريخي	-11.528160
▁والإمداد	-11.528248
▁لارتكاب	-11.528307
▁وتكوين	-11.528781
▁تقي	-11.528855
▁إنقاذ	-11.528991
▁مهل	-11.529411
ue	-11.529613
▁الاد	-11.529709
▁إمكان	-11.529713
▁الأبحاث	-11.529770
▁(10	-11.529783
▁صراعات	-11.530073
▁منشآت	-11.530219
▁للعهد	-11.530245
▁للقرارات	-11.530306
▁تقنيات	-11.530412
واجه	-11.530540
سقط	-11.530566
▁حم	-11.530647
▁بإدخال	-11.530664
▁عزم	-11.530731
▁(2001).	-11.531228
▁المؤهلات	-11.531236
▁الوديع	-11.531343
▁والتعويض	-11.531557
▁النائية	-11.531610
▁مم	-11.531812
▁2015.	-11.531844
▁فقرا	-11.531845
▁تراكم	-11.531945
▁يرفض	-11.531967
▁وجاء	-11.531993
▁المفوضين	-11.532043
▁الثلاثية	-11.532217
▁ومتعددة	-11.532256
▁بالفضاء	-11.532722
▁قصير	-11.532821
▁بلاده	-11.532865
▁يشغل	-11.532872
ينبغي	-11.532887
▁ويعني	-11.532990
ry	-11.533026
▪	-11.533068
عى	-11.533229
▁ثمن	-11.533248
▁المحبة	-11.533381
▁تلوث	-11.533474
▁يمر	-11.533486
▁صديق	-11.533539
-5،	-11.533713
▁زمنيا	-11.533760
▁الأفغان	-11.534029
وسائط	-11.534112
▁جوا	-11.534137
▁لإسرائيل	-11.534382
▁الافتتاحية	-11.534558
لأهمية	-11.534731
▁لممثلي	-11.534813
▁الرسولي	-11.534877
▁التأهب	-11.534915
lu	-11.535028
▁صالحة	-11.535132
▁جدير	-11.535396
▁والبلد	-11.535582
▁التقاعدي	-11.535722
▁169	-11.535910
▁يدين	-11.536044
▁العاملون	-11.536229
ver	-11.536346
▁نفعل	-11.536414
تضرر	-11.536475
ss	-11.536542
▁مفعول	-11.536745
▁وشبكات	-11.536754
▁ومبادرات	-11.536860
▁بأسماء	-11.537001
ضرب	-11.537113
▁للمفاوضات	-11.537113
▁محسوبة	-11.537115
رتي	-11.537200
قوى	-11.537958
▁الذهب	-11.538043
▁أبواب	-11.538064
▁أرواح	-11.538220
▁تتخذه	-11.538303
▁منطق	-11.538461
▁تكشف	-11.538464
▁والشهود	-11.538465
إبداء	-11.538565
▁جيل	-11.538579
▁واقعية	-11.538727
▁والسلفادور	-11.538771
▁(6	-11.538804
▁المطرد	-11.538846
▁الوزارية	-11.538849
طلعة	-11.538897
▁2)	-11.539268
▁وأقرت	-11.539371
▁المرفقة	-11.539376
مواضيع	-11.539396
▁0.7	-11.539507
نائب	-11.539663
انيا	-11.539718
▁نوفمبر	-11.539748
▁بنا	-11.539755
▁الشريعة	-11.539963
▁المدار	-11.539972
▁المخصصات	-11.540015
▁المنتسبة	-11.540271
▁ومؤسسة	-11.540283
افيا	-11.540402
▁لمنظمات	-11.540667
▁عيني	-11.540670
▁الإذاعة	-11.540787
▁أنني	-11.540800
▁طوكيو	-11.540805
▁المبي	-11.540909
غني	-11.540942
▁2000:	-11.540967
تاج	-11.541197
▁طبي	-11.541234
▁وإدراج	-11.541660
▁بالولاية	-11.541679
▁ومبلغ	-11.541827
▁ينتهك	-11.541913
▁الإرهابي	-11.542012
▁Le	-11.542025
▁مرضية	-11.542051
دوم	-11.542136
لتخطيط	-11.542190
▁للعنصرية	-11.542286
▁الزوجية	-11.542780
رؤية	-11.542786
حقق	-11.542788
▁مملكة	-11.542807
▁يشترط	-11.542837
▁للطوارئ	-11.542873
▁والتنظيمية	-11.542884
تواجد	-11.543085
.24	-11.543171
▁المتوافرة	-11.543400
▁الاسفار	-11.543415
▁صميم	-11.543447
▁نشاطا	-11.543460
▁بالمهام	-11.543470
▁وتبعا	-11.543498
▁لدفع	-11.543502
▁الأركان	-11.543645
▁عامين	-11.543740
الهند	-11.543797
▁الإعمال	-11.543872
▁...	-11.544024
▁يقدمون	-11.544098
▁وهنا	-11.544156
▁للسلع	-11.544539
ضاء	-11.545017
▁مساءلة	-11.545110
▁استعراضات	-11.545167
▁والدين	-11.545177
عق	-11.545259
▁سعيد	-11.545610
▁استضافت	-11.545621
▁إليهما	-11.545753
-26	-11.545769
▁وخمس	-11.546020
▁وشكل	-11.546021
▁تحس	-11.546491
▁والأراضي	-11.546569
▁والأدوات	-11.546598
▁خارجي	-11.546761
▁تقدمت	-11.546837
▁اختياري	-11.546905
▁المستحقات	-11.546934
▁جوهري	-11.547135
▁أمراض	-11.547190
au	-11.547192
▁وأماكن	-11.547244
▁رام	-11.547260
▁63-	-11.547420
نتخب	-11.547481
▁البنى	-11.547560
▁التحويل	-11.547573
▁بسلامة	-11.547948
▁لانه	-11.547958
▁للبحوث	-11.548285
▁التحريج	-11.548306
▁المعادن	-11.548548
▁number	-11.548603
▁بتوصيات	-11.549083
▁أدلي	-11.549168
▁استعرض	-11.549376
▁تساوي	-11.549407
▁وتحت	-11.549449
▁فروع	-11.549482
رته	-11.549599
▁بالآثار	-11.549710
▁تعليقاتها	-11.549877
▁سيساعد	-11.549932
▁قنوات	-11.549944
مرفق	-11.549981
▁لفيروس	-11.550237
.16	-11.550323
▁النسب	-11.550471
▁مشارك	-11.550521
صيب	-11.550536
▁وغانا	-11.550550
▁التخفيض	-11.550658
▁بمقرر	-11.550773
▁ملاحظاتها	-11.550797
▁والثالثة	-11.550840
▁تقاريره	-11.551158
▁وتضمن	-11.551167
▁بلدية	-11.551183
▁University	-11.551216
▁ويس	-11.551311
/59/3	-11.551538
▁الكورية	-11.551545
▁البلقان	-11.551591
▁تفاوت	-11.551591
▁خلفية	-11.551613
▁بقي	-11.551672
ST	-11.551707
▁نفسي	-11.551826
▁الاشتراكية	-11.551828
▁تسند	-11.551961
▁ومظاهره	-11.552353
pe	-11.552624
▁تيموثاوس	-11.552712
▁ذل	-11.552877
▁والثقافي	-11.552903
شة	-11.552907
زار	-11.553332
▁تحذو	-11.553345
▁صحي	-11.553432
▁الصفة	-11.553845
▁بإمكانك	-11.553984
▁بالاستعراض	-11.554197
▁للتو	-11.554388
▁مستخدم	-11.554650
▁العراقيين	-11.554743
▁الليل	-11.554770
الطريقة	-11.554832
نسب	-11.554837
▁ويستند	-11.554964
تحقق	-11.554998
▁والمح	-11.555005
qu	-11.555058
▁اختطاف	-11.555081
▁شددت	-11.555440
▁يتناسب	-11.555465
▁أكمل	-11.555671
▁تقصي	-11.555764
▁(14)	-11.555808
▁للجمهورية	-11.555990
▁تصريح	-11.556039
▁بصياغة	-11.556061
▁الجسم	-11.556207
▁رأيه	-11.556245
▁قوى	-11.556759
▁ويساعد	-11.556833
▁غر	-11.557189
▁لتمكينه	-11.557228
▁1961	-11.557339
▁وخارجها	-11.557353
▁State	-11.557474
▁المهن	-11.557801
▁التسيارية	-11.557966
▁المقالة	-11.558022
▁يربو	-11.558067
▁الامتياز	-11.558136
▁وتأثير	-11.558149
▁محاضر	-11.558152
sa	-11.558238
▁رابع	-11.558805
▁للاستخدام	-11.558857
▁ولضمان	-11.558888
▁القليل	-11.558996
▁والتكيف	-11.559157
▁تعاونية	-11.559175
▁عمره	-11.559279
▁والمعارف	-11.559473
▁والتشريعات	-11.559482
▁وثلاثة	-11.559647
▁بك	-11.559753
▁الارتباط	-11.559850
راز	-11.560085
▁يحضر	-11.560165
▁المؤهلين	-11.560228
▁الأصناف	-11.560307
فترض	-11.560329
▁الساحل	-11.560850
▁دوما	-11.560971
▁الوضوح	-11.560982
▁خرق	-11.561224
▁ونيكاراغوا	-11.561241
▁1976	-11.561392
مثلا	-11.561633
▁للموافقة	-11.561751
▁باتباع	-11.561783
▁عنهم	-11.561934
▁الطائرة	-11.562032
▁يمكنه	-11.562050
▁المعينة	-11.562142
▁متقدمة	-11.562164
▁جائزة	-11.562334
▁التفصيل	-11.562337
▁بالشعوب	-11.562483
▁تتسبب	-11.563019
▁الملايين	-11.563103
▁إلكتروني	-11.563275
▁بط	-11.563341
▁اتساع	-11.563509
▁الملح	-11.563903
▁والمساهمة	-11.563973
Z	-11.564172
▁بالمجتمع	-11.564202
حترم	-11.564216
▁البدائل	-11.564375
▁(13)	-11.564414
-27	-11.564740
أولوية	-11.564778
▁تسجل	-11.564784
▁الجوار	-11.564856
مجموعة	-11.564927
▁64-	-11.565072
▁00/15-00/18	-11.565147
▁بتحليل	-11.565161
▁مؤاتية	-11.565185
▁والنفايات	-11.565196
▁التع	-11.565267
اختصاص	-11.565277
▁نموذجية	-11.565320
▁در	-11.565468
▁ونزيهة	-11.565619
▁نظمتها	-11.565678
▁DP	-11.565742
▁1995.	-11.565774
غدو	-11.565901
▁رسالت	-11.566006
▁paras	-11.566012
▁126	-11.566113
▁ووقف	-11.566163
▁المعنى	-11.566343
▁لخط	-11.566500
▁2007)	-11.566543
▁وإقليمية	-11.566822
غة	-11.567076
▁ترسل	-11.567178
▁لالتزام	-11.567222
▁يسل	-11.567246
▁ولتعزيز	-11.567500
▁ترشيد	-11.568192
▁النظامي	-11.568928
▁طالما	-11.568931
▁170	-11.568950
▁الباردة	-11.569027
لفئات	-11.569095
▁بتعويض	-11.569206
بسط	-11.569268
▁بحسن	-11.569329
الهلال	-11.569603
▁التم	-11.569611
▁علامة	-11.569645
▁الخطاب	-11.569921
▁59/1	-11.570092
▁للوظائف	-11.570218
▁سارية	-11.570298
[...]
