<unk>	0.000000
<s>	0.000000
</s>	0.000000
▁	-3.299086
.	-3.899225
,	-3.959813
s	-5.024592
▁a	-5.099884
a	-5.205963
‌	-5.235668
i	-5.334682
▁e	-5.349074
e	-5.528219
▁na	-5.575655
▁i	-5.606426
?	-5.649503
:	-5.708528
o	-5.719545
-	-5.743529
t	-5.751486
▁-	-5.776511
▁(	-5.777806
u	-5.785454
)	-5.796810
▁te	-5.848755
n	-5.910996
m	-6.017305
▁de	-6.048738
▁o	-6.068850
d	-6.157188
na	-6.214657
'	-6.218914
▁ti	-6.255216
k	-6.262897
y	-6.337516
▁li	-6.349182
ta	-6.368108
r	-6.368575
▁”	-6.395034
▁sa	-6.396198
▁ku	-6.406412
ka	-6.427564
la	-6.440260
▁ka	-6.442991
▁“	-6.454295
▁nga	-6.471121
▁la	-6.490816
l	-6.501400
▁‘	-6.501540
an	-6.512192
،	-6.535659
te	-6.554018
’	-6.559153
▁ma	-6.576722
▁ko	-6.577534
ni	-6.582161
li	-6.635328
g	-6.636695
▁n	-6.640463
da	-6.645902
▁ne	-6.647622
▁ki	-6.651264
▁A	-6.657397
▁le	-6.657637
ti	-6.659204
▁ni	-6.671449
▁di	-6.671703
▁ha	-6.681205
▁ta	-6.683931
ma	-6.694252
▁ya	-6.698223
le	-6.705374
en	-6.715284
▁in	-6.716923
▁se	-6.717772
c	-6.727835
▁u	-6.748701
ra	-6.758263
▁و	-6.771321
ga	-6.801677
▁E	-6.809871
̣	-6.812565
ko	-6.825640
▁an	-6.830557
to	-6.839682
b	-6.848597
h	-6.850990
;	-6.853663
!	-6.854860
si	-6.865666
▁ke	-6.884493
sa	-6.887490
de	-6.897755
▁pa	-6.904317
p	-6.907187
ne	-6.907363
lo	-6.914375
ba	-6.920085
▁mo	-6.920190
‘	-6.925104
se	-6.939540
▁—	-6.942535
▁da	-6.947778
▁I	-6.964454
▁ba	-6.964672
ی	-6.973049
▁ri	-6.989018
in	-7.003815
z	-7.011100
▁si	-7.015006
ن	-7.020632
re	-7.023636
er	-7.024756
wa	-7.027133
▁mu	-7.030558
ri	-7.032699
tu	-7.055069
ar	-7.056646
ke	-7.064910
ر	-7.076535
▁he	-7.080276
ya	-7.105609
ku	-7.105985
no	-7.108278
di	-7.109052
▁so	-7.132143
j	-7.135824
ki	-7.144022
▁en	-7.153897
mi	-7.159679
ng	-7.170575
▁me	-7.171775
ro	-7.174307
و	-7.176962
▁wa	-7.213069
▁«	-7.230442
▁l	-7.234426
va	-7.241231
ja	-7.247096
me	-7.251410
▁to	-7.258599
ye	-7.268950
▁va	-7.280183
▁O	-7.280411
ˈ	-7.282171
▁d	-7.283055
▁re	-7.295651
▁به	-7.310139
▁y	-7.312171
mo	-7.313316
▁no	-7.313447
▁et	-7.321720
...	-7.322079
ه	-7.322127
▁s	-7.323032
lu	-7.324206
▁1	-7.324682
zi	-7.328617
т	-7.339894
ʼ	-7.341228
的	-7.344653
ch	-7.353707
а	-7.364902
и	-7.366822
mu	-7.370157
▁tu	-7.373728
yo	-7.378637
do	-7.389635
is	-7.395102
▁S	-7.405115
ha	-7.406855
al	-7.407090
es	-7.421015
w	-7.430292
v	-7.438342
we	-7.441577
ci	-7.443023
je	-7.443872
▁%	-7.445816
▁un	-7.461627
▁’	-7.473057
x	-7.478622
f	-7.486139
м	-7.488363
/	-7.488962
▁c	-7.489071
▁be	-7.493021
с	-7.494922
be	-7.500698
za	-7.501016
hi	-7.501045
م	-7.505355
к	-7.510943
▁_	-7.512331
bi	-7.512969
▁m	-7.513834
pa	-7.514040
л	-7.514049
st	-7.521316
▁Na	-7.521518
ve	-7.531438
▁ai	-7.535585
ny	-7.539566
▁do	-7.539894
е	-7.540599
as	-7.545125
▁su	-7.555951
▁bi	-7.557870
▁ra	-7.558177
н	-7.572365
▁ia	-7.582234
▁и	-7.583070
ge	-7.588779
vi	-7.592995
й	-7.594657
▁lo	-7.596786
у	-7.598656
▁mi	-7.606952
р	-7.606999
on	-7.619382
bo	-7.621988
á	-7.623770
ت	-7.634402
go	-7.647273
▁t	-7.658479
га	-7.660699
х	-7.660821
▁mai	-7.662719
‍	-7.676331
so	-7.683418
▁po	-7.690339
ca	-7.690675
it	-7.694820
▁oku	-7.703917
д	-7.711551
ho	-7.712195
nga	-7.717648
▁[	-7.720664
us	-7.727385
▁"	-7.727692
▁bu	-7.729500
وه	-7.731012
gi	-7.734182
▁на	-7.735327
▁ga	-7.749005
ce	-7.750238
é	-7.750752
ни	-7.752697
­	-7.755024
▁ci	-7.756745
。	-7.757394
í	-7.760820
▁pe	-7.762122
]	-7.766998
▁Ma	-7.769122
▁hi	-7.770888
fa	-7.771976
▁b	-7.774713
▁ئه	-7.778236
ru	-7.780082
▁N	-7.780589
▁M	-7.781070
▁chi	-7.789621
▁je	-7.790120
▁que	-7.792843
il	-7.793517
ን	-7.793540
س	-7.809944
q	-7.818083
▁za	-7.818398
▁ca	-7.819013
▁K	-7.832372
he	-7.834647
▁mga	-7.840763
et	-7.843175
A	-7.844340
▁ar	-7.848882
bu	-7.855060
at	-7.855754
▁که	-7.870337
▁k	-7.872561
pe	-7.878069
▁ده	-7.880226
г	-7.881899
▁du	-7.883648
да	-7.884964
el	-7.889806
▁له	-7.890018
vo	-7.894267
nu	-7.896924
ze	-7.901343
▁в	-7.903372
wo	-7.903808
os	-7.910484
на	-7.911367
з	-7.911445
man	-7.911938
▁Ka	-7.915012
ir	-7.917594
ʻ	-7.917611
pi	-7.920738
po	-7.922293
am	-7.923889
du	-7.927651
▁U	-7.929009
▁fa	-7.930241
▁»	-7.935263
▁а	-7.949289
"	-7.950113
ia	-7.958166
ш	-7.959907
▁ang	-7.962080
um	-7.962209
ش	-7.963374
▁ye	-7.977655
wi	-7.979449
п	-7.979673
▁P	-7.986646
▁tau	-7.989204
kan	-7.990034
▁с	-7.990737
▁g	-7.997472
▁al	-8.002445
в	-8.009221
ا	-8.011874
▁ut	-8.012242
▁C	-8.013551
▁yo	-8.014107
ы	-8.014466
▁T	-8.017357
▁for	-8.018648
ч	-8.021106
fi	-8.021585
_	-8.023386
sta	-8.024072
▁Sa	-8.025867
▁Ko	-8.028070
ра	-8.031351
ل	-8.032576
▁B	-8.034311
▁ja	-8.036225
zo	-8.036319
ي	-8.038091
▁у	-8.039996
не	-8.040812
▁per	-8.041527
▁er	-8.041928
▁nu	-8.046265
▁Se	-8.048933
ji	-8.051624
▁vi	-8.052006
ā	-8.058478
un	-8.058700
S	-8.059604
ur	-8.064145
та	-8.072962
▁v	-8.073274
ли	-8.076962
ter	-8.077681
я	-8.078328
▁D	-8.079259
▁ا	-8.082828
ut	-8.084023
▁ho	-8.085174
▁w	-8.086404
▁bo	-8.088372
▁Ta	-8.095298
ም	-8.095337
▁La	-8.101449
▁han	-8.101522
ju	-8.103502
▁G	-8.104006
▁con	-8.105882
̦	-8.106620
E	-8.111119
▁2	-8.112468
nan	-8.115993
▁ge	-8.116184
yi	-8.118287
C	-8.120477
▁we	-8.122006
▁die	-8.122188
ж	-8.123746
š	-8.126112
su	-8.127050
▁да	-8.129917
ла	-8.130382
co	-8.132226
▁ny	-8.134867
gu	-8.135661
ten	-8.140671
nya	-8.141821
ُ	-8.142059
دا	-8.142108
▁за	-8.144816
▁ب	-8.153979
▁L	-8.154756
ad	-8.157267
id	-8.158832
▁۽	-8.159821
hu	-8.162061
лар	-8.164213
▁im	-8.174298
▁Ne	-8.174593
▁z	-8.176260
▁Li	-8.177094
ма	-8.177299
tan	-8.178221
▁‵	-8.179606
▁faka	-8.182111
▁።	-8.182526
▁atu	-8.185539
jo	-8.186275
chi	-8.193117
▁og	-8.196382
ver	-8.198093
▁اور	-8.198833
ngo	-8.201429
▁Ba	-8.206056
▁el	-8.215468
or	-8.215882
ak	-8.216589
▁van	-8.217540
▁ak	-8.220146
▁kan	-8.222953
ndi	-8.223433
ll	-8.241457
ina	-8.242801
▁ver	-8.242974
▁av	-8.245201
ó	-8.245598
ት	-8.246553
aga	-8.246559
▁man	-8.252040
men	-8.254905
▁ad	-8.254939
▁Si	-8.257355
▁co	-8.262571
(	-8.265322
▁هه	-8.265381
▁19	-8.268822
▁Dios	-8.269858
▁fi	-8.272582
▁pag	-8.274486
▁ro	-8.279078
pu	-8.282588
د	-8.284943
lar	-8.286033
▁qui	-8.287384
▁Ku	-8.290676
den	-8.291334
▁Pa	-8.291754
cu	-8.291789
▁yi	-8.291929
▁по	-8.292439
dan	-8.293135
▁Te	-8.295796
em	-8.300006
▁para	-8.300972
nd	-8.301589
ል	-8.302745
▁ed	-8.303120
о	-8.307493
ana	-8.309403
▁ru	-8.310102
ed	-8.311235
ка	-8.314779
vu	-8.316380
ste	-8.317063
▁pu	-8.317177
▁ana	-8.321862
aki	-8.324121
▁size	-8.330021
▁lu	-8.331615
▁pro	-8.331631
%	-8.342429
ны	-8.342657
▁را	-8.347915
ran	-8.349352
▁iti	-8.349387
ти	-8.350421
▁Ha	-8.350554
▁kuti	-8.351947
▁at	-8.353211
▁pi	-8.356739
▁dan	-8.356892
▁nak	-8.359131
но	-8.359425
▁kon	-8.361217
ý	-8.366930
▁h	-8.369558
▁Mo	-8.370543
ын	-8.371630
ان	-8.373391
▁pou	-8.375018
N	-8.378767
ita	-8.380857
▁Me	-8.381609
▁mea	-8.382926
▁f	-8.384932
▁den	-8.385153
mba	-8.386290
▁De	-8.390497
▁не	-8.392193
lan	-8.398634
ር	-8.399268
▁F	-8.399307
tra	-8.401268
ú	-8.401755
▁laj	-8.403912
▁del	-8.404679
san	-8.405589
▁is	-8.406532
▁ба	-8.407984
یه	-8.413057
eb	-8.413496
▁ir	-8.413557
▁Mu	-8.415153
▁x	-8.417397
▁А	-8.419789
han	-8.420332
▁des	-8.421158
gen	-8.422768
▁mau	-8.425863
▁ve	-8.428184
der	-8.429719
M	-8.432759
ле	-8.433307
▁à	-8.433541
▁ال	-8.433704
▁Jehova	-8.434108
نى	-8.439788
B	-8.443102
ِ	-8.447018
б	-8.451857
که	-8.454132
▁Re	-8.457076
▁H	-8.458716
▁ва	-8.460676
nt	-8.461080
ق	-8.462719
I	-8.462948
▁No	-8.469137
T	-8.470459
▁nan	-8.471090
nda	-8.471756
▁til	-8.471870
▁ber	-8.472206
▁gi	-8.473857
▁om	-8.475941
یان	-8.477654
▁il	-8.478209
▁تو	-8.481315
和	-8.484333
▁نه	-8.484560
▁aba	-8.487071
▁fe	-8.487089
▁م	-8.487556
ş	-8.488250
ler	-8.488861
tar	-8.496147
▁з	-8.497288
▁&	-8.498116
ك	-8.501198
ą	-8.502645
▁։	-8.503308
ly	-8.506296
ک	-8.507625
D	-8.508014
न	-8.514298
▁che	-8.515536
▁nou	-8.517767
).	-8.520856
ри	-8.522104
са	-8.524535
ê	-8.525396
ի	-8.526488
sh	-8.529111
▁To	-8.529238
▁Le	-8.534986
ро	-8.538723
▁eo	-8.539354
dy	-8.539622
tt	-8.543175
▁ei	-8.543961
▁کے	-8.544956
fu	-8.546389
ب	-8.549542
त	-8.551692
▁op	-8.553109
è	-8.555345
ң	-8.556489
дан	-8.556657
▁tal	-8.557044
ul	-8.558491
ہ	-8.560388
▁ji	-8.564557
▁In	-8.568075
ز	-8.568471
▁p	-8.569053
ди	-8.572369
те	-8.572502
ल	-8.578591
▁ndi	-8.579077
ና	-8.579365
▁iya	-8.579394
sti	-8.579474
fe	-8.579808
ва	-8.581621
▁wo	-8.582366
ban	-8.582848
ek	-8.583185
▁3	-8.583712
▁Ya	-8.588193
ь	-8.590104
cha	-8.593473
ло	-8.596388
क	-8.598141
र	-8.607691
▁፡	-8.609328
▁Ti	-8.611043
▁ہے	-8.611925
ß	-8.612484
nde	-8.612705
F	-8.615135
▁та	-8.616651
▁yang	-8.617802
à	-8.618227
ն	-8.619087
▁Da	-8.624160
▁ag	-8.625378
▁cu	-8.625520
де	-8.626500
▁som	-8.627012
▁der	-8.627144
▁من	-8.628873
▁ek	-8.632149
zu	-8.636517
▁ته	-8.636533
ua	-8.636713
ã	-8.639211
ä	-8.642144
ме	-8.643059
▁।	-8.646185
▁nag	-8.647747
ai	-8.649139
▁sang	-8.649646
P	-8.651229
▁jo	-8.651523
▁on	-8.651683
▁An	-8.651714
▁au	-8.651895
▁آھي	-8.654327
▁ama	-8.656271
▁kai	-8.657023
▁ئا	-8.658988
▁á	-8.660702
он	-8.662377
tor	-8.666695
au	-8.668101
O	-8.668224
ts	-8.669580
mbo	-8.670038
che	-8.671588
▁о	-8.672168
▁کی	-8.673006
ይ	-8.673161
ს	-8.674623
ngi	-8.674932
ю	-8.674951
то	-8.676989
Name	-8.679027
▁Ni	-8.679148
▁pre	-8.679486
ብ	-8.679556
▁Yehova	-8.680673
ry	-8.682809
▁Mi	-8.684630
ngu	-8.685173
ə	-8.685374
ɛ	-8.685627
ند	-8.688111
wu	-8.688682
ი	-8.689762
ol	-8.689777
▁Bu	-8.692028
2	-8.692053
que	-8.693316
ми	-8.696095
tion	-8.697364
▁အ	-8.698522
▁kwa	-8.699082
U	-8.699536
im	-8.701770
ки	-8.702106
G	-8.702660
▁les	-8.704340
tur	-8.704729
了	-8.705364
্	-8.706066
▁të	-8.707880
▁к	-8.709695
▁Po	-8.710074
qa	-8.710689
gan	-8.712681
▁Atua	-8.713844
▁sing	-8.714014
▁faa	-8.714964
▁par	-8.714966
ा	-8.715878
ven	-8.716085
▁جو	-8.716226
▁Ki	-8.716348
▁bann	-8.717027
▁men	-8.717784
▁por	-8.719079
ë	-8.719691
ah	-8.720695
ة	-8.722964
▁fai	-8.723807
▁Ra	-8.723990
▁ap	-8.729736
ون	-8.730297
▁V	-8.731021
ስ	-8.731258
▁ju	-8.731492
ты	-8.732534
▁ch	-8.733753
ot	-8.734681
ф	-8.736884
▁до	-8.737472
▁go	-8.737761
ty	-8.743134
▁بۆ	-8.744596
▁kita	-8.744658
▁paper	-8.745798
ò	-8.749580
▁saß	-8.752086
پ	-8.754060
▁med	-8.754785
▁zi	-8.755638
ан	-8.756044
▁کو	-8.764009
▁Di	-8.765507
▁Be	-8.765709
né	-8.766173
▁es	-8.768178
“	-8.768715
nn	-8.775069
▁کي	-8.775590
▁ки	-8.776954
ine	-8.777595
به	-8.778345
▁fo	-8.778505
▁gu	-8.780022
▁Ja	-8.780141
▁С	-8.781940
▁ara	-8.783776
مان	-8.784608
ган	-8.786677
▁سے	-8.788144
▁bwa	-8.788985
▁kg	-8.789002
▁tatou	-8.789891
nye	-8.790010
mbi	-8.790227
▁tó	-8.790687
▁R	-8.792917
▁zo	-8.793468
H	-8.794193
▁het	-8.795594
len	-8.795868
▁со	-8.804698
▁W	-8.804968
▁oo	-8.808285
mwe	-8.809951
▁се	-8.810406
lik	-8.813287
ik	-8.813502
▁am	-8.814463
мо	-8.814528
1	-8.815363
▁خوا	-8.817188
་	-8.817803
▁ọ	-8.820169
ner	-8.821167
ა	-8.821867
、	-8.826248
ು	-8.826510
lla	-8.828278
ц	-8.828410
ं	-8.828542
ż	-8.828894
▁االله	-8.828938
▁vo	-8.829170
▁میں	-8.830374
ndo	-8.832351
ų	-8.832907
▁И	-8.835895
ده	-8.835960
ali	-8.837721
▁ena	-8.837907
是	-8.838021
▁در	-8.838140
ست	-8.841685
▁У	-8.841918
ар	-8.843252
min	-8.845490
▁Wa	-8.845728
▁pri	-8.846631
在	-8.846782
ment	-8.847606
R	-8.848546
ے	-8.848781
ren	-8.849087
õ	-8.850745
лы	-8.850795
nge	-8.851608
th	-8.852755
ü	-8.853235
ә	-8.855103
ck	-8.856282
qu	-8.857088
tha	-8.858920
kwa	-8.859544
ł	-8.860049
年	-8.861644
న	-8.862223
ž	-8.862502
▁på	-8.863078
ab	-8.864171
▁–	-8.864359
▁Ke	-8.865379
▁(_	-8.867293
▁af	-8.868894
▁vaka	-8.869345
чи	-8.872266
shi	-8.872604
ರ	-8.874036
ం	-8.876573
L	-8.880124
ria	-8.880709
ды	-8.882296
се	-8.885429
ድ	-8.885938
ন	-8.887414
▁est	-8.888574
▁um	-8.888689
ил	-8.888895
ene	-8.888958
▁ل	-8.889785
isa	-8.890112
▁xa	-8.890210
े	-8.890248
ը	-8.891212
ст	-8.891703
▁Bi	-8.892430
▁Jesus	-8.897733
ع	-8.899022
▁ка	-8.900207
▁е	-8.900318
▁He	-8.901128
را	-8.901537
kon	-8.905120
dzi	-8.905186
ਰ	-8.907907
▁10	-8.907968
ем	-8.908786
▁ala	-8.910793
ге	-8.913274
rin	-8.914104
yn	-8.914500
V	-8.914544
െ	-8.915420
ू	-8.915799
ية	-8.916948
ן	-8.917084
ү	-8.917387
▁ме	-8.917415
kin	-8.917966
▁tan	-8.918770
▁bir	-8.918880
â	-8.919404
▁Je	-8.919484
bal	-8.921409
ona	-8.923040
▁5	-8.925209
ча	-8.925550
ৰ	-8.929584
sin	-8.929844
▁ທີ່	-8.930346
ко	-8.930563
ات	-8.931615
म	-8.933042
mbe	-8.933912
▁бер	-8.933927
स	-8.934010
ен	-8.934957
▁cho	-8.935627
isi	-8.936313
ет	-8.936636
ڵ	-8.937595
▁Lo	-8.938060
▁ní	-8.939893
3	-8.940311
aj	-8.940524
▁as	-8.942294
▁kua	-8.944189
tes	-8.944492
▁non	-8.945249
4	-8.945264
▁hu	-8.946918
▁جي	-8.947844
ç	-8.948774
ым	-8.950108
ć	-8.951706
▁ce	-8.952418
▁я	-8.954194
▁ت	-8.954289
ని	-8.955064
tta	-8.955564
lin	-8.955716
ní	-8.958991
র	-8.959811
lle	-8.959835
▁aka	-8.959860
го	-8.961913
ው	-8.964169
sto	-8.965054
́	-8.967665
ат	-8.967771
▁Ut	-8.968816
ada	-8.969085
نىڭ	-8.970056
ile	-8.970752
ig	-8.971296
▁oyo	-8.971327
че	-8.971362
▁ò	-8.971594
▁15	-8.972345
ੇ	-8.972612
ñ	-8.973728
ھ	-8.975459
ర	-8.975660
ում	-8.975951
ها	-8.977365
▁4	-8.979744
ama	-8.980141
ال	-8.980170
ом	-8.980363
ē	-8.981770
▁So	-8.982080
▁aku	-8.982979
yan	-8.983434
tin	-8.984331
▁б	-8.984794
ि	-8.984893
▁ou	-8.985045
▁cha	-8.986178
▁kau	-8.988981
ie	-8.989985
té	-8.991124
▁мо	-8.991424
▁の	-8.993048
▁nei	-8.993435
ite	-8.994626
▁کہ	-8.996320
за	-8.998007
ದ	-8.998363
ira	-8.999199
dir	-8.999389
▁pé	-8.999523
ọ	-9.000566
ô	-9.002220
»	-9.003850
▁Ri	-9.007138
▁Ca	-9.008468
ба	-9.009811
▁ن	-9.011359
▁ان	-9.011646
▁tí	-9.012115
▁det	-9.013961
ку	-9.014436
K	-9.014633
ր	-9.015469
ره	-9.015993
▁/	-9.016221
▁ᎠᎴ	-9.016395
per	-9.016768
ire	-9.017230
ре	-9.017525
▁ilo	-9.019655
sha	-9.019735
▁iz	-9.019900
yu	-9.024562
5	-9.025331
ay	-9.025339
نه	-9.026801
▁الله	-9.028198
ӕ	-9.029441
sia	-9.030250
ыр	-9.030581
ap	-9.030668
▁En	-9.031745
▁то	-9.031974
▁။	-9.033179
వ	-9.033235
▁maka	-9.034928
ı	-9.035255
▁Do	-9.035625
لا	-9.035752
▁J	-9.036192
qui	-9.036276
mas	-9.037387
▁é	-9.038137
▁от	-9.038574
چ	-9.038649
്	-9.039257
ben	-9.039371
om	-9.040113
ala	-9.040932
Y	-9.041040
ای	-9.042341
خ	-9.042814
▁የ	-9.043844
▁Tu	-9.044205
ላ	-9.045001
ин	-9.045626
▁ń	-9.045660
tre	-9.046199
▁ua	-9.047323
व	-9.047893
▁அ	-9.048217
cho	-9.048484
ks	-9.048573
ে	-9.048673
ning	-9.051542
æ	-9.052075
nie	-9.053686
▁Ho	-9.054017
▁of	-9.054074
ी	-9.055627
nta	-9.055882
ъ	-9.055972
rá	-9.056628
ky	-9.057218
ला	-9.057632
▁em	-9.058241
▁Vi	-9.058340
▁Т	-9.058568
қ	-9.059139
aka	-9.059471
xa	-9.060139
tia	-9.061357
▁في	-9.062462
نا	-9.064563
ción	-9.064680
ini	-9.064806
▁է	-9.065636
ę	-9.066179
ම	-9.066539
ð	-9.066686
▁X	-9.066941
▁yn	-9.067009
ntu	-9.070792
ам	-9.072111
ለ	-9.072221
ыл	-9.072827
ton	-9.074071
ok	-9.074753
▁бу	-9.074883
▁һәм	-9.074918
سه	-9.075693
▁ayeke	-9.076558
ನ	-9.077173
å	-9.079390
▁vu	-9.080505
▁ao	-9.080751
▁sin	-9.081282
▁ug	-9.081355
▁una	-9.081656
kwe	-9.082626
ing	-9.083504
▁نا	-9.083509
▁በ	-9.084223
Ꮧ	-9.085172
ಾ	-9.088852
ری	-9.088967
▁Su	-9.089472
Ꭲ	-9.090021
▁„	-9.090203
fo	-9.090405
▁com	-9.091332
▁3:	-9.091538
sen	-9.092233
ට	-9.094386
pp	-9.096010
ber	-9.097344
ні	-9.097366
وں	-9.097874
ui	-9.098022
▁lix	-9.098948
▁7	-9.098958
ം	-9.099233
ረ	-9.099517
▁mag	-9.100317
ña	-9.100744
▁جا	-9.100928
rt	-9.102015
ов	-9.102235
od	-9.104052
kß	-9.104651
ken	-9.105859
ù	-9.105972
ser	-9.107972
î	-9.108904
人	-9.109506
▁ኣብ	-9.111605
▁Ꭴ	-9.113280
▁Hi	-9.113563
▁الم	-9.114023
ag	-9.114045
▁Bo	-9.114440
َ	-9.114555
▁kar	-9.115179
▁var	-9.115374
nik	-9.115451
▁ndị	-9.115850
і	-9.116123
▁Ga	-9.116837
iga	-9.117125
Ꮅ	-9.117152
ट	-9.118731
thi	-9.118809
រ	-9.118955
تا	-9.119093
▁ì	-9.119823
▁და	-9.119965
▁اس	-9.120567
lé	-9.120967
▁Pe	-9.121119
▁می	-9.121211
▁för	-9.121935
▁تا	-9.122567
യ	-9.122711
گه	-9.124077
▁از	-9.125368
▁mata	-9.125738
ud	-9.127051
era	-9.128373
እ	-9.129342
▁und	-9.129471
تان	-9.129930
▁met	-9.131382
▁uku	-9.131664
ڪ	-9.133563
pan	-9.133801
č	-9.134499
ව	-9.134884
▁mar	-9.135777
ক	-9.137626
ang	-9.138127
प	-9.138598
▁bwe	-9.140240
ې	-9.140524
▁kas	-9.140974
▁iyo	-9.141120
ను	-9.141762
▁бир	-9.142377
▁అ	-9.142774
▁enn	-9.142848
▁•	-9.143027
▁پر	-9.143056
ಿ	-9.144106
▁با	-9.144537
tsa	-9.144794
W	-9.146350
tro	-9.146653
гә	-9.148170
▁"%	-9.149049
▁Y	-9.149582
▁och	-9.150635
।	-9.151561
▁los	-9.152207
▁tra	-9.153285
▁12	-9.153700
ҳ	-9.153816
ere	-9.154094
mat	-9.154738
▁са	-9.154853
▁ngan	-9.155731
ර	-9.155830
▁Va	-9.157516
▁про	-9.157666
▁Co	-9.157892
▁ae	-9.158758
mos	-9.159681
ani	-9.161221
ន	-9.161605
Ꮒ	-9.162181
य	-9.162349
▁orang	-9.162712
сь	-9.163146
▁پ	-9.163203
ነ	-9.163791
iti	-9.163862
lá	-9.165067
во	-9.165771
▁ser	-9.166908
ਨ	-9.167892
xi	-9.168018
▁О	-9.168096
▁swi	-9.168522
▁àwọn	-9.168599
eg	-9.170884
▁6	-9.172381
лан	-9.172493
ف	-9.174133
uma	-9.174641
▁Al	-9.175398
▁ма	-9.177137
▁но	-9.177653
▁бол	-9.178299
▁dia	-9.179004
▁अ	-9.179860
▁ratou	-9.179976
؟	-9.180068
▁د	-9.180367
▁vei	-9.181282
▁आ	-9.181390
las	-9.182096
nia	-9.182714
tik	-9.182722
▁те	-9.185159
▁ኣ	-9.186003
▁fu	-9.186261
น	-9.187120
▁lan	-9.187478
▁sam	-9.190378
си	-9.191033
дир	-9.191342
tte	-9.191401
▁Pi	-9.192079
▁Allah	-9.193891
▁Z	-9.193998
ታ	-9.194483
ré	-9.195253
anga	-9.196080
▁نے	-9.196177
ար	-9.196521
دىن	-9.196633
iz	-9.197302
▁کا	-9.198169
ੀ	-9.200276
ī	-9.200938
иш	-9.201361
wan	-9.202818
▁при	-9.202899
▁2:	-9.203018
bil	-9.205640
▁我	-9.205875
иб	-9.206084
ט	-9.206974
wana	-9.207447
ру	-9.207918
ան	-9.208148
ры	-9.209032
▁መ	-9.209088
oni	-9.210951
nje	-9.210990
hia	-9.211754
▁په	-9.212270
不	-9.212447
▁بر	-9.212601
有	-9.212871
▁ona	-9.213019
ల	-9.214705
▁Jehovah	-9.215067
క	-9.216053
غا	-9.216451
ما	-9.216771
▁mpe	-9.217272
nto	-9.217925
▁ex	-9.217956
▁tin	-9.218027
ता	-9.218247
ша	-9.219739
ɣ	-9.220030
ص	-9.220428
ske	-9.220962
च	-9.221010
ль	-9.221262
ise	-9.221421
ول	-9.221705
от	-9.222895
ግ	-9.222916
្	-9.224142
dza	-9.224958
▁ми	-9.225173
▁ora	-9.225628
Ꭹ	-9.225909
kho	-9.226626
či	-9.227543
▁ал	-9.227908
ले	-9.228329
tas	-9.228388
▁ata	-9.228516
ม	-9.228682
nis	-9.228835
▁har	-9.229245
aba	-9.229508
ය	-9.229557
▁ob	-9.229613
анд	-9.229622
iki	-9.232919
య	-9.235438
日	-9.235583
▁ເຮົາ	-9.237329
зи	-9.237979
ад	-9.238717
▁8	-9.238845
ska	-9.239495
కు	-9.239716
月	-9.241197
▁nya	-9.241961
sion	-9.242103
تی	-9.243359
fer	-9.243542
▁К	-9.243665
ار	-9.244621
غ	-9.245231
▁è	-9.246825
son	-9.247002
ì	-9.247033
ski	-9.247947
▁xi	-9.248115
ger	-9.249505
Ꮓ	-9.250151
▁ۋە	-9.250213
ға	-9.250223
ssa	-9.250360
▁жа	-9.251814
▁Du	-9.252443
bar	-9.252669
▁ہیں	-9.252679
▁ה	-9.252755
▁'%	-9.252981
ур	-9.253056
tal	-9.253310
▁'	-9.253389
▁tama	-9.253434
▁era	-9.253739
▁wi	-9.253809
mbu	-9.254314
▁1:	-9.256578
lia	-9.257801
▁nos	-9.258067
▁ᎾᏍᎩ	-9.259532
ila	-9.259550
▁amin	-9.259609
ร	-9.259635
uta	-9.259660
يەنى	-9.260733
ló	-9.260785
▁Yesu	-9.261132
▁Иегова	-9.262071
▁9	-9.262091
ate	-9.263945
ari	-9.265332
тар	-9.266555
▁att	-9.267844
ләр	-9.268679
una	-9.268810
▁ken	-9.271288
ј	-9.272705
وانه	-9.273016
”	-9.274087
▁Ro	-9.274226
ring	-9.274276
▁ን	-9.274668
▁20	-9.274720
pen	-9.275449
ň	-9.275540
ሉ	-9.276221
ké	-9.276641
ej	-9.277077
lah	-9.277397
▁Pro	-9.277486
▁agus	-9.277653
▁lava	-9.277761
▁Ge	-9.279145
ত	-9.280210
nes	-9.280968
ገ	-9.281141
▁zot	-9.281408
kk	-9.281737
▁ini	-9.282953
ु	-9.284152
の	-9.284252
ux	-9.286147
res	-9.287049
▁ብ	-9.287202
▁бар	-9.287786
op	-9.288411
xe	-9.289412
nte	-9.289983
ал	-9.290290
▁Jo	-9.290735
▁Ꭰ	-9.290743
tos	-9.291618
sz	-9.292315
ке	-9.293370
▁4:	-9.295159
ip	-9.295206
lok	-9.295705
ndu	-9.296299
А	-9.296746
▁に	-9.297382
the	-9.297429
ു	-9.298303
ത	-9.298447
▁क	-9.298639
Ꮎ	-9.299372
一	-9.299379
▁។	-9.299819
ਤ	-9.301229
▁».	-9.302225
ք	-9.302284
ڻ	-9.302347
\	-9.302667
ыш	-9.303004
ക	-9.303446
ته	-9.303897
▁Fa	-9.304001
▁Ar	-9.304112
▁tino	-9.304510
▁sí	-9.304607
ер	-9.305061
ራ	-9.305677
▁ngo	-9.305915
ara	-9.306326
▁hin	-9.306495
би	-9.307794
ط	-9.308644
ह	-9.309047
ngaahi	-9.309799
sar	-9.309970
▁би	-9.311687
▁ur	-9.311890
ви	-9.312237
des	-9.312715
ح	-9.312848
па	-9.313766
mak	-9.314201
ين	-9.314549
lt	-9.314605
ati	-9.314878
▁bar	-9.315125
ι	-9.315276
▁pas	-9.315972
ach	-9.316095
▁os	-9.316766
kar	-9.317047
ო	-9.317460
▁sy	-9.317944
ി	-9.319632
▁kitai	-9.319654
▁diri	-9.320696
我	-9.321409
тер	-9.321684
ū	-9.321863
▁Iehova	-9.322012
τ	-9.322807
tá	-9.323157
sy	-9.323956
зы	-9.324566
▁tâ	-9.324808
ો	-9.325817
▁бо	-9.326455
▁11	-9.326534
nna	-9.328334
tus	-9.328678
ị	-9.328913
land	-9.329440
▁ira	-9.329964
Ꮫ	-9.330780
ம்	-9.331037
▁के	-9.331188
▁od	-9.331384
▁Iesu	-9.332560
nja	-9.332615
ის	-9.333650
ν	-9.334221
▁qu	-9.334394
tsi	-9.334663
ಲ	-9.335265
▁the	-9.335357
▁ч	-9.335835
ura	-9.336883
raa	-9.337840
thu	-9.337847
▁ṣe	-9.337861
▁5:	-9.338085
▁koe	-9.338812
گ	-9.341157
▁Nu	-9.341162
ара	-9.341197
ने	-9.341499
Ꮕ	-9.341704
les	-9.342091
▁vai	-9.342341
▁وہ	-9.343328
ব	-9.343330
▁kuma	-9.343420
▁tou	-9.343741
መ	-9.344718
▁Za	-9.344919
ata	-9.344979
ale	-9.345387
gt	-9.345895
▁ihe	-9.347738
ተ	-9.347870
በ	-9.349106
ээ	-9.349306
▁30	-9.350826
ము	-9.352725
یا	-9.352737
yon	-9.352825
ፍ	-9.352890
ster	-9.353351
▁ха	-9.353496
ụ	-9.353760
ɔ	-9.355683
▁san	-9.356431
ێ	-9.356506
ዕ	-9.356784
are	-9.357073
ল	-9.358084
ស	-9.358516
sk	-9.358569
▁ко	-9.359115
द	-9.359524
▁bá	-9.359640
▁П	-9.359801
ാ	-9.360292
▁kwe	-9.361047
▁аз	-9.361516
ۇ	-9.361879
ue	-9.362031
ў	-9.362363
▁doo	-9.362718
▁ter	-9.362774
ವ	-9.364070
▁usa	-9.365470
gar	-9.366034
dar	-9.366232
لى	-9.371467
▁gin	-9.372682
▁18	-9.372976
ু	-9.373106
▁ano	-9.373317
mp	-9.373556
lig	-9.374567
let	-9.374681
by	-9.375565
ా	-9.376220
▁isa	-9.376595
▁ಅ	-9.377106
cia	-9.378045
مه	-9.378093
ۆ	-9.378157
00	-9.378435
uk	-9.378713
▁min	-9.378859
ਲ	-9.378972
ല	-9.379454
ম	-9.380943
oc	-9.382032
og	-9.382440
ቲ	-9.382751
▁ҳам	-9.383492
▁ako	-9.383572
ḥ	-9.383646
▁tagata	-9.384615
ac	-9.384789
ા	-9.385235
lè	-9.385456
▁nie	-9.385590
▁ej	-9.387196
ര	-9.388361
ше	-9.389183
ă	-9.389387
▁mas	-9.389416
(_	-9.389595
ج	-9.389696
▁ze	-9.390715
▁gen	-9.391394
வ	-9.391402
ту	-9.392054
io	-9.392548
▁mana	-9.393333
▁س	-9.393392
uti	-9.393499
ent	-9.394318
λ	-9.394538
▁dat	-9.395123
Ꮣ	-9.396173
6	-9.396507
lwa	-9.398396
▁ту	-9.398589
▁خ	-9.398901
து	-9.400352
▁ہو	-9.401187
të	-9.401404
nin	-9.401920
ל	-9.402701
ה	-9.403156
Z	-9.404649
ron	-9.404887
ید	-9.407299
υ	-9.407882
ij	-9.408140
pat	-9.408163
ende	-9.408485
ក	-9.408605
tis	-9.409525
▁آ	-9.410047
ӗ	-9.410121
ий	-9.410292
▁wax	-9.410506
い	-9.410670
▁او	-9.411150
rí	-9.412265
ח	-9.413135
mer	-9.413263
nzi	-9.413470
ോ	-9.414498
▁ari	-9.415682
ደ	-9.415690
ি	-9.416387
سا	-9.416749
ib	-9.418372
ା	-9.418816
▁سه	-9.418900
▁uma	-9.419376
你	-9.419408
ล	-9.419622
▁th	-9.419653
kt	-9.420057
ர்	-9.420742
ele	-9.421006
gy	-9.421012
ris	-9.421119
ሰ	-9.421595
nder	-9.421815
ant	-9.422235
▁latou	-9.422344
▁ع	-9.422456
ง	-9.423071
თ	-9.423265
ث	-9.426226
Ꭿ	-9.427219
▁25	-9.427515
▁í	-9.428366
يا	-9.428806
▁6:	-9.428874
nk	-9.428943
▁bon	-9.429057
ሕ	-9.429479
▁ng	-9.430419
▁sara	-9.431610
▁አ	-9.431968
▁Gu	-9.432240
▁ي	-9.432862
ҫ	-9.433570
▁14	-9.433684
▁му	-9.434153
И	-9.436157
ray	-9.436479
▁yeke	-9.436534
ያ	-9.436687
▁کان	-9.437802
ns	-9.439961
▁па	-9.440134
ld	-9.440495
bra	-9.440624
▁Ye	-9.440656
van	-9.441161
▁gui	-9.441769
тә	-9.441875
▁las	-9.441970
ӑ	-9.441972
mpa	-9.441999
uri	-9.442150
dos	-9.442311
ның	-9.442564
ய	-9.442829
nni	-9.443192
из	-9.443411
▁Ver	-9.443512
ия	-9.444207
פ	-9.444692
0	-9.446212
▁မ	-9.446840
വ	-9.447821
tz	-9.448672
▁ati	-9.448944
▁mwa	-9.449231
ो	-9.449283
án	-9.450093
ना	-9.450201
▁j	-9.450308
▁isi	-9.450315
▁fil	-9.450368
bat	-9.452314
త	-9.453160
▁т	-9.453428
▁El	-9.455025
ся	-9.455228
Ꮑ	-9.456276
ນ	-9.456367
ø	-9.456978
аш	-9.457137
num	-9.457159
▁Ang	-9.457219
▁из	-9.457651
ע	-9.457943
▁Israel	-9.458847
nti	-9.459596
rum	-9.459806
ባ	-9.459972
ilo	-9.460244
jen	-9.460281
▁ዝ	-9.460346
ля	-9.460628
ө	-9.460714
▁ကို	-9.461286
▁Ọ	-9.461955
▁nda	-9.462022
▁by	-9.462291
ngan	-9.462350
ӣ	-9.462355
▁Д	-9.463846
ئ	-9.464405
lí	-9.465638
▁ndo	-9.466895
ង	-9.467021
ام	-9.467292
nji	-9.467699
ਾ	-9.467880
▁си	-9.468659
ып	-9.469650
nen	-9.470748
ጽ	-9.470861
▁你	-9.471924
pha	-9.472129
▁во	-9.472479
▁tala	-9.473345
▁pan	-9.473798
ម	-9.474413
дер	-9.474782
ker	-9.475517
ى	-9.475839
▁Un	-9.475881
ano	-9.476540
paper	-9.476663
kha	-9.477328
tum	-9.478093
▁д	-9.479113
γ	-9.479304
mes	-9.479449
▁ተ	-9.480016
▁wu	-9.481229
ic	-9.481432
Ꭶ	-9.481744
ին	-9.482222
val	-9.483361
▁э	-9.483804
▁ໃຫ້	-9.484045
им	-9.484353
ces	-9.484374
fan	-9.485266
▁ку	-9.485784
anna	-9.486122
▁r	-9.486731
ก	-9.486841
keun	-9.487188
▁toe	-9.487339
ela	-9.488080
ах	-9.488175
▁via	-9.488338
▁nke	-9.488739
▁ພະ	-9.488934
▁1,	-9.489815
▁Es	-9.490075
ել	-9.490854
ό	-9.491508
dde	-9.491942
ვ	-9.492392
ну	-9.492640
bel	-9.493369
ว	-9.493454
▁ah	-9.493812
ర్	-9.493920
ર	-9.493944
ሳ	-9.494226
▁dagiti	-9.494345
▁yon	-9.495250
hla	-9.495981
▁jun	-9.496123
▁कर	-9.498903
ე	-9.499499
▁whaka	-9.499640
ர	-9.500527
α	-9.500906
ዳ	-9.502100
േ	-9.502934
рт	-9.503869
ย	-9.503873
მ	-9.504372
sch	-9.504382
tak	-9.504553
▁۾	-9.504939
up	-9.505280
gin	-9.506677
▁sem	-9.507040
த்த	-9.507060
▁го	-9.507108
ӕн	-9.508531
▁は	-9.509687
ón	-9.509985
yr	-9.510482
ग	-9.511276
▁آن	-9.511368
ili	-9.511918
ел	-9.513369
▁*	-9.513816
ካ	-9.513822
мы	-9.514303
lay	-9.514520
▁کر	-9.514954
ប	-9.515083
лык	-9.515108
7	-9.515655
pre	-9.516596
▁ይ	-9.516818
ማ	-9.517005
▁az	-9.517346
ț	-9.517752
▁kag	-9.518160
▁uz	-9.519630
run	-9.519907
න	-9.520994
сы	-9.521329
kom	-9.521642
▁24	-9.522666
8	-9.522732
▁Con	-9.523033
▁تم	-9.524504
ци	-9.524513
ప	-9.524660
ö	-9.525359
▁kana	-9.525747
▁loto	-9.526335
▁ئۇلار	-9.526771
▁है	-9.527711
▁ви	-9.529079
tā	-9.529559
▁zu	-9.529773
cht	-9.529940
ק	-9.530085
ή	-9.530146
▁В	-9.530883
stra	-9.531272
ς	-9.531771
▁tak	-9.532343
ਾਂ	-9.532378
aq	-9.532416
ੋ	-9.532418
▁ñan	-9.532652
ේ	-9.532676
ora	-9.532910
ు	-9.534708
ez	-9.534731
▁tä	-9.534960
تى	-9.535292
X	-9.535778
ling	-9.536080
ит	-9.537287
nak	-9.537472
19	-9.538671
▁ک	-9.538762
ո	-9.539110
tika	-9.539399
บ	-9.539652
dd	-9.539890
mana	-9.540565
ex	-9.540803
▁որ	-9.541915
ጥ	-9.541956
ী	-9.542144
ο	-9.542171
▁Kon	-9.542603
▁13	-9.542844
kat	-9.544195
տ	-9.544216
া	-9.544804
▁kina	-9.545670
ೇ	-9.545942
▁ezi	-9.546213
نی	-9.546942
▁pla	-9.547176
int	-9.547252
▁ໃນ	-9.547675
ál	-9.547692
tri	-9.550656
▁ຈະ	-9.551480
ា	-9.551671
mal	-9.551784
▁ac	-9.551918
ල	-9.552075
▁Biblia	-9.552418
hon	-9.553006
▁là	-9.553160
▁eller	-9.554038
▁qa	-9.554515
ras	-9.555127
▁を	-9.555356
ਕ	-9.555391
▁We	-9.555503
lli	-9.556439
бо	-9.556477
EN	-9.556680
rë	-9.556684
▁ке	-9.556746
ක	-9.557419
▁ໄດ້	-9.557927
stu	-9.558119
த	-9.558311
ህ	-9.558580
ጠ	-9.558784
ей	-9.558815
ман	-9.558884
▁okuti	-9.560292
kai	-9.560399
ите	-9.560783
ब	-9.561655
روه	-9.561952
▁—⁠	-9.562601
mpi	-9.563450
ס	-9.563499
ି	-9.564845
اد	-9.565511
ente	-9.565539
▁хо	-9.565873
▁Б	-9.566052
▁pie	-9.566263
ħ	-9.566300
▁ما	-9.566644
եր	-9.566792
▁đ	-9.567582
▁ти	-9.568009
tut	-9.568689
▁å	-9.569315
ڕاستی	-9.570016
▁ແລະ	-9.571229
ە	-9.572421
dia	-9.572927
ա	-9.572951
ین	-9.573314
ת	-9.573596
▁ከ	-9.574228
ու	-9.574765
▁ин	-9.576265
▁خود	-9.576329
▁16	-9.576530
▁ул	-9.577334
20	-9.577953
ակ	-9.578672
ation	-9.578882
شت	-9.578930
▁iki	-9.579151
▁است	-9.579432
上	-9.579644
10	-9.580332
bre	-9.581347
▁м	-9.581494
sse	-9.581821
▁آھن	-9.582100
dat	-9.582583
лі	-9.584483
ും	-9.584641
ção	-9.584726
▁स	-9.585030
کان	-9.586359
ର	-9.586594
אָ	-9.586812
ხ	-9.587473
į	-9.587546
▁een	-9.587590
yen	-9.588081
var	-9.588530
▁ahụ	-9.588926
Ma	-9.589011
প	-9.589618
ೆ	-9.590356
hat	-9.590405
▁bil	-9.590707
ور	-9.590744
▁fer	-9.591697
sí	-9.592936
ण	-9.593090
න්	-9.593980
▁skal	-9.594244
ද	-9.594623
чы	-9.594683
Comment	-9.595942
▁máa	-9.596397
ວ	-9.596606
▁Ju	-9.596699
ಯ	-9.596732
asa	-9.596751
دى	-9.596835
ғ	-9.596933
کی	-9.597707
له	-9.597720
▁प	-9.597861
▁xban	-9.598353
ာ	-9.598545
▁Ru	-9.599168
ė	-9.599511
iza	-9.599678
ல	-9.600322
は	-9.600342
▁nen	-9.600373
ும்	-9.600454
▁ຂອງ	-9.600910
нинг	-9.601101
▁leswaku	-9.601101
met	-9.601175
ಡ	-9.601617
▁ete	-9.601921
ram	-9.602039
mento	-9.602556
ssi	-9.602767
に	-9.603043
ğ	-9.603182
μ	-9.603429
kulu	-9.603813
cer	-9.603894
▁mit	-9.604430
▁xe	-9.604768
ava	-9.606025
ед	-9.606410
rwa	-9.606689
ft	-9.606924
@	-9.607448
മ	-9.607751
дыр	-9.607828
ble	-9.608988
ھي	-9.609499
ো	-9.609563
rea	-9.609587
▁ay	-9.610953
到	-9.611024
ရ	-9.611134
▁ph	-9.611238
dwa	-9.612664
▁ዚ	-9.612879
▁voor	-9.613081
mma	-9.613449
▁dị	-9.614008
lang	-9.614078
дар	-9.614714
үү	-9.615215
ef	-9.615536
ኣ	-9.616826
▁în	-9.616847
▁א	-9.617006
tau	-9.617579
▁ina	-9.618217
▁Yo	-9.618499
ҡ	-9.618694
▁Э	-9.618787
க்க	-9.619203
ги	-9.619365
lek	-9.619468
amba	-9.619682
ड	-9.619730
లు	-9.619905
ado	-9.620698
دۇر	-9.620956
лу	-9.621028
ве	-9.621422
нең	-9.621691
же	-9.621985
tí	-9.622637
mis	-9.622696
▁ó	-9.622909
ດ	-9.623099
iya	-9.623252
▁Il	-9.624072
▁дар	-9.624077
▁کرد	-9.624588
vel	-9.624687
▁հ	-9.625211
one	-9.625791
mon	-9.625817
can	-9.625836
▁እዩ	-9.626147
ੱ	-9.626613
zwa	-9.627409
▁Ва	-9.627500
▁បាន	-9.627518
▁nti	-9.627599
▁ວ່າ	-9.627618
▁х	-9.628022
ส	-9.628652
▁Ieova	-9.628672
ир	-9.628835
า	-9.629447
inga	-9.629745
zin	-9.629978
्य	-9.630310
▁سو	-9.630774
▁eb	-9.631042
▁ab	-9.631164
ಕ	-9.631963
gg	-9.632469
idh	-9.632488
▁ਹੈ	-9.632771
گە	-9.633006
▁ដែល	-9.633285
σ	-9.633714
ол	-9.633736
Ꭸ	-9.634390
تے	-9.634576
ად	-9.635757
nar	-9.635829
ҳо	-9.637324
▁31	-9.637547
est	-9.637610
▁ló	-9.638072
▁Г	-9.638167
ё	-9.638496
ub	-9.638510
▁Oku	-9.638518
ду	-9.638780
õn	-9.638847
▁Per	-9.639444
▁dhe	-9.639523
ас	-9.639562
▁wong	-9.639775
▁are	-9.640029
▁أ	-9.640645
ወ	-9.641915
▁kae	-9.641977
eli	-9.643394
▁بىلەن	-9.644556
▁bes	-9.644991
oku	-9.645565
▁aßan	-9.645759
▁aan	-9.645790
▁چ	-9.646768
▁ح	-9.646876
ต	-9.647028
lag	-9.647387
▁į	-9.648666
лик	-9.648818
▁і	-9.649549
до	-9.650146
▁он	-9.650293
û	-9.651117
ung	-9.651404
ор	-9.651437
▁waa	-9.651682
رو	-9.651800
მა	-9.651951
ກ	-9.652074
▁lea	-9.652394
▁yango	-9.653309
▁28	-9.655339
▁од	-9.655764
bili	-9.656020
▁dé	-9.656179
ẹ	-9.656459
vis	-9.657179
▁מ	-9.657197
ר	-9.657356
▁ఆ	-9.657464
ល	-9.657466
ха	-9.657589
das	-9.658423
▁അ	-9.658521
aha	-9.658558
▁ing	-9.658821
cß	-9.659017
ד	-9.659132
syon	-9.659365
جا	-9.660005
中	-9.660058
▁may	-9.660339
dik	-9.660424
eri	-9.660723
гу	-9.660919
ບ	-9.661025
▁අ	-9.661304
نے	-9.661316
▁اوھان	-9.662345
ún	-9.662389
▁wó	-9.663350
ෙ	-9.663863
ді	-9.663881
ob	-9.664173
ด	-9.664440
▁kala	-9.664599
▁Ка	-9.664690
▁Ci	-9.664769
▁tr	-9.665219
χ	-9.665479
▁tautolu	-9.665545
▁kun	-9.666450
ງ	-9.666586
sko	-9.666944
▁27	-9.668146
pro	-9.668690
ses	-9.668841
ಸ	-9.669162
adh	-9.669353
▁mé	-9.669592
.»	-9.670105
▁На	-9.670431
▁об	-9.670545
тан	-9.670992
୍	-9.672086
▁mingi	-9.672259
ċ	-9.672548
▁Yàlla	-9.672608
my	-9.673346
▁یہ	-9.673983
ть	-9.674583
▁17	-9.675541
inn	-9.675578
▁су	-9.675732
:%	-9.675789
ג	-9.676105
nas	-9.676181
▁ол	-9.676911
▁akan	-9.677340
▁Mar	-9.677452
leg	-9.677586
mit	-9.678163
rd	-9.678578
igi	-9.678802
ӕй	-9.679907
▁ເປັນ	-9.680900
▁kia	-9.680918
▁ñu	-9.682135
jer	-9.682942
ක්	-9.684262
ito	-9.684396
▁ئە	-9.684513
ś	-9.684675
tel	-9.684723
▁dos	-9.684786
▁29	-9.684852
ér	-9.685718
tura	-9.687478
ே	-9.687540
ਮ	-9.688078
ನ್ನು	-9.688515
ыз	-9.688715
▁як	-9.688733
قا	-9.688825
С	-9.689046
ന്	-9.689690
uka	-9.689728
tie	-9.690204
▁roto	-9.690414
О	-9.690516
khe	-9.691216
▁lè	-9.691227
uli	-9.691319
▁Jéhovah	-9.691979
▁mpo	-9.692012
еш	-9.692013
phe	-9.692222
iri	-9.692428
▁në	-9.692698
▁vol	-9.694511
▁እ	-9.694641
мас	-9.695421
ቅ	-9.695532
ಗ	-9.695779
▁leen	-9.695900
▁ಕ	-9.695926
▁और	-9.697610
க	-9.697722
ज	-9.697996
ά	-9.698129
tó	-9.698742
▁për	-9.699624
ත්	-9.700311
▁untuk	-9.700561
ନ	-9.700686
ీ	-9.701126
eka	-9.701302
▁Cha	-9.701508
ക്ക	-9.701555
▁có	-9.701624
▁ol	-9.701979
▁ali	-9.702029
rat	-9.702374
▁itu	-9.702632
▁bisa	-9.702659
):	-9.702888
▁inter	-9.702991
▁Men	-9.703489
sul	-9.704196
▁fè	-9.704443
wen	-9.704754
mus	-9.704896
▁Не	-9.705328
▁Am	-9.705399
ḍ	-9.705424
ి	-9.705440
▁taimi	-9.705604
▁vis	-9.705737
▁1.	-9.705764
лә	-9.705962
లో	-9.706027
jar	-9.706275
ow	-9.706570
▁ہم	-9.706662
ம	-9.706796
hen	-9.706978
tse	-9.707060
khu	-9.707556
9	-9.707707
ەت	-9.708083
ika	-9.708707
▁ရ	-9.709003
र्	-9.709942
tà	-9.710053
▁sh	-9.710340
lä	-9.710443
دە	-9.710505
▁sur	-9.710972
ӑн	-9.711005
din	-9.711132
ு	-9.711573
ula	-9.712682
ой	-9.712764
ុ	-9.713399
▁た	-9.713970
oj	-9.714552
кә	-9.715068
bli	-9.715114
▁2.	-9.715199
unga	-9.715526
▁இ	-9.715548
▁foki	-9.715766
ens	-9.716126
tua	-9.716620
մ	-9.717320
port	-9.718429
xo	-9.718815
▁kwi	-9.719236
дә	-9.719309
▁де	-9.719543
мӕ	-9.719814
▁21	-9.720156
▁nó	-9.720560
ane	-9.720679
▁Hu	-9.720867
▁fra	-9.721243
sel	-9.721366
yl	-9.721964
▁tar	-9.722035
▁Wo	-9.722333
▁anyị	-9.722428
lı	-9.722433
လ	-9.722944
▁وال	-9.723814
మ	-9.724581
lama	-9.724690
▁nge	-9.724983
ိ	-9.725039
ich	-9.726012
đ	-9.726243
qßue	-9.726448
უ	-9.726787
▁ré	-9.726884
▁Pu	-9.726922
ff	-9.727088
对	-9.727412
yň	-9.727474
aw	-9.727556
▁tua	-9.727633
ion	-9.727953
mente	-9.728050
▁կ	-9.728249
▁tai	-9.728559
▁нь	-9.728662
ಮ	-9.728784
▁р	-9.730222
ត	-9.732276
zh	-9.732851
▁て	-9.732868
sam	-9.733033
сан	-9.733301
аа	-9.733818
dda	-9.734150
̨́	-9.735334
ندا	-9.735349
▁ជា	-9.735349
лек	-9.736609
▁sen	-9.736740
▁aki	-9.736896
▁muri	-9.736976
▁éí	-9.736977
kuti	-9.737206
ṣ	-9.738008
وی	-9.739011
φ	-9.739021
າ	-9.739522
ži	-9.739580
ती	-9.739599
oon	-9.739902
гән	-9.740322
రు	-9.740939
चा	-9.742301
▁ការ	-9.742433
▁tidak	-9.742643
э	-9.742868
ژ	-9.742884
▁anak	-9.743443
mata	-9.743524
ako	-9.743933
▁व	-9.744319
▁pra	-9.744745
rä	-9.745062
რ	-9.745264
ે	-9.745741
وا	-9.745879
▁car	-9.746047
တ	-9.746062
ṛ	-9.746283
."	-9.746717
сем	-9.747101
▁ake	-9.747312
▁ни	-9.747468
tay	-9.748324
▁Chi	-9.748826
mene	-9.748935
法	-9.749178
ರು	-9.749436
ც	-9.749778
▁kaj	-9.749870
▁Па	-9.749870
▁ប	-9.749897
▁Par	-9.750463
hé	-9.750576
lis	-9.751131
ima	-9.751539
use	-9.751708
ого	-9.752297
▁پا	-9.752526
át	-9.753425
▁ຄວາມ	-9.753683
ರ್	-9.753709
dé	-9.753883
vit	-9.754015
ག	-9.754055
ket	-9.754703
▁Nga	-9.754769
အ	-9.755399
▁apa	-9.756139
ོ	-9.756202
▁ਦੇ	-9.756443
)،	-9.757326
▁pea	-9.757560
▁Ai	-9.757580
रा	-9.757623
כ	-9.757660
वा	-9.757967
▁қа	-9.757968
ೂ	-9.758301
sten	-9.759200
မ	-9.759462
ksi	-9.759554
▁að	-9.760852
eh	-9.761467
tam	-9.762084
kka	-9.762301
ҙ	-9.762449
ró	-9.762495
▁23	-9.762576
ေ	-9.763009
▁aika	-9.763142
▁Х	-9.763161
▁gra	-9.764357
▁yu	-9.764515
rò	-9.764549
del	-9.764555
nh	-9.764754
▁প	-9.765273
▁enda	-9.765907
ா	-9.766170
्	-9.766451
▁ima	-9.766452
▁သ	-9.766484
ӕм	-9.767046
umu	-9.767566
▁ब	-9.767908
ቀ	-9.768155
▁Ф	-9.768187
▁yan	-9.768258
cz	-9.768410
を	-9.769067
para	-9.769640
க்	-9.769667
zione	-9.770254
gwa	-9.770537
het	-9.770589
▁ស	-9.770813
א	-9.771193
ิ	-9.771618
mar	-9.771697
iem	-9.771714
▁kin	-9.771799
ຍ	-9.772154
▁hono	-9.772154
ул	-9.772202
ert	-9.772227
dig	-9.772798
ай	-9.773013
нӑ	-9.773112
▁۔	-9.773190
▁mena	-9.773440
▁ў	-9.774295
لار	-9.774896
▁ис	-9.774918
▁قا	-9.775389
ැ	-9.775615
▁ị	-9.776151
mik	-9.776262
ؤ	-9.776317
▁chic	-9.776453
ũ	-9.777095
▁azo	-9.777412
▁Is	-9.777575
▁không	-9.777625
war	-9.778447
ന	-9.778665
▁mala	-9.778749
موو	-9.779502
zen	-9.780119
▁kei	-9.780229
ائ	-9.780345
kla	-9.780373
sho	-9.781496
cion	-9.782677
sima	-9.782722
▁mate	-9.782766
る	-9.783422
ys	-9.783742
jn	-9.783894
▁anda	-9.783916
▁sta	-9.784935
▁4.	-9.784988
▁22	-9.785271
ી	-9.785911
▁bala	-9.786017
▁ຄົນ	-9.786038
rang	-9.786877
atu	-9.786947
ె	-9.787763
ká	-9.787839
ች	-9.787872
llu	-9.788095
会	-9.788159
kor	-9.788219
პ	-9.788220
ട	-9.788259
رى	-9.788522
▁26	-9.788596
لىرى	-9.789023
ത്ത	-9.789071
ish	-9.789446
事	-9.789659
nsa	-9.789962
▁Yéhuwah	-9.790631
ун	-9.790738
мен	-9.790823
pla	-9.790854
iro	-9.791005
for	-9.791500
▁की	-9.792678
▁tre	-9.792765
ս	-9.793009
▁kuwi	-9.793018
▁Bible	-9.793352
დ	-9.793372
Л	-9.793910
π	-9.794072
റെ	-9.794423
ста	-9.794546
េ	-9.794735
ên	-9.795074
ih	-9.795360
لىق	-9.795922
▁ear	-9.797043
▁ар	-9.797255
▁Е	-9.797514
ጋ	-9.797644
tali	-9.797657
▁sija	-9.797775
下	-9.797915
▁aga	-9.797954
кы	-9.798932
pri	-9.798993
▁স	-9.799232
▁եւ	-9.799321
▁tat	-9.799854
▁mem	-9.799868
ዓ	-9.800472
mut	-9.801427
▁Man	-9.801517
▁és	-9.801604
ει	-9.801893
ಪ	-9.802490
κ	-9.803511
▁үз	-9.803672
гы	-9.804233
▁kom	-9.804312
ຕ	-9.804371
⁠	-9.804530
J	-9.804603
tti	-9.804898
ос	-9.804964
▁Go	-9.805120
sun	-9.805408
بر	-9.805468
▁ਸ	-9.806089
bh	-9.806257
že	-9.806499
wer	-9.806743
ting	-9.808267
▁អ្នក	-9.808280
ض	-9.808291
bwa	-9.808615
▁М	-9.808776
ör	-9.809118
انی	-9.809149
ure	-9.809192
hr	-9.809461
▁ҳа	-9.809917
ня	-9.810081
▁David	-9.810441
ා	-9.810489
یں	-9.810991
aan	-9.811408
uro	-9.811617
▁Ч	-9.811620
▁bí	-9.811862
ನು	-9.811889
kola	-9.811897
ნ	-9.812019
вер	-9.812203
пе	-9.812218
għ	-9.812420
ген	-9.812906
amo	-9.813245
mm	-9.813929
▁my	-9.813996
zya	-9.814426
kó	-9.814855
iň	-9.814921
mai	-9.814948
ክ	-9.815291
▁cuan	-9.815471
shon	-9.815804
ί	-9.815807
qo	-9.816257
یش	-9.816510
▁ket	-9.817100
fs	-9.817632
▁بی	-9.817688
या	-9.817902
set	-9.818742
▁wala	-9.818849
ས་	-9.819160
put	-9.819297
▁wat	-9.819400
Ꮵ	-9.820061
є	-9.820669
ғы	-9.821015
▁Gi	-9.821167
▁bol	-9.821713
▁enggau	-9.822936
lela	-9.823252
ებ	-9.823489
áá	-9.823555
▁baa	-9.823596
nem	-9.824991
sal	-9.825180
му	-9.825499
့	-9.825572
第	-9.825664
り	-9.825830
rie	-9.826112
lem	-9.826366
▁gy	-9.827375
▁Fi	-9.827514
▁Q	-9.828032
▁bụ	-9.828081
▁ду	-9.828841
▁п	-9.828935
▁نہیں	-9.829600
dem	-9.829683
ਿ	-9.829753
▁ᎯᎠ	-9.829890
▁von	-9.829899
▁esi	-9.829991
lala	-9.830300
ئي	-9.830392
ક	-9.830828
ندو	-9.831299
gh	-9.832388
▁پێ	-9.832509
▁fakama	-9.832827
▁kuba	-9.833266
lie	-9.833570
▁ວາ	-9.833613
▁hal	-9.833818
▁या	-9.834052
▁Ма	-9.834101
ihi	-9.835190
dah	-9.836158
▁دا	-9.836458
ында	-9.836905
ret	-9.837049
గా	-9.837306
ᏍᏗ	-9.837467
ער	-9.837659
▁dua	-9.837893
ਸ	-9.838041
type	-9.839168
net	-9.839695
▁jé	-9.839783
പ	-9.839941
she	-9.840197
▁...	-9.840328
gra	-9.840437
▁aj	-9.840461
سى	-9.840553
▁üçin	-9.840733
ийн	-9.840776
▁ف	-9.841609
▁Ve	-9.842367
▁και	-9.842399
డ	-9.842571
▁res	-9.842731
▁پوء	-9.843686
taan	-9.843761
श	-9.843797
▁По	-9.844200
▁dal	-9.844360
▁белән	-9.844745
av	-9.845327
ፈ	-9.845334
ມ	-9.845860
lak	-9.846231
କୁ	-9.846357
ที่	-9.847263
▁Lu	-9.847497
▁न	-9.847816
▁mis	-9.847835
qi	-9.848622
က်	-9.848889
େ	-9.849030
agi	-9.849180
ou	-9.849629
▁لێ	-9.849717
ε	-9.849753
leri	-9.849929
ün	-9.850073
тай	-9.850289
▁bilen	-9.850335
ូ	-9.850686
▁pen	-9.850874
iso	-9.850877
rus	-9.851314
ו	-9.851406
▁Fo	-9.851486
ב	-9.851930
Ꭺ	-9.852002
▁sal	-9.852119
▁ເຢ	-9.853024
▁ша	-9.853321
mme	-9.853611
କ	-9.853667
лер	-9.853827
▁Die	-9.854095
▁är	-9.854189
▁प्र	-9.854219
▁кыл	-9.854331
▁Com	-9.854350
▁sì	-9.854853
▁உ	-9.854980
▁Да	-9.855019
▁раз	-9.855399
teri	-9.855643
нар	-9.856363
▁panag	-9.856395
get	-9.856444
್ಯ	-9.856827
री	-9.857308
್	-9.857793
ши	-9.858589
地	-9.858633
▁Kâcuaß	-9.859092
los	-9.859517
lum	-9.859655
ם	-9.859808
▁ist	-9.859854
▁dina	-9.859894
▁का	-9.860183
asi	-9.860299
хи	-9.860401
sor	-9.860511
▁till	-9.861032
സ്	-9.861091
phi	-9.861170
ז	-9.861213
▁12:	-9.861773
▁fan	-9.862170
▁ná	-9.862231
▁З	-9.862526
ers	-9.862706
по	-9.863518
lor	-9.863865
ով	-9.863939
ذ	-9.864191
gang	-9.864428
ិ	-9.865235
▁ມີ	-9.865434
သ	-9.865669
sala	-9.865829
oko	-9.867599
bri	-9.867616
ime	-9.867803
ჲ	-9.867813
ש	-9.868250
tit	-9.868524
ono	-9.868740
با	-9.868761
oti	-9.869654
ów	-9.870206
ċi	-9.871863
▁xu	-9.872083
ન	-9.872100
ري	-9.872438
أ	-9.873224
▁mereka	-9.873791
▁ban	-9.873957
ー	-9.874911
▁је	-9.875230
▁خدا	-9.875697
▁və	-9.875961
eke	-9.876297
Ꭽ	-9.876899
وان	-9.877304
taki	-9.877454
كى	-9.877535
વ	-9.877569
以	-9.878053
ple	-9.878409
rre	-9.878461
▁mafai	-9.879309
ີ	-9.879344
来	-9.879748
▁ም	-9.879866
har	-9.880211
ከ	-9.880490
▁में	-9.880550
Е	-9.880729
nne	-9.880973
ord	-9.881470
ས	-9.881477
log	-9.881604
ค	-9.882591
▁tur	-9.882711
ola	-9.883406
▁чи	-9.883891
▁ئى	-9.883950
▁ngu	-9.884597
▁vir	-9.884604
ໂຫ	-9.884757
రి	-9.884777
▁Wi	-9.885114
▁Isa	-9.885667
bb	-9.885706
▁unit	-9.885774
ڕ	-9.885956
▁ein	-9.886147
фи	-9.886227
Н	-9.886380
stru	-9.886885
دو	-9.886893
▁alla	-9.887096
▁Ch	-9.887259
▁eka	-9.887691
▁आहे	-9.887805
为	-9.888395
大	-9.888708
ő	-9.889209
▁over	-9.889358
rè	-9.889462
▁க	-9.889935
nce	-9.890170
▁kò	-9.890427
▁mal	-9.890622
▁За	-9.891063
sé	-9.891189
مى	-9.891312
ሩ	-9.891364
▁Ꮧ	-9.892206
▁sida	-9.892875
wó	-9.892921
▁ಆ	-9.892981
▁ikke	-9.894753
国	-9.894785
ំ	-9.894787
tera	-9.894935
yé	-9.895126
jet	-9.895163
ன	-9.895197
kana	-9.895695
▁Fe	-9.895980
ன்	-9.896480
▁urang	-9.896628
▁က	-9.897100
▁نہ	-9.897289
ਟ	-9.897348
ix	-9.897523
ద	-9.897561
ే	-9.897617
bus	-9.897796
nza	-9.898157
▁tenamit	-9.898165
don	-9.898322
ೋ	-9.899157
מ	-9.899823
ሓ	-9.900218
ран	-9.900732
พ	-9.900777
ই	-9.900899
بێت	-9.901296
өн	-9.901725
dit	-9.901911
Q	-9.901928
ҭа	-9.902510
▁Name	-9.902641
ମ	-9.902772
их	-9.903474
še	-9.903521
Ꮢ	-9.903528
nze	-9.903634
▁Qu	-9.903825
nos	-9.903893
lom	-9.904346
ዝ	-9.904349
000	-9.905066
▁Аллоҳ	-9.905136
▁մ	-9.905159
12	-9.906236
mber	-9.906718
▁eiloa	-9.906916
ез	-9.906992
lit	-9.907224
ੁ	-9.907534
▁it	-9.907572
▁rej	-9.907678
င်	-9.907702
lai	-9.908331
▁sama	-9.908883
may	-9.908889
tho	-9.909033
má	-9.909211
▁म	-9.909517
lə	-9.909998
kah	-9.910042
աց	-9.910089
ša	-9.910387
eta	-9.910724
ных	-9.910983
oma	-9.911073
▁pod	-9.911145
▁دو	-9.911194
жа	-9.911911
yin	-9.912351
ong	-9.912374
llo	-9.912484
лари	-9.912629
▁Я	-9.913126
▁kad	-9.914025
▁مان	-9.914040
ms	-9.914125
▁ການ	-9.914233
▁ບໍ່	-9.914786
▁kaka	-9.915109
▁لا	-9.915306
sem	-9.915830
ळ	-9.916194
М	-9.917081
hy	-9.917524
▁inte	-9.917545
要	-9.918193
▁kadagiti	-9.918861
tai	-9.919040
▁mei	-9.919376
tok	-9.919447
▁പ	-9.919802
კ	-9.920196
▁کیا	-9.920234
▁dem	-9.920362
好	-9.920568
อ	-9.920884
mini	-9.920961
▁moko	-9.921525
City	-9.921964
▁ആ	-9.922039
olo	-9.922783
▁Jesús	-9.922873
dor	-9.923249
▁kuri	-9.923278
اف	-9.923512
क्	-9.923514
ኽ	-9.923534
ھو	-9.923747
rra	-9.924040
zy	-9.924096
dz	-9.924745
▁Kristo	-9.924755
გ	-9.924884
წ	-9.924930
də	-9.925511
amu	-9.925766
ود	-9.926144
ide	-9.926400
▁ප	-9.926488
▁lé	-9.926866
uni	-9.927238
ಿಸ	-9.927361
▁bé	-9.927589
出	-9.928684
ghị	-9.928688
▁под	-9.928947
ân	-9.929779
tso	-9.929911
▁ம	-9.930795
▁ಇ	-9.930797
rit	-9.931165
lam	-9.931181
mā	-9.931495
kun	-9.931597
ω	-9.932327
cy	-9.932392
կ	-9.932400
ڭلار	-9.932836
▁Ama	-9.932975
rak	-9.933263
▁მ	-9.933265
จ	-9.933470
▁ре	-9.933485
ła	-9.933823
dá	-9.934390
fin	-9.934547
ffe	-9.934649
format	-9.934770
用	-9.934918
ീ	-9.935003
▁اللہ	-9.935005
分	-9.935049
ڕه	-9.935273
▁бил	-9.935433
▁Aba	-9.936100
nut	-9.936323
▁ubu	-9.936331
▁ב	-9.936564
pon	-9.936790
ый	-9.936796
ತ	-9.936912
ುವ	-9.937030
▁த	-9.937129
▁jeung	-9.937376
anda	-9.937842
ува	-9.938164
▁mes	-9.939065
▁tôi	-9.939392
ná	-9.940145
▁lē	-9.940151
taa	-9.940216
▁ز	-9.940701
ະ	-9.941453
usa	-9.941507
jú	-9.941687
▁ande	-9.941775
ят	-9.941890
▁sala	-9.942058
tima	-9.942072
▁जा	-9.942081
▁lor	-9.942657
tat	-9.943115
▁ເຈົ້າ	-9.943382
مۇ	-9.943576
▁¿	-9.943638
▁oko	-9.943750
▁جن	-9.944288
ත	-9.944654
▁Im	-9.945875
▁33	-9.946867
者	-9.946908
ына	-9.947690
▁esta	-9.948206
art	-9.948454
▁ക	-9.948496
ோ	-9.948838
▁ئێمه	-9.948890
▁air	-9.949434
და	-9.949498
▁से	-9.949946
сти	-9.950108
▁को	-9.950358
▁incßaß	-9.950419
▁να	-9.950762
▁dy	-9.950912
rik	-9.951089
kọ	-9.951462
्या	-9.951669
▁Det	-9.952014
rar	-9.952034
හ	-9.952180
▁hoê	-9.952516
өр	-9.952520
▁3.	-9.952674
▁бе	-9.952843
mek	-9.953218
▁Ol	-9.953263
ச	-9.953790
hí	-9.954093
ಹ	-9.954400
▁ھ	-9.954514
▁baka	-9.954715
▁ज	-9.955385
ийг	-9.955535
▁របស់	-9.955944
gle	-9.956170
nsi	-9.956495
тор	-9.956652
▁nau	-9.956735
ര്	-9.956923
ок	-9.957487
hay	-9.957591
▁আ	-9.957741
▁অ	-9.958117
▁Ua	-9.958413
か	-9.958613
еп	-9.958632
ami	-9.958788
▁သည်	-9.958862
ō	-9.958889
bha	-9.959103
ulo	-9.959475
ρ	-9.959813
ээр	-9.960431
▁!	-9.960913
way	-9.961389
▁tuku	-9.961903
bwe	-9.961908
պ	-9.962084
▁mbi	-9.962606
اب	-9.962654
bona	-9.962684
▁alimwi	-9.962708
▁ایشان	-9.963050
▁ngi	-9.963275
Ꮙ	-9.963511
▁lá	-9.963825
Ꮿ	-9.963921
▁ulih	-9.963929
স	-9.963964
ڭ	-9.964215
hel	-9.964459
▁vy	-9.964601
kri	-9.964684
ե	-9.965663
ать	-9.966154
ု	-9.966426
ير	-9.966646
nyo	-9.966840
▁بھی	-9.966908
▁0	-9.966999
су	-9.967461
▁Ab	-9.967638
▁ಮ	-9.967854
▁sé	-9.968233
gli	-9.968325
dra	-9.968635
▁ç	-9.968903
し	-9.969357
11	-9.969365
▁ప్ర	-9.969641
mati	-9.969712
ਣ	-9.969725
▁sou	-9.969755
يو	-9.969805
▁pr	-9.970271
ayo	-9.970399
▁لاء	-9.970452
par	-9.970613
▁တ	-9.970892
ύ	-9.971284
वर	-9.971750
jin	-9.971853
red	-9.971998
ici	-9.972248
rem	-9.972357
ते	-9.972832
nden	-9.973230
уд	-9.973692
η	-9.973695
נ	-9.973957
zwe	-9.973969
▁shi	-9.974118
▁Mai	-9.974135
со	-9.974231
zzjoni	-9.974290
▁taha	-9.974447
ത്	-9.974471
ін	-9.974547
▁fin	-9.974802
▁Faka	-9.974839
▁chan	-9.974882
▁dengan	-9.975433
ạ	-9.975437
が	-9.976455
vet	-9.976576
▁ukuba	-9.976689
há	-9.976707
dh	-9.976792
ყ	-9.977133
▁mbeni	-9.977201
▁Pre	-9.977595
ҳа	-9.978066
эн	-9.978580
ტ	-9.978621
▁noa	-9.978807
▁kí	-9.979010
nyi	-9.979111
wé	-9.979210
жи	-9.979362
▁ਅ	-9.979626
pra	-9.979916
▁waka	-9.980025
bet	-9.980045
tet	-9.980099
ero	-9.980227
▁katoa	-9.980401
ली	-9.980810
tem	-9.980944
▁abantu	-9.980981
lim	-9.981396
▁ច	-9.981667
ப	-9.981742
үн	-9.981840
tere	-9.982080
än	-9.982207
nka	-9.982230
▁деп	-9.982531
non	-9.982747
▁нӕ	-9.982835
န်	-9.983357
റ	-9.983396
▁þ	-9.983434
শ	-9.983719
ffi	-9.983753
う	-9.984145
ак	-9.984165
▁بێ	-9.984746
▁ସ	-9.985071
уа	-9.985278
గ	-9.985748
ىدۇ	-9.985819
▁and	-9.986341
▁Со	-9.987083
δ	-9.987920
▁Paulo	-9.988185
ુ	-9.988358
far	-9.988892
▁Yehuwa	-9.988953
▁iš	-9.989062
ër	-9.990499
▁â	-9.990655
चे	-9.990675
باوه	-9.990952
ট	-9.991027
kwu	-9.991349
י	-9.991390
tto	-9.991835
ԥ	-9.992003
uru	-9.992087
ения	-9.992148
pie	-9.992536
ೊ	-9.992554
ši	-9.992869
ida	-9.993196
vé	-9.993289
▁As	-9.993571
▁din	-9.993685
uko	-9.994115
▁تي	-9.994342
▁yâ	-9.994491
▁Apa	-9.994691
alo	-9.994704
iko	-9.994957
ران	-9.995974
▁ngoku	-9.996293
сто	-9.997253
ür	-9.997540
ించ	-9.997882
сен	-9.997897
ច	-9.998009
▁reheb	-9.998322
ciones	-9.998816
▁ਨੂੰ	-9.998875
▁mang	-9.999034
▁son	-9.999260
лен	-9.999498
▁como	-9.999658
Ꮈ	-9.999775
▁10:	-10.000039
if	-10.000421
▁lautolu	-10.000566
ці	-10.000902
ян	-10.001003
▁lege	-10.001326
▁pos	-10.001335
▁sp	-10.001543
ав	-10.002159
نھن	-10.002614
▁lê	-10.002730
▁alle	-10.003414
եց	-10.004024
લ	-10.004027
ais	-10.004065
▁cui	-10.004349
යි	-10.004493
ሪ	-10.005049
ך	-10.005503
lyk	-10.005941
ዋ	-10.005992
း	-10.006007
▁cum	-10.006418
▁chu	-10.006689
▁baba	-10.006740
сын	-10.007060
▁نىڭ	-10.007179
ě	-10.007417
یت	-10.007481
mwa	-10.007545
生	-10.007651
▁ਪ	-10.007966
▁kada	-10.008609
▁Mat	-10.008619
▁لل	-10.008788
▁bato	-10.008820
ño	-10.009259
ES	-10.009769
τα	-10.010413
ct	-10.010773
▁St	-10.011078
ist	-10.011168
hin	-10.011329
në	-10.011633
Ꮃ	-10.011716
▁ഇ	-10.012067
▁ස	-10.012300
▁أن	-10.013063
▁ל	-10.013157
▁ש	-10.013257
▁بۇ	-10.013340
ទ	-10.013622
▁iai	-10.013681
▁nde	-10.013902
▁எ	-10.014174
ov	-10.014501
▁че	-10.014519
ць	-10.014828
mani	-10.015158
▁kuenda	-10.015623
យ	-10.015676
lic	-10.015808
kali	-10.016632
▁कि	-10.016799
▁loo	-10.016802
▁40	-10.017129
hana	-10.018042
til	-10.018272
־	-10.018327
bay	-10.018369
▁deka	-10.018487
ને	-10.019525
▁ব	-10.019958
▁для	-10.020290
▁tënë	-10.020511
ध	-10.020516
ლ	-10.020607
tani	-10.020762
".	-10.021246
аз	-10.021548
ջ	-10.021608
gal	-10.021672
К	-10.021721
▁tro	-10.022046
ের	-10.022328
ár	-10.022612
kel	-10.022758
▁пре	-10.022788
gna	-10.022868
▁moun	-10.023062
gira	-10.023318
▁ਦੀ	-10.023665
▁dá	-10.023778
ала	-10.023834
▁das	-10.023912
gre	-10.024057
qar	-10.024179
▁Dan	-10.024193
usi	-10.025210
▁É	-10.025373
定	-10.025612
nau	-10.026080
▁вы	-10.026090
wy	-10.026232
ug	-10.026308
▁kó	-10.026363
vin	-10.026485
▁fún	-10.027570
кі	-10.027575
ើ	-10.027662
▁Vo	-10.027946
ള	-10.028249
▁kur	-10.028455
የ	-10.028874
كە	-10.029348
imi	-10.029502
就	-10.029552
ete	-10.029761
ಣ	-10.030356
▁हो	-10.030430
▁náà	-10.030471
▁ப	-10.030901
▁nakai	-10.030930
ute	-10.031037
ை	-10.031723
af	-10.031793
хә	-10.031886
ണ	-10.032210
▁İ	-10.032477
কে	-10.032583
▁indi	-10.033593
нг	-10.033641
ல்	-10.033777
▁ق	-10.034012
▁الت	-10.034275
▁ralal	-10.034357
kira	-10.034701
lat	-10.034752
न्	-10.034765
င်း	-10.035144
▁Aku	-10.035161
ġ	-10.035649
ori	-10.035653
ட	-10.035670
lər	-10.036037
▁11:	-10.036326
▁گفت	-10.036463
ታት	-10.036486
▁fl	-10.036922
ний	-10.037354
▁шу	-10.037432
▁servi	-10.037484
▁tupu	-10.037783
stro	-10.038165
ного	-10.038516
同	-10.038866
▁kuwa	-10.038900
▁vor	-10.039044
ell	-10.039429
rom	-10.039518
ус	-10.039649
ં	-10.039707
▁aye	-10.039951
bele	-10.040056
▁على	-10.040774
્	-10.040818
Т	-10.040995
ून	-10.041381
جھ	-10.041386
ים	-10.042033
▁Sam	-10.042296
ི	-10.042542
▁say	-10.042714
▁پس	-10.042863
▁este	-10.043280
өө	-10.043772
elo	-10.044127
اء	-10.044222
▁ӕмӕ	-10.044307
▁ಸ	-10.044396
▁ئۈچۈن	-10.044456
ներ	-10.044548
laka	-10.044577
خت	-10.044741
ئى	-10.044772
ั	-10.044899
ൂ	-10.044967
່	-10.045442
▁parau	-10.046073
ør	-10.046159
▁бул	-10.046824
nit	-10.046882
sp	-10.046922
▁ш	-10.047656
day	-10.047684
kela	-10.047891
elle	-10.047904
ril	-10.047945
హ	-10.048047
▁pëpe	-10.048254
ларга	-10.048322
ges	-10.048752
jas	-10.048915
▁სა	-10.049058
▁seo	-10.049118
▁ф	-10.049326
ės	-10.049710
▁خداوند	-10.050102
▁lahi	-10.050704
ül	-10.050751
ige	-10.050923
▁hoki	-10.051052
dze	-10.051779
kolo	-10.052012
▁ش	-10.052049
pli	-10.052209
tara	-10.052614
аг	-10.052728
car	-10.052748
れ	-10.052855
ec	-10.052948
ros	-10.053438
ини	-10.053438
▁manu	-10.053603
▁иш	-10.053634
▁soo	-10.053680
ቕ	-10.053754
tori	-10.054439
ப்ப	-10.054589
kre	-10.054600
▁पर	-10.054715
сә	-10.054796
ో	-10.055135
rú	-10.055405
Ꮩ	-10.055573
تىن	-10.056441
ै	-10.056465
sit	-10.057412
▁ಬ	-10.058471
ிய	-10.058764
多	-10.058779
▁noku	-10.058780
lele	-10.058963
nic	-10.059422
tayo	-10.059502
▁الأ	-10.059993
tä	-10.060020
lary	-10.060307
▁Bar	-10.060538
མ	-10.060543
weni	-10.060735
▁vil	-10.060934
と	-10.060983
ii	-10.061781
▁ந	-10.061937
эл	-10.062147
▁ዘ	-10.062473
ino	-10.062575
bit	-10.062624
AN	-10.062749
▁tonu	-10.062777
▁що	-10.063080
▁që	-10.063496
sut	-10.063730
້	-10.063778
▁imi	-10.064005
ზ	-10.064399
ප	-10.064727
ding	-10.064882
▁aton	-10.064889
▁The	-10.065122
рат	-10.065756
ţi	-10.066058
mine	-10.066691
▁بىر	-10.066936
ظ	-10.067036
च्या	-10.067100
▁Ek	-10.067264
所	-10.067316
tala	-10.067424
▁π	-10.067986
▁winak	-10.068009
Ꮂ	-10.068423
▁lei	-10.068500
ación	-10.068764
▁بکه	-10.069063
ON	-10.069295
бе	-10.069303
зу	-10.069685
▁が	-10.070109
ві	-10.070460
▁შე	-10.070579
స	-10.070650
▁με	-10.070709
ሊ	-10.070848
sika	-10.071093
nā	-10.071391
▁г	-10.071525
▁reg	-10.071767
▁rè	-10.072101
оз	-10.072252
▁far	-10.072405
▁Ze	-10.072502
ті	-10.072598
ën	-10.072722
dere	-10.072841
▁ame	-10.072901
▁tawo	-10.073270
▁obu	-10.073867
▁Er	-10.074056
yna	-10.074235
tir	-10.074262
ատ	-10.074526
▁ج	-10.074688
мон	-10.074826
သည်	-10.075033
ова	-10.075290
gun	-10.075356
ટ	-10.075368
ந்த	-10.075408
▁ᎨᏒ	-10.075650
وم	-10.075767
▁Paul	-10.076137
▁ກັບ	-10.076426
vas	-10.076709
فر	-10.076990
▁تۆ	-10.077020
▁kor	-10.077228
ท	-10.077366
тыр	-10.077491
▁láti	-10.077876
▁maga	-10.077965
és	-10.078363
wn	-10.078583
ए	-10.078656
▁قىل	-10.078750
zer	-10.078936
▁ক	-10.079518
▁ሓ	-10.079797
ಿಗೆ	-10.079854
▁бўл	-10.080116
▁maua	-10.080125
▁ved	-10.080589
▁ди	-10.080667
зар	-10.080947
▁her	-10.081242
ី	-10.082229
ee	-10.082347
ties	-10.082478
ả	-10.082593
▁ren	-10.082617
kara	-10.082719
গ	-10.082793
ಶ	-10.083124
জ	-10.083513
दा	-10.083552
sak	-10.083830
ски	-10.083973
้	-10.083995
gon	-10.084170
▁と	-10.084320
▁Ба	-10.084445
бар	-10.084570
▁ச	-10.084617
▁On	-10.084705
ात	-10.084723
ӯ	-10.085163
nú	-10.085432
ral	-10.085439
▁της	-10.085597
tanga	-10.085740
dre	-10.085972
▁Eebe	-10.085990
gga	-10.086685
йы	-10.086975
চ	-10.087113
Ꭼ	-10.087255
stre	-10.087322
lio	-10.087415
▁pour	-10.087952
子	-10.088020
dí	-10.088122
tud	-10.088594
tek	-10.088803
▁ajcuiß	-10.089046
▁chak	-10.089214
▁bango	-10.089299
ნა	-10.089853
▁आणि	-10.090305
▁သူ	-10.090525
ulu	-10.090580
▁má	-10.090811
esi	-10.091115
ht	-10.091180
▁ك	-10.091190
▁kami	-10.091464
▁<	-10.091608
են	-10.091772
թ	-10.091939
ქ	-10.092251
ட்ட	-10.092424
ഹ	-10.092506
ಳ	-10.092545
▁mill	-10.093134
لی	-10.093224
mun	-10.093420
ýär	-10.093452
үр	-10.093464
mb	-10.093776
▁kay	-10.094254
heb	-10.094666
nek	-10.095043
▁ئێوه	-10.095069
တ်	-10.095729
▁មាន	-10.095800
ట	-10.095874
ssen	-10.096036
ਖ	-10.096126
hara	-10.096133
▁گ	-10.096229
ще	-10.096248
▁ကြ	-10.096270
▁For	-10.096309
▁То	-10.096441
اق	-10.096785
эх	-10.096833
utu	-10.096837
▁leswi	-10.097540
▁sub	-10.098080
▁вә	-10.098428
کانی	-10.098570
نده	-10.098647
▁მო	-10.099030
লে	-10.099602
tter	-10.099864
ენ	-10.099964
ithe	-10.100095
▁Ng	-10.100271
це	-10.100522
gel	-10.100770
▁cor	-10.101142
vá	-10.101218
▁deg	-10.101456
▁pat	-10.101582
▁iba	-10.101907
▁naga	-10.102418
▁anga	-10.102536
▁एक	-10.102824
个	-10.102999
ख	-10.103067
▁mama	-10.103181
▁kolo	-10.103425
зе	-10.103631
▁ក	-10.104384
▁რომ	-10.104642
行	-10.104704
▁ж	-10.104778
eren	-10.104829
pò	-10.105346
ೀ	-10.105674
▁ئۇ	-10.105974
ifica	-10.106293
θ	-10.106463
ಲ್ಲ	-10.106550
2:	-10.106775
oli	-10.107226
nene	-10.107676
▁το	-10.107881
эр	-10.107948
▁hati	-10.108150
lal	-10.108212
▁tena	-10.108220
▁jen	-10.108292
ndra	-10.108304
ಾಗ	-10.108623
ден	-10.108659
ित	-10.108866
▁өчен	-10.109063
ongo	-10.109202
قى	-10.109385
می	-10.109920
win	-10.110587
ER	-10.110999
▁with	-10.111064
য়	-10.111374
▁13:	-10.111506
්	-10.111887
▁Ш	-10.113214
▁Sch	-10.113554
ដ	-10.113867
ավ	-10.113929
nom	-10.114247
▁тур	-10.114695
нд	-10.114769
▁»,	-10.114881
stri	-10.115142
▁3,	-10.115252
▁Iya	-10.115514
▁parti	-10.116117
▁၊	-10.116252
▁us	-10.116425
ੂ	-10.116881
▁can	-10.116959
rio	-10.117036
▁umu	-10.117373
▁են	-10.117408
ში	-10.118000
ista	-10.118144
▁مه	-10.118292
ស្	-10.118670
gala	-10.120087
ป	-10.120192
▁mat	-10.120234
ille	-10.120255
ида	-10.120538
▁wuxuu	-10.120958
▁tene	-10.121306
vol	-10.121847
▁kapav	-10.122158
ýar	-10.122235
▁ஆ	-10.122338
ith	-10.122376
spe	-10.122380
▁trans	-10.122405
enda	-10.122460
уу	-10.122485
omu	-10.122590
Д	-10.122813
ъёс	-10.122933
dii	-10.123260
▁त्या	-10.123418
چى	-10.123669
ุ	-10.124045
nci	-10.124454
ሃ	-10.124503
▁bya	-10.124575
ante	-10.124672
ત	-10.124895
μα	-10.125005
ley	-10.125078
▁Ser	-10.126169
uga	-10.126443
▁@	-10.126511
لي	-10.126598
▁Kom	-10.126793
▁să	-10.126802
tele	-10.126913
zar	-10.127131
pin	-10.127346
ամ	-10.127561
▁Та	-10.127647
จะ	-10.127660
▁quix	-10.127782
▁な	-10.128278
▁Pri	-10.128313
ස්	-10.128562
▁হ	-10.128723
con	-10.128798
por	-10.128839
ек	-10.129185
▁7:	-10.129238
banga	-10.129357
ۈ	-10.129425
ვი	-10.129547
itu	-10.129728
▁vie	-10.129772
imo	-10.129845
ée	-10.129956
çi	-10.129962
צ	-10.130054
com	-10.130298
ന്ന	-10.130312
▁cä	-10.130386
ቢ	-10.130440
ӧ	-10.130531
IN	-10.130673
yar	-10.130890
dən	-10.130951
ող	-10.131421
għa	-10.131709
▁пар	-10.132002
▁dha	-10.132133
ග	-10.132242
gé	-10.132618
▁דער	-10.132736
▁Den	-10.132887
▁ತ	-10.133046
sso	-10.133290
▁ڪ	-10.133424
性	-10.133749
ham	-10.133843
Р	-10.134341
cent	-10.134407
ии	-10.134418
ಜ	-10.134519
Ꮟ	-10.134571
▁line	-10.134590
▁alt	-10.134618
ར	-10.134729
taka	-10.135215
ێکی	-10.135651
เ	-10.135747
▁tayo	-10.135750
▁Мо	-10.136236
دی	-10.136300
oa	-10.136384
ore	-10.136702
▁ग	-10.136798
mé	-10.136984
ҭ	-10.137398
వా	-10.137723
ese	-10.137761
sat	-10.137909
ҷ	-10.138023
▁Para	-10.138076
ard	-10.138089
▁بيش	-10.138691
▁تر	-10.138770
▁leyi	-10.139008
▁ສ	-10.139031
رد	-10.139308
تو	-10.139562
ىنى	-10.139582
▁32	-10.139785
হ	-10.139879
qqa	-10.140010
ایه	-10.140171
ӑр	-10.140335
▁waxay	-10.140597
▁5.	-10.140648
▁của	-10.140940
▁Yeesu	-10.140947
ön	-10.141138
stat	-10.141318
kal	-10.141430
▁ເຮັດ	-10.141495
▁lin	-10.141556
ӗр	-10.141916
▁Н	-10.142362
ín	-10.142595
دار	-10.143211
ın	-10.143530
pas	-10.143773
gara	-10.143800
▁maa	-10.144095
ei	-10.144224
▁श	-10.144526
▁toko	-10.145292
▁tê	-10.145633
tata	-10.146398
ら	-10.146469
ფ	-10.146582
ദ	-10.147232
ቱ	-10.147991
મ	-10.148129
iva	-10.148845
ዘ	-10.149036
kit	-10.149099
ған	-10.149553
xic	-10.149569
な	-10.150191
tuu	-10.150280
▁war	-10.150393
agh	-10.150503
▁wà	-10.151583
ega	-10.151710
ৰ্	-10.152109
neqar	-10.152300
▁mó	-10.152498
▁तो	-10.152909
ێک	-10.153274
▁abo	-10.153510
▁ezali	-10.153520
▁بال	-10.153597
ller	-10.153678
sjon	-10.153778
ೆಯ	-10.154260
rira	-10.154479
վ	-10.155006
ndan	-10.155237
ነት	-10.155345
mina	-10.155412
ਬ	-10.155656
▁خه	-10.155783
▁yoku	-10.156012
lus	-10.156031
▁uni	-10.156333
का	-10.156412
▁бор	-10.156845
だ	-10.157148
▁olu	-10.157381
тӕ	-10.157692
igu	-10.158300
▁ਵਿਚ	-10.158878
ede	-10.159228
ጣ	-10.159346
ntes	-10.159508
мі	-10.159642
▁gör	-10.159877
વા	-10.159972
▁Del	-10.160156
enti	-10.160165
ড	-10.160167
ahi	-10.160237
jó	-10.160306
▁bakal	-10.160680
Na	-10.160763
mə	-10.161209
جيڪي	-10.161498
ሮ	-10.161698
ուն	-10.161839
ରେ	-10.161955
▁ху	-10.162562
ർ	-10.162944
nc	-10.162953
▁nr	-10.163089
▁گے	-10.163199
▁ప	-10.163403
fn	-10.163420
وت	-10.163920
▁ከም	-10.164086
long	-10.164189
lon	-10.164431
vat	-10.164851
▁так	-10.164935
▁വ	-10.165044
ĩ	-10.165574
añ	-10.166100
ਸ਼	-10.166178
▁uye	-10.166420
uh	-10.166478
før	-10.166565
▁aso	-10.167210
ena	-10.167335
moni	-10.167414
ئه	-10.167932
stan	-10.167939
▁Ak	-10.168030
▁Ç	-10.168355
П	-10.168684
ву	-10.168722
▁saray	-10.168921
▁Ce	-10.169012
ები	-10.169347
▁Biz	-10.169389
▁ahau	-10.169435
▁Uni	-10.169541
fen	-10.169882
▁ibi	-10.170027
▁រ	-10.170296
еи	-10.170617
本	-10.170635
▁እቲ	-10.170776
زی	-10.170901
▁35	-10.171884
jan	-10.171906
▁kri	-10.172070
lja	-10.172304
bij	-10.172367
ут	-10.172729
▁ព្រះ	-10.173592
шы	-10.173738
já	-10.174794
plo	-10.175443
▁della	-10.175472
گا	-10.175537
▁മ	-10.175790
▁Um	-10.175983
ew	-10.176144
زا	-10.176342
ид	-10.176492
iv	-10.176794
ça	-10.177302
wò	-10.177360
▁2,	-10.177765
▁қил	-10.177767
jë	-10.177877
ி	-10.177892
är	-10.178126
▁mel	-10.178727
▁بار	-10.178732
εί	-10.178983
▁пу	-10.179014
▁pot	-10.179095
oso	-10.179380
▁Roma	-10.179384
ੈ	-10.179988
dis	-10.180058
▁tā	-10.180227
▁турар	-10.180442
ап	-10.180584
▁eli	-10.181337
భ	-10.182527
jek	-10.183292
▁dire	-10.183561
▁Ad	-10.183961
▁ez	-10.184052
eti	-10.184083
ూ	-10.184489
pai	-10.184726
kle	-10.184937
ń	-10.185054
తో	-10.185558
▁taata	-10.186216
У	-10.186337
ġi	-10.186402
ən	-10.186813
ien	-10.187007
hom	-10.187215
ति	-10.187351
▁tá	-10.187487
▁Аллаһ	-10.187720
ение	-10.188060
▁گه	-10.188272
kò	-10.188487
یر	-10.188523
བ	-10.188955
lap	-10.189080
▁dalam	-10.189280
ದು	-10.189408
▁՝	-10.189857
kil	-10.190017
այ	-10.190214
▁του	-10.190417
▁utai	-10.190690
▁all	-10.190987
▁ил	-10.191275
=	-10.191566
jel	-10.191566
▁st	-10.191809
于	-10.192275
ID	-10.192450
▁ам	-10.193208
▁plan	-10.193211
nyu	-10.193430
▁50	-10.193437
zvo	-10.193479
аи	-10.193784
ыны	-10.194060
▁info	-10.194070
org	-10.194424
ց	-10.194540
sá	-10.194544
hle	-10.194635
انه	-10.194798
▁saya	-10.195151
▁турган	-10.195180
▁sọ	-10.195358
▁бы	-10.196328
مە	-10.196491
▁daga	-10.196585
ου	-10.196917
▁kolā	-10.197358
کار	-10.197674
kani	-10.197747
▁KDE	-10.197890
స్	-10.197919
pho	-10.197985
▁で	-10.198054
Ka	-10.198131
ني	-10.198185
ّ	-10.198579
▁گا	-10.198654
▁mí	-10.198669
▁सं	-10.198917
▁бай	-10.199120
rna	-10.199139
্য	-10.199345
ων	-10.199889
▁iray	-10.199951
ᏍᎩ	-10.200466
▁quixye	-10.200519
gera	-10.200663
iku	-10.200948
cija	-10.201189
▁fir	-10.201290
ୁ	-10.201372
િ	-10.201469
தி	-10.202181
▁wọn	-10.202338
▁―	-10.202338
▁خۆ	-10.202422
ડ	-10.202706
▁don	-10.202771
ца	-10.202860
star	-10.202928
▁وه	-10.203027
▁inc	-10.203044
sinnaa	-10.203512
gue	-10.204046
eki	-10.204051
kaka	-10.204426
ыг	-10.204562
gri	-10.205008
гі	-10.205296
▁Nzapa	-10.205570
▁kā	-10.205832
▁nuan	-10.206293
ವನ್ನು	-10.206876
ವು	-10.207313
ás	-10.207339
▁omu	-10.207827
će	-10.208112
▁Op	-10.208225
成	-10.208615
შ	-10.209079
cie	-10.209367
kau	-10.209409
če	-10.209599
ዮ	-10.209823
▁riqßuin	-10.210191
▁ಹ	-10.210195
anta	-10.210350
cin	-10.210632
uku	-10.210979
gas	-10.211308
wul	-10.211455
ሎ	-10.211725
tul	-10.211803
▁Dia	-10.211939
▁inn	-10.212082
gá	-10.212135
რა	-10.212440
iste	-10.212623
kku	-10.212862
amma	-10.213827
leke	-10.214149
bin	-10.214154
۔	-10.214221
part	-10.214364
پا	-10.214698
▁finn	-10.214930
leb	-10.215052
▁gan	-10.215549
ova	-10.216196
ann	-10.217032
ær	-10.217133
▁bet	-10.217498
▁Ş	-10.217584
▁سان	-10.217653
▁swa	-10.217719
Ы	-10.218308
ጸ	-10.218364
30	-10.218367
▁Худо	-10.218617
▁بود	-10.218657
▁Sta	-10.218744
▁Иисус	-10.218789
▁tao	-10.218877
kisa	-10.219072
▁super	-10.219275
ů	-10.219390
▁ئۇلارنىڭ	-10.219589
委员会	-10.219697
▁છે	-10.219749
▁chiru	-10.219890
ची	-10.219969
▁ٿي	-10.220129
Б	-10.220316
rei	-10.220953
ெ	-10.221123
▁अस	-10.221371
شی	-10.221378
▁Ṛebbi	-10.221495
عا	-10.221717
▁bee	-10.222286
▁ह	-10.222738
▁masa	-10.222914
ગ	-10.223357
vez	-10.223464
بن	-10.223509
▁joß	-10.223527
▁بن	-10.223885
▁ikai	-10.224438
▁Gra	-10.224573
form	-10.224821
▁pē	-10.224996
kur	-10.225207
ों	-10.225619
اي	-10.225707
▁bay	-10.225873
▁នៅ	-10.225921
ів	-10.225957
▁(%	-10.226656
▁ebi	-10.226786
шта	-10.226904
bia	-10.227032
▁koutou	-10.227442
ही	-10.227443
▁uu	-10.227982
▁வ	-10.228072
▁mil	-10.228445
▁hor	-10.228701
▁ນັ້ນ	-10.229051
▁Por	-10.229105
تۇر	-10.229334
▁اپنے	-10.229657
مبه	-10.229683
▁kandi	-10.229824
50	-10.229942
▁អ	-10.230242
或	-10.230371
zvi	-10.230392
lisa	-10.230421
▁val	-10.230505
န	-10.230625
mpu	-10.230876
▁بول	-10.231063
ķ	-10.231672
гүй	-10.231679
Ꮥ	-10.231805
یم	-10.231990
suu	-10.232079
AR	-10.232293
ძ	-10.232768
awa	-10.232832
дин	-10.233299
่า	-10.234003
▁atoa	-10.234259
»,	-10.234425
▁hem	-10.234426
▁biso	-10.234955
рі	-10.235120
▁juõn	-10.235143
ี	-10.235500
Ꮞ	-10.235506
rek	-10.235672
▁sz	-10.236000
▁tale	-10.236224
ಚ	-10.237267
▁Anij	-10.237330
έ	-10.237433
sini	-10.237767
▁tot	-10.238059
β	-10.238285
▁bin	-10.238726
▁għall	-10.238952
▁ਮ	-10.238996
▁فه	-10.239014
▁vin	-10.239074
▁twa	-10.239129
▁bê	-10.239212
ரு	-10.239610
▁rela	-10.239614
▁క	-10.239878
gura	-10.239967
▁naa	-10.240220
▁मा	-10.240234
▁אין	-10.240849
▁ste	-10.241004
▁Ꭲ	-10.241539
▁Or	-10.241815
ွ	-10.241853
gut	-10.241888
▁oti	-10.242031
▁՞	-10.242249
▁സ	-10.242595
ዛ	-10.242793
chen	-10.243319
дӕр	-10.243859
ئی	-10.244044
ବ	-10.244172
▁pagpa	-10.244194
eni	-10.244902
ది	-10.245194
▁net	-10.245246
▁tsy	-10.245377
nner	-10.245501
ական	-10.245662
",	-10.246066
rk	-10.246078
▁ê	-10.246127
sus	-10.246375
ση	-10.246388
ھا	-10.246421
▁Zi	-10.246427
ကို	-10.246431
▁eius	-10.246474
▁tele	-10.246960
fon	-10.247497
ിക്ക	-10.247632
た	-10.247637
ụrụ	-10.247945
pit	-10.248191
▁ҳ	-10.248411
▁basa	-10.248451
nnen	-10.248905
ි	-10.249150
nana	-10.249330
سته	-10.249373
пер	-10.249513
▁يا	-10.249646
▁кү	-10.250023
bang	-10.250100
gad	-10.250394
▁kuli	-10.250560
ება	-10.250609
kuru	-10.250710
saa	-10.250821
dro	-10.250917
▁ਕਿ	-10.251115
වා	-10.251312
gha	-10.251657
god	-10.251691
▁amo	-10.251843
က	-10.252598
nika	-10.252666
他	-10.252675
law	-10.253094
LA	-10.253474
▁mon	-10.253534
▁contra	-10.253537
मे	-10.253606
▁bw	-10.253778
ເ	-10.253819
▁مو	-10.253923
fai	-10.254055
lī	-10.254326
▁program	-10.254345
▁Jeova	-10.254386
dı	-10.254797
ato	-10.254862
▁ໃດ	-10.255066
оу	-10.255384
onan	-10.255410
phu	-10.255491
स्	-10.255732
ep	-10.255785
leni	-10.255947
▁sia	-10.256238
ство	-10.256258
▁ɣer	-10.256403
ort	-10.256469
▁გა	-10.256712
Ᏻ	-10.256989
▁سا	-10.257237
wie	-10.257674
haka	-10.258182
▁jan	-10.258268
аҳ	-10.258381
▁Tuhan	-10.258643
اس	-10.258691
▁Ag	-10.258877
▁Pablo	-10.259173
ના	-10.259252
کرد	-10.259290
▁без	-10.259979
▁ир	-10.260013
pfu	-10.260058
ٹ	-10.260451
▁این	-10.260648
▁àti	-10.260675
ಗಳ	-10.260691
tiv	-10.261501
▁tas	-10.261683
15	-10.262196
▁fé	-10.262277
ẽ	-10.262487
via	-10.263119
▁ເ	-10.263286
oga	-10.263421
रे	-10.263473
ார்	-10.263502
bis	-10.263536
rup	-10.263583
▁sol	-10.263680
אַ	-10.264191
ngen	-10.264195
ыс	-10.264207
wal	-10.264240
ction	-10.264286
▁Io	-10.264618
ҟа	-10.264766
▁tam	-10.264855
sil	-10.264912
cur	-10.265005
ಂದ	-10.265080
лаш	-10.265243
ン	-10.265394
ଲ	-10.266047
من	-10.266548
▁lang	-10.266674
vy	-10.266894
▁ກໍ	-10.267127
mise	-10.267201
▁jej	-10.267573
▁Yakuwa	-10.267706
ස	-10.267930
бу	-10.268201
▁kona	-10.268744
▁Leza	-10.268988
ො	-10.269078
cri	-10.269151
▁များ	-10.269557
র্	-10.269695
▁kö	-10.269775
ई	-10.269861
并	-10.269917
ານ	-10.270087
mala	-10.270094
去	-10.270228
▁pang	-10.270647
шо	-10.271442
rish	-10.271790
▁và	-10.271919
▁15:	-10.271990
فت	-10.271996
▁nem	-10.272186
▁qo	-10.272228
▁кел	-10.272376
ລ	-10.272728
▁dans	-10.272899
▁την	-10.272916
cio	-10.272960
շ	-10.273438
▁ນີ້	-10.273499
利	-10.273499
vaka	-10.273774
رده	-10.274571
部	-10.274611
▁biz	-10.274639
▁ምስ	-10.274641
bon	-10.274816
โ	-10.274886
لە	-10.275140
ande	-10.275333
▁izi	-10.275574
git	-10.275766
tă	-10.275857
▁awa	-10.275954
▁8:	-10.275972
ზე	-10.276022
▁für	-10.276266
▁جنھن	-10.276558
▁jew	-10.276587
ဲ	-10.276589
▁quin	-10.276762
bere	-10.277161
দ	-10.277273
▁uit	-10.277289
▁زۆر	-10.277419
tun	-10.277485
àn	-10.277654
▁ሰ	-10.277824
ingen	-10.278049
▁उ	-10.278152
ություն	-10.278356
аны	-10.278360
aya	-10.278908
श्	-10.278991
▁pare	-10.279000
tio	-10.279255
డు	-10.279423
▁ක	-10.279440
▁sobre	-10.279450
▁pala	-10.279780
▁Yéhuwa	-10.280210
ją	-10.280500
▁mba	-10.280548
جه	-10.280899
ሚ	-10.281097
で	-10.281301
▁asi	-10.281610
▁ö	-10.281624
▁was	-10.281818
tou	-10.282061
▁bab	-10.282258
ಾದ	-10.282570
ից	-10.282607
▁100	-10.282822
▁roa	-10.283016
▁dis	-10.283072
sum	-10.283118
ერ	-10.283345
▁autem	-10.283606
▁వ	-10.283714
ິ	-10.283902
▁kasi	-10.284057
్య	-10.284201
لەر	-10.284447
ئا	-10.284500
lú	-10.284738
رام	-10.284969
▁mua	-10.284985
bile	-10.285107
даг	-10.285306
kki	-10.285851
ип	-10.285946
▁Car	-10.286473
ད	-10.286631
▁iloa	-10.286679
bas	-10.286800
мә	-10.287179
лэн	-10.287246
kati	-10.287720
kli	-10.288038
nera	-10.288189
ības	-10.288311
ไป	-10.288487
▁ያ	-10.288504
lau	-10.288671
▁տ	-10.288718
ሱ	-10.288730
▁Tusi	-10.288876
▁Ꮷ	-10.289241
▁një	-10.289245
く	-10.289311
▁wy	-10.289394
▁dit	-10.289396
hal	-10.289792
ပ	-10.289855
▁ю	-10.290035
dzo	-10.290049
idad	-10.290154
кт	-10.290262
▁אַ	-10.290301
▁شما	-10.290513
sang	-10.290616
llen	-10.290655
ىدىغان	-10.290723
jí	-10.290976
нэ	-10.291082
vers	-10.291201
▁ఇ	-10.291389
វ	-10.291854
ಬ	-10.292124
тел	-10.292145
mpe	-10.292189
SI	-10.292523
არ	-10.292626
ღ	-10.293495
▁nèk	-10.293506
ပြ	-10.293613
فا	-10.293751
ão	-10.293823
én	-10.293859
▁ас	-10.293883
iwa	-10.294411
ssu	-10.294744
mmer	-10.294785
પ	-10.294811
▁Jesu	-10.294863
هه	-10.294963
her	-10.295515
▁Tapu	-10.295549
дын	-10.295673
▁tali	-10.295917
ica	-10.296308
зо	-10.296406
gos	-10.296684
▁vanhu	-10.296684
neq	-10.297016
▁قوم	-10.297358
▁менен	-10.297395
ណ	-10.297618
ោ	-10.297767
сі	-10.297841
▁lâ	-10.297958
ес	-10.297994
erunt	-10.298023
与	-10.298224
سە	-10.298474
hó	-10.298817
▁pagka	-10.299324
▁gel	-10.299453
leka	-10.299456
▁၏	-10.299663
xu	-10.299701
▁эш	-10.299784
MA	-10.299962
որ	-10.300158
յ	-10.300397
şa	-10.300473
▁мин	-10.300532
▁ایک	-10.300866
▁kudu	-10.301440
▁ව	-10.301473
ಧ	-10.301768
ෝ	-10.301909
AL	-10.302165
cul	-10.302411
▁>	-10.302460
నే	-10.302608
▁йӕ	-10.302731
▁די	-10.302765
▁እዚ	-10.302812
▁San	-10.303786
ಟ್ಟ	-10.303876
Sa	-10.304235
pati	-10.304503
其	-10.305099
▁6.	-10.305179
▁ū	-10.305498
▁ئىش	-10.305697
क्ष	-10.305904
тир	-10.306877
తి	-10.306947
▁faire	-10.307013
▁nh	-10.307173
▁ಪ್ರ	-10.307175
▁eme	-10.307256
ኡ	-10.307362
uit	-10.307458
▁sus	-10.307557
▁tri	-10.307560
வே	-10.307946
rs	-10.308234
▁hoko	-10.308249
▁زمین	-10.308252
ല്ല	-10.308279
▁هیچ	-10.308458
cor	-10.308566
izi	-10.308680
▁tongana	-10.308728
▁sau	-10.309215
kele	-10.309367
▁lwa	-10.309602
nam	-10.309631
▁Бу	-10.310020
തി	-10.310330
▁telā	-10.310395
ී	-10.310415
▁Saksi	-10.310929
▁basi	-10.310992
Pa	-10.311235
تر	-10.311243
baba	-10.311415
▁ս	-10.311433
▁Th	-10.311578
▁ද	-10.311594
▁kara	-10.311752
ndaka	-10.311810
▁త	-10.312391
▁Ia	-10.312434
っ	-10.312470
kum	-10.312494
ောက်	-10.312504
мер	-10.312518
TA	-10.312525
ູ	-10.312714
▁Ýehowa	-10.312716
▁olo	-10.312929
▁entre	-10.313226
▁sereta	-10.313336
ttu	-10.313577
Ꮹ	-10.313584
يل	-10.313800
▁кай	-10.313946
ğa	-10.313962
▁Des	-10.314056
▁ад	-10.314189
▁kepada	-10.314743
რთ	-10.315169
сон	-10.315227
kti	-10.316172
ீ	-10.316217
▁Oo	-10.316287
▁spe	-10.316741
▁informa	-10.316771
▁кун	-10.316890
uj	-10.317056
▁ene	-10.317060
▁Ꮵ	-10.317182
▁kue	-10.317272
mpo	-10.317636
vad	-10.317677
▁10.	-10.317809
dó	-10.317904
▁بىز	-10.318193
زى	-10.318256
▁sar	-10.318422
خوا	-10.318443
ེ	-10.318522
▁naka	-10.318540
▁Nya	-10.318603
▁वि	-10.318727
جي	-10.318785
নে	-10.318842
▁Kristian	-10.318844
▁kal	-10.318927
kama	-10.318956
ਡ	-10.319016
چا	-10.319297
գ	-10.319462
himo	-10.319492
riki	-10.319629
ँ	-10.319940
laki	-10.320199
▁មិន	-10.320349
भ	-10.320491
▁reira	-10.320496
▁പ്ര	-10.321078
نگ	-10.321258
▁tia	-10.321274
▁iku	-10.321306
▁kõn	-10.321452
▁جس	-10.321650
▁auf	-10.321884
▁جان	-10.321915
ช	-10.322079
ları	-10.322476
માં	-10.322694
▁opp	-10.322697
▁nye	-10.322877
▁më	-10.323300
▁ә	-10.323350
ڕێ	-10.323351
ສ	-10.323455
ծ	-10.323545
lua	-10.323568
ñu	-10.323666
▁7.	-10.323789
▁уый	-10.323846
ん	-10.323971
थ	-10.323985
stä	-10.324231
▁ndzi	-10.324638
ұ	-10.324672
▁ਬ	-10.324756
mor	-10.324861
▁خا	-10.324897
▁8.	-10.325030
kanga	-10.325481
▁ಎ	-10.325583
▁data	-10.325765
سی	-10.326219
kke	-10.326289
▁Eli	-10.326353
cen	-10.326548
тэ	-10.326584
▁Но	-10.326759
ule	-10.326789
▁Ber	-10.326855
Ꮳ	-10.326859
▁loku	-10.326990
ாக	-10.327526
▁мен	-10.327564
▁meg	-10.327756
▁सा	-10.328394
▁اگر	-10.328592
ഭ	-10.329138
最	-10.329364
һ	-10.330237
▁дә	-10.330548
ま	-10.330626
▁شد	-10.330658
ီ	-10.330994
▁учун	-10.331085
▁й	-10.331160
▁CLD	-10.331823
▁Suku	-10.331936
cita	-10.331957
در	-10.332100
စ	-10.332115
這	-10.332271
▁she	-10.332276
▁Kuri	-10.332294
کات	-10.332453
swa	-10.332458
nay	-10.332673
▁биле	-10.332717
▁што	-10.332910
τε	-10.332911
มา	-10.333278
▁under	-10.333404
▁neque	-10.333520
▁problems	-10.333775
år	-10.334116
cher	-10.334388
▁إ	-10.334595
▁पा	-10.334680
уп	-10.334883
tung	-10.335128
sek	-10.335286
mí	-10.335572
▁ប្រ	-10.335612
▁פֿו	-10.335640
AS	-10.335806
▁ఎ	-10.336107
▁လ	-10.336269
িত	-10.336295
fat	-10.336456
འ	-10.336532
аж	-10.336586
ред	-10.337325
▁قىلغان	-10.337348
fika	-10.337580
工作	-10.338009
▁Cu	-10.338107
ێت	-10.338512
▁Š	-10.338641
ୟ	-10.338661
▁karo	-10.338872
▁ਕ	-10.339157
▁зна	-10.339437
▁kre	-10.339549
▁lau	-10.339587
▁bú	-10.340176
ዎ	-10.340214
▁comp	-10.340527
mel	-10.340627
▁lalu	-10.340691
დი	-10.341187
▁пред	-10.341290
him	-10.341611
▁ឲ្យ	-10.342072
ਗ	-10.342186
ڙ	-10.342195
ٽ	-10.342278
▁ໃຈ	-10.342902
▁14:	-10.342935
shu	-10.343238
▁lalolagi	-10.343321
tina	-10.343421
ിയ	-10.343697
▁kw	-10.343795
ப்	-10.344102
▁দ	-10.344716
▁naba	-10.344894
▁پھر	-10.344979
papa	-10.345160
ျ	-10.345907
▁Jiihóvah	-10.346270
▁vun	-10.346272
▁และ	-10.346502
dala	-10.346539
▁ñi	-10.346785
၊	-10.346931
nı	-10.347072
bí	-10.347090
rti	-10.347180
▁кар	-10.347301
ddi	-10.347384
▁Ex	-10.347448
tų	-10.347488
dus	-10.348362
sca	-10.348410
ӱ	-10.348432
থ	-10.348631
▁hari	-10.348885
ዊ	-10.349227
▁یا	-10.349401
▁ე	-10.349875
也	-10.350032
gia	-10.350337
▁ши	-10.350388
mbre	-10.350566
▁شا	-10.350597
obo	-10.350897
zon	-10.350912
▁మ	-10.350957
ume	-10.351351
明	-10.351517
ï	-10.351772
《	-10.351875
▁qi	-10.352161
tzen	-10.352370
kh	-10.352524
naki	-10.352576
▁त	-10.353002
খ	-10.353230
jem	-10.353281
能	-10.353281
sä	-10.353546
▁кур	-10.354045
тын	-10.354164
ಿಯ	-10.354698
▁צו	-10.354762
pera	-10.354912
▁إلى	-10.354921
ڑ	-10.354941
ата	-10.355219
▁مع	-10.355479
ىڭلار	-10.355488
▁må	-10.355589
pé	-10.355927
得	-10.356006
Ꮸ	-10.356054
▁ska	-10.356158
вар	-10.356199
▁፣	-10.356297
▁nisi	-10.356493
સ	-10.356771
+	-10.356867
▁የሚ	-10.357305
▁sega	-10.357798
zza	-10.357823
ై	-10.357861
▁nel	-10.357952
▁рас	-10.358245
ਪ	-10.358344
▁Ata	-10.358459
ას	-10.358517
▁queß	-10.358569
▁tenei	-10.358716
▁କରନ୍ତୁ	-10.358853
Ᏼ	-10.358990
▁għal	-10.359077
lige	-10.359675
▁эт	-10.359758
▁ڏ	-10.360143
▁hy	-10.360181
mul	-10.360275
Ko	-10.360313
lenge	-10.360373
tions	-10.360466
ск	-10.360617
▁så	-10.360909
енә	-10.361519
ની	-10.361931
anya	-10.361951
Ꮆ	-10.362144
▁Á	-10.362163
斯	-10.362195
ска	-10.362597
▁(1	-10.362617
fana	-10.362844
▁nínú	-10.362960
ว่า	-10.363352
▁ስ	-10.363447
ной	-10.363685
ole	-10.363717
18	-10.363820
▁seg	-10.363866
▁వి	-10.363911
tang	-10.363927
tari	-10.364071
▁suka	-10.364415
▁غ	-10.364603
▁Đ	-10.364727
▁ýa	-10.364816
▁көр	-10.364941
▁Tra	-10.365009
▁rawa	-10.365118
shobora	-10.365370
▁nje	-10.365752
▁ý	-10.365875
Ᏺ	-10.366137
ния	-10.366167
bantu	-10.366246
▁ор	-10.366450
dam	-10.366899
▁sua	-10.366973
▁что	-10.367204
▁し	-10.367340
▁ŋu	-10.367430
》	-10.368009
▁New	-10.368360
▁chun	-10.368445
▁Ꭱ	-10.368513
▁එ	-10.368580
jā	-10.368999
▁файл	-10.369192
else	-10.369245
▁ที่	-10.369631
kwi	-10.369657
şi	-10.369937
์	-10.370007
ቡ	-10.370549
▁ത	-10.370687
ering	-10.370769
▁від	-10.370877
zyi	-10.370907
say	-10.370942
▁ማ	-10.370951
▁ста	-10.371193
ಂ	-10.371206
▁ክ	-10.371386
मा	-10.371394
▁minn	-10.371615
▁bantu	-10.372338
তি	-10.372498
apa	-10.372709
▁tabata	-10.372721
ča	-10.372779
▁خۆی	-10.373110
▁uiga	-10.373196
▁ай	-10.373251
▁gud	-10.373376
دان	-10.373615
یی	-10.373769
▁ອ	-10.373864
制	-10.374055
ான	-10.374783
ларни	-10.375005
ང་	-10.375043
ების	-10.375303
▁α	-10.375473
dje	-10.376221
llan	-10.376328
▁ຫຼາຍ	-10.376390
▁ھەقىقەتەن	-10.376390
▁{\	-10.376472
▁Ji	-10.376495
▁Са	-10.376838
wini	-10.376862
inta	-10.376911
▁१	-10.377009
▁តើ	-10.377120
vent	-10.377514
ယ	-10.377547
▁sas	-10.377661
RI	-10.377760
▁seen	-10.377926
▁ohun	-10.377989
▁ለ	-10.378076
▁Alkitab	-10.378266
ose	-10.378470
ිය	-10.378502
sc	-10.378507
sing	-10.378558
▁tata	-10.378641
ני	-10.378927
buh	-10.379218
inda	-10.379287
▁mara	-10.379390
abo	-10.379526
▁جب	-10.379567
▁dapat	-10.379784
khulu	-10.379897
▁ит	-10.379944
CE	-10.380267
▁кор	-10.380474
issa	-10.380504
▁এ	-10.380586
▁xuku	-10.380601
اح	-10.380643
cé	-10.380715
้า	-10.380757
▁Jésus	-10.381087
时	-10.381201
ొ	-10.381288
ို	-10.381423
tres	-10.381483
dang	-10.381514
▁Ì	-10.381536
▁پێغ	-10.381577
▁forma	-10.381649
ļ	-10.381786
dır	-10.382023
nun	-10.382483
reg	-10.382498
▁đã	-10.382681
▁kõm	-10.382742
▁برای	-10.382764
▁pati	-10.382798
mmi	-10.382866
ques	-10.382876
جو	-10.382952
▁yara	-10.383016
sis	-10.383119
IS	-10.383390
▁យើង	-10.383444
èl	-10.383464
都	-10.383566
▁loko	-10.383768
ier	-10.384020
ရာ	-10.384279
بی	-10.385238
▁dau	-10.385847
ठ	-10.386010
بار	-10.386215
სა	-10.386365
▁agi	-10.386744
జ	-10.386781
وره	-10.387135
dad	-10.387139
цы	-10.387406
ུ	-10.387788
▁ລ	-10.387867
лт	-10.387897
▁Ко	-10.388021
ario	-10.388078
ҵ	-10.388080
inne	-10.388202
ელ	-10.388535
▁người	-10.388767
క్	-10.389009
▁فر	-10.389386
lje	-10.389519
体	-10.389606
▁sunt	-10.389709
aren	-10.389717
စ်	-10.389720
ük	-10.389845
▁ന	-10.390047
▁pis	-10.390156
уы	-10.390312
▁ҡ	-10.390370
ً	-10.390549
▁12.	-10.390618
▁iman	-10.390675
oro	-10.390861
▁ала	-10.391068
از	-10.391164
可	-10.391229
ਜ	-10.391286
▁linga	-10.391633
▁person	-10.391726
bes	-10.391767
नी	-10.391952
yd	-10.391988
ائي	-10.392289
འི་	-10.392554
dur	-10.392850
शा	-10.392920
గు	-10.393099
▁για	-10.393177
▁کرده	-10.394223
rta	-10.394407
▁айт	-10.394755
fra	-10.395031
▁fia	-10.395168
stel	-10.395322
▁dzi	-10.395456
▁ہی	-10.395950
ți	-10.396194
шь	-10.396461
▁бис	-10.396482
▁manush	-10.396617
urs	-10.396891
▁их	-10.397161
ంద	-10.397737
▁Ö	-10.397843
▁Ни	-10.397874
ike	-10.398315
jon	-10.398386
لو	-10.398388
all	-10.398437
▁سىلەر	-10.398469
▁نی	-10.398661
гар	-10.398822
▁ike	-10.399380
▁aho	-10.399411
ട്ട	-10.399758
▁ወ	-10.399781
▁може	-10.400183
RA	-10.400887
kuba	-10.401232
иши	-10.401662
ரி	-10.401739
ሙ	-10.401781
biri	-10.401853
maz	-10.401861
idade	-10.401964
ҩ	-10.402281
自	-10.402367
ეთ	-10.402427
▁кө	-10.402486
nyika	-10.403460
ати	-10.403607
▁bien	-10.404061
意	-10.404421
国家	-10.404439
▁घ	-10.404572
▁9,	-10.404688
▁Ха	-10.404743
▁ਦਾ	-10.404884
too	-10.404920
udi	-10.404962
ಭ	-10.405029
ία	-10.405191
▁lelei	-10.405492
hala	-10.405560
▁teie	-10.405698
ശ	-10.406000
but	-10.406193
oo	-10.407457
▁ty	-10.407499
yny	-10.407658
чу	-10.407771
ทํา	-10.407828
▁кешеләр	-10.407920
▁Katonda	-10.408901
▁sum	-10.409107
cc	-10.409339
ሽ	-10.409623
▁ве	-10.409744
bânu	-10.409767
ێك	-10.409855
▁als	-10.409890
alu	-10.409984
UN	-10.410169
▁دی	-10.410344
▁haere	-10.410804
leen	-10.410860
▁ngagai	-10.410975
aku	-10.411264
ум	-10.411266
▁ger	-10.411341
▁Sie	-10.411397
▁dar	-10.411442
amh	-10.411670
▁label	-10.411849
▁Ул	-10.411901
▁9.	-10.411992
sai	-10.412010
zan	-10.412036
▁ukuthi	-10.412136
▁nuk	-10.412287
▁4,	-10.413065
une	-10.413219
▁ε	-10.413387
▁rumal	-10.413527
sig	-10.413545
baka	-10.413706
rà	-10.414055
ኻ	-10.414474
▁Abraham	-10.414845
ของ	-10.414887
▁niya	-10.415027
vor	-10.415035
ngela	-10.415220
ۋا	-10.415307
▁մի	-10.415408
په	-10.415508
▁Ա	-10.415641
ության	-10.415819
лӑ	-10.416000
ሞ	-10.416119
fia	-10.416225
OR	-10.416893
་བ	-10.417031
sana	-10.417087
▁š	-10.417727
ие	-10.417896
ັນ	-10.418216
ற	-10.418232
▁ম	-10.418337
▁cuanqueb	-10.418413
新	-10.418832
问题	-10.418998
ves	-10.419329
рав	-10.419655
сене	-10.419744
dwe	-10.419828
▁ireo	-10.419832
▁24:	-10.420018
▁მი	-10.420048
▁bana	-10.420066
ները	-10.420509
nim	-10.420755
▁pada	-10.420863
های	-10.420911
▁fre	-10.420918
ýan	-10.421056
▁эр	-10.421447
▁rey	-10.421477
▁się	-10.421660
ած	-10.422044
uf	-10.422181
oba	-10.422458
bala	-10.422765
rri	-10.422772
ngga	-10.422806
ppa	-10.423017
▁une	-10.423070
onga	-10.423176
уз	-10.423413
ຸ	-10.423459
ně	-10.423553
▁tsa	-10.423565
て	-10.423583
▁প্ৰ	-10.423663
ಲ್ಲಿ	-10.423889
▁mer	-10.424058
ობ	-10.424263
ज़	-10.424397
wara	-10.424551
▁дип	-10.424811
ён	-10.424974
▁punkt	-10.425133
sent	-10.425354
pal	-10.425444
gat	-10.425534
തു	-10.425537
▁ili	-10.425577
സ	-10.426174
▁queßx	-10.426229
end	-10.426420
▁Kan	-10.426434
ள	-10.426694
டு	-10.426938
ev	-10.427029
▁آپ	-10.427713
աս	-10.427819
̀	-10.428080
ትን	-10.428434
ис	-10.428546
से	-10.428786
▁इ	-10.429110
▁rave	-10.429333
ণ	-10.429430
ან	-10.429513
▁Sidi	-10.429529
was	-10.429568
▁мар	-10.429677
▁you	-10.429801
بە	-10.429983
ಾರ	-10.430624
▁ben	-10.430787
ңа	-10.430819
▁jin	-10.430940
liga	-10.430941
▁râ	-10.431104
ىل	-10.431434
▁Библи	-10.431556
▁Xa	-10.431724
ู	-10.431892
ପ	-10.432271
Ꮪ	-10.432460
▁ярат	-10.432580
▁ли	-10.432622
▁ẹ	-10.432625
想	-10.432657
▁gro	-10.432697
nse	-10.432864
kile	-10.432882
▁pil	-10.432896
íí	-10.432995
▁ngir	-10.433121
▁ese	-10.433191
▁ry	-10.433266
▁բ	-10.433428
▁تنھن	-10.433607
Ꮤ	-10.433724
▁Europe	-10.433938
▁Adam	-10.433982
▁34	-10.434162
pet	-10.434166
ٰ	-10.434269
или	-10.434423
ણ	-10.434443
▁5,	-10.434749
ώ	-10.434772
ӗн	-10.435061
ቦ	-10.435259
pak	-10.435356
ਹ	-10.435360
bbi	-10.435515
పు	-10.435601
▁את	-10.436008
▁سر	-10.436087
什么	-10.436132
yp	-10.436280
▁kata	-10.436302
▁seki	-10.436573
แ	-10.436725
▁ಪ	-10.436850
▁yee	-10.436852
ቃ	-10.436856
pis	-10.437487
يون	-10.437778
▁же	-10.437946
▁Ᏹ	-10.438342
▁Mis	-10.438401
▁nzoni	-10.438535
гъ	-10.438801
jak	-10.438967
ື	-10.439123
▁parte	-10.439123
cí	-10.439159
▁ኪ	-10.439303
▁mā	-10.439539
ਿਆ	-10.439759
ҳои	-10.439885
▁že	-10.440534
җ	-10.440626
laga	-10.440655
▁тө	-10.440870
بان	-10.441298
rī	-10.441535
▁לא	-10.441552
▁mere	-10.441740
主	-10.442015
60	-10.442103
▁اسان	-10.442448
ண	-10.442454
nju	-10.442472
ls	-10.442499
▁bag	-10.442549
cili	-10.442569
چی	-10.442594
▁ак	-10.442698
aedje	-10.442731
fun	-10.442883
ить	-10.443035
каз	-10.443166
ల్	-10.443215
▁بێگومان	-10.443247
▁zvi	-10.443477
▁--	-10.443515
▁mid	-10.443731
▁Ana	-10.444012
▁produkt	-10.444129
ות	-10.444150
str	-10.444491
ء	-10.444615
dyr	-10.444698
irt	-10.444832
▁lai	-10.444867
▁સ	-10.445233
ергә	-10.445317
TI	-10.445344
▁hende	-10.445578
国际	-10.445637
klu	-10.445684
кән	-10.445747
বে	-10.445880
دۇ	-10.445882
አ	-10.445974
эм	-10.446054
▁một	-10.446259
「	-10.446384
activ	-10.446656
▁At	-10.447262
」	-10.447264
ற்ற	-10.447291
ۈر	-10.447474
▁իր	-10.447666
▁akon	-10.447736
ών	-10.447856
yè	-10.447858
▁Ben	-10.447867
rhe	-10.447886
▁Ur	-10.447991
▁hiya	-10.448019
▁pār	-10.448045
▁Her	-10.448139
▁га	-10.448196
后	-10.448274
тәр	-10.448382
ګ	-10.448647
▁Ny	-10.448805
యు	-10.449253
▁नाही	-10.449282
ħa	-10.449334
шә	-10.449576
▁ino	-10.449678
▁Nzambe	-10.449782
idi	-10.449927
нын	-10.450233
zel	-10.450328
kut	-10.450642
igen	-10.450830
цәа	-10.450854
ções	-10.451098
▁Em	-10.451330
▁էր	-10.451408
▁ü	-10.451742
▁බ	-10.451843
▁nini	-10.451864
स्त	-10.451955
▁ናይ	-10.452094
ັບ	-10.452157
يء	-10.452233
तो	-10.452332
▁Eb	-10.452394
ї	-10.452418
▁gina	-10.452567
ité	-10.452945
▁زیرا	-10.453082
ρα	-10.453309
▁anh	-10.453321
sè	-10.453347
ጻ	-10.453444
▁Jèhófà	-10.453571
▁17:	-10.453605
rsa	-10.454000
ví	-10.454063
她	-10.454077
▁करू	-10.454095
nima	-10.454129
ło	-10.454155
▁eta	-10.454441
enza	-10.454494
ał	-10.454719
▁ම	-10.454940
ூ	-10.455131
amente	-10.455467
▁15.	-10.455652
▁xo	-10.455695
ไ	-10.455939
bla	-10.456056
ধ	-10.456157
▁ڀ	-10.456224
▁wá	-10.456487
▁qua	-10.456692
уш	-10.456701
вет	-10.456865
▁raz	-10.457103
外	-10.457129
▁ok	-10.457308
рак	-10.457359
说	-10.457378
▁बा	-10.457392
ეს	-10.457636
▁bara	-10.458044
غان	-10.458122
▁Mas	-10.458173
asyon	-10.458231
▁č	-10.458385
▁پالڻھار	-10.458392
▁14.	-10.458442
▁lingbi	-10.458470
*	-10.458514
▁Nda	-10.458590
▁ק	-10.458618
nih	-10.458790
ණ	-10.458938
pia	-10.459017
▁nama	-10.459096
▁Kuma	-10.459220
йт	-10.459229
ੰ	-10.459476
lula	-10.459625
▁futhi	-10.459973
▁Ꭶ	-10.460240
وێت	-10.460314
▁6,	-10.460379
dal	-10.460578
▁Bir	-10.460752
ां	-10.460893
onse	-10.460942
▁sila	-10.460965
▁tangata	-10.461148
ggi	-10.461214
దు	-10.461258
ٺ	-10.461386
▁Et	-10.461695
mera	-10.462316
▁пере	-10.462380
வி	-10.462382
▁Й	-10.462473
▁9:	-10.462945
chu	-10.463003
sik	-10.463359
▁teß	-10.463580
jy	-10.463691
▁پنھنجي	-10.463747
hun	-10.463755
▁ṣ	-10.463795
isti	-10.463911
той	-10.464123
▁chque	-10.464313
naan	-10.464882
▁ነ	-10.465052
saka	-10.465133
▁Ò	-10.465332
▁prie	-10.465425
гьы	-10.465923
wat	-10.466050
ბ	-10.466942
将	-10.467085
入	-10.467333
они	-10.467834
▁زه	-10.467875
؛	-10.467976
▁ኣምላኽ	-10.467976
▁Ac	-10.468174
▁11.	-10.468184
ologi	-10.468657
▁స	-10.468966
គ	-10.468976
▁egy	-10.469047
יר	-10.469095
հ	-10.469165
▁fili	-10.469349
vä	-10.469441
্যা	-10.469682
NI	-10.470260
ալ	-10.470559
▁Uku	-10.471231
sco	-10.471341
zioni	-10.471387
Mo	-10.471409
▁ပါ	-10.471422
▁улар	-10.471547
ход	-10.471591
ణ	-10.471642
▁Bondye	-10.471706
سان	-10.471784
ico	-10.471789
फ	-10.471790
lash	-10.471886
teg	-10.472310
col	-10.472400
że	-10.472497
ిన	-10.472843
▁બ	-10.472883
ğı	-10.472898
त्र	-10.473015
▁Ц	-10.473178
LE	-10.473207
▁ទ	-10.473343
▁iek	-10.473739
эг	-10.473896
▁nyen	-10.473969
эд	-10.474066
serv	-10.474155
bula	-10.474223
▁алар	-10.474472
uda	-10.474564
rua	-10.474579
tava	-10.475025
及	-10.475299
▁κ	-10.475315
面	-10.475520
▁Les	-10.475581
ะ	-10.475731
bir	-10.475882
▁sig	-10.476079
▁пул	-10.476244
先生	-10.476249
тен	-10.476343
hai	-10.477103
luar	-10.477154
ām	-10.477190
▁Ɛisa	-10.477263
sie	-10.477363
င့်	-10.477592
▁Fu	-10.477765
သော	-10.477766
看	-10.477782
เป็น	-10.477923
hand	-10.478334
▁anthu	-10.478529
ར་	-10.478783
▁È	-10.478797
▁vos	-10.478838
illu	-10.479011
таш	-10.479012
▁တို့	-10.479233
ити	-10.479414
▁নি	-10.479420
nger	-10.479450
jja	-10.479511
▁000	-10.479678
ando	-10.479914
当	-10.479996
▁aon	-10.480232
▁Kita	-10.480437
▁had	-10.480513
zima	-10.480979
Ꮄ	-10.480989
Ꮺ	-10.481146
vita	-10.481248
sión	-10.481483
民	-10.481501
obu	-10.481654
abi	-10.481894
rama	-10.482047
ýa	-10.482099
▁ს	-10.482106
umi	-10.482265
ვე	-10.482282
In	-10.482334
▁እተ	-10.482388
gamba	-10.482502
gge	-10.482795
▁ngeen	-10.482877
▁À	-10.482909
▁16.	-10.483253
ക്ക്	-10.483319
▁Gin	-10.483873
mur	-10.484099
16	-10.484165
bé	-10.484302
▁Pag	-10.484509
▁sẽ	-10.484747
raj	-10.484749
kã	-10.484926
▁name	-10.485070
ય	-10.485323
bru	-10.485343
ได้	-10.485422
ڌ	-10.485572
رن	-10.485796
▁mà	-10.486068
ഗ	-10.486156
▁Č	-10.486710
္	-10.486901
▁Yu	-10.486939
▁има	-10.487039
▁rech	-10.487096
дор	-10.487173
▁ț	-10.487180
дү	-10.487249
rika	-10.487426
▁Ал	-10.487634
▁ҳар	-10.487854
وس	-10.488116
dina	-10.488177
لىك	-10.488317
lot	-10.488386
▁വി	-10.488490
üm	-10.488580
▁প্র	-10.488618
żi	-10.488619
Ꮻ	-10.488868
▁prop	-10.489153
ɖe	-10.489284
▁kõ	-10.489300
गा	-10.489374
म्	-10.489518
ັດ	-10.489658
റ്റ	-10.489945
ella	-10.490292
▁13.	-10.490514
·	-10.490569
ୋ	-10.490570
▁bez	-10.490652
▁GNOME	-10.490701
▁tume	-10.490880
▁Zo	-10.491002
ዲ	-10.491199
▁دل	-10.491461
vē	-10.491486
ម្	-10.491577
理	-10.491599
UE	-10.491683
қа	-10.491762
enge	-10.491807
मान	-10.491902
vos	-10.491976
▁ос	-10.492049
بوو	-10.492126
▁Yésus	-10.492146
pela	-10.492588
وو	-10.492663
ρι	-10.492749
▁Pen	-10.492920
ਵਾ	-10.492939
tive	-10.493231
▁दे	-10.493235
▁ɣef	-10.493340
▁kota	-10.493692
symbols	-10.494292
chß	-10.494541
kas	-10.494659
▁ore	-10.494751
SA	-10.494920
ҿы	-10.495149
发	-10.495156
zë	-10.495217
ŋ	-10.495255
▁oia	-10.495270
yag	-10.495319
▁xin	-10.495387
▁Ap	-10.495440
tè	-10.495720
▁кал	-10.495743
▁hogy	-10.496061
DE	-10.496140
bò	-10.496206
ngisa	-10.496521
மா	-10.497014
▁opera	-10.497217
▁ຄ	-10.497301
tr	-10.497317
daan	-10.497635
tụ	-10.497939
ins	-10.497989
▁ada	-10.498057
▁നി	-10.498502
40	-10.498662
ない	-10.498921
▁gali	-10.498961
taj	-10.499056
լ	-10.499144
linga	-10.499190
▁aya	-10.499248
▁આ	-10.499271
▁Que	-10.499707
iden	-10.499759
▁аст	-10.499863
ư	-10.500007
vid	-10.500195
▁outou	-10.500430
▁mali	-10.500504
ებს	-10.500578
лэсь	-10.500678
Re	-10.500816
ði	-10.500882
sas	-10.500910
▁tahi	-10.501093
શ	-10.501149
▁də	-10.501205
>	-10.501256
▁bij	-10.501288
▁ని	-10.501310
▁করা	-10.501438
lika	-10.501642
▁वा	-10.501780
▁ole	-10.501846
tic	-10.501955
ക്കു	-10.501961
▁Алла	-10.502246
ജ	-10.502374
rag	-10.502818
nal	-10.502949
▁kali	-10.503269
dak	-10.503702
bbli	-10.504496
▁ഒരു	-10.504992
maga	-10.505062
ണ്ട	-10.505164
misa	-10.505182
TE	-10.505336
▁ᎥᏝ	-10.505788
ห	-10.505923
rai	-10.506179
▁rahi	-10.506269
న్న	-10.506310
▁কৰা	-10.506413
ിച്ച	-10.506473
ക്ഷ	-10.506544
▁ula	-10.506561
او	-10.507020
bara	-10.507053
▁rar	-10.507092
▁fel	-10.507396
▁tha	-10.507484
qe	-10.507490
రా	-10.507641
▁بوون	-10.507674
▁کرتے	-10.507836
lun	-10.508013
uin	-10.508050
න්න	-10.508201
▁mg	-10.508281
ubu	-10.508831
ኖ	-10.508859
け	-10.508993
ció	-10.509139
мат	-10.509412
कर	-10.509480
luka	-10.509658
mä	-10.509697
▁нас	-10.510141
خش	-10.510176
ىسى	-10.510633
soq	-10.510695
▁vona	-10.510859
▁exp	-10.511355
▁እን	-10.511425
ખ	-10.511485
▁வி	-10.511494
▁ଅ	-10.511633
▁Nama	-10.511670
peri	-10.511810
▁tiko	-10.511915
▁fua	-10.511926
گەن	-10.512261
šanas	-10.512474
дык	-10.512505
▁бел	-10.512636
▁ପ	-10.512659
ამ	-10.512729
bali	-10.513049
▁وي	-10.513101
où	-10.513282
rana	-10.513333
▁នឹង	-10.513418
stand	-10.513492
خه	-10.513627
oor	-10.513772
▁maha	-10.514355
çe	-10.514372
▁ik	-10.514469
ota	-10.514915
นี้	-10.515206
ps	-10.515322
ით	-10.515426
▁៖	-10.515587
ಟ	-10.515738
▁Xikwembu	-10.515973
gne	-10.516197
▁που	-10.516327
ံ	-10.516451
eza	-10.516694
▁кара	-10.516855
も	-10.517052
ತ್ತ	-10.517360
naka	-10.517468
tuma	-10.517513
лӗ	-10.517528
▁cßaßru	-10.517726
还	-10.517729
▁fana	-10.518040
▁ຫ	-10.518092
▁რა	-10.518129
ښ	-10.518131
▁Ꮔ	-10.518286
▁mili	-10.518743
ព	-10.518884
ంగా	-10.518921
सा	-10.518943
nà	-10.518958
▁Ndi	-10.519510
mula	-10.519571
▁otro	-10.519904
awo	-10.520103
▁Ե	-10.520360
డి	-10.520596
dom	-10.520783
ဝ	-10.520952
kiri	-10.521085
▁Ә	-10.521397
ƒe	-10.521517
bwi	-10.521561
pá	-10.521617
▁komp	-10.521848
▁amene	-10.521958
raoi	-10.522079
ଚ	-10.522188
бер	-10.522247
त्	-10.522260
EL	-10.522407
ਦਾ	-10.522974
ధ	-10.522979
dhi	-10.523177
▁mati	-10.523444
ая	-10.523542
内	-10.523685
ົ	-10.523832
âl	-10.524072
▁ත	-10.524237
oka	-10.524266
▁taku	-10.524302
会议	-10.524462
তে	-10.524546
رة	-10.524704
▁riki	-10.524791
▁నా	-10.525415
▁mû	-10.525480
ные	-10.525531
tira	-10.525668
▁ລາວ	-10.525857
.1	-10.526036
▁kati	-10.526196
آ	-10.526612
tò	-10.526630
kua	-10.526785
eß	-10.526943
▁ਨੇ	-10.526962
kay	-10.527066
әт	-10.527195
13	-10.527297
ན་	-10.527402
кан	-10.527417
يد	-10.527505
king	-10.527642
▁Улар	-10.527661
nso	-10.527691
▁zijn	-10.527891
лардан	-10.528062
ပ်	-10.528179
▁စ	-10.528202
▁maysa	-10.528356
تل	-10.528490
ڵه	-10.528499
ых	-10.528576
ම්	-10.528584
pel	-10.528749
▁onye	-10.528872
skri	-10.529060
rung	-10.529314
▁amb	-10.529756
కి	-10.529887
سل	-10.529999
受	-10.530087
▁фӕ	-10.530144
rah	-10.530169
▁upp	-10.530588
став	-10.530622
ચ	-10.530628
poq	-10.530676
▁pres	-10.530777
▁ត្រូវ	-10.530815
рен	-10.530895
▁zva	-10.530951
▁չ	-10.531077
èn	-10.531091
gama	-10.531113
▁36	-10.531194
▁ké	-10.531400
▁ան	-10.531484
▁Tôi	-10.531867
ულ	-10.532040
这	-10.532062
▁17.	-10.532065
ið	-10.532082
ਦ	-10.532370
ами	-10.532378
▁ក្នុង	-10.532529
▁ھا	-10.532651
رب	-10.532713
ыд	-10.532884
kina	-10.532956
▁ё	-10.533077
ندڙ	-10.533150
▁Dis	-10.533198
▁他	-10.533212
נו	-10.533437
αν	-10.533569
联合国	-10.533714
قد	-10.534167
▁gid	-10.534233
▁የሆዋ	-10.534738
kala	-10.534740
hlu	-10.534834
▁ila	-10.534875
こ	-10.534964
▁or	-10.535256
▁تە	-10.535624
رت	-10.535763
▁muli	-10.535837
rij	-10.535911
ным	-10.535918
ལ་	-10.536032
യാ	-10.536214
▁oli	-10.536503
▁ਚ	-10.536505
det	-10.536511
▁ခဲ့	-10.536533
▁đi	-10.536720
ल्या	-10.536851
▁için	-10.536958
қи	-10.537057
maan	-10.537091
ದಲ್ಲಿ	-10.537695
nel	-10.537820
▁پو	-10.537966
ష	-10.538156
Me	-10.538175
cal	-10.538199
ײַ	-10.538313
ador	-10.538535
ив	-10.538568
▁طرف	-10.539158
前	-10.539215
lā	-10.539243
ალ	-10.539297
်	-10.539688
▁nin	-10.539695
▁ан	-10.540069
▁ntango	-10.540199
▁الس	-10.540542
ża	-10.540651
▁1)	-10.540790
die	-10.541324
ɖo	-10.541563
లా	-10.541589
ਜ਼	-10.541819
ವಾಗಿ	-10.542107
cos	-10.542151
lò	-10.542175
▁bai	-10.542201
▁sto	-10.542282
വാ	-10.542359
cce	-10.542697
▁col	-10.542825
▁8,	-10.543508
▁тата	-10.543863
▁یه	-10.543961
ସ	-10.544207
▁ale	-10.544274
▁mbo	-10.544434
Ba	-10.544581
▁ᎨᏒᎢ	-10.544850
▁шә	-10.545030
TO	-10.545040
▁Ε	-10.545099
iñ	-10.545176
▁faata	-10.545302
tino	-10.545385
sim	-10.545387
ement	-10.545412
▁60	-10.545432
▁эле	-10.545986
▁Musa	-10.546172
▁ပ	-10.546402
き	-10.546520
nke	-10.546579
▁Ano	-10.546613
siya	-10.546878
рин	-10.546901
度	-10.547036
很	-10.547307
шу	-10.547335
ඩ	-10.547863
▁eku	-10.548221
▁ezin	-10.548266
وع	-10.548455
ူ	-10.548536
▁cur	-10.548761
▁nji	-10.548792
̃	-10.548837
▁bat	-10.548853
▁ख	-10.548906
▁đó	-10.548995
名	-10.549113
ās	-10.549144
▁вид	-10.549250
▁буд	-10.549417
▁«%	-10.549568
▁wie	-10.549655
▁хүн	-10.549866
▁дӕр	-10.549931
ಿಂದ	-10.550016
tiva	-10.550251
▁hei	-10.550323
▁ئۇلارغا	-10.550537
guna	-10.550970
而	-10.551209
▁Ж	-10.551251
▁Бас	-10.551337
▁16:	-10.551398
▁aha	-10.551455
дән	-10.552012
лат	-10.552058
solo	-10.552151
EK	-10.552223
för	-10.552362
ää	-10.552590
ቸው	-10.552674
خا	-10.553030
rdi	-10.553060
▁post	-10.553097
▁mari	-10.553338
ҙе	-10.553348
ζ	-10.553452
شه	-10.553561
▁diad	-10.553593
ော	-10.553703
▁só	-10.553850
tica	-10.553902
بو	-10.553947
ก็	-10.554344
▁უ	-10.554888
▁Han	-10.555099
▁بوو	-10.555175
▁тү	-10.555214
▁ро	-10.555379
әк	-10.555444
ቶ	-10.555560
▁ຜູ້	-10.555681
▁ու	-10.555691
rap	-10.555736
▁Jewova	-10.555963
hir	-10.556035
▁qual	-10.556050
BAR	-10.556221
▁ניט	-10.556254
ət	-10.556304
各	-10.556485
▁saka	-10.556543
سم	-10.556623
фа	-10.556719
нан	-10.556890
loo	-10.557063
ibwa	-10.557227
май	-10.557328
së	-10.557408
▁ຈາກ	-10.557506
رات	-10.557550
▁ïa	-10.557888
like	-10.557996
нӗ	-10.558002
▁ekki	-10.558311
ዩ	-10.558402
▁דעם	-10.558489
▁té	-10.558739
ండ	-10.558815
лас	-10.558818
ின்	-10.558823
▁ते	-10.558887
▁кеше	-10.558942
vā	-10.559546
ٿ	-10.559559
▁لوگ	-10.559643
ټ	-10.560596
▁prze	-10.560597
ែ	-10.560709
▁ito	-10.560711
baga	-10.560779
ውን	-10.560906
▁2)	-10.560972
▁ئو	-10.561173
ык	-10.561500
位	-10.561728
τι	-10.561858
dla	-10.561968
Ᏸ	-10.562007
nych	-10.562094
▁це	-10.562150
kila	-10.562158
▁leis	-10.562200
ҙә	-10.562500
▁popul	-10.562554
rü	-10.562642
meli	-10.562848
turi	-10.562855
hua	-10.562908
ᏰᏃ	-10.563090
全	-10.563690
▁nekk	-10.563699
–	-10.563845
శ	-10.564020
wala	-10.564127
▁stra	-10.564174
өт	-10.564726
▁näme	-10.564735
тон	-10.564827
ӕг	-10.564906
▁والا	-10.564916
್ರ	-10.565218
В	-10.565967
inde	-10.566045
▁ਹੋ	-10.566545
▁bizin	-10.566670
▁биз	-10.566750
件	-10.566931
тап	-10.567048
laryň	-10.567244
▁avek	-10.567266
▁ನಿ	-10.567274
iriza	-10.567324
▁gal	-10.567414
RE	-10.567418
▁တယ်	-10.567573
期	-10.567657
бы	-10.567739
▁dili	-10.567884
rka	-10.568053
▁aomata	-10.568435
▁यहोवा	-10.568519
ු	-10.568580
▁taa	-10.568701
▁hā	-10.568763
▁ເຂົາ	-10.568803
eko	-10.568901
dị	-10.569004
▁Tohi	-10.569139
ndar	-10.569482
▁لئے	-10.569511
ван	-10.569897
▁inuu	-10.570007
▁دیا	-10.570203
▁ជ	-10.570252
SE	-10.570390
▁7,	-10.570484
▁នេះ	-10.570650
信	-10.570651
lich	-10.570677
▁gar	-10.570859
ṣé	-10.571005
▁ᎠᏂ	-10.571029
▁ი	-10.571129
gay	-10.571156
▁cô	-10.571196
аар	-10.571553
▁ພະອົງ	-10.571647
▁Kana	-10.571691
AT	-10.571771
යා	-10.571783
sı	-10.571864
ኸ	-10.571939
▁Kua	-10.572248
▁булган	-10.572457
gina	-10.572487
க்கு	-10.572487
ақ	-10.572672
▁được	-10.572929
eɣ	-10.572986
▁não	-10.573044
▁ја	-10.573727
tig	-10.573782
▁mini	-10.573872
ings	-10.573936
▁produ	-10.574006
▁manatu	-10.574064
fec	-10.574201
▁ਅਤੇ	-10.574785
▁but	-10.574969
unu	-10.574996
▁تمام	-10.575053
ool	-10.575070
gla	-10.575145
▁bahaw	-10.575213
ங்கள	-10.575256
▁ຮັບ	-10.575373
kkut	-10.575543
բ	-10.575755
ash	-10.575835
▁pelā	-10.575857
▁Ní	-10.575965
tü	-10.576291
encia	-10.576401
pus	-10.576478
тив	-10.576585
▁ngāue	-10.576787
▁Cho	-10.576891
йн	-10.577001
▁pè	-10.577052
แล้ว	-10.577073
யா	-10.577251
sid	-10.577432
ယ်	-10.577641
een	-10.577680
▁ind	-10.577989
ndlela	-10.578141
▁кол	-10.578211
acht	-10.578220
▁болур	-10.578237
▁Far	-10.578309
▁lya	-10.578390
▁қо	-10.578614
лары	-10.578640
่	-10.578804
bong	-10.579109
ҳәа	-10.579118
പ്പ	-10.579120
eš	-10.579219
▁ነው	-10.579290
天	-10.579512
қәа	-10.579699
ius	-10.579791
يى	-10.579794
kù	-10.580070
лап	-10.580364
bad	-10.580651
▁Petara	-10.580727
lega	-10.580741
fir	-10.581139
KO	-10.581156
bera	-10.581161
▁тә	-10.581174
▁nit	-10.581310
▁жана	-10.581490
▁II	-10.581655
▁Christ	-10.581884
لارنى	-10.582002
ների	-10.582512
▁سب	-10.582642
▁ges	-10.582659
▁cara	-10.582764
لىرىنى	-10.582826
▁Hudaýyň	-10.583055
हा	-10.583056
▁худ	-10.583192
▁mahi	-10.583257
wij	-10.583447
▁ਲਈ	-10.583554
lë	-10.583561
ние	-10.583762
ýän	-10.584066
▁naj	-10.584550
sser	-10.584551
▁45	-10.584688
▁ann	-10.584737
nali	-10.584843
▁thu	-10.584860
ված	-10.584872
ുന്ന	-10.585045
õl	-10.585134
flu	-10.585922
▁Ө	-10.586000
گر	-10.586147
waka	-10.586396
加	-10.586530
oto	-10.586589
ләре	-10.586590
▁cikin	-10.586617
ību	-10.586639
hita	-10.586676
ನೆ	-10.586686
ంత	-10.586795
▁nona	-10.586827
bor	-10.586828
дик	-10.587009
▁Ihowa	-10.587017
ಗಳನ್ನು	-10.587024
▁Au	-10.587174
مو	-10.587216
▁mú	-10.587226
▁ando	-10.587268
▁న	-10.587295
里	-10.587465
▁даа	-10.587723
▁билан	-10.587831
πο	-10.588039
נט	-10.588091
▁ដោយ	-10.588161
▁cre	-10.588885
▁ᎤᎾ	-10.589171
yamba	-10.589240
نها	-10.589269
niň	-10.589425
▁Sidn	-10.589542
PA	-10.589771
lement	-10.589852
ence	-10.590046
▁Се	-10.590145
हि	-10.590296
basa	-10.590343
▁akk	-10.590471
▁Vu	-10.591164
gung	-10.591329
ില്ല	-10.591334
▁papa	-10.591401
▁wõt	-10.591647
KA	-10.591911
▁бас	-10.591920
ല്	-10.592406
▁dhi	-10.592505
bba	-10.592560
atan	-10.592617
од	-10.592717
▁એ	-10.592798
ξ	-10.592837
应	-10.592937
िक	-10.592955
here	-10.593027
▁sch	-10.593274
yuda	-10.593368
dio	-10.593439
▁vel	-10.593488
▁Dominus	-10.593533
ତ	-10.593902
▁ສິ່ງ	-10.593969
▁Бо	-10.594040
▁Ban	-10.594154
▁pò	-10.594264
dha	-10.594345
▁nuo	-10.594406
▁niet	-10.594414
▁ađ	-10.594610
▁tij	-10.595063
▁CD	-10.595301
ddu	-10.595320
ئۆ	-10.595461
uwa	-10.595748
▁moto	-10.595848
▁კ	-10.595929
dim	-10.596057
pang	-10.596176
tzß	-10.596361
▁کوئی	-10.596375
မ်း	-10.596405
▁öz	-10.596435
hamba	-10.596594
▁ਉ	-10.596629
тӥ	-10.596632
ја	-10.596691
ture	-10.596724
▁kaya	-10.596790
xt	-10.596808
▁ਆ	-10.597108
azzjoni	-10.597172
▁Kau	-10.597322
ір	-10.597505
nica	-10.597609
нә	-10.597676
ӳ	-10.597757
ном	-10.597758
▁wara	-10.598007
▁eki	-10.598010
assa	-10.598195
инг	-10.598478
قر	-10.598535
яр	-10.598757
▁యెహోవా	-10.598786
মা	-10.598853
▁qai	-10.598877
ош	-10.598967
▁kä	-10.598981
ugu	-10.599227
มัน	-10.599345
лю	-10.599498
▁च	-10.599557
▁ons	-10.599884
▁تۇر	-10.599924
rze	-10.600146
▁waxaa	-10.600210
αι	-10.600415
▁رہ	-10.600490
нов	-10.600546
▁Sal	-10.600576
mah	-10.601048
Ꮴ	-10.601152
lung	-10.601250
▁tona	-10.601265
言	-10.601695
▁tout	-10.601937
▁lâin	-10.601981
Ꮨ	-10.602012
ifi	-10.602104
25	-10.602201
▁taua	-10.602209
▁NW	-10.602212
▁چه	-10.602221
▁kot	-10.602300
▁come	-10.602320
ação	-10.602336
GA	-10.602338
щ	-10.602926
▁iho	-10.602977
ः	-10.603187
▁kanggo	-10.603189
▁ав	-10.603215
ema	-10.603395
ник	-10.603458
ซ	-10.603626
tivo	-10.603814
ڕا	-10.603846
物	-10.603922
▁bata	-10.603928
gere	-10.603991
ř	-10.604053
زو	-10.604076
▁doon	-10.604115
▁yô	-10.604332
చ	-10.604340
ड़	-10.604373
▁gün	-10.604490
mint	-10.604877
Mwari	-10.604980
മാ	-10.605101
ctor	-10.605234
▁Chineke	-10.605249
▁2008	-10.605509
▁mü	-10.605628
▁ព	-10.605672
alt	-10.605678
▁2006	-10.605818
ኛ	-10.605844
▁dei	-10.605986
▁kya	-10.606149
әй	-10.606439
ME	-10.606470
rey	-10.606551
խ	-10.606673
ому	-10.606877
је	-10.607096
え	-10.607109
vr	-10.607111
ھن	-10.607116
orum	-10.607221
bej	-10.607288
那	-10.607376
ائين	-10.607470
kul	-10.607638
▁vien	-10.607752
kl	-10.607765
toj	-10.607786
tana	-10.607894
хоҳ	-10.607955
▁ჟ	-10.607980
bur	-10.608137
στ	-10.608211
▁undo	-10.608287
hur	-10.608955
▁posi	-10.608970
▁dell	-10.609088
▁tab	-10.609216
hl	-10.609445
మైన	-10.609456
է	-10.609533
pti	-10.609612
иг	-10.609706
▁iş	-10.609715
прав	-10.609774
ಸ್	-10.609813
она	-10.609856
▁nwere	-10.609936
▁panang	-10.610005
tī	-10.610394
▁tera	-10.610468
wali	-10.610667
▁nyonso	-10.610721
ستی	-10.610881
сыз	-10.611176
▁2004	-10.611220
zz	-10.611364
高	-10.611457
ade	-10.611743
amento	-10.611814
▁हैं	-10.611849
▁کرنے	-10.611941
сэн	-10.612015
kia	-10.612044
ष	-10.612133
kra	-10.612264
EF	-10.612273
报告	-10.612494
beni	-10.612524
ైన	-10.612547
▁ele	-10.612925
hold	-10.613160
ئے	-10.613454
▁ద	-10.613478
нь	-10.613647
▁بىل	-10.613780
lana	-10.613976
▁Ин	-10.613978
lembe	-10.614077
▁ት	-10.614191
▁dir	-10.614256
tsha	-10.614437
▁obi	-10.614491
tã	-10.614580
ity	-10.614619
τη	-10.614987
లి	-10.615077
▁هر	-10.615163
lina	-10.615574
مي	-10.615596
▁жи	-10.615678
kus	-10.615801
▁ئۆز	-10.616141
ගේ	-10.616155
rê	-10.616381
特	-10.616488
زان	-10.616524
▁làm	-10.616808
▁ਸੀ	-10.616887
unda	-10.616890
ნი	-10.617072
ани	-10.617578
▁өөр	-10.617747
▁人	-10.617808
ాడు	-10.617852
▁پيغمبر	-10.617998
▁在	-10.618015
▁bra	-10.618174
ခ	-10.618258
▁hel	-10.618307
▁До	-10.618649
▁ቅዱስ	-10.618740
sche	-10.618814
kata	-10.618962
ċe	-10.619040
议	-10.619073
▁ແຕ່	-10.619075
uv	-10.619181
▁των	-10.619213
ර්	-10.619410
ۇپ	-10.619487
▁yìí	-10.619488
80	-10.619594
zé	-10.619771
شا	-10.619963
正	-10.620094
▁съ	-10.620464
vut	-10.620507
▁عذاب	-10.620533
ੀਆਂ	-10.620718
skap	-10.620724
▁Си	-10.620748
▁ಮಾಡ	-10.620938
mie	-10.620947
áil	-10.621041
▁तर	-10.621043
▁rí	-10.621065
▁мӗн	-10.621630
▁Mana	-10.621714
▁2000	-10.621718
▁ذ	-10.621861
▁Sh	-10.622282
▁пӗр	-10.622297
▁ካብ	-10.622498
▁ថា	-10.622929
▁الع	-10.623061
zera	-10.623138
▁quae	-10.623253
▁цы	-10.623295
▁حه	-10.623312
ുള്ള	-10.623488
▁ᎤᏂ	-10.623549
▁lia	-10.623693
éego	-10.624021
▁も	-10.624022
יק	-10.624463
做	-10.624579
ρο	-10.624772
py	-10.624785
្ល	-10.624800
▁semua	-10.624882
нер	-10.624992
ス	-10.625332
▁כ	-10.625366
ધ	-10.625630
singa	-10.625802
kup	-10.625946
shin	-10.625998
້າ	-10.626034
KE	-10.626302
▁Nak	-10.626444
▁Ис	-10.626527
kii	-10.626687
▁lä	-10.626909
▁اي	-10.627121
ố	-10.627228
്യ	-10.627327
ơ	-10.627730
▁Ти	-10.628011
▁менән	-10.628132
▁2007	-10.628234
▁ɖe	-10.628259
▁কৰক	-10.628341
▁خواهد	-10.628347
сте	-10.628404
次	-10.628484
вы	-10.628614
eur	-10.628739
եւ	-10.628754
եմ	-10.628769
jal	-10.629045
▁Dr	-10.629262
▁udah	-10.629284
դ	-10.629360
MP	-10.629370
▁ਦ	-10.629427
▁pal	-10.629433
▁manma	-10.629608
рам	-10.629654
Г	-10.629847
хы	-10.629965
дө	-10.630072
ọrọ	-10.630205
▁Waay	-10.630312
ું	-10.630342
lda	-10.630819
രു	-10.631336
дэг	-10.631443
ēt	-10.631549
一个	-10.631595
▁iyang	-10.631670
▁zya	-10.631743
▁වි	-10.631775
ڏ	-10.632126
▁plus	-10.632333
ym	-10.632701
là	-10.632718
ಗಳು	-10.632839
▁gö	-10.632930
veni	-10.632950
▁chúng	-10.632956
ibi	-10.633070
▁auala	-10.633450
來	-10.633487
▁Iz	-10.633549
ອ	-10.633591
тӑр	-10.633663
▁espiritu	-10.633916
▁artikel	-10.633937
ພ	-10.634697
▁пра	-10.634997
хо	-10.635004
maka	-10.635006
▁tix	-10.635409
▁ነቲ	-10.635412
ood	-10.635543
دىكى	-10.635598
▁vari	-10.635679
ୀ	-10.635754
▁malo	-10.635838
ôl	-10.636080
▁مرد	-10.636082
▁mapa	-10.636559
hang	-10.636636
ړ	-10.636653
▁گھر	-10.636685
▁ڪري	-10.637039
zali	-10.637076
eva	-10.637182
▁bere	-10.637310
ക്	-10.637390
家	-10.637559
ፋ	-10.637577
heid	-10.637712
risi	-10.638271
▁Yi	-10.638338
▁18:	-10.638476
▁kaba	-10.638518
ထ	-10.638550
entes	-10.638575
تي	-10.638778
▁wid	-10.638972
pun	-10.639046
دي	-10.639845
▁qanoq	-10.640016
ელი	-10.640032
zwi	-10.640056
▁mâ	-10.640228
ில்	-10.640254
jun	-10.640366
uto	-10.640374
ania	-10.640621
mail	-10.640644
ҵа	-10.640709
Ο	-10.640777
yang	-10.640791
ىپ	-10.640859
hor	-10.641047
▁spo	-10.641209
ार	-10.641552
twa	-10.641709
ால்	-10.641921
▁gì	-10.641952
▁uru	-10.642017
রা	-10.642035
ვა	-10.642099
▁imo	-10.642102
▁Non	-10.642184
▁kapa	-10.642193
▁شه	-10.642220
▁എന്ന	-10.642365
▁బ	-10.642447
▁भ	-10.642855
▁toj	-10.642879
▁todo	-10.642935
▁Paulus	-10.643312
ული	-10.643510
▁anali	-10.643555
کا	-10.643733
▁خوای	-10.643862
sty	-10.644183
ında	-10.644244
रो	-10.644262
աղ	-10.644526
▁Ez	-10.644790
rab	-10.644882
▁Gal	-10.644998
▁manga	-10.645138
mili	-10.645161
că	-10.645266
өл	-10.645460
▁Ino	-10.645684
▁Sha	-10.645716
▁អាច	-10.646009
▁हे	-10.646070
рд	-10.646100
ᏗᏱ	-10.646416
▁sistema	-10.646502
▁oco	-10.646523
▁Ан	-10.646607
▁amu	-10.646715
▁izy	-10.646772
▁15,	-10.646845
mod	-10.647074
nì	-10.647216
нине	-10.647290
合	-10.647433
کو	-10.647485
tya	-10.647590
▁toto	-10.647645
vuga	-10.647725
▁mina	-10.647963
susu	-10.647974
▁xam	-10.648439
бр	-10.648523
gno	-10.648620
▁bula	-10.648630
siku	-10.648655
ହ	-10.648735
▁այն	-10.648755
нал	-10.648768
ngin	-10.648783
ԥш	-10.648918
dė	-10.649030
තු	-10.649137
ถ	-10.649203
然	-10.649364
ിച്ചു	-10.649453
ías	-10.649657
▁është	-10.649670
маш	-10.649795
นั้น	-10.650296
▁ခြင်း	-10.650395
із	-10.650886
▁q	-10.650896
▁Isi	-10.651226
ыу	-10.651248
muli	-10.651320
▁Sy	-10.651327
▁или	-10.651395
siga	-10.651618
daw	-10.651728
▁Kor	-10.651793
lite	-10.651830
被	-10.651830
ræ	-10.652095
lara	-10.652138
▁jas	-10.652222
▁ます	-10.652336
iw	-10.652450
重	-10.652526
文	-10.652546
ข	-10.652575
gana	-10.652699
▁иа	-10.652896
ാണ്	-10.653032
▁ҡа	-10.653397
line	-10.653758
▁сам	-10.653823
▁אני	-10.654080
▁fram	-10.654319
жу	-10.654407
лӑх	-10.654465
▁şi	-10.654484
rán	-10.654546
ыт	-10.654583
▁situa	-10.654617
་པ	-10.654845
ура	-10.654885
ኒ	-10.654917
▁ປ	-10.655123
▁ont	-10.655251
్	-10.655300
▁nach	-10.655402
jali	-10.656096
кер	-10.656317
ไม่	-10.656359
ახ	-10.656554
▁ñõn	-10.656633
ndre	-10.656671
ურ	-10.656774
▁η	-10.656809
tten	-10.656812
▁bâ	-10.657098
▁вал	-10.657171
zı	-10.657555
கள்	-10.657578
▁ल	-10.657687
buhat	-10.657802
kker	-10.657898
kita	-10.658283
ル	-10.658329
ади	-10.658623
cam	-10.658806
▁darb	-10.659320
▁ໆ	-10.659383
щи	-10.659507
▁ಈ	-10.659834
DA	-10.660118
▁چون	-10.660120
wiri	-10.660192
туу	-10.660396
niya	-10.660634
14	-10.660654
ଳ	-10.660816
pot	-10.661387
▁вэ	-10.661434
ပါ	-10.661659
▁ange	-10.661706
▁más	-10.661708
▁Ми	-10.662029
och	-10.662335
cum	-10.662359
EG	-10.662363
▁lọ	-10.662410
ase	-10.662618
Da	-10.662628
▁aw	-10.662773
▁lagi	-10.662850
▁پێش	-10.662888
lō	-10.662955
▁Ҳа	-10.663183
bụ	-10.663261
ambi	-10.663416
ില്	-10.663550
DI	-10.663563
pek	-10.663640
▁EU	-10.663775
уч	-10.663794
рай	-10.663857
真	-10.663890
mēr	-10.663956
▁proces	-10.664005
dno	-10.664031
وب	-10.664411
vali	-10.664845
▁కా	-10.664931
▁aus	-10.665071
よ	-10.665141
ल्	-10.665296
jur	-10.665552
▁Шу	-10.665553
ധ	-10.666053
ಾಗಿ	-10.666284
bie	-10.666303
rian	-10.666432
maki	-10.666438
بل	-10.666506
▁ደ	-10.666558
▁шумо	-10.666562
éé	-10.666736
vala	-10.666950
ynda	-10.667336
▁Otuá	-10.667390
ther	-10.667809
doo	-10.667828
▁pir	-10.668015
къ	-10.668022
▁aý	-10.668041
lip	-10.668049
▁Mulungu	-10.668134
dhe	-10.668267
▁ə	-10.668372
kä	-10.668457
ır	-10.668487
дон	-10.668583
▁ş	-10.668676
vai	-10.668748
rn	-10.668887
кун	-10.669136
வை	-10.669149
بي	-10.669268
swe	-10.669275
शी	-10.669302
വര	-10.669363
已	-10.669565
心	-10.669589
▁дека	-10.669653
▁ça	-10.669701
▁ទៅ	-10.669743
ям	-10.669849
▁nax	-10.670177
าย	-10.670198
▁ವಿ	-10.670526
່າ	-10.670652
ាប់	-10.670683
ىمىز	-10.670696
▁ఆయన	-10.670710
▁xc	-10.670756
పా	-10.670793
▁ពី	-10.671036
▁сы	-10.671485
araa	-10.671739
kpɔ	-10.671923
dien	-10.672116
ast	-10.672138
lf	-10.672342
▁ой	-10.672420
De	-10.672503
tɔ	-10.672535
тэй	-10.672558
▁ass	-10.672603
shad	-10.672712
gor	-10.672828
▁bruk	-10.672937
▁नहीं	-10.673036
چه	-10.673037
వు	-10.673284
eu	-10.673550
▁nagpa	-10.673559
▁кӕй	-10.673700
ញ	-10.673938
▁سىلەرگە	-10.674071
ಾಯ	-10.674093
▁nequeß	-10.674263
▁makambo	-10.674563
ိုး	-10.674639
▁bë	-10.674874
ິດ	-10.675123
tag	-10.675130
▁base	-10.675263
▁Ýehowanyň	-10.675269
▁თ	-10.675364
▁22:	-10.675365
▁gur	-10.675392
▁Ü	-10.675426
esti	-10.675450
Ᏹ	-10.675594
▁või	-10.675941
▁кил	-10.676153
лам	-10.676412
ës	-10.676455
ჟ	-10.676488
▁नि	-10.676863
使	-10.677102
ថ	-10.677139
▁kodo	-10.677174
το	-10.677193
சி	-10.677320
▁кон	-10.677346
▁14,	-10.677407
ահ	-10.677853
▁cuiß	-10.678140
тэм	-10.678176
▁că	-10.678224
لة	-10.678243
▁tè	-10.678377
Di	-10.678509
▁Tau	-10.678514
▁ᎤᏁᎳᏅᎯ	-10.678726
▁Az	-10.678954
ാന	-10.679253
▁bare	-10.679406
▁kra	-10.679566
దా	-10.679571
khala	-10.679719
▁pred	-10.679762
▁auto	-10.679837
▁kam	-10.679852
ệ	-10.679877
ını	-10.679916
▁Bya	-10.680112
tama	-10.680304
▁21:	-10.680421
▁από	-10.680497
▁फ	-10.680608
vre	-10.680629
▁гэж	-10.680632
ange	-10.681074
▁ਇਸ	-10.681334
ungen	-10.681520
▁үл	-10.681760
hlo	-10.681875
rere	-10.681966
▁Comment	-10.682126
чен	-10.682147
Te	-10.682178
▁ა	-10.682178
17	-10.682198
ור	-10.682248
ең	-10.682541
▁ayo	-10.682686
▁Tama	-10.682790
▁Йәһвә	-10.682856
rug	-10.682932
ক্ষ	-10.683016
▁pun	-10.683054
ਰਾ	-10.683092
▁все	-10.683267
ido	-10.683286
▁está	-10.683448
▁Yehovha	-10.683493
fici	-10.683702
▁సం	-10.683843
ന്നു	-10.683848
rig	-10.683874
ਧ	-10.683924
▁বা	-10.684085
▁waar	-10.684097
នា	-10.684349
▁3)	-10.684420
▁zvaka	-10.684640
đu	-10.684683
▁idi	-10.684694
▁ngoi	-10.684703
funa	-10.684943
koli	-10.685021
▁Che	-10.685133
IT	-10.685239
[	-10.685585
▁ခ	-10.685812
▁iyi	-10.685863
49	-10.685971
acha	-10.686021
ຫ	-10.686053
som	-10.686336
过	-10.686347
▁ئې	-10.686398
▁hana	-10.686443
▁dro	-10.686454
▁resulta	-10.686473
さ	-10.686484
▁ƙ	-10.686550
▁2009	-10.686555
န်း	-10.686620
▁दि	-10.686873
▁God	-10.686968
▁2005	-10.686991
▁paka	-10.687125
▁ጥ	-10.687181
ଶ	-10.687483
▁өсөн	-10.687515
▁19:	-10.687534
առ	-10.687601
laj	-10.687679
▁tag	-10.687807
ڕی	-10.688148
▁bari	-10.688203
tom	-10.688394
▁20:	-10.688396
ធ	-10.688402
جل	-10.688497
GenericName	-10.688602
ígíí	-10.688722
ଖ	-10.688763
การ	-10.688972
▁ส	-10.689088
ства	-10.689180
нәр	-10.689199
▁mada	-10.689221
না	-10.689334
az	-10.689386
mã	-10.689427
लि	-10.689751
▁Հ	-10.689899
گی	-10.690085
▁tun	-10.690191
pata	-10.690259
▁قو	-10.690261
lad	-10.690315
ելու	-10.690321
ига	-10.690364
▁foi	-10.690365
▁ຄໍາ	-10.690377
ключ	-10.690391
дел	-10.690403
▁Π	-10.690435
▁არ	-10.690730
ဆ	-10.690885
▁ມ	-10.691147
▁ላይ	-10.691198
▁ທ	-10.691590
ним	-10.691611
▁ග	-10.691746
▁Би	-10.691817
▁tusi	-10.691899
ıl	-10.692029
ets	-10.692130
tū	-10.692143
▁ដ	-10.692232
▁ໂ	-10.692564
▁گو	-10.692664
▁lowu	-10.692679
▁ແ	-10.692764
▁kale	-10.692777
▁Pas	-10.692878
▁”?	-10.693061
▁ani	-10.693327
▁ፍ	-10.693426
tero	-10.693493
тал	-10.693501
ngwa	-10.693541
дай	-10.693545
小	-10.693571
▁faapea	-10.693914
лыҡ	-10.693939
nung	-10.694066
jiet	-10.694084
θε	-10.694134
▁faia	-10.694273
▁ထ	-10.694282
▁Nr	-10.694396
▁վ	-10.694446
кс	-10.694494
▁ሕ	-10.694543
立	-10.694700
კა	-10.694910
▁meng	-10.695283
rau	-10.695315
lyg	-10.695338
pos	-10.695862
▁ඇ	-10.695969
ໄ	-10.696153
اند	-10.696450
▁mod	-10.696534
ண்ட	-10.696543
ết	-10.696614
zyo	-10.696749
▁nzi	-10.696759
▁သော	-10.696853
▁Ik	-10.696859
ху	-10.696958
cial	-10.697206
▁mosusu	-10.697207
mem	-10.697233
yà	-10.697345
pakita	-10.697580
▁قىلىش	-10.697659
▁rib	-10.697854
▁sei	-10.697856
▁ee	-10.698164
▁bre	-10.698247
try	-10.698294
uia	-10.698345
ско	-10.698494
گو	-10.698548
▁អ្វី	-10.698578
imh	-10.698615
Ꭵ	-10.698738
RO	-10.698746
த்து	-10.698894
rok	-10.698939
▁Nie	-10.698954
▁និង	-10.699062
ӡа	-10.699209
▁paagi	-10.699243
▁بێت	-10.699306
▁ने	-10.699327
gawa	-10.699359
ौ	-10.699385
▁Í	-10.699431
luk	-10.699466
▁Daniel	-10.699579
sio	-10.699580
▁Qa	-10.699779
وار	-10.699896
▁១	-10.699955
дам	-10.700119
▁38	-10.700152
rav	-10.700380
▁bli	-10.700476
iba	-10.700719
රි	-10.700858
▁nai	-10.700863
ər	-10.700889
▁طرح	-10.701168
ທ	-10.701304
uza	-10.701320
lõñ	-10.701324
dini	-10.701492
nio	-10.701545
▁muku	-10.701633
▁fiafia	-10.701704
わ	-10.701821
▁kupu	-10.701993
misi	-10.702513
బ	-10.702651
▁teßx	-10.702681
cat	-10.702686
▁tamin	-10.702692
рга	-10.702711
ۇش	-10.702826
▁Жа	-10.702962
mara	-10.703079
كه	-10.703214
rant	-10.703480
ുക	-10.703525
▁کين	-10.703625
ัง	-10.703629
jų	-10.703638
ਵ	-10.703650
uc	-10.703698
వే	-10.704114
bana	-10.704203
▁dre	-10.704301
що	-10.704363
ться	-10.704380
לע	-10.704425
▁ஒரு	-10.704436
lei	-10.704490
案	-10.704821
▁Албатта	-10.705019
▁def	-10.705033
hoo	-10.705094
igh	-10.705565
▁hun	-10.705608
rita	-10.705696
▁ƒe	-10.705757
lagi	-10.705878
▁ದ	-10.705928
▁mig	-10.705965
iche	-10.706060
▁Ph	-10.706098
▁pule	-10.706260
ڙي	-10.706268
▁dokument	-10.706283
elt	-10.706303
ӡ	-10.706303
ર્	-10.706346
று	-10.706524
reke	-10.706830
▁bisi	-10.706855
▁jab	-10.707380
ipa	-10.707612
uz	-10.707636
▁Maka	-10.707840
▁naton	-10.708224
תי	-10.708255
▁Mer	-10.708286
▁pak	-10.708374
ofo	-10.708528
▁نو	-10.708809
ice	-10.709085
▁ఉ	-10.709104
pere	-10.709105
表	-10.709121
▁келтир	-10.709201
▁Are	-10.709222
▁ص	-10.709249
▁mani	-10.709271
▁Komisija	-10.709962
سو	-10.710162
▁وا	-10.710491
▁Kar	-10.710569
学	-10.710945
hú	-10.711295
▁روز	-10.711340
É	-10.711452
▁fol	-10.711491
ibus	-10.711494
ည်	-10.711529
ଦ	-10.711649
fwa	-10.711991
▁nk	-10.712011
▁anne	-10.712660
нда	-10.712849
вед	-10.712991
hatag	-10.713001
работ	-10.713055
▁Ꮪ	-10.713099
▁Jiova	-10.713458
ST	-10.713571
▁maitai	-10.713865
င	-10.713869
об	-10.713975
▁уи	-10.714002
ана	-10.714026
▁воз	-10.714034
▁пур	-10.714046
gua	-10.714054
ონ	-10.714139
▁koya	-10.714460
▁sul	-10.714482
تە	-10.714509
▁lotu	-10.714533
үп	-10.714653
ቐ	-10.714715
▁उस	-10.714916
▁jeh	-10.714972
lö	-10.715028
▁мә	-10.715124
hem	-10.715282
ill	-10.715385
▁siya	-10.715412
егез	-10.715756
ىش	-10.715802
▁taka	-10.715877
▁እንተ	-10.715905
▁wis	-10.715973
ായ	-10.716241
▁matu	-10.716410
▁ngem	-10.716897
▁Ali	-10.717028
คุณ	-10.717116
aidh	-10.717147
كان	-10.717287
дилар	-10.717326
▁lie	-10.717404
క్ష	-10.717625
fé	-10.717751
ഴ	-10.717841
ազ	-10.717890
▁4)	-10.717974
▁numa	-10.718016
ól	-10.718182
▁sak	-10.718245
▁Биз	-10.718284
▁គ	-10.718330
aina	-10.718381
ហ	-10.718469
▁い	-10.718515
75	-10.718730
つ	-10.718832
ందు	-10.719052
ंग	-10.719492
ေး	-10.719506
raz	-10.719508
ados	-10.719674
▁こと	-10.719745
ති	-10.719899
▁না	-10.719944
riri	-10.719994
nama	-10.720098
▁ਉਸ	-10.720244
သို့	-10.720483
▁Ꮥ	-10.720577
保	-10.720641
ဒ	-10.720678
▁2010	-10.720751
▁เ	-10.720902
▁nofo	-10.721031
gur	-10.721108
▁eine	-10.721154
▁apo	-10.721256
▁ime	-10.721308
কা	-10.721323
ӕр	-10.721431
▁جيڪڏھ	-10.721806
ullu	-10.722085
med	-10.722383
ኑ	-10.722447
▁#	-10.722584
ларини	-10.722614
ṭ	-10.722930
▁တွေ	-10.723010
▁ඒ	-10.723030
ego	-10.723055
Ku	-10.723137
▁Noonu	-10.723161
向	-10.723303
شان	-10.723518
ର୍	-10.723528
▁sai	-10.723566
▁sá	-10.723681
ក្រ	-10.723682
▁Har	-10.723771
▁ڪيو	-10.723816
tonu	-10.724245
▁ਨਾਲ	-10.724397
жээ	-10.724431
▁ئەگە	-10.724480
▁不	-10.724545
▁wò	-10.724559
ες	-10.724596
bhe	-10.724600
mh	-10.724942
mir	-10.725179
▁hito	-10.725289
▁Ү	-10.725410
nings	-10.725432
▁மு	-10.725616
▁við	-10.725790
лай	-10.725909
ći	-10.725933
قان	-10.726046
▁èèyàn	-10.726118
tif	-10.726284
▁Kristiano	-10.726293
▁hoe	-10.726346
వి	-10.726373
▁pana	-10.726387
01	-10.726445
tini	-10.726612
▁ਜ	-10.726633
▁юм	-10.726857
kos	-10.726982
▁18.	-10.727224
▁asa	-10.727305
ាយ	-10.727465
sach	-10.727749
iska	-10.728348
pó	-10.728602
▁kum	-10.728640
دة	-10.728822
▁mangi	-10.728915
них	-10.729516
No	-10.730008
gā	-10.730065
▁І	-10.730093
fal	-10.730228
கள	-10.730397
▁وت	-10.730691
▁tem	-10.730716
ləri	-10.730745
iraa	-10.730869
▁иде	-10.731170
ுக்கு	-10.731235
▁dig	-10.731318
ría	-10.731361
zzjonijiet	-10.731400
gir	-10.731474
zana	-10.731507
рә	-10.731708
учы	-10.731878
stav	-10.731936
ಿನ	-10.731939
▁waye	-10.732116
拉	-10.732129
టి	-10.732136
▁Ste	-10.732245
ọn	-10.732377
angan	-10.732438
方	-10.732618
▁ایمان	-10.732653
வு	-10.732739
▁mee	-10.732744
▁ix	-10.732780
▁Mag	-10.733327
اع	-10.733444
টি	-10.733713
▁mais	-10.733779
▁ໄປ	-10.733794
▁үчүн	-10.733960
▁ਭ	-10.734043
hanga	-10.734132
▁onder	-10.734310
sya	-10.734376
اں	-10.734630
ингиз	-10.734651
اج	-10.734678
▁afa	-10.734776
▁yra	-10.735058
kú	-10.735065
ват	-10.735236
ары	-10.735258
▁ги	-10.735281
્ય	-10.735560
▁dag	-10.735651
حا	-10.735657
▁ਗ	-10.735747
▁как	-10.735787
ዶ	-10.735805
ње	-10.735827
vir	-10.735925
▁ami	-10.736056
ול	-10.736061
ebe	-10.736084
▁ava	-10.736166
खा	-10.736340
▁जो	-10.736466
عه	-10.736476
▁پی	-10.736546
▁mark	-10.736702
ዚ	-10.736710
▁menu	-10.736756
▁ola	-10.736821
ကြ	-10.736860
ছে	-10.736886
شر	-10.736937
▁idin	-10.737108
▁Sen	-10.737126
rer	-10.737653
▁taute	-10.737847
anan	-10.737897
ແນວ	-10.738157
▁ਨਹੀਂ	-10.738157
▁sti	-10.738572
▁уч	-10.738598
үүл	-10.738767
nça	-10.738796
▁Nor	-10.738973
లను	-10.739131
MI	-10.739428
بین	-10.739521
▁impa	-10.739869
▁ພ	-10.739953
ans	-10.740184
▁ဆ	-10.740240
▁ע	-10.740253
▁Val	-10.740281
该	-10.740329
▁Ꮎ	-10.740412
ዱ	-10.740516
▁ego	-10.740828
лән	-10.740905
我们	-10.741005
بت	-10.741129
▁here	-10.741229
▁چونکه	-10.741452
▁otú	-10.741603
▁അവര്	-10.741648
lles	-10.741754
cla	-10.741789
were	-10.741999
meni	-10.742081
ڇ	-10.742111
ago	-10.742270
▁ამ	-10.742645
সে	-10.742787
▁aran	-10.743032
ங்கள்	-10.743182
▁kein	-10.743346
bone	-10.743349
نې	-10.743642
▁بو	-10.743693
rja	-10.743802
osi	-10.743962
▁ky	-10.744015
▁woku	-10.744075
miento	-10.744194
يت	-10.744198
tı	-10.744418
prim	-10.744571
▁ຂ	-10.744751
▁זה	-10.744879
▁تن	-10.744995
Ta	-10.745028
බ	-10.745179
▁Ir	-10.745220
üz	-10.745378
▁سندن	-10.745434
gó	-10.745610
பு	-10.745797
▁matou	-10.745918
▁Анцәа	-10.746128
▁Min	-10.746339
װ	-10.746442
ности	-10.746509
▁faama	-10.747038
▁fesoasoani	-10.747453
回	-10.747454
മു	-10.747504
šu	-10.747578
▁chix	-10.747692
▁fami	-10.747701
▁kugira	-10.747743
პა	-10.747929
▁pay	-10.748424
▁যা	-10.748596
алы	-10.748623
ую	-10.748703
▁Cor	-10.748732
bul	-10.749016
▁ဖြစ်	-10.749054
▁bh	-10.749187
ევ	-10.749329
▁mgbe	-10.749452
▁uno	-10.749544
dú	-10.749572
▁með	-10.749601
▁này	-10.749940
▁թ	-10.750366
▁Ку	-10.750780
▁נ	-10.750855
▁لوگوں	-10.750990
說	-10.751025
ари	-10.751161
▁সং	-10.751244
AM	-10.751338
sol	-10.751342
лд	-10.751355
һа	-10.751469
▁عن	-10.751544
▁шуыса	-10.751562
rent	-10.751647
ໍ	-10.751678
▁وسلم	-10.751708
зын	-10.751868
▁wãwen	-10.751878
లే	-10.751915
▁lain	-10.752079
▁գ	-10.752559
jana	-10.752744
กับ	-10.753473
על	-10.753493
lungi	-10.753530
▁rei	-10.753611
ాన్ని	-10.753638
▁11,	-10.753684
களை	-10.753693
لت	-10.753970
ຮ	-10.754195
▁lexi	-10.754336
مت	-10.754396
▁ធ្វើ	-10.754610
▁ಮತ್ತು	-10.754624
ame	-10.755077
▁ñe	-10.755141
ាក់	-10.755145
лет	-10.755628
nsen	-10.755739
▁ନାହିଁ	-10.756029
ож	-10.756172
ਰੀ	-10.756209
▁ກ	-10.756239
▁була	-10.756290
▁My	-10.756321
pad	-10.756451
▁lekisa	-10.756847
▁Laj	-10.757018
▁Про	-10.757052
መን	-10.757070
eci	-10.757113
▁مر	-10.757161
đa	-10.757324
▁અ	-10.757397
тр	-10.757467
ᏍᎬ	-10.757621
்	-10.757664
▁تھے	-10.757692
ստ	-10.757773
«	-10.757813
▁ndipo	-10.757863
ଣ	-10.758093
gum	-10.758198
jam	-10.758252
Si	-10.758458
▁adamlar	-10.758506
ছ	-10.758747
▁Ме	-10.758864
▁ši	-10.758957
▁eci	-10.758985
▁Йәһүә	-10.758999
▁lí	-10.759012
ത്ര	-10.759089
▁□	-10.759152
യും	-10.759237
kter	-10.759302
lut	-10.759314
што	-10.759343
қу	-10.759584
▁USA	-10.759740
▁ikkje	-10.759789
indi	-10.759932
▁politi	-10.759949
isiwa	-10.760187
為	-10.760435
▁ਕਰ	-10.760610
BA	-10.760925
▁বি	-10.761217
比	-10.761300
▁oci	-10.761414
▁Umu	-10.761474
ET	-10.761649
▁lama	-10.761661
իր	-10.761734
edi	-10.761742
nz	-10.761759
fil	-10.761838
▁dayta	-10.761958
bá	-10.761965
▁Kaj	-10.762055
قی	-10.762194
ché	-10.762254
lelo	-10.762398
usta	-10.762444
▁مۇ	-10.762515
▁Bup	-10.762531
▁христиан	-10.762680
ofa	-10.762820
ڪر	-10.763068
▁ide	-10.763235
▁করে	-10.763493
ού	-10.763696
rif	-10.763793
▁naan	-10.763866
manu	-10.763877
▁Nan	-10.764116
ᏤᎵ	-10.764165
ذا	-10.764310
Se	-10.764318
LI	-10.764391
ette	-10.764463
▁ז	-10.764483
ъя	-10.764488
ult	-10.764535
гү	-10.764597
ಿದ್ದ	-10.764612
бі	-10.764750
Stock	-10.764784
gaan	-10.764898
▁ө	-10.765138
▁بده	-10.765399
▁pli	-10.765401
న్	-10.765590
力	-10.765759
▁malamu	-10.765762
▁sini	-10.765823
▁xqui	-10.765869
చి	-10.766311
▁Der	-10.766758
ive	-10.766864
▁ра	-10.766979
vela	-10.767000
kura	-10.767039
bung	-10.767069
ቶም	-10.767316
ण्या	-10.767346
Ne	-10.767641
লা	-10.768270
ॉ	-10.768385
arta	-10.768489
▁بنا	-10.768572
▁bug	-10.768602
kè	-10.768614
▁ہوں	-10.768620
ient	-10.768787
▁cuînk	-10.768792
são	-10.768981
vien	-10.769193
ਤਾ	-10.769197
झ	-10.769251
ffer	-10.769320
▁Kudus	-10.769329
zela	-10.769376
▁patut	-10.769427
ಕ್ಷ	-10.769439
▁прав	-10.769486
ժ	-10.769599
مة	-10.769621
દ	-10.769714
▁mano	-10.769714
▁Sin	-10.769728
اري	-10.769831
▁دروست	-10.769982
▁Fil	-10.770096
ให้	-10.770147
▁hö	-10.770223
▁ط	-10.770230
▁ќе	-10.770352
gai	-10.770503
ီး	-10.770838
ӕрд	-10.770890
▁io	-10.770941
اپ	-10.770967
ഥ	-10.771153
ṣe	-10.771483
▁നിങ്ങള്	-10.771579
rica	-10.771658
kazi	-10.771682
▁Nag	-10.771857
▁prote	-10.771996
unt	-10.772389
inte	-10.772489
▁mot	-10.772534
ᏍᎦ	-10.772651
▁tekst	-10.772829
▁aron	-10.772844
▁kang	-10.772940
uje	-10.773248
▁әйт	-10.773365
▁լ	-10.773709
action	-10.773761
ಷ್ಟ	-10.773774
ጉ	-10.773774
▁של	-10.773826
▁צ	-10.773843
▁ዜ	-10.774060
▁مرا	-10.774154
ендә	-10.774162
ös	-10.774428
ming	-10.774606
▁ຊ	-10.774629
▁lwe	-10.774766
公	-10.774963
ía	-10.774993
▁ရှိ	-10.775005
▁oder	-10.775530
ph	-10.776010
▁gị	-10.776020
▁pasi	-10.776053
▁dra	-10.776054
nosti	-10.776075
▁kamu	-10.776115
▁nom	-10.776276
▁eh	-10.776444
▁ຕໍ່	-10.776567
▁armij	-10.776572
▁ká	-10.776616
▁мө	-10.776732
▁सर्व	-10.776796
▁بات	-10.777005
ձ	-10.777086
faka	-10.777155
▁nä	-10.777255
▁ڕا	-10.777342
▁ud	-10.777438
شته	-10.777656
lju	-10.777805
azione	-10.777990
▁आप	-10.778086
▁inform	-10.778140
▁ڏي	-10.778199
པ	-10.778234
ezi	-10.778267
▁kli	-10.778285
sih	-10.778345
nor	-10.778492
▁tho	-10.778704
mó	-10.778751
оқ	-10.778858
cel	-10.778861
ře	-10.778893
▁mmadụ	-10.779017
▁қилиб	-10.779020
али	-10.779182
cto	-10.779187
▁Oh	-10.779191
▁Kodi	-10.779199
знач	-10.779304
▁2002	-10.779347
ಷ	-10.779356
▁sika	-10.779464
▁അവ	-10.779520
▁خۆیان	-10.779658
ế	-10.779696
ijiet	-10.779724
▁że	-10.779963
▁solo	-10.779982
▁Xu	-10.779989
plika	-10.780140
ھە	-10.780171
ନ୍ତୁ	-10.780256
▁хар	-10.780361
▁ик	-10.780426
▁nako	-10.780513
▁hulle	-10.780643
▁Ꮣ	-10.780675
▁už	-10.780853
▁kwo	-10.780910
▁cua	-10.781165
▁fun	-10.781267
unit	-10.781357
▁Luka	-10.781444
▁مە	-10.781451
▁aux	-10.781516
вод	-10.781651
ră	-10.781687
▁koku	-10.781760
ढ	-10.781822
但	-10.781826
యా	-10.781926
▁organis	-10.781960
hn	-10.782059
▁համար	-10.782272
ñe	-10.782277
לי	-10.782339
inna	-10.782698
ությունը	-10.782757
▁şeýle	-10.782881
uw	-10.783033
▁nia	-10.783177
▁تھا	-10.783367
tico	-10.783993
▁dadi	-10.784058
▁quod	-10.784277
▁Kae	-10.784286
pur	-10.784513
LO	-10.784634
iş	-10.785110
ཚ	-10.785347
▁mə	-10.785378
▁Изге	-10.785432
mez	-10.785547
sione	-10.785751
此	-10.785862
▁achi	-10.785948
▁Sihova	-10.786057
▁Jos	-10.786241
▁gus	-10.786242
▁yin	-10.786334
▁ዘይ	-10.786414
▁Ter	-10.786483
▁các	-10.786552
ার	-10.786620
ىتى	-10.786971
ια	-10.787255
jà	-10.787308
▁endla	-10.787512
▁Europa	-10.787558
sina	-10.787591
▁、	-10.787680
кон	-10.787728
valu	-10.787763
ൊ	-10.787848
rite	-10.788144
ങ്ങള	-10.788221
▁بد	-10.788405
yong	-10.788421
▁URL	-10.788532
▁қилган	-10.788567
▁hira	-10.788655
▁dhéwé	-10.788703
Ꮝ	-10.788737
bela	-10.789004
ଗ	-10.789053
▁alingbi	-10.789071
▁ياخشى	-10.789143
▁zna	-10.789232
нга	-10.789379
条	-10.789581
າດ	-10.789771
öö	-10.789805
▁ум	-10.789985
▁Om	-10.790265
ど	-10.790298
▁37	-10.790502
组织	-10.790659
▁nun	-10.790737
▁ary	-10.790960
wọ	-10.791114
лим	-10.791249
ರೆ	-10.791422
fic	-10.791459
చ్చ	-10.791599
อยู่	-10.791715
▁کچھ	-10.791716
▁aro	-10.791823
کر	-10.791851
▁им	-10.792005
ject	-10.792236
▁By	-10.792288
▁Ken	-10.792390
سىلەر	-10.792476
menti	-10.792548
త్	-10.792807
ּ	-10.793095
mil	-10.793127
▁siz	-10.793288
pil	-10.793390
ನ್ನ	-10.793440
նչ	-10.793500
kula	-10.793701
▁tax	-10.793780
▁التي	-10.793827
fre	-10.793922
▁12,	-10.794168
оо	-10.794319
▁Kalou	-10.794440
מע	-10.794474
▁Indi	-10.794518
تم	-10.794660
▁ਤੋਂ	-10.794739
раз	-10.794772
▁бод	-10.795050
イ	-10.795094
্ব	-10.795240
փ	-10.795312
стан	-10.795686
רו	-10.795920
ža	-10.796082
lect	-10.796389
leyo	-10.796601
▁ngangu	-10.796660
рон	-10.796830
qqi	-10.797018
▁ite	-10.797035
gem	-10.797297
يات	-10.797366
ысь	-10.797509
▁sugad	-10.797555
▁princip	-10.797967
Ꮼ	-10.798125
▁dari	-10.798137
ಂತ	-10.798199
▁poli	-10.798248
nei	-10.798292
nquil	-10.798393
▁koma	-10.798471
▁fuq	-10.798637
提供	-10.798671
mate	-10.798824
▁ulu	-10.798902
kkun	-10.798931
чо	-10.799009
гийн	-10.799015
ें	-10.799403
▁dom	-10.799553
▁yini	-10.799712
▁Ꮒ	-10.799783
dri	-10.799926
mark	-10.799968
▁estas	-10.799971
▁tusa	-10.800137
▁denne	-10.800263
вам	-10.800366
டி	-10.800453
ెను	-10.801003
▁haana	-10.801022
▁మన	-10.801097
czy	-10.801188
vil	-10.801330
▁まし	-10.801546
yal	-10.801598
ዎች	-10.801614
læ	-10.801693
Li	-10.801732
▁аб	-10.801882
erna	-10.801977
▁رکھ	-10.802007
èt	-10.802073
▁sun	-10.802245
▁dje	-10.802284
өм	-10.802356
▁ndenge	-10.802700
லை	-10.802957
sje	-10.803102
▁пултар	-10.803122
▁Ale	-10.803339
rị	-10.803617
kā	-10.803932
enga	-10.803946
влак	-10.804011
▁dwar	-10.804017
▁аны	-10.804467
▁2001	-10.804500
тыны	-10.804664
▁ມາ	-10.804850
ਈ	-10.804930
ინ	-10.804949
ڵێن	-10.805233
مر	-10.805493
kaj	-10.805592
▁kwal	-10.805704
▁ದೇವರ	-10.805736
анда	-10.805756
▁kena	-10.805764
▁mor	-10.805869
起	-10.805871
ᏍᎪ	-10.805888
▁kuna	-10.805897
ուր	-10.805921
မှ	-10.806179
▁Tur	-10.806343
▁pian	-10.806646
▁mun	-10.806661
pita	-10.807180
▁gara	-10.807182
▁dë	-10.807254
▁Gre	-10.807320
▁jā	-10.807510
▁39	-10.807694
66	-10.807818
▁بولغان	-10.807882
▁bó	-10.807897
.”	-10.807947
列	-10.808001
▁2011	-10.808221
▁кир	-10.808574
▁xcßajol	-10.808720
ենք	-10.808975
▁ഉ	-10.809022
ଟ	-10.809082
tú	-10.809110
▁ስለ	-10.809231
▁problema	-10.809273
ussi	-10.809344
▁phải	-10.809443
ruk	-10.809457
ட்	-10.809752
▁barada	-10.809835
සි	-10.809872
▁kamata	-10.810223
▁वे	-10.810433
koki	-10.810462
sab	-10.810698
eve	-10.811008
▁ئایا	-10.811110
kké	-10.811211
lisi	-10.811427
Ja	-10.811525
▁manako	-10.811544
▁gla	-10.811610
ཡིག་ཆ་	-10.811611
▁10,	-10.812064
اھ	-10.812163
аҡ	-10.812169
▁ຂ້ອຍ	-10.812337
االله	-10.812376
▁Ima	-10.812593
mě	-10.812603
dua	-10.812645
rho	-10.812727
yìn	-10.812727
▁pran	-10.812883
mbere	-10.812901
noa	-10.812919
▁Sara	-10.812934
▁gada	-10.812949
▁bal	-10.813040
ấ	-10.813056
tru	-10.813187
кен	-10.813227
▁bak	-10.813240
▁شده	-10.813273
plica	-10.813384
▁phendia	-10.813425
gs	-10.813450
Ꭷ	-10.813604
maj	-10.813684
ыгыз	-10.813724
ере	-10.813993
үм	-10.814024
ningen	-10.814427
իս	-10.814449
tsu	-10.814614
▁ኣይ	-10.814676
▁Ame	-10.814707
ков	-10.814827
▁dimoune	-10.815059
രാ	-10.815116
▁فرما	-10.815295
▁ਹਨ	-10.815351
ළ	-10.815384
▁ნა	-10.815443
வா	-10.815630
程	-10.815770
▁ڳ	-10.815816
▁makapa	-10.815938
▁fac	-10.816226
ತಿ	-10.816314
▁इस	-10.816324
▁mw	-10.816549
کل	-10.816639
ligi	-10.816643
zala	-10.816709
ுடைய	-10.816897
から	-10.817283
▁như	-10.817551
▁ibukin	-10.817634
▁Ý	-10.817727
iš	-10.817903
▁waxaad	-10.817911
▁Peter	-10.817966
▁kama	-10.817981
▁görkez	-10.817986
ฉัน	-10.818220
▁ໃຊ້	-10.818311
ઈ	-10.818333
▁Α	-10.818398
▁sie	-10.818501
▁എ	-10.818551
▁የተ	-10.818750
▁нәрсә	-10.818882
24	-10.818886
▁Ó	-10.818899
бат	-10.818915
ët	-10.818947
▁ran	-10.818987
更	-10.819252
▁nyadi	-10.819377
▁نمود	-10.819495
▁роз	-10.819512
ഷ	-10.819766
ტი	-10.819816
手	-10.820160
کھ	-10.820165
ಲಿ	-10.820442
▁башка	-10.820563
CO	-10.820759
mang	-10.820791
▁All	-10.820799
▁2003	-10.821033
▁деб	-10.821095
▁сӕ	-10.821227
▁ڪو	-10.821385
▁kumu	-10.821405
▁taotao	-10.821476
дол	-10.821516
85	-10.821518
के	-10.821603
▁խ	-10.821674
chin	-10.821699
igo	-10.821724
▁dara	-10.821751
▁thể	-10.821879
сгьы	-10.821891
liku	-10.821915
ορ	-10.822015
▁ของ	-10.822361
如	-10.822711
మా	-10.823063
tungod	-10.823086
▁ugu	-10.823154
lē	-10.823181
▁pau	-10.823425
▁פ	-10.823558
▁Ол	-10.823672
▁ສະ	-10.824045
▁tang	-10.824165
▁Ви	-10.824490
imu	-10.824583
▁ኢ	-10.824615
mela	-10.824717
mad	-10.824759
Stencils	-10.824917
xcha	-10.824979
▁թե	-10.825254
قۇ	-10.825285
La	-10.825296
രി	-10.825387
▁ett	-10.825768
▁ئۇنىڭ	-10.825938
▁dí	-10.826108
▁Во	-10.826179
ᏍᎩᏂ	-10.826212
hil	-10.826229
mag	-10.826411
াৰ	-10.826706
▁кўр	-10.826898
tigi	-10.826905
blo	-10.826913
▁vas	-10.826934
ẓ	-10.826936
λε	-10.827178
之	-10.827456
color	-10.827458
ਨਾ	-10.827607
女	-10.827662
▁up	-10.827664
▁kuo	-10.827735
ួ	-10.827862
▁waaye	-10.827872
ంది	-10.827946
▁гу	-10.827989
lema	-10.828069
▁cue	-10.828275
ەن	-10.828447
ità	-10.828521
▁što	-10.828531
▁Esta	-10.828604
▁ए	-10.828755
ουν	-10.828958
ৱ	-10.829085
taura	-10.829246
▁sich	-10.829314
langa	-10.829319
erit	-10.829324
會	-10.829327
ος	-10.829703
▁باش	-10.830193
▁ये	-10.830250
▁ച	-10.830272
myaka	-10.830446
▁mpenza	-10.830524
kš	-10.830697
作	-10.830766
▁worden	-10.831135
▁Павел	-10.831177
logo	-10.831270
▁এই	-10.831434
идан	-10.831635
hte	-10.831848
NE	-10.831899
▁تمہارے	-10.831959
▁Ад	-10.832156
mite	-10.832231
▁Nou	-10.832254
તા	-10.832293
▁éta	-10.832331
关于	-10.832396
▁Bri	-10.832423
▁тесе	-10.832438
zhi	-10.832580
▁nípa	-10.832665
ման	-10.832683
maya	-10.832722
▁ئۇلارنى	-10.832726
▁Yesus	-10.832798
▁Tan	-10.832812
сты	-10.833053
▁tə	-10.833062
cción	-10.833069
kore	-10.833125
نو	-10.833191
kera	-10.833202
▁Baka	-10.833261
▁عمل	-10.833285
ved	-10.833330
кӗ	-10.833385
OS	-10.833639
▁баш	-10.833726
ல்ல	-10.833906
▁tru	-10.833998
▁وٽ	-10.834030
▁70	-10.834038
▁marang	-10.834123
十	-10.834157
fur	-10.834231
meri	-10.834265
yinza	-10.834317
ለው	-10.834379
mele	-10.834405
رمان	-10.834416
lav	-10.834511
▁ਹ	-10.834576
».	-10.834657
▁tö	-10.834986
▁tabe	-10.835060
▁tei	-10.835099
▁pote	-10.835873
▁ọmọ	-10.835988
mali	-10.836356
▁hasi	-10.836414
▁cab	-10.836569
▁taun	-10.836615
ಲು	-10.836796
▁sha	-10.836831
▁John	-10.836872
ppe	-10.837104
שה	-10.837236
▁sed	-10.837348
▁personal	-10.837476
رم	-10.837496
▁mpi	-10.837502
nzira	-10.837590
▁cri	-10.837781
▁tenā	-10.837921
▁uga	-10.838001
ೈ	-10.838400
khale	-10.838679
мент	-10.838819
megi	-10.838881
▁ຊ່ວຍ	-10.838958
▁eks	-10.838968
51	-10.838974
ales	-10.839138
ств	-10.839324
▁හ	-10.839446
▁Kristu	-10.839450
▁Аллоҳнинг	-10.839504
яз	-10.839534
lygy	-10.839581
лэ	-10.839622
గ్	-10.839700
кем	-10.839733
▁problem	-10.839918
▁ఒక	-10.839992
zna	-10.840005
маган	-10.840041
volu	-10.840049
尔	-10.840087
▁או	-10.840150
nó	-10.840188
▁द	-10.840282
▁ኸም	-10.840529
רי	-10.840652
提	-10.840764
▁کسی	-10.840948
▁Abanan	-10.840953
▁Kas	-10.841037
gari	-10.841107
ವರ	-10.841194
▁यह	-10.841214
çy	-10.841344
ډ	-10.841567
pä	-10.841571
▁Р	-10.841604
λο	-10.841760
ுவ	-10.841949
سندس	-10.842137
▁Asi	-10.842142
▁бўлган	-10.842226
▁հետ	-10.842530
িক	-10.842570
тель	-10.842683
ಕ್ಕೆ	-10.842724
pula	-10.842746
▁edýär	-10.842906
lugu	-10.843000
نجام	-10.843023
mbiri	-10.843050
bud	-10.843289
лыг	-10.843298
λα	-10.843562
▁sve	-10.843615
zio	-10.844014
tsin	-10.844055
▁Bel	-10.844368
▁hoi	-10.844465
▁bei	-10.844495
ຄ	-10.844787
▁Fre	-10.844938
ща	-10.845005
▁ვ	-10.845014
ané	-10.845135
ರಿ	-10.845167
یانه	-10.845216
လာ	-10.845265
ään	-10.845298
▁ຢູ່	-10.845679
▁سي	-10.845695
αρ	-10.845939
ngelo	-10.845941
▁ڪندا	-10.846031
ight	-10.846130
стра	-10.846139
zem	-10.846281
âc	-10.846471
其他	-10.846575
ሁ	-10.846622
▁turi	-10.846805
02	-10.847240
ою	-10.847262
2.	-10.847430
uzi	-10.847629
gulu	-10.847672
वि	-10.847711
▁nicht	-10.847713
ሲ	-10.847788
▁هاو	-10.847905
bulig	-10.847924
▁pehē	-10.847930
teur	-10.848007
rongo	-10.848019
ینه	-10.848252
cas	-10.848372
sama	-10.848572
publik	-10.848637
▁ਕਰਨ	-10.848722
▁Sp	-10.848751
▁quan	-10.848925
▁ita	-10.849066
ахь	-10.849092
▁katak	-10.849171
fí	-10.849217
বা	-10.849234
▁уыд	-10.849322
ыбыз	-10.849394
▁iwakken	-10.849437
▁bik	-10.849714
▁fakata	-10.849739
▁နေ	-10.849814
؟!	-10.849833
▁か	-10.849833
نێ	-10.850033
▁nodra	-10.850173
▁года	-10.850200
ຈ	-10.850208
▁ٻ	-10.850214
▁шо	-10.850253
miş	-10.850657
▁10)	-10.850680
եղ	-10.850691
ኩ	-10.850835
әр	-10.850907
▁kanga	-10.851000
▁fakamatala	-10.851103
▁уӕд	-10.851598
▁wana	-10.851666
▁онҳо	-10.851666
化	-10.851863
▁нарса	-10.851934
▁ап	-10.852032
ларын	-10.852150
ىدىن	-10.852155
▁ዓ	-10.852267
▁դ	-10.852462
ох	-10.852473
ناو	-10.852588
▁يې	-10.852771
▁ඉ	-10.852868
дек	-10.852995
▁Ég	-10.853002
▁انھن	-10.853185
▁nequeßx	-10.853356
▁ο	-10.853478
至	-10.853485
助	-10.853573
langan	-10.854131
	-10.854143
▁44	-10.854167
ردگار	-10.854174
▁итә	-10.854322
inen	-10.854373
▁Imana	-10.854495
吧	-10.854898
▁Ob	-10.854913
▁pin	-10.854952
wag	-10.855411
gbu	-10.855563
illa	-10.855604
▁5)	-10.855628
үл	-10.855857
nome	-10.856440
?"	-10.856510
▁jest	-10.856629
rö	-10.857208
▁retal	-10.857636
നാ	-10.857747
▁Baib	-10.857892
empre	-10.858253
▁werden	-10.858349
▁کۆ	-10.858456
▁لای	-10.858460
аль	-10.858470
▁sor	-10.858513
▁tako	-10.858577
ев	-10.858603
▁ruc	-10.858686
▁bako	-10.858710
▁bel	-10.858759
▁Tha	-10.858795
▁ýaly	-10.858853
▁پادشاه	-10.858878
dil	-10.858905
زم	-10.858927
等	-10.859323
حد	-10.859372
ារ	-10.859507
др	-10.859623
▁اوھين	-10.859787
▁42	-10.859811
ځ	-10.860018
ූ	-10.860018
ূ	-10.860195
ও	-10.860336
54	-10.860474
時	-10.860591
▁Pedro	-10.860816
▁igin	-10.860879
abot	-10.860899
тү	-10.860952
教	-10.860970
▁bro	-10.860984
مل	-10.861018
ਚ	-10.861175
وق	-10.861422
▁tuma	-10.861446
▁vid	-10.861548
dum	-10.862011
▁ฉัน	-10.862038
▁omanu	-10.862099
rel	-10.862250
ത്തി	-10.862251
ance	-10.862445
▁nam	-10.862558
inių	-10.862788
▁dike	-10.862977
mpan	-10.863140
мын	-10.863476
▁social	-10.863490
▁ຫຍັງ	-10.863634
mere	-10.863653
Ш	-10.863654
▁ආ	-10.863703
سواء	-10.863746
▁yena	-10.863828
▁moet	-10.863900
▁ফ	-10.863932
▁итеп	-10.863997
has	-10.864015
▁Те	-10.864289
▁naswona	-10.864399
mam	-10.864697
▁τα	-10.864738
ილ	-10.864752
克	-10.864782
ligt	-10.865092
▁الب	-10.865160
▁ата	-10.865222
▁bali	-10.865306
iten	-10.865623
fri	-10.865757
ының	-10.865805
▁abin	-10.866427
▁grup	-10.866445
зор	-10.866499
ivi	-10.866552
—	-10.866559
ناس	-10.866711
ኝ	-10.866882
▁пи	-10.867017
▁system	-10.867100
▁aad	-10.867199
▁Xi	-10.867491
IM	-10.867789
▁sili	-10.867876
of	-10.868177
เจ้า	-10.868423
ள்	-10.868586
▁ape	-10.868796
ordin	-10.868942
▁spre	-10.869003
με	-10.869035
ոն	-10.869175
▁წ	-10.869200
▁قىلىپ	-10.869238
şy	-10.869300
▁ਆਪਣ	-10.869372
dek	-10.869600
tab	-10.870002
▁gé	-10.870081
ភ	-10.870331
▁dóó	-10.870556
මා	-10.870708
▁Σ	-10.870853
rtu	-10.870859
▁tohi	-10.870893
יש	-10.870900
რი	-10.871331
ారు	-10.871332
laat	-10.871364
رە	-10.871402
ਤੀ	-10.871604
gende	-10.871644
▁Àwọn	-10.871676
bot	-10.871697
西	-10.872081
рет	-10.872312
мак	-10.872396
ઓ	-10.872431
டை	-10.872468
▁σε	-10.872495
зэ	-10.872513
થ	-10.872581
▁poku	-10.872583
▁vä	-10.872661
▁ord	-10.872832
kayo	-10.872907
▁yenna	-10.872981
▁aßin	-10.873271
吗	-10.873794
ト	-10.873797
▁αν	-10.873894
▁лу	-10.873904
త్ర	-10.874044
ია	-10.874223
жы	-10.874282
rada	-10.874479
нче	-10.874514
ভ	-10.874551
tés	-10.874630
▁آسمان	-10.874663
▁būti	-10.874745
gata	-10.874902
nding	-10.874934
▁menga	-10.875086
▁fifi	-10.875182
▁bis	-10.875212
95	-10.875520
ộ	-10.875647
جڏھن	-10.875722
vale	-10.875795
▁وقت	-10.875929
kora	-10.876248
▁delle	-10.876289
sili	-10.876297
ച	-10.876579
▁sö	-10.876708
▁нам	-10.876833
tais	-10.876930
▁pasal	-10.877092
业	-10.877281
▁قیام	-10.877299
mission	-10.877339
▁ھو	-10.877464
ahinga	-10.877538
由	-10.877630
▁өл	-10.877712
▁há	-10.878063
▁nav	-10.878104
▁güiya	-10.878294
▁telah	-10.878322
øy	-10.878340
forma	-10.878366
sze	-10.878613
▁naßajej	-10.878622
▁huru	-10.878696
Imana	-10.878710
▁feia	-10.878802
▁redu	-10.878868
▁шы	-10.878871
ност	-10.878906
chita	-10.879254
אַל	-10.879271
▁2012	-10.879279
▁Κ	-10.879613
ຂ	-10.879912
NO	-10.880028
ори	-10.880153
▁пос	-10.880204
يق	-10.880344
સ્	-10.880485
lɔ	-10.880589
▁sono	-10.880724
▁wäch	-10.880774
ър	-10.880788
ον	-10.880840
తు	-10.880906
▁Juan	-10.881177
我們	-10.881186
ax	-10.881261
Ε	-10.881316
▁bila	-10.881507
▁الن	-10.881855
mò	-10.881910
▁juga	-10.882055
▁είναι	-10.882307
ਸਾ	-10.882413
▁faiga	-10.882460
stal	-10.882684
▁მე	-10.882728
▁ovo	-10.882800
ლო	-10.882895
mwo	-10.883040
▁laha	-10.883104
ời	-10.883136
▁Jerusalem	-10.883279
bulo	-10.883522
צי	-10.883655
ལ	-10.883673
Ꮜ	-10.883825
▁god	-10.884061
ynyň	-10.884111
▁хэ	-10.884482
ჱ	-10.884492
ání	-10.884633
ການ	-10.884764
▁Bondié	-10.884837
nost	-10.884907
IB	-10.884984
▁Fra	-10.885110
নি	-10.885406
быз	-10.885579
bata	-10.885749
▁эк	-10.885859
iyo	-10.885962
▁mour	-10.886020
▁mä	-10.886026
▁not	-10.886239
ترس	-10.886343
rabi	-10.886392
muntu	-10.886649
▁хак	-10.886668
دم	-10.886775
▁मी	-10.886775
解	-10.886776
ৰি	-10.886854
▁baş	-10.886909
▁Bibiliya	-10.886981
ជ	-10.887177
▁ры	-10.887218
tege	-10.887237
▁Say	-10.887477
▁Jehovap	-10.887677
▁Israhel	-10.887762
▁tempo	-10.887839
hwe	-10.888077
70	-10.888229
alta	-10.888235
▁malu	-10.888770
▁gre	-10.888802
▁ወይ	-10.888845
yı	-10.889349
HA	-10.889456
lya	-10.889832
vert	-10.889849
ступ	-10.890167
▁мӗнле	-10.890201
ojo	-10.890256
atsi	-10.890382
ຊ	-10.890437
▁göz	-10.890496
З	-10.890726
▁الح	-10.890753
▁kop	-10.890769
▁panahon	-10.891016
实	-10.891043
cßam	-10.891120
там	-10.891125
▁ល	-10.891181
▁хө	-10.891212
مار	-10.891304
tumik	-10.891475
മായ	-10.891796
μέν	-10.891816
ευ	-10.892177
ĝ	-10.892266
ෙන්	-10.892495
tî	-10.892579
vie	-10.892632
▁য	-10.892914
▁katar	-10.893015
isen	-10.893457
▁Sc	-10.893631
vana	-10.893809
▁tzij	-10.893857
زه	-10.893883
\3	-10.893931
发展	-10.894050
▁Qui	-10.894135
目	-10.894210
段	-10.894235
▁moom	-10.894320
وز	-10.894462
▁نام	-10.894470
dent	-10.894582
બ	-10.894623
▁jet	-10.894795
mbela	-10.894817
▁quo	-10.894852
▁हम	-10.894910
ила	-10.895041
भा	-10.895091
▁fini	-10.895123
▁ئادەم	-10.895287
surat	-10.895342
▁ким	-10.895409
कार	-10.895442
gula	-10.895464
▁chixjunileb	-10.895592
▁masu	-10.896026
▁Tre	-10.896066
താ	-10.896070
dul	-10.896300
tional	-10.896400
pale	-10.896439
▁Tim	-10.896557
▁Amerika	-10.896647
дем	-10.896705
ผู้	-10.896789
▁కొ	-10.896807
▁hau	-10.897050
▁kuku	-10.897121
▁nuna	-10.897143
▁tano	-10.897293
ះ	-10.897347
tâ	-10.897508
▁δ	-10.897553
▁vinaka	-10.897566
▁Apakah	-10.897907
ුව	-10.898052
saga	-10.898119
▁moni	-10.898129
ismo	-10.898148
ual	-10.898250
rã	-10.898331
▁Хуыцау	-10.898368
▁nulung	-10.898504
▁hinga	-10.898506
▁fale	-10.898598
وف	-10.898677
▁yari	-10.898691
▁dette	-10.898738
வர	-10.898870
lj	-10.899110
▁tek	-10.899175
கி	-10.899360
ните	-10.899488
Jehova	-10.899900
list	-10.900121
▁dul	-10.900161
▁trong	-10.900362
▁шын	-10.900491
▁pré	-10.900631
▁Ef	-10.900644
ൽ	-10.900661
▁iri	-10.900792
usu	-10.900828
aro	-10.900930
▁نیه	-10.901027
õj	-10.901078
nomi	-10.901246
▁तुम	-10.901246
▁21.	-10.901370
Bo	-10.901474
wr	-10.901503
vant	-10.901872
હ	-10.902215
τά	-10.902245
რე	-10.902309
▁Dat	-10.902557
ūr	-10.902618
rod	-10.902661
▁termin	-10.902714
wel	-10.902742
▁taga	-10.902808
lili	-10.902850
▁अछि	-10.902920
取	-10.903148
dian	-10.903360
▁оят	-10.903386
presenta	-10.903556
▁яв	-10.903768
▁တစ်	-10.903794
)...	-10.903847
елгән	-10.903854
▁vre	-10.903906
▁sukila	-10.903935
haa	-10.904117
ниң	-10.904182
сси	-10.904190
▁star	-10.904303
▁иткән	-10.904365
oraa	-10.904406
▁với	-10.904510
ಮಾ	-10.904522
wane	-10.904532
ခံ	-10.904643
▁êre	-10.904717
OP	-10.904728
▁Мар	-10.904947
ço	-10.905001
▁bã	-10.905274
ਥ	-10.905303
▁yaka	-10.905407
▁baik	-10.905506
▁vya	-10.905572
Ꮖ	-10.905587
▁eum	-10.905924
อน	-10.906159
▁ten	-10.906294
tą	-10.906301
kere	-10.906355
▁8)	-10.906456
▁şey	-10.906498
ktu	-10.906528
cem	-10.906545
lata	-10.906640
▁nehenehe	-10.906895
jor	-10.907019
sị	-10.907056
▁मु	-10.907145
▁ус	-10.907286
وش	-10.907300
site	-10.907413
ļa	-10.907446
▁နိုင်	-10.907493
三	-10.907497
kaba	-10.907551
▁mega	-10.907671
ҽ	-10.907692
ną	-10.907764
Ñ	-10.907998
▁cap	-10.908098
所有	-10.908105
▁kuata	-10.908262
请	-10.908296
saan	-10.908360
▁teu	-10.908520
▁poz	-10.908564
▁16,	-10.908720
zik	-10.908809
▁Pla	-10.908874
▁cer	-10.909009
ავ	-10.909220
▁是	-10.909250
▁پەيغەمبەر	-10.909380
ంలో	-10.909431
zil	-10.909472
▁file	-10.909986
дов	-10.910063
ҳи	-10.910269
▁ýer	-10.910296
▁koko	-10.910573
தை	-10.910622
jọ	-10.910642
▁jou	-10.910788
▁huma	-10.911091
▁చేయ	-10.911092
▁20.	-10.911095
▁был	-10.911227
▁Kin	-10.911341
toma	-10.911572
▁bisan	-10.911753
tuk	-10.911781
вр	-10.911801
▁jadi	-10.911929
సి	-10.912030
نم	-10.912267
▁દ	-10.912347
سون	-10.912435
sed	-10.912588
▁fason	-10.912592
▁උ	-10.912870
yanda	-10.912926
▁programa	-10.912943
ða	-10.912946
ian	-10.912959
ម៉	-10.913267
▁direkt	-10.913683
▁những	-10.913890
▁ਉਹ	-10.913932
▁persona	-10.913973
ikira	-10.914016
မြ	-10.914041
▁Без	-10.914090
ิน	-10.914164
▁بہت	-10.914271
ັກ	-10.914301
▁alofa	-10.914535
▁laba	-10.914556
▁مل	-10.914578
以及	-10.914742
dä	-10.914861
لەرنى	-10.914911
kol	-10.914940
▁gba	-10.915025
ப்பு	-10.915035
▁jam	-10.915145
▁ман	-10.915427
▁lona	-10.915432
ອນ	-10.915560
rsu	-10.915604
▁ohipa	-10.915743
ната	-10.915968
رف	-10.916088
акан	-10.916165
ং	-10.916241
ях	-10.916372
▁እንደ	-10.916478
▁nima	-10.917130
▁Ի	-10.917349
ayaa	-10.917364
almente	-10.917451
▁muka	-10.917610
▁پاس	-10.917708
個	-10.917734
▁nói	-10.917973
▁Kirist	-10.918074
เธอ	-10.918344
ный	-10.918344
▁ຈ	-10.918427
▁etdi	-10.918653
dag	-10.918669
след	-10.918886
າຍ	-10.918904
ӑш	-10.919143
▁pentru	-10.919188
nong	-10.919520
▁faoi	-10.919732
▁Մ	-10.919738
ົນ	-10.919810
21	-10.919981
▁Loko	-10.920040
▁bit	-10.920105
লি	-10.920362
▁Af	-10.920686
▁mbu	-10.920704
୍ୟ	-10.920771
▁muna	-10.920792
▁איז	-10.920907
ик	-10.920986
数	-10.921133
eme	-10.921199
гез	-10.921717
▁ಗ	-10.922113
▁lata	-10.922125
▁Fer	-10.922145
▁كې	-10.922726
арын	-10.922743
und	-10.922764
аб	-10.922864
दी	-10.922980
сал	-10.922997
▁gis	-10.923092
၍	-10.923124
▁arba	-10.923252
úl	-10.923271
ім	-10.923319
▁юл	-10.923569
ǧ	-10.923736
▁Saul	-10.923757
миз	-10.923793
Ն	-10.923810
▁slu	-10.924015
▁Ы	-10.924016
▁profe	-10.924067
▁są	-10.924092
fekt	-10.924135
آمد	-10.924306
め	-10.924317
يال	-10.924356
ਏ	-10.924373
▁dru	-10.924436
tii	-10.924437
сэ	-10.924716
ofi	-10.924855
▁kuete	-10.924874
bro	-10.924899
▁cäqui	-10.925262
ава	-10.925323
dera	-10.925451
ginn	-10.925620
▁Zeova	-10.925681
▁biri	-10.925746
ပြု	-10.925817
cana	-10.926000
чин	-10.926133
▁ඔයා	-10.926155
bə	-10.926182
▁tutu	-10.926236
пи	-10.926299
ени	-10.926340
▁ເພື່ອ	-10.926401
▁կարող	-10.926420
ገል	-10.926557
▁vana	-10.926627
▁Pan	-10.926932
▁Mal	-10.927100
▁ဖ	-10.927137
▁2013	-10.927142
anti	-10.927217
▁گر	-10.927271
▁13,	-10.927345
▁حال	-10.927467
endo	-10.927567
它	-10.927618
ӟ	-10.927620
▁నీ	-10.927649
长	-10.927829
89	-10.927831
vina	-10.927956
▁ئازاب	-10.927968
bun	-10.928210
▁vra	-10.928347
ney	-10.928452
шт	-10.928636
▁kont	-10.928758
ճ	-10.928966
leme	-10.928969
Artikolu	-10.929045
лаб	-10.929205
ڵکی	-10.929415
▁ris	-10.929423
▁کرو	-10.929647
▁иймон	-10.929665
يع	-10.929749
▁pode	-10.929854
▁kabu	-10.929885
ể	-10.929905
通	-10.930045
▁যে	-10.930198
tela	-10.930434
▁atene	-10.930511
yaw	-10.930731
மாக	-10.930776
plan	-10.931076
▁ер	-10.931135
br	-10.931163
56	-10.931388
▁Ing	-10.931416
baha	-10.931437
▁ž	-10.931440
كل	-10.931442
机	-10.931496
▁gihe	-10.931517
▁iste	-10.931679
ខ	-10.931829
անք	-10.931914
▁ಸಂ	-10.931920
בי	-10.931949
ất	-10.932065
lise	-10.932122
▁edil	-10.932131
▁ശ	-10.932471
vå	-10.932624
▁bazali	-10.932674
▁গ	-10.932678
22	-10.932835
▁اپنی	-10.933127
▁ហើយ	-10.933330
点	-10.933332
▁чу	-10.933377
▁kondi	-10.933644
மை	-10.933739
واز	-10.933961
āk	-10.934111
设	-10.934361
▁ਤੇ	-10.934376
▁bahin	-10.934393
▁zur	-10.934462
miri	-10.934501
ģi	-10.934577
ින්	-10.934689
Yehova	-10.934698
чно	-10.934778
▁mia	-10.934825
Tsy	-10.934847
guma	-10.935168
త్త	-10.935205
рек	-10.935220
nym	-10.935444
▁át	-10.935667
baki	-10.935757
алар	-10.936135
த்தை	-10.936282
▁Қа	-10.936438
▁bõk	-10.936654
ศ	-10.936810
}	-10.936814
lior	-10.936963
kjen	-10.936999
23	-10.937211
jisi	-10.937226
▁الق	-10.937260
▁41	-10.937483
ਇ	-10.937615
▁ເມື່ອ	-10.937633
▁ongo	-10.938217
daj	-10.938270
ија	-10.938343
ios	-10.938354
	-10.938454
▁terra	-10.938537
▁düşün	-10.938636
YA	-10.938639
arput	-10.938766
yî	-10.938869
ाइ	-10.939008
▁tana	-10.939102
بى	-10.939342
eqq	-10.939863
▁Internet	-10.939973
▁jag	-10.939992
▁ажы	-10.939999
知	-10.940087
▁ድማ	-10.940121
▁эс	-10.940188
uhi	-10.940291
صلی	-10.940546
EB	-10.940936
бра	-10.941010
II	-10.941044
ाय	-10.941265
ču	-10.941561
த்	-10.941633
▁تق	-10.941650
▁көн	-10.941775
▁Ein	-10.941904
▁تک	-10.941916
pari	-10.942130
任	-10.942138
す	-10.942202
▁prinsip	-10.942373
▁سن	-10.942399
sur	-10.942605
▁adda	-10.942842
hak	-10.942881
▁ही	-10.943027
▁قه	-10.943109
ๆ	-10.943192
▁hina	-10.943401
љ	-10.943411
▁кам	-10.943675
▁Mwa	-10.943783
他们	-10.944130
▁yer	-10.944140
▁час	-10.944411
▁انہیں	-10.944546
ষ	-10.944552
▁manda	-10.944596
▁ā	-10.944870
政府	-10.945061
öv	-10.945080
▁anti	-10.945107
ಿತ	-10.945377
▁1999	-10.945705
▁nang	-10.945712
άν	-10.945760
ларнинг	-10.945973
registr	-10.946137
▁пов	-10.946157
▁सु	-10.946269
▁jeg	-10.946329
▁gran	-10.946342
cina	-10.946348
▁dü	-10.946351
▁dh	-10.946453
yaka	-10.946514
▁ବ	-10.946665
луу	-10.946681
გა	-10.946857
▁9)	-10.947012
xye	-10.947019
meɛna	-10.947085
▁Ра	-10.947409
CH	-10.947434
▁شک	-10.947536
በት	-10.947647
▁dėl	-10.947648
ется	-10.947672
▁ቀ	-10.947706
ட்டு	-10.947758
થી	-10.948012
форм	-10.948281
لم	-10.948439
nova	-10.948477
98	-10.948493
▁przy	-10.948515
88	-10.948738
▁ය	-10.948861
ռ	-10.948973
ད་	-10.949160
ыры	-10.949177
▁bolsa	-10.949359
58	-10.949368
▁swo	-10.949424
фо	-10.949607
fundi	-10.949658
▁கா	-10.949724
进	-10.949848
/1	-10.949862
nena	-10.949862
wani	-10.949912
fel	-10.949986
uan	-10.950066
మి	-10.950103
▁ક	-10.950217
מו	-10.950528
xel	-10.950555
▁بعد	-10.950609
▁fakatu	-10.951055
qqu	-10.951240
▁мал	-10.951264
یل	-10.951494
▁nim	-10.951859
ਫ਼	-10.952115
▁lista	-10.952333
▁onlar	-10.952349
mbwa	-10.952360
nermi	-10.952416
▁Anto	-10.952456
▁DVD	-10.952518
सी	-10.952520
pikeun	-10.952551
konzya	-10.952594
illi	-10.952609
▁Era	-10.952755
可以	-10.952757
▁kapati	-10.953034
▁pasa	-10.953280
▁lok	-10.953472
▁مال	-10.953472
ოდ	-10.953912
eṛ	-10.954031
▁90	-10.954108
▁Lok	-10.954262
▁biết	-10.954268
nă	-10.954305
ుల	-10.954435
▁تێ	-10.954573
rz	-10.954595
▁ла	-10.954775
adas	-10.954996
▁ڕوو	-10.955054
rina	-10.955183
دن	-10.955192
▁buli	-10.955211
▁دن	-10.955481
▁بې	-10.955583
хь	-10.955612
ком	-10.955701
રા	-10.955842
ribu	-10.955871
гла	-10.955940
bwino	-10.955989
▁Bib	-10.955998
ستن	-10.956018
▁Cur	-10.956040
ିତ	-10.956138
enne	-10.956150
▁fakaasi	-10.956227
▁(2	-10.956494
ओ	-10.956497
ਦੇ	-10.956614
指	-10.956872
▁dios	-10.956880
▁zhan	-10.956899
▁mund	-10.956925
اط	-10.956961
maha	-10.956993
σης	-10.957312
mək	-10.957445
45	-10.957499
▁Reg	-10.957516
bant	-10.957551
▁हा	-10.957589
оит	-10.957618
▁malosi	-10.957661
▁азы	-10.957683
دہ	-10.957791
▁الج	-10.957808
▁Maria	-10.957853
mentu	-10.958036
▁izay	-10.958148
▁yéen	-10.958209
iyey	-10.958220
оп	-10.958456
dica	-10.958663
▁NA	-10.958694
▁ovi	-10.958712
mı	-10.958781
▁នោះ	-10.958804
saba	-10.959333
持	-10.959429
▁sistem	-10.959474
▁Ara	-10.959730
▁menye	-10.959744
Mu	-10.959746
ორ	-10.959860
▁agaga	-10.960011
▁rồi	-10.960271
ង់	-10.960282
▁ibu	-10.960352
▁ຮັກ	-10.960497
hora	-10.960506
▁иу	-10.960567
лган	-10.960580
kö	-10.960749
ats	-10.960981
եք	-10.961326
aire	-10.961413
ತ್ರ	-10.961531
把	-10.961532
▁ເລື່ອງ	-10.961533
▁gh	-10.961548
▁ใน	-10.961932
▁булыр	-10.961974
വേ	-10.961976
sobola	-10.962019
▁май	-10.962489
лиги	-10.962624
zie	-10.962625
▁cal	-10.962651
▁نزد	-10.962667
▁эди	-10.962677
ngele	-10.962832
яв	-10.963070
▁መጽሓፍ	-10.963216
▁вера	-10.963268
роб	-10.963384
何	-10.963411
тары	-10.963458
▁nomu	-10.963550
▁baru	-10.963568
richt	-10.963773
ოთ	-10.963861
▁Dha	-10.964162
sanga	-10.964214
▁แ	-10.964255
ంచ	-10.964363
କା	-10.964526
▁ግን	-10.964666
▁ਲ	-10.964954
▁keda	-10.964982
▁Van	-10.965007
ફ	-10.965114
▁азоб	-10.965281
▁بل	-10.965368
dow	-10.965371
သား	-10.965775
53	-10.965819
ուս	-10.965849
▁bà	-10.965913
ràn	-10.966047
arde	-10.966225
▁Ехова	-10.966361
ต้อง	-10.966408
▁Kre	-10.966791
▁Inter	-10.967074
гөн	-10.967196
nyama	-10.967407
พวก	-10.967423
▁sakey	-10.967470
قل	-10.967528
▁это	-10.967640
▁الإ	-10.967806
вор	-10.967854
nyere	-10.967967
▁барои	-10.968077
▁رب	-10.968085
sob	-10.968171
جێ	-10.968287
▁ئۇنى	-10.968336
▁आपल्या	-10.968413
sakit	-10.968464
▁пол	-10.968561
▁Guutip	-10.968651
OL	-10.968697
▁טעקע	-10.968921
ምን	-10.968938
▁გ	-10.968964
▁ბ	-10.969038
▁foto	-10.969114
▁bene	-10.969208
ರಾ	-10.969221
▁Isaia	-10.969310
Х	-10.969499
▁қол	-10.969594
▁ᏥᏌ	-10.969596
paa	-10.969616
▁Ä	-10.969648
ടു	-10.969870
culo	-10.969991
▁Ре	-10.970136
mbisa	-10.970232
IV	-10.970245
чак	-10.970642
һы	-10.970823
ées	-10.970864
▁acu	-10.970900
方面	-10.970943
▁ning	-10.970999
▁kuatisa	-10.971287
▁असे	-10.971465
အား	-10.971467
վում	-10.971542
фт	-10.971744
▁espe	-10.971805
oir	-10.971919
ሐ	-10.972317
リ	-10.972320
67	-10.972404
ować	-10.972713
llar	-10.972721
▁anya	-10.972729
λη	-10.972776
▁куы	-10.972917
▁være	-10.973034
▁ڇا	-10.973053
ƙa	-10.973191
tning	-10.973242
▁importante	-10.973301
▁Pra	-10.973399
▁tavini	-10.973424
ھر	-10.973453
▁เรา	-10.973459
▁dri	-10.973625
▁Zu	-10.973924
▁edip	-10.973939
▁gbogbo	-10.974232
Эй	-10.974288
▁họ	-10.974340
▁khi	-10.974596
ҟ	-10.974829
name	-10.974834
ασ	-10.974847
pres	-10.974938
▁Cre	-10.975201
simba	-10.975280
▁Cristo	-10.975302
▁မည်	-10.975407
▁7)	-10.975469
▁cutan	-10.975520
னை	-10.975533
▁სი	-10.975626
社会	-10.975650
▁زا	-10.975710
▁ዘሎ	-10.975819
▁mera	-10.975846
▁နှင့်	-10.975939
方案	-10.976056
кат	-10.976119
▁voi	-10.976147
асы	-10.976373
kes	-10.976571
saj	-10.976675
riko	-10.976754
▁Агар	-10.976771
оно	-10.976886
ņ	-10.976973
▁කර	-10.977030
▁გამო	-10.977032
▁അവന്	-10.977057
лын	-10.977083
▁özü	-10.977111
pass	-10.977215
▁daripada	-10.977237
▁fenua	-10.977268
▁klas	-10.977370
相	-10.977638
ૂ	-10.977641
ଜ	-10.977646
▁لیے	-10.977659
cuânk	-10.977675
▁transport	-10.977801
shte	-10.978077
еит	-10.978407
dyondz	-10.978505
pul	-10.978702
при	-10.978841
▁നീ	-10.979237
ـ	-10.979323
ето	-10.979478
1/	-10.979702
▁kul	-10.979779
ವಾದ	-10.979815
▁regi	-10.979910
ự	-10.979964
ፊ	-10.980000
Ꮠ	-10.980000
гаш	-10.980010
▁ገ	-10.980136
este	-10.980248
อย่าง	-10.980429
▁fyrir	-10.980429
▁लिए	-10.980431
▁11)	-10.980633
`	-10.980635
▁මම	-10.980682
▁interes	-10.980987
eel	-10.981049
▁έ	-10.981062
nov	-10.981152
ජ	-10.981286
rez	-10.981381
US	-10.981497
гәы	-10.981521
▁tap	-10.981737
▁ஏ	-10.981781
။	-10.981855
queb	-10.981939
íní	-10.982028
▁waxaan	-10.982107
▁munhu	-10.982133
▁adlaw	-10.982191
naaj	-10.982233
ือ	-10.982408
hum	-10.982608
දු	-10.982682
hol	-10.982738
▁ብም	-10.982794
نت	-10.982825
▁gele	-10.982886
▁ڪي	-10.983019
তা	-10.983249
▁تع	-10.983262
▁কি	-10.983297
isk	-10.983390
▁куыд	-10.983418
▁Rom	-10.983500
▁ไม่	-10.983624
Kristu	-10.983630
fy	-10.983692
ект	-10.983702
երը	-10.983932
▁أو	-10.983996
▁Deus	-10.984283
ऊ	-10.984294
mbula	-10.984307
ndika	-10.984317
fla	-10.984538
ವೆ	-10.984693
ruh	-10.984849
انت	-10.984875
▁sind	-10.985034
ྱ	-10.985042
ρά	-10.985199
kop	-10.985265
▁tahu	-10.985288
▁উ	-10.985519
ök	-10.985657
▁bye	-10.985739
▁taj	-10.985744
▁يول	-10.985878
▁ಕೊ	-10.985878
▁nén	-10.985907
▁бид	-10.986121
uar	-10.986273
gro	-10.986326
നി	-10.986408
▁raha	-10.986650
kite	-10.986750
▁Korint	-10.986996
▁Mari	-10.987020
▁köp	-10.987055
ᏓᏅ	-10.987208
▁téh	-10.987355
ผ	-10.987427
▁ھڪ	-10.987432
▁фар	-10.987943
adda	-10.987988
ன்ற	-10.988026
ţ	-10.988366
▁செ	-10.988475
▁riba	-10.988789
шәа	-10.988850
ès	-10.988860
▁rá	-10.988924
ац	-10.988932
njo	-10.989014
▁vala	-10.989039
ರೂ	-10.989180
▁wë	-10.989201
yer	-10.989204
▁اب	-10.989360
▁izany	-10.989471
▁болгон	-10.989509
ịrị	-10.989682
▁నేను	-10.989696
ament	-10.989816
▁adu	-10.989853
ফ	-10.990000
achadh	-10.990227
▁ég	-10.990229
гал	-10.990242
сиз	-10.990286
▁Vis	-10.990500
ớ	-10.990519
▁کار	-10.990548
ış	-10.990587
▁galuega	-10.990771
包括	-10.990777
रि	-10.991142
▁Ndị	-10.991196
ৰে	-10.991206
▁roz	-10.991258
▁viv	-10.991292
கிற	-10.991330
▁ವ	-10.991335
▁disip	-10.991780
▁మీ	-10.991874
▁Tang	-10.992260
员	-10.992375
▁meri	-10.992393
غىن	-10.992395
mäge	-10.992454
จาก	-10.992593
▁کہا	-10.992623
uden	-10.992760
▁مت	-10.992838
kov	-10.993003
доб	-10.993090
кор	-10.993091
sele	-10.993111
ఫ	-10.993155
CI	-10.993254
tim	-10.993306
lijk	-10.993709
▁jalma	-10.993728
യി	-10.994319
bord	-10.994353
diri	-10.994395
▁بەر	-10.994497
ੜ	-10.994583
imba	-10.994608
ල්	-10.994667
除	-10.994682
alis	-10.994805
▁Fin	-10.994905
ứ	-10.994996
▁ის	-10.995049
šanu	-10.995093
صل	-10.995137
▁۱	-10.995365
▁မှာ	-10.995435
▁ана	-10.995471
ായി	-10.995508
▁వారి	-10.995536
▁בילד	-10.995546
ент	-10.995644
nad	-10.995807
▁نڪ	-10.995885
ན	-10.995944
ລະ	-10.996047
▁आपण	-10.996158
▁Де	-10.996176
▁kongregasyon	-10.996200
ging	-10.996207
वे	-10.996218
96	-10.996273
იან	-10.996359
mic	-10.996388
гай	-10.996776
ência	-10.996792
ери	-10.996889
jį	-10.997016
сак	-10.997147
suk	-10.997179
▁رس	-10.997215
vul	-10.997337
әү	-10.997445
ւ	-10.997568
дыг	-10.997683
දි	-10.997828
ார்கள்	-10.997919
ես	-10.998142
▁እውን	-10.998264
▁nemu	-10.998641
▁peng	-10.998676
Al	-10.998913
死	-10.999037
كا	-10.999081
lamu	-10.999097
▁၁	-10.999139
рим	-10.999174
мәс	-10.999202
▁කරන්න	-10.999384
iyor	-10.999454
▁vali	-10.999575
็	-10.999582
IL	-10.999768
zul	-10.999812
નો	-10.999855
▁OF	-11.000175
зин	-11.000198
ments	-11.000488
lipay	-11.000595
vě	-11.000711
tolu	-11.000769
って	-11.000803
▁మా	-11.000822
رز	-11.000947
chal	-11.001227
öl	-11.001239
nyň	-11.001259
หล	-11.001354
▁Μ	-11.001466
ڕو	-11.001565
ikan	-11.001982
ۋ	-11.002048
▁ಅವರ	-11.002057
▁gauna	-11.002123
▁ڪريو	-11.002164
wè	-11.002225
▁ڏينھن	-11.002371
تې	-11.002430
пас	-11.002466
ುತ್ತ	-11.002526
▁při	-11.002542
rth	-11.002693
inės	-11.002825
ಕೆ	-11.003100
▁μ	-11.003685
άλ	-11.003694
▁43	-11.003716
▁aktiv	-11.003854
▁Má	-11.004061
limi	-11.004222
▁juon	-11.004256
äl	-11.004522
▁1914	-11.004655
oki	-11.004664
นะ	-11.004675
ndur	-11.004683
To	-11.005043
की	-11.005069
keke	-11.005075
lwe	-11.005122
ஸ்	-11.005173
دۇق	-11.005295
þ	-11.005304
idu	-11.005358
▁ун	-11.005620
▁Ю	-11.005625
▁ထို	-11.005697
▁ሰብ	-11.005741
nụ	-11.005743
pụ	-11.005774
ං	-11.005826
▁دنیا	-11.006043
64	-11.006155
▁Timoteo	-11.006156
ํา	-11.006160
ഡ	-11.006266
▁tuga	-11.006268
slag	-11.006343
инде	-11.006351
टा	-11.006447
ាន	-11.006613
gbà	-11.006636
▁کام	-11.006657
▁80	-11.006709
▁euro	-11.006856
▁دڵ	-11.006958
üt	-11.007112
▁nähili	-11.007147
ア	-11.007368
tē	-11.007447
▁esse	-11.007550
ിട്ട	-11.007551
▁کردووه	-11.007677
ಲ್	-11.007867
pito	-11.008049
▁14)	-11.008100
אי	-11.008245
▁kasta	-11.008370
ਦੀ	-11.008409
عد	-11.008542
▁kao	-11.008587
өй	-11.008809
ળ	-11.008858
ndro	-11.008961
মে	-11.009063
▁ڕاست	-11.009086
▁just	-11.009259
zia	-11.009304
ndawo	-11.009417
▁mabe	-11.009527
▁pře	-11.009664
lab	-11.009805
▁Samuel	-11.009929
tshe	-11.010004
uq	-11.010201
ڵام	-11.010406
ونه	-11.010467
知道	-11.010531
ingon	-11.010561
aigh	-11.010684
不是	-11.010901
▁manera	-11.010972
▁audi	-11.011022
Қ	-11.011152
▁Dar	-11.011295
නි	-11.011406
lov	-11.011638
▁yake	-11.011756
▁بڵێ	-11.011796
TU	-11.011853
▁પ	-11.011870
MS	-11.012232
▁els	-11.012382
ใน	-11.012746
гон	-11.012932
mada	-11.013013
іль	-11.013041
▁ເຖິງ	-11.013108
▁εν	-11.013109
▁wani	-11.013228
iran	-11.013240
▁dogan	-11.013281
օր	-11.013421
▁ach	-11.013431
▁=	-11.013491
▁Domini	-11.013503
གས	-11.013818
▁kömek	-11.013882
ச்	-11.013987
legg	-11.014115
▁ở	-11.014119
▁Аллаһы	-11.014149
▁suke	-11.014156
▁ত	-11.014207
וו	-11.014483
MO	-11.014605
▁بي	-11.014748
▁kla	-11.014760
kami	-11.014832
چە	-11.014988
nä	-11.015034
管理	-11.015126
hindu	-11.015292
▁ук	-11.015300
や	-11.015327
੍ਹਾਂ	-11.015548
▁كه	-11.015595
UR	-11.015697
дагы	-11.015804
▁tradi	-11.015873
▁ker	-11.016166
▁شو	-11.016186
mą	-11.016270
▁хӑ	-11.016341
▁tú	-11.016376
ۋەت	-11.016398
ัก	-11.016431
▁Bru	-11.016783
лов	-11.016850
▁siata	-11.016892
band	-11.016964
▁сиз	-11.017027
▁ಒ	-11.017382
sip	-11.017486
▁ጸ	-11.017599
nsu	-11.018357
	-11.018437
▁ڏانھن	-11.018437
26	-11.018448
▁toku	-11.018466
ił	-11.018593
еле	-11.019053
▁conse	-11.019119
▁zvino	-11.019174
ախ	-11.019276
▁waray	-11.019278
ვლ	-11.019776
यो	-11.019841
▁48	-11.019921
gali	-11.020170
cept	-11.020174
ине	-11.020262
▁smo	-11.020269
takan	-11.020295
ᏍᏓ	-11.020427
кой	-11.020465
Ӕ	-11.020543
რჲ	-11.020644
▁popia	-11.020648
▁זיך	-11.020666
imp	-11.020717
soma	-11.020833
▁માટે	-11.020889
▁EUR	-11.020988
▁end	-11.021083
接	-11.021116
suku	-11.021177
▁adam	-11.021243
лага	-11.021361
▁พระ	-11.021386
عل	-11.021515
▁kwambiri	-11.021529
род	-11.021680
ాల	-11.021680
hunahuna	-11.021783
ेल	-11.021787
▁телә	-11.021805
这些	-11.021855
0}	-11.021997
▁Kerisiano	-11.022006
▁door	-11.022298
▁កម្មវិធី	-11.022452
▁ኢዩ	-11.022708
▁ҡара	-11.023009
▁گھ	-11.023066
cional	-11.023485
ៀ	-11.023590
▁buryo	-11.023639
▁मे	-11.023785
ġġ	-11.023797
fine	-11.023833
SS	-11.023903
ந்து	-11.023929
▁grand	-11.024006
▁sim	-11.024073
▁һәр	-11.024298
chten	-11.024355
ров	-11.024432
▁Evolution	-11.024467
əm	-11.024658
▁শ	-11.024769
хан	-11.024900
巴	-11.024926
ịa	-11.024936
ம்ப	-11.025025
嗎	-11.025139
种	-11.025279
yê	-11.025298
ဖြ	-11.025316
mbala	-11.025367
மே	-11.025528
▁bl	-11.025577
▁Mukaddes	-11.025587
▁enim	-11.025587
▁Bra	-11.025589
▁δια	-11.025598
nguva	-11.025758
tivi	-11.025829
▁amat	-11.025836
нат	-11.025867
fise	-11.026052
▁yana	-11.026118
ız	-11.026181
▁finans	-11.026288
ையும்	-11.026308
ють	-11.026370
▁Τ	-11.026419
▁مەن	-11.026466
ће	-11.026497
▁ត	-11.026599
బడ	-11.026647
▁omo	-11.026667
Ҳ	-11.026668
ရှ	-11.026670
▁ኸ	-11.026711
şe	-11.026781
говор	-11.026828
▁fekau	-11.026900
ű	-11.026933
▁Jer	-11.026981
వారు	-11.027099
ڵات	-11.027115
▁بچ	-11.027271
дал	-11.027406
86	-11.027469
កា	-11.027498
私	-11.027608
▁hat	-11.027641
لارغا	-11.027697
വി	-11.027846
▁Apo	-11.027883
▁War	-11.027913
kaw	-11.027923
ัน	-11.028162
▁yá	-11.028195
▁terus	-11.028269
ኤ	-11.028281
▁ג	-11.028357
ề	-11.028550
tolo	-11.028820
cun	-11.028855
อะไร	-11.028955
кта	-11.028993
თან	-11.028995
esa	-11.029160
▁prae	-11.029363
▁Jag	-11.029368
ക്കാ	-11.029706
▁చ	-11.029802
قە	-11.029842
gram	-11.029867
▁quia	-11.029963
开	-11.030075
▁bur	-11.030100
dà	-11.030124
▁لو	-11.030150
بع	-11.030223
syn	-11.030231
сько	-11.030304
talo	-11.030337
▁fit	-11.030492
▁ຕ້ອງ	-11.030515
从	-11.030538
▁ናብ	-11.030643
شار	-11.030649
▁guiya	-11.030704
णे	-11.030733
▁gir	-11.030766
▁あ	-11.030856
koro	-11.030958
▁бүл	-11.031210
рақәа	-11.031319
▁ayns	-11.031387
見	-11.031437
گى	-11.031500
sara	-11.031533
ृ	-11.031533
▁ពេល	-11.031564
ሎም	-11.031567
非	-11.031648
Lo	-11.031720
▁dur	-11.031745
রে	-11.031756
▁lâex	-11.031820
یاندا	-11.031849
Microsoft	-11.032111
riya	-11.032124
ಿಕ	-11.032164
صد	-11.032165
эз	-11.032250
zal	-11.032274
ổ	-11.032337
▁ਇਹ	-11.032338
కా	-11.032341
▁kye	-11.032429
▁tapu	-11.032506
▁0,	-11.032638
நி	-11.032641
▁သင်	-11.032752
sọ	-11.032948
ڵی	-11.033005
°	-11.033014
NA	-11.033185
▁албатта	-11.033240
▁ת	-11.033261
гыз	-11.033370
నా	-11.033374
ดี	-11.033442
▁ndlela	-11.033515
▁دوو	-11.033552
प्	-11.033711
▁ምን	-11.033821
▁रह	-11.033846
erte	-11.034081
▁мэд	-11.034111
▁ä	-11.034240
▁tuai	-11.034297
yat	-11.034319
Η	-11.034370
ཡིག་སྣོད་	-11.034372
改	-11.034375
fua	-11.034454
▁পা	-11.034513
nnut	-11.034559
▁অনু	-11.034596
tì	-11.034674
▁ebe	-11.034719
WA	-11.034724
▁ពួក	-11.034823
▁ಶ	-11.034824
يان	-11.034844
▁ብዛዕባ	-11.035049
▁jä	-11.035212
▁મ	-11.035230
▁сез	-11.035267
VA	-11.035348
nej	-11.035407
▁nor	-11.035410
AD	-11.035495
▁Пайғамбар	-11.035503
▁zaman	-11.035516
▁chiruheb	-11.035600
▁üçün	-11.035729
ырга	-11.035954
aH	-11.035970
ndisa	-11.036266
▁cy	-11.036450
▁olma	-11.036743
▁ahaa	-11.036765
ڄ	-11.036860
▁ئىمان	-11.036928
▁我们	-11.036968
زار	-11.037148
von	-11.037292
જ	-11.037327
рас	-11.037353
▁уг	-11.037379
放	-11.037544
▁Anh	-11.037645
▁જ	-11.037838
▁ባ	-11.038104
ਲਾ	-11.038109
nggal	-11.038113
▁علیه	-11.038233
▁mò	-11.038236
▁atau	-11.038301
道	-11.038438
▁pannaka	-11.038471
ינ	-11.038557
▁ಹೇಳ	-11.038906
▁२	-11.039003
▁Aus	-11.039271
ங்க	-11.039434
▁jak	-11.039614
▁төр	-11.039614
ങ്ങൾ	-11.039821
ṛuḥ	-11.039958
ांना	-11.040232
jat	-11.040311
ष्ट	-11.040499
▁kiri	-11.040557
▁សា	-11.040566
▁само	-11.040821
59	-11.040847
▁17,	-11.040935
2/	-11.041267
hele	-11.041350
уда	-11.041354
▁ಉ	-11.041430
رێت	-11.041439
خی	-11.041533
▁داد	-11.041572
▁butang	-11.041607
ப்பட	-11.041632
▁چیز	-11.041689
TORS	-11.041725
cßul	-11.041760
taha	-11.041830
▁ನ	-11.041954
▁~	-11.041988
▁tetahi	-11.042022
fet	-11.042034
дың	-11.042254
ույ	-11.042291
▁eye	-11.042312
▁boo	-11.042344
гд	-11.042386
▁ovina	-11.042505
▁Art	-11.042542
▁деген	-11.042633
▁word	-11.042798
▁kwalok	-11.042852
31	-11.042983
▁β	-11.043007
▁ilay	-11.043079
მო	-11.043132
▁ھن	-11.043177
▁cả	-11.043225
▁12)	-11.043267
▁dà	-11.043270
▁دے	-11.043338
đi	-11.043350
ندي	-11.043450
▁ဘ	-11.043516
иқ	-11.043668
▁kien	-11.043716
handel	-11.043797
▁pagal	-11.043834
▁తన	-11.043941
ште	-11.043942
غۇ	-11.044030
▁дин	-11.044193
үче	-11.044259
viri	-11.044548
▁19.	-11.044556
▁kitsoz	-11.044607
▁ఏ	-11.044669
▁Spe	-11.044719
▁bụrụ	-11.044758
▁גע	-11.044805
able	-11.044935
▁vyo	-11.045419
▁diha	-11.045475
dzu	-11.045538
▁دە	-11.045555
inni	-11.045604
ۇر	-11.045815
▁leh	-11.045823
ప్ప	-11.045844
won	-11.045850
▁ප්	-11.045870
檔案	-11.045980
پى	-11.045982
▁Он	-11.045983
▁13)	-11.046142
▁panta	-11.046236
▁tumau	-11.046306
▁fēfē	-11.046662
▁vinn	-11.046867
▁kore	-11.046964
▁Yuus	-11.047012
▁TRANSL	-11.047120
irwa	-11.047122
тра	-11.047320
ထား	-11.047349
▁ọzọ	-11.047350
cle	-11.047392
▁jerbal	-11.047400
pisa	-11.047511
ులు	-11.047644
bok	-11.047717
▁cel	-11.047732
▁Ꮳ	-11.048111
okuba	-11.048142
ແ	-11.048233
बा	-11.048248
ును	-11.048256
▁кижи	-11.048465
ట్	-11.048567
ндай	-11.048593
▁Res	-11.048608
▁sag	-11.048802
▁sao	-11.048820
voq	-11.049356
fr	-11.049551
kà	-11.049832
ിക്കുന്ന	-11.049975
ffen	-11.050100
▁Kwa	-11.050118
▁gü	-11.050201
larını	-11.050431
cono	-11.050461
我的	-11.050461
ုံ	-11.050534
▁Imi	-11.050563
▁tulaga	-11.051035
▁τη	-11.051069
มี	-11.051122
hari	-11.051246
рым	-11.051287
▁xcuanquil	-11.051483
cə	-11.051594
▁str	-11.051638
rha	-11.051683
pport	-11.051684
▁сана	-11.051738
▁那	-11.051775
IR	-11.051776
▁Þ	-11.052054
▁duti	-11.052135
▁Eiropas	-11.052174
▁تمہیں	-11.052174
လို	-11.052193
▁centr	-11.052267
▁xbêneb	-11.052385
▁Bíbélì	-11.052403
njalo	-11.052433
مەن	-11.052564
hod	-11.052619
▁biex	-11.052729
ļu	-11.052733
▁ਵ	-11.052800
cze	-11.052862
▁br	-11.052906
▁คุณ	-11.052956
▁Gusti	-11.052973
ဂ	-11.053326
▁tara	-11.053371
▁ᎢᏳ	-11.053494
ӕд	-11.053574
imiz	-11.053584
pta	-11.053596
▁liaco	-11.053618
bed	-11.053817
▁Tin	-11.053909
▁હ	-11.053923
▁ինչ	-11.054018
ின	-11.054148
ាំង	-11.054182
prav	-11.054197
posi	-11.054327
جر	-11.054373
dzie	-11.054698
▁ضرور	-11.054719
▁Cy	-11.054836
ymyz	-11.054842
jos	-11.054857
ရှိ	-11.054890
bè	-11.054918
iweke	-11.054959
▁કરો	-11.055020
fol	-11.055146
▁ឯកសារ	-11.055172
gwi	-11.055183
tale	-11.055319
▁misi	-11.055537
ವಾ	-11.055572
▁មួយ	-11.055593
ئن	-11.055766
stem	-11.055827
জন	-11.055890
дат	-11.056023
▁այդ	-11.056098
UM	-11.056152
liko	-11.056437
kụ	-11.056447
PE	-11.056582
▁ты	-11.056653
KI	-11.056740
▁defini	-11.056891
oní	-11.057057
▁អា	-11.057228
ngila	-11.057281
▁آھيو	-11.057406
मो	-11.057443
▁filii	-11.057478
▁Ilo	-11.057751
toq	-11.057778
ως	-11.057863
▁thế	-11.058069
tende	-11.058242
lari	-11.058264
imwi	-11.058270
▁Bet	-11.058304
IP	-11.058327
ಕ್ಕ	-11.058524
▁జ	-11.058564
ಕರ	-11.058600
▁سەن	-11.058623
තා	-11.058701
▁לה	-11.058756
▁bagi	-11.058969
রি	-11.058987
гө	-11.059186
▁رو	-11.059270
亚	-11.059301
▁possi	-11.059317
ۇل	-11.059318
osta	-11.059438
▁kim	-11.059479
kàn	-11.059615
▁15)	-11.059634
▁مش	-11.059705
সমূহ	-11.059802
▁bed	-11.060050
▁abu	-11.060314
▁دیکھ	-11.060318
▁күр	-11.060463
▁dum	-11.060520
情况	-11.060737
ਲੇ	-11.060846
57	-11.060865
eho	-11.061131
ሌ	-11.061194
เรา	-11.061340
▁Nem	-11.061640
אַר	-11.061690
▁și	-11.061791
▁yuko	-11.061812
因	-11.061826
dagi	-11.061898
ина	-11.062122
ення	-11.062129
▁күп	-11.062389
ଯ	-11.062395
စာ	-11.062522
رج	-11.062725
▁apostol	-11.062737
▁yiwen	-11.062979
▁yaco	-11.063005
▁θα	-11.063025
▁2014	-11.063111
▁ፈ	-11.063271
tır	-11.063293
▁ই	-11.063409
▁сур	-11.063411
தா	-11.063413
▁câ	-11.063445
▁भी	-11.063463
ைய	-11.063578
тте	-11.063594
▁daar	-11.063727
▁proced	-11.063778
▁ሓደ	-11.063793
ետ	-11.063890
ຖ	-11.063986
▁comuni	-11.064057
▁care	-11.064115
თა	-11.064346
▁قىلىدۇ	-11.064346
あ	-11.064761
genda	-11.065001
бор	-11.065011
τή	-11.065308
kuavo	-11.065428
table	-11.065720
ināt	-11.065724
ude	-11.065727
▁pol	-11.065815
▁خۆش	-11.065910
▁Mun	-11.065941
شود	-11.066086
شم	-11.066153
тка	-11.066162
ਮਾ	-11.066340
soro	-11.066400
tě	-11.066421
▁woon	-11.066430
▁болгаш	-11.066433
▁shoh	-11.066530
▁сал	-11.066807
ነበረ	-11.066815
gul	-11.066916
dele	-11.067110
lalo	-11.067207
▁တော်	-11.067273
äh	-11.067334
xbânu	-11.067365
▁lại	-11.067500
ప్పుడు	-11.067766
раш	-11.067874
▁والے	-11.068046
▁Tar	-11.068121
▁дей	-11.068511
vere	-11.068573
▁hla	-11.068639
▁mwana	-11.068658
luta	-11.068694
တဲ့	-11.068744
▁אױב	-11.068892
▁কর	-11.069002
рес	-11.069057
ոս	-11.069165
▁spi	-11.069241
▁фа	-11.069284
ලා	-11.069675
سي	-11.069724
ောင်	-11.069958
ậ	-11.069980
▁المتحدة	-11.070299
今	-11.070302
udo	-11.070350
ɣa	-11.070390
▁بکات	-11.070459
▁над	-11.070571
▁Ке	-11.070583
لام	-11.070652
risa	-11.070698
لارنىڭ	-11.070779
èr	-11.070910
qßui	-11.071020
ете	-11.071140
▁title	-11.071203
sino	-11.071212
▁bira	-11.071486
▁olan	-11.071503
▁پەرۋەردىگارى	-11.071571
Po	-11.071912
feka	-11.071931
Jesu	-11.071953
{	-11.072024
ەك	-11.072287
▁nakon	-11.072338
schen	-11.072340
ྲ	-11.072402
▁чӣ	-11.072453
你的	-11.072472
▁kif	-11.072496
▁ຄໍາພີ	-11.072646
pital	-11.072743
▁वह	-11.072800
më	-11.073077
Й	-11.073109
ڀ	-11.073131
bog	-11.073350
▁үҙ	-11.073383
▁કે	-11.073507
EM	-11.073545
abantu	-11.073634
ិត	-11.073664
▁እዮም	-11.073822
▁kehe	-11.073885
▁tapa	-11.073955
тин	-11.073961
▁Paia	-11.074101
فق	-11.074221
▁*.	-11.074369
ņem	-11.074417
▁līdz	-11.074810
ಗೆ	-11.074988
▁کارو	-11.075014
geri	-11.075113
▁яхши	-11.075237
miz	-11.075313
ramid	-11.075359
▁meda	-11.075434
lø	-11.075466
lys	-11.075478
මු	-11.075493
▁kamo	-11.075502
▁Ст	-11.075516
نظر	-11.075557
увчи	-11.075937
61	-11.076044
行动	-11.076093
rzy	-11.076094
▁ດີ	-11.076234
▁hàn	-11.076237
▁Ž	-11.076246
▁оп	-11.076253
▁προ	-11.076254
ży	-11.076303
נע	-11.076346
▁તે	-11.076430
▁خبر	-11.076472
rgi	-11.076519
!)	-11.076598
mų	-11.076672
▁penga	-11.076907
▁ekonomi	-11.076919
เล	-11.077285
ŵ	-11.077298
шат	-11.077302
▁tae	-11.077339
ιο	-11.077380
ಮಾಡ	-11.077470
▁ឬ	-11.077576
▁амал	-11.077733
▁cada	-11.077744
வர்கள	-11.077805
tant	-11.077826
сез	-11.078104
वी	-11.078140
▁նա	-11.078482
ึ	-11.078539
▁យេ	-11.078546
nimo	-11.078599
ppen	-11.078605
mey	-11.078618
ान	-11.078829
▁pole	-11.078964
▁tumu	-11.079099
ڳ	-11.079596
დე	-11.079622
دين	-11.079674
▁kontrol	-11.079746
72	-11.080573
õk	-11.080703
PS	-11.080711
▁bił	-11.080734
器	-11.080903
ችን	-11.080916
ít	-11.081036
kisi	-11.081051
▁Av	-11.081067
ống	-11.081137
▁Satan	-11.081141
lley	-11.081244
Ꭾ	-11.081514
▁اما	-11.081569
少	-11.081859
տեղ	-11.081974
ിപ്പ	-11.081994
▁über	-11.082037
▁ఈ	-11.082108
▁ଆ	-11.082122
▁wayen	-11.082339
▁yali	-11.082395
polo	-11.082620
qatigi	-11.082641
▁(2)	-11.082657
▁ئاسمان	-11.082854
ラ	-11.083044
▁ач	-11.083128
elela	-11.083205
▁ል	-11.083273
tahi	-11.083342
▁тип	-11.083380
▁Moses	-11.083514
Ã	-11.083517
▁kij	-11.083603
адиган	-11.083694
umwi	-11.083925
▁sax	-11.083932
titi	-11.084110
▁doonaa	-11.084406
▁bati	-11.084425
Ә	-11.084433
▁alu	-11.084580
IA	-11.084613
▁kere	-11.084699
теп	-11.084706
piti	-11.084771
ილი	-11.084935
▁23.	-11.085166
▁üz	-11.085439
cë	-11.085579
▁Pero	-11.085604
83	-11.085627
isse	-11.085716
97	-11.085887
机构	-11.085906
▁טעקסט	-11.086135
धी	-11.086170
šta	-11.086212
оч	-11.086340
执行	-11.086403
▁kap	-11.086676
▁ሰባት	-11.086850
▁ኺ	-11.086857
▁Anda	-11.086967
▁その	-11.087091
▁She	-11.087180
▁disk	-11.087261
▁حکم	-11.087341
式	-11.087399
▁musi	-11.087454
سر	-11.087985
▁ແບບ	-11.088042
▁+	-11.088106
зна	-11.088141
kod	-11.088240
▁сай	-11.088261
▁پەقەت	-11.088281
hụ	-11.088434
cere	-11.088582
▁sina	-11.088661
▁пе	-11.088785
▁قىلدى	-11.089095
▁пок	-11.089295
ाने	-11.089578
Ha	-11.089615
ира	-11.089670
▁அவர்	-11.089689
ului	-11.089704
stā	-11.089715
бө	-11.089721
rede	-11.089782
BE	-11.090061
!»	-11.090065
▁гар	-11.090074
qed	-11.090075
ður	-11.090151
ฟ	-11.090192
ënë	-11.090193
män	-11.090383
ndha	-11.090423
יי	-11.090545
▁It	-11.090749
даги	-11.090878
pala	-11.090976
▁হবে	-11.090990
സം	-11.091006
ምር	-11.091100
iswa	-11.091119
ຜ	-11.091146
▁heigoa	-11.091162
ោះ	-11.091187
فه	-11.091368
▁kosala	-11.091565
имо	-11.091577
▁pai	-11.091626
▁zimene	-11.091679
▁លើ	-11.091738
தே	-11.091783
▁ພະເຈົ້າ	-11.091878
stis	-11.091995
ҙы	-11.092099
▁પ્ર	-11.092423
▁Guuti	-11.092509
णी	-11.092599
nɔ	-11.092706
▁mort	-11.092728
вој	-11.092883
▁lani	-11.092909
bati	-11.093037
▁noma	-11.093106
▁তা	-11.093176
ισ	-11.093333
▁sunu	-11.093346
27	-11.093545
ագ	-11.093663
ερ	-11.093728
▁ណា	-11.093835
နှ	-11.093887
Ꮇ	-11.093969
▁Franc	-11.094080
▁ᎩᎶ	-11.094275
▁kapit	-11.094394
▁Ꭼ	-11.094476
▁cava	-11.094904
ист	-11.094990
ಾನ	-11.095060
पा	-11.095143
मी	-11.095270
prov	-11.095320
лах	-11.095390
ӕл	-11.095429
▁Juda	-11.095439
ствен	-11.095490
/2	-11.095514
مايدۇ	-11.095555
ჯ	-11.095710
mij	-11.095880
ụzọ	-11.095953
bina	-11.096042
िया	-11.096159
õr	-11.096176
▁ຮູ້	-11.096191
▁fara	-11.096247
▁priv	-11.096310
ବା	-11.096318
▁út	-11.096357
չ	-11.096417
ត្រ	-11.096478
▁ಸಾ	-11.096530
yandi	-11.096695
ობა	-11.096768
▁produc	-11.096776
▁nào	-11.096938
نج	-11.096943
ṛen	-11.096971
▁ᎢᎦ	-11.097015
▁bor	-11.097238
ję	-11.097392
நா	-11.097468
▁อ	-11.097526
▁đến	-11.097689
szer	-11.098269
mama	-11.098279
▁kotoa	-11.098316
▁ପ୍ର	-11.098368
▁text	-11.098414
▁seu	-11.098577
Pro	-11.098586
తా	-11.098945
buru	-11.099092
87	-11.099099
▁riq	-11.099304
በር	-11.099309
کن	-11.099376
ᎦᎵ	-11.099407
usar	-11.099578
ларига	-11.099792
్యా	-11.099839
感	-11.100050
حم	-11.100145
gona	-11.100589
▁leske	-11.100610
▁алыр	-11.100739
dź	-11.100767
▁Хо	-11.100982
▁ساتھ	-11.101016
posta	-11.101051
04	-11.101257
▁lugar	-11.101474
▁Tera	-11.101513
ሆነ	-11.101567
нча	-11.101570
▁тар	-11.101692
▁том	-11.101843
OM	-11.101960
▁fakamo	-11.102220
▁مس	-11.102264
ประ	-11.102372
gwasya	-11.102441
▁toki	-11.102612
نيا	-11.102667
▁aț	-11.102815
íocht	-11.102967
жда	-11.103099
бү	-11.103111
ནས་	-11.103127
▁tuo	-11.103160
ភាព	-11.103189
siz	-11.103243
▁pul	-11.103291
▁dhu	-11.103352
▁ну	-11.103395
▁ilu	-11.103415
金	-11.103430
teke	-11.103526
หา	-11.103600
гээ	-11.103806
laş	-11.103844
▁tetap	-11.103882
▁Waxaa	-11.103903
ಿದ	-11.104024
84	-11.104046
бан	-11.104326
▁sigur	-11.104417
ради	-11.104689
tique	-11.104726
masi	-11.104829
▁တွင်	-11.104879
ಂಡ	-11.104936
lec	-11.105314
▁aplica	-11.105343
ҙа	-11.105451
ция	-11.105456
▁Os	-11.105497
ான்	-11.105578
▁Mark	-11.105979
▁veni	-11.105983
gä	-11.106011
Mi	-11.106102
lunga	-11.106129
पु	-11.106144
كەن	-11.106188
ED	-11.106250
લા	-11.106283
▁наме	-11.106441
▁Col	-11.106488
PI	-11.106544
▁riai	-11.106796
▁itan	-11.106853
▁lagu	-11.106922
▁เป็น	-11.107051
cuan	-11.107099
бере	-11.107224
▁ᎾᏍᏉ	-11.107323
▁уларга	-11.107494
ብል	-11.107544
гоҳ	-11.107585
▁خوایه	-11.107688
▁17)	-11.107777
kot	-11.107830
▁ukuze	-11.107903
28	-11.107918
cH	-11.108155
elwe	-11.108162
▁Ger	-11.108548
▁бик	-11.108600
ário	-11.108637
▁23:	-11.108829
▁tatau	-11.108874
▁menjadi	-11.109038
անց	-11.109050
وێ	-11.109247
协	-11.109279
▁လူ	-11.109400
啊	-11.109514
科	-11.109516
▁rapport	-11.109645
▁مح	-11.109843
тат	-11.109918
▁2015	-11.109986
▁land	-11.110254
▁kõj	-11.110399
▁azali	-11.110539
جی	-11.110541
خر	-11.110662
punkt	-11.110745
lande	-11.110821
ችሁ	-11.110917
సు	-11.110976
像	-11.110978
Ā	-11.110979
▁6)	-11.111013
sod	-11.111043
68	-11.111193
▁administra	-11.111198
▁ilegña	-11.111469
▁پي	-11.111506
▁konn	-11.111588
κο	-11.111650
essa	-11.111719
▁ýyl	-11.111719
▁kawa	-11.111871
▁Mont	-11.111910
ост	-11.112187
▁panga	-11.112211
гӯ	-11.112315
ವೇ	-11.112316
cji	-11.112585
▁igi	-11.112766
tip	-11.112802
side	-11.112839
liwa	-11.113037
шуда	-11.113064
▁مون	-11.113077
ný	-11.113161
त्या	-11.113203
▁өз	-11.113549
dè	-11.113598
▁Net	-11.113603
▁соос	-11.113901
ன்ன	-11.114093
elen	-11.114114
IK	-11.114117
නා	-11.114145
▁Lâin	-11.114153
收	-11.114163
sper	-11.114177
▁kaip	-11.114221
ます	-11.114459
▁bukai	-11.114552
▁Shi	-11.114745
ымаш	-11.114750
ിൽ	-11.114784
ngani	-11.114797
يز	-11.114799
roma	-11.114839
對	-11.114897
dige	-11.115008
▁ngai	-11.115068
给	-11.115142
▁ivyo	-11.115170
ám	-11.115211
sport	-11.115344
▁abi	-11.115447
ڵگه	-11.115611
▁Tak	-11.115655
layo	-11.115800
ອບ	-11.115851
▁saan	-11.115940
ığı	-11.115974
மான	-11.116199
▁Су	-11.116259
▁Vor	-11.116424
ээс	-11.116477
tlh	-11.116562
يدۇ	-11.116603
حی	-11.116707
клад	-11.116891
ovi	-11.117013
rata	-11.117047
▁inclu	-11.117114
lù	-11.117168
▁ನನ್ನ	-11.117223
Regolament	-11.117352
جى	-11.117616
-1	-11.117878
كار	-11.118000
ශ	-11.118048
ibh	-11.118056
没有	-11.118058
ēj	-11.118108
kumu	-11.118182
▁wurde	-11.118203
▁دېدى	-11.118463
▁meta	-11.118467
ád	-11.118502
44	-11.118715
▁እንታይ	-11.118825
▁suna	-11.118834
▁onuň	-11.119081
▁mitaki	-11.119083
▁loolu	-11.119215
BI	-11.119285
Ա	-11.119431
▁mõ	-11.119458
▁بخش	-11.119482
יל	-11.119597
った	-11.119644
ная	-11.119693
▁Ena	-11.119738
ath	-11.119766
▁chixjunil	-11.119829
ლა	-11.120073
öz	-11.120145
动	-11.120363
▁peu	-11.120408
▁any	-11.120501
▁minut	-11.120536
▁Og	-11.120644
ቂ	-11.120752
▁Xana	-11.120880
▁ила	-11.121284
hau	-11.121376
Bu	-11.121471
Һ	-11.121536
▁ਯਹੋਵਾਹ	-11.121536
打	-11.121539
▁chirix	-11.121556
▁огыл	-11.121644
anquil	-11.121655
▁fh	-11.121665
▁May	-11.121692
ээн	-11.121831
▁vide	-11.121898
හි	-11.122029
90	-11.122206
ኽእል	-11.122227
▁Jésù	-11.122277
▁pero	-11.122539
ката	-11.123084
ച്ച	-11.123119
▁زن	-11.123370
muka	-11.123437
▁andre	-11.123693
▁interna	-11.123976
juma	-11.124012
ҷа	-11.124028
cs	-11.124115
▁سوێند	-11.124256
ggio	-11.124484
▁já	-11.124643
alaj	-11.124773
79	-11.124961
ở	-11.125105
▁დ	-11.125117
yisa	-11.125189
▁Fir	-11.125272
ubah	-11.125405
通过	-11.125533
ылган	-11.125613
անում	-11.125654
▁dokumento	-11.125690
▁fond	-11.125769
versi	-11.125839
▁การ	-11.125953
▁سزا	-11.126046
ssel	-11.126057
▁です	-11.126092
ñija	-11.126105
▁زاته	-11.126105
?»	-11.126132
gres	-11.126184
▁wen	-11.126203
▁Турӑ	-11.126237
ырға	-11.126381
erera	-11.126394
73	-11.126631
jì	-11.126713
▁okuba	-11.126740
cijos	-11.126880
▁xbên	-11.127003
мин	-11.127079
▁بند	-11.127192
itwa	-11.127224
іс	-11.127229
▁zina	-11.127234
▁Ро	-11.127238
аст	-11.127543
ချ	-11.127630
▁ent	-11.127772
Ġ	-11.127974
▁पण	-11.127991
▁ple	-11.128031
നെ	-11.128099
هم	-11.128284
▁hann	-11.128406
ಿರ	-11.128413
styr	-11.128414
նում	-11.128470
▁ପାଇଁ	-11.128471
ುತ್ತದೆ	-11.128551
▁ayen	-11.128592
რო	-11.128757
stellen	-11.128775
ղ	-11.128833
▁ယေ	-11.128872
▁بے	-11.129104
ór	-11.129265
▁gw	-11.129421
他們	-11.129447
лон	-11.129455
को	-11.129506
õm	-11.129725
rett	-11.129733
▁tasi	-11.129754
อา	-11.129803
ðu	-11.129926
你們	-11.129930
▁ው	-11.129946
▁ጊዜ	-11.129964
ydd	-11.129968
سۇن	-11.129986
29	-11.130203
▁faci	-11.130242
▁gbà	-11.130290
▁ingin	-11.130575
ҩы	-11.130612
యి	-11.130621
▁بولسا	-11.130656
▁ntchito	-11.130711
ntar	-11.130773
常	-11.130950
▁tina	-11.130955
▁igihe	-11.130988
▁alak	-11.131042
jumu	-11.131073
ım	-11.131126
▁այս	-11.131214
ninger	-11.131287
▁moo	-11.131539
▁сар	-11.131544
▁để	-11.131547
▁import	-11.131741
▁energi	-11.132001
ireo	-11.132542
▁Canada	-11.132612
ভা	-11.132644
▁برا	-11.132646
وي	-11.132733
णार	-11.132926
▁jar	-11.132967
ют	-11.132979
yîb	-11.132992
шин	-11.133055
гин	-11.133111
mol	-11.133183
▁nnyo	-11.133206
κα	-11.133368
ӕв	-11.133526
▁тав	-11.133540
gew	-11.133626
▁តែ	-11.133648
▁ES	-11.133700
หน	-11.133728
бур	-11.134213
▁bwo	-11.134416
lakonzya	-11.134497
pí	-11.134534
▁ҳол	-11.134692
ǫ	-11.134703
mynd	-11.134710
lì	-11.134760
ensia	-11.134776
აში	-11.134808
pag	-11.134844
നു	-11.134894
▁mafa	-11.134902
ੌ	-11.134954
▁totoo	-11.134962
рах	-11.135009
angá	-11.135018
ဖ	-11.135066
piri	-11.135122
torí	-11.135199
нун	-11.135218
▁yap	-11.135242
niar	-11.135270
▁chur	-11.135316
▁asawa	-11.135404
▁pondola	-11.135463
रू	-11.135519
ови	-11.135541
78	-11.135728
ڻي	-11.135735
ፈል	-11.135736
▁nə	-11.135997
▁ຄື	-11.136013
▁win	-11.136140
▁manah	-11.136474
سەن	-11.136789
ING	-11.136826
dò	-11.137094
▁nígbà	-11.137115
ედ	-11.137169
▁ನಾವು	-11.137234
sien	-11.137289
▁vagy	-11.137434
ኢ	-11.137436
ifik	-11.137470
خل	-11.137510
ές	-11.137527
zir	-11.137694
Le	-11.137703
وسا	-11.137779
ປ	-11.137786
ndung	-11.137810
▁پاڻ	-11.137839
可能	-11.138032
қар	-11.138058
▁اسرائیل	-11.138063
▁ਵੀ	-11.138077
ண்	-11.138274
స్త	-11.138473
คน	-11.138492
▁babo	-11.138568
▁pengawa	-11.138619
▁ਕੀ	-11.138638
▁element	-11.138711
risti	-11.139248
ဘ	-11.139300
ىي	-11.139712
ন্ত	-11.139758
про	-11.139855
онд	-11.139860
▁र	-11.139906
ཡ	-11.139962
09	-11.140004
▁кет	-11.140079
▁цел	-11.140206
▁مثل	-11.140265
▁ụ	-11.140268
מי	-11.140292
ләргә	-11.140354
▁Mose	-11.140396
▁mafaufau	-11.140473
σε	-11.140539
项	-11.140556
шка	-11.140565
▁уни	-11.140589
▁сп	-11.140635
进行	-11.140650
erto	-11.140739
▁noda	-11.140747
▁ได้	-11.140926
მე	-11.141079
▁soki	-11.141273
▁lavi	-11.141609
▁Як	-11.141707
▁ھېچ	-11.141732
xar	-11.141825
▁valor	-11.142067
▁σ	-11.142108
ঁ	-11.142236
laba	-11.142282
▁قد	-11.142297
▁Koma	-11.142302
dziko	-11.142308
şı	-11.142603
زانی	-11.142605
អ	-11.142714
▁naye	-11.142908
▁жол	-11.142957
07	-11.143014
▁ប្រើ	-11.143092
quí	-11.143098
zet	-11.143119
μο	-11.143142
่ง	-11.143240
▁ସନ୍ଦେଶ	-11.143245
kumi	-11.143296
rje	-11.143492
လည်း	-11.143497
▁kandha	-11.143569
▁kì	-11.143950
ዙ	-11.144001
দি	-11.144097
▁montre	-11.144165
AB	-11.144315
有关	-11.144351
▁kuka	-11.144365
vesti	-11.144382
กัน	-11.144396
▁កំណត់	-11.144487
▁`%	-11.144516
сс	-11.144589
▁bla	-11.144778
colo	-11.144797
gò	-11.144966
▁Ꭳ	-11.145044
▁aita	-11.145058
يم	-11.145184
kaz	-11.145199
රු	-11.145211
▁sku	-11.145317
kken	-11.145355
▁اسے	-11.145364
៉	-11.145379
▁പി	-11.145380
ສາ	-11.145388
▁سال	-11.145405
ద్	-11.145411
6/	-11.145473
увати	-11.145481
▁komi	-11.145648
▁ទេ	-11.145847
руу	-11.145880
▁xubij	-11.145912
▁nkarhi	-11.145968
ใจ	-11.146052
inė	-11.146092
tore	-11.146152
する	-11.146673
vou	-11.146784
رش	-11.146808
ines	-11.146873
ப்பட்ட	-11.146957
▁የሱስ	-11.147035
ufa	-11.147046
▁Mala	-11.147103
ặ	-11.147287
▁פֿאַרב	-11.147601
▁lebih	-11.147868
▁sē	-11.147877
nog	-11.147889
Ꮲ	-11.147934
sident	-11.148117
גע	-11.148157
Ι	-11.148301
05	-11.148540
▁جيڪو	-11.148556
▁επι	-11.148566
жен	-11.148731
khona	-11.148756
▁web	-11.148866
▁เขา	-11.148920
ቆ	-11.149062
دد	-11.149236
վել	-11.149240
▁liwat	-11.149367
▁ӕр	-11.149370
▁trai	-11.149695
sì	-11.150080
▁suo	-11.150083
▁Datei	-11.150130
cara	-11.150251
бал	-11.150254
ឡ	-11.150261
▁លោក	-11.150331
▁Ун	-11.150373
jé	-11.150671
▁rep	-11.150690
无	-11.150845
产	-11.150846
▁¡	-11.150918
ట్ట	-11.150924
ंड	-11.150967
35	-11.151504
▁Iki	-11.151571
格	-11.151607
▁Numa	-11.151625
მი	-11.151665
▁Mit	-11.151686
▁װי	-11.151870
sɔ	-11.151890
▁මෙ	-11.152025
כל	-11.152102
▁più	-11.152251
maq	-11.152308
бә	-11.152323
કો	-11.152399
▁Gro	-11.152406
ҳар	-11.152563
▁ដើម្បី	-11.152620
▁aikwij	-11.152632
▁kë	-11.152781
▁ўз	-11.152799
bles	-11.152816
▁öl	-11.152969
▁ហូវ៉ា	-11.153130
▁دوست	-11.153132
nega	-11.153210
▁iá	-11.153316
ങ്ങ	-11.153329
▁דאָס	-11.153385
្យ	-11.153404
▁ئېيت	-11.153429
▁kumbe	-11.153447
▁syn	-11.153584
▁bri	-11.153609
ვნ	-11.153795
▁55	-11.153934
▁way	-11.154068
▁tentang	-11.154080
▁কা	-11.154083
อง	-11.154178
▁qe	-11.154288
ጊ	-11.154659
▁mwen	-11.154874
▁disc	-11.154881
▁söz	-11.155046
▁കു	-11.155210
▁Job	-11.155227
▁хат	-11.155243
ူး	-11.155334
▁Boroom	-11.155510
جد	-11.155584
kuli	-11.155798
dores	-11.155862
джы	-11.155870
гувчи	-11.155951
аў	-11.156065
ய்	-11.156213
▁fis	-11.156371
▁buku	-11.156399
▁org	-11.156460
▁פֿאַר	-11.156641
▁puhala	-11.156750
▁ayé	-11.156817
даа	-11.156947
гер	-11.156988
үүд	-11.157022
▁laga	-11.157024
tulong	-11.157211
▁anae	-11.157257
aithe	-11.157434
99	-11.157499
пар	-11.157504
ാന്	-11.157504
▁gue	-11.157524
ләрен	-11.157603
▁hanya	-11.157616
▁tz	-11.157669
▁iwi	-11.157687
▁buru	-11.157756
magy	-11.157802
▁siti	-11.157841
▁карда	-11.157960
▁Europos	-11.158004
He	-11.158199
уеит	-11.158471
ཆ	-11.158485
▁yidhi	-11.158556
▁65	-11.158635
טע	-11.158650
▁refer	-11.158834
▁होते	-11.158895
ცი	-11.158959
bura	-11.159060
▁action	-11.159065
▁leri	-11.159152
ቁ	-11.159263
син	-11.159356
bɔ	-11.159387
▁đây	-11.159520
મે	-11.159561
ွက်	-11.159649
▁(1)	-11.159652
そ	-11.159775
bak	-11.159906
Å	-11.160031
▁Gar	-11.160200
▁سۆز	-11.160309
డం	-11.160441
▁fanau	-11.160480
ൻ	-11.160731
AP	-11.160797
▁тор	-11.160856
▁tad	-11.160933
▁gli	-11.161018
mann	-11.161401
▁azy	-11.161412
sangan	-11.161419
чү	-11.161578
▁nọ	-11.161948
▁fakaako	-11.162125
▁మీరు	-11.162206
▁pina	-11.162340
باد	-11.162381
二	-11.162454
mando	-11.162458
▁mahu	-11.162467
ӗҫ	-11.162784
▁ще	-11.162881
▁ᏴᏫ	-11.163116
▁projekt	-11.163271
▁falu	-11.163280
κε	-11.163327
美	-11.163366
▁нэг	-11.163410
рын	-11.163571
ыцы	-11.163606
▁ነበር	-11.163665
ric	-11.163943
▁izin	-11.163960
ቤ	-11.164315
决	-11.164351
ף	-11.164402
ове	-11.164602
▁ຊູ	-11.164710
▁ფ	-11.164759
ድር	-11.164797
▁^	-11.164818
▁байсан	-11.164820
▁aç	-11.164833
ரிய	-11.164868
jö	-11.164883
▁arī	-11.165001
ದೆ	-11.165066
ânk	-11.165176
未	-11.165178
ਿਆਂ	-11.165437
▁راست	-11.165546
代	-11.165668
77	-11.165768
quam	-11.165848
ämä	-11.165874
ады	-11.166090
тып	-11.166194
longo	-11.166220
عة	-11.166295
වු	-11.166522
▁sele	-11.166528
▁улус	-11.166566
UL	-11.166569
นี่	-11.166645
áà	-11.166677
▁bio	-11.166739
שי	-11.166830
▁sä	-11.166878
▁mur	-11.166897
▁យ៉ាង	-11.166983
üş	-11.167068
ოს	-11.167336
▁public	-11.167352
yrt	-11.167367
▁երկ	-11.167375
▁svar	-11.167396
ýet	-11.167473
▁ñëw	-11.167500
需要	-11.167524
ıq	-11.167866
▁buyo	-11.167988
▁زېمىن	-11.168016
▁كۆ	-11.168019
▁సమ	-11.168049
చు	-11.168072
▁mātu	-11.168077
▁էին	-11.168130
▁ທຸກ	-11.168274
▁Diyos	-11.168331
▁oc	-11.168573
▁кан	-11.168821
сер	-11.169039
मुळे	-11.169050
▁వె	-11.169079
▁ເຍ	-11.169195
bare	-11.169227
們	-11.169311
62	-11.169431
共	-11.169572
▁Omo	-11.169626
ದ್ದ	-11.169804
ڊ	-11.169827
▁tahun	-11.169892
查	-11.169899
ებით	-11.170012
ᏁᎸ	-11.170164
ρε	-11.170242
▁sont	-11.170247
ുന്നു	-11.170368
▁år	-11.170470
ljen	-11.170499
▁art	-11.170523
drag	-11.170642
▁won	-11.170644
▁aei	-11.170843
tulu	-11.170921
соб	-11.171044
▁тут	-11.171087
▁булып	-11.171103
▁کن	-11.171129
মান	-11.171425
▁iye	-11.171430
▁mene	-11.171502
▁ਪਰ	-11.171630
▁لم	-11.171645
▁mọ	-11.171770
▁ᎬᏩ	-11.171952
یب	-11.172014
人权	-11.172088
▁قال	-11.172192
▁מה	-11.172202
▁рух	-11.172614
▁Ona	-11.172645
▁Ala	-11.172761
▁সা	-11.172833
▁reer	-11.172841
ອກ	-11.172913
ండి	-11.172916
▁bilang	-11.172985
▁ӗҫ	-11.173104
nın	-11.173207
ապ	-11.173221
▁Het	-11.173301
情	-11.173461
ொ	-11.173605
▁inga	-11.173627
مىدى	-11.173668
▁gbé	-11.173718
Ꮶ	-11.173980
▁چيو	-11.174202
39	-11.174479
ብር	-11.174489
ഫ	-11.174500
▁Hal	-11.174545
别	-11.174739
▁mira	-11.174861
▁وی	-11.174933
лө	-11.174936
وتن	-11.175050
ынан	-11.175162
ŵa	-11.175396
майди	-11.175420
▁azalaki	-11.175520
तु	-11.175805
кин	-11.175920
▁ilang	-11.175947
මි	-11.175984
▁kite	-11.176033
aqq	-11.176056
ৈ	-11.176276
▁Yezu	-11.176297
ỏ	-11.176324
εται	-11.176348
▁too	-11.176392
▁twi	-11.176515
▁उन	-11.176839
▁ìwé	-11.176964
▁Bal	-11.176979
▁στο	-11.177009
);	-11.177270
tán	-11.177299
рал	-11.177357
ཁ	-11.177368
▁templo	-11.177469
ىم	-11.177557
害	-11.177629
▁спо	-11.177638
▁ಅವನ	-11.177677
▁tauka	-11.177830
▁вӑл	-11.177891
грам	-11.178141
مې	-11.178160
▁আর	-11.178175
σι	-11.178373
sett	-11.178383
றி	-11.178414
▁ດ	-11.178425
aria	-11.178431
▁эмне	-11.178716
文件	-11.178721
▁Izi	-11.178769
▁oe	-11.178812
вал	-11.178875
ാവ	-11.178931
ሴ	-11.178934
ත්ත	-11.179113
▁nǹkan	-11.179196
ັງ	-11.179201
مانه	-11.179391
īgi	-11.179399
▁sci	-11.179399
пад	-11.179452
قرار	-11.179494
вис	-11.179545
၌	-11.179719
ụlọ	-11.179729
▁tuig	-11.179743
▁л	-11.179744
▁第	-11.179832
tọ	-11.179935
▁gwa	-11.179955
بۇ	-11.179984
кыт	-11.180102
รู้	-11.180108
लो	-11.180116
bira	-11.180120
ଛି	-11.180124
tare	-11.180283
▁perlu	-11.180343
▁22.	-11.180387
ቻ	-11.180477
Ụ	-11.180504
▁oqo	-11.180595
ял	-11.180779
▁rangi	-11.180819
现	-11.180875
http	-11.180898
чӗ	-11.181065
cHFF	-11.181294
▁control	-11.181374
▁umuntu	-11.181583
63	-11.181631
▁olotou	-11.181656
▁ئۇنىڭغا	-11.181695
经	-11.181802
▁nädip	-11.181815
jumi	-11.181853
▁ах	-11.181941
▁Му	-11.181945
▁sự	-11.182120
kry	-11.182134
ndang	-11.182205
ива	-11.182275
lingi	-11.182281
▁ўша	-11.182314
пу	-11.182331
ische	-11.182425
yá	-11.182639
▁छ	-11.182668
资	-11.182857
сам	-11.182911
▁yoon	-11.183070
▁μέ	-11.183226
▁тан	-11.183279
ಿರುವ	-11.183346
▁ຢ່າງ	-11.183389
▁ਇਕ	-11.183398
veik	-11.183408
উ	-11.183582
款	-11.183656
▁senti	-11.183690
ৰণ	-11.183737
▁Faa	-11.183771
ków	-11.183846
▁maar	-11.183919
שו	-11.183952
لن	-11.184113
▁一	-11.184129
交	-11.184160
స్థ	-11.184208
ện	-11.184371
▁olar	-11.184799
ét	-11.184901
த்தில்	-11.185000
▁ກັນ	-11.185016
ото	-11.185044
▁这	-11.185121
Ṣ	-11.185228
▁multi	-11.185359
fè	-11.185372
mizi	-11.185377
ۈش	-11.185564
යේ	-11.185637
idae	-11.185678
▁അല്ലാഹു	-11.186012
▁VI	-11.186054
ής	-11.186158
▁efter	-11.186195
ению	-11.186263
Э	-11.186323
▁ajcui	-11.186371
▁хэл	-11.186602
prob	-11.186666
▁asara	-11.186765
টা	-11.186776
▁Ар	-11.186872
hkan	-11.186898
paat	-11.186914
ους	-11.187030
ᎯᏳ	-11.187167
cra	-11.187444
▁Jezi	-11.187460
間	-11.187863
▁ýygna	-11.188389
▁kontra	-11.188492
daro	-11.188542
тың	-11.188552
ৃ	-11.188599
وج	-11.188675
▁regula	-11.188845
▁poro	-11.188983
lė	-11.189036
ාව	-11.189103
▁ենք	-11.189304
dant	-11.189438
▁ចិត្ដ	-11.189445
“.	-11.189670
যোগ	-11.189711
▁hai	-11.189850
ാര	-11.189931
▁mac	-11.190021
ನ್ನೂ	-11.190305
基	-11.190497
两	-11.190508
labor	-11.190849
ozi	-11.190868
▁eko	-11.190910
▁Ам	-11.190968
เขา	-11.191158
▁avel	-11.191506
మును	-11.191600
▁moco	-11.191614
▁IN	-11.191895
în	-11.191910
▁керек	-11.191932
lman	-11.191993
ления	-11.191999
سلام	-11.192188
▁Luk	-11.192408
ңар	-11.192596
▁artikkel	-11.192622
бай	-11.192947
▁asta	-11.192954
▁Кор	-11.192976
▁እት	-11.192976
▁oleh	-11.192992
ော်	-11.193130
pput	-11.193792
▁මේ	-11.194120
▁kako	-11.194135
öw	-11.194192
▁Tri	-11.194307
▁jkun	-11.194400
fica	-11.194431
▁ҳақ	-11.194435
siling	-11.194541
jil	-11.194550
่น	-11.194551
tatu	-11.194614
▁Ty	-11.194735
▁συν	-11.194778
▁raj	-11.194834
▁stor	-11.194847
▁gor	-11.194887
▁fanele	-11.195066
▁стран	-11.195502
▁систем	-11.195567
▁logo	-11.195630
buka	-11.195635
هێنا	-11.195726
góó	-11.195889
ларны	-11.195955
▁จะ	-11.195996
▁ನಮ್ಮ	-11.196078
▁motu	-11.196157
▁wenno	-11.196299
בו	-11.196379
nyina	-11.196445
▁bị	-11.196447
യ്	-11.196483
ாத	-11.196485
AU	-11.196488
zva	-11.196575
▁Tro	-11.196786
óir	-11.196857
▁46	-11.196927
lha	-11.196981
▁ton	-11.197028
રી	-11.197139
反	-11.197406
▁Rum	-11.197598
▁тў	-11.197635
ါ	-11.197759
▁nira	-11.197788
ృ	-11.197795
▁aju	-11.197880
ಫ	-11.197935
▁pikir	-11.198136
مىز	-11.198169
mbang	-11.198330
များ	-11.198428
▁sho	-11.198455
ጅ	-11.198468
▁tāua	-11.198503
▁ತನ್ನ	-11.198530
hav	-11.198571
cci	-11.198581
område	-11.198830
▁eya	-11.199166
▁ଦ	-11.199196
mentar	-11.199268
着	-11.199271
▁بولىدۇ	-11.199408
ations	-11.199440
дээ	-11.199451
llis	-11.199509
без	-11.199547
▁ክን	-11.199605
▁китер	-11.199712
३	-11.199801
▁nove	-11.199889
оуп	-11.199903
spect	-11.199922
gwe	-11.199949
చే	-11.199971
tiko	-11.200169
▁ეა	-11.200171
figur	-11.200256
şan	-11.200275
▁түгел	-11.200336
дэ	-11.200386
داوه	-11.200472
gamit	-11.200484
៊	-11.200492
mbira	-11.200663
нү	-11.200675
jè	-11.200695
▁มี	-11.200857
sian	-11.200952
унда	-11.200988
▁Filip	-11.201194
▁osi	-11.201228
▁naha	-11.201233
ێنێت	-11.201269
▁bazalaki	-11.201343
▁çyk	-11.201368
bota	-11.201465
дав	-11.201497
வன	-11.201713
An	-11.201832
ıyor	-11.201844
ISO	-11.202018
▁Bre	-11.202043
▁ബ	-11.202365
▁emi	-11.202434
▁raa	-11.202437
ӷ	-11.202474
[1]	-11.202508
рик	-11.202685
él	-11.202907
ɗa	-11.203034
平	-11.203055
simi	-11.203286
čių	-11.203341
த்தி	-11.203403
▁ሲ	-11.203480
▁ụmụ	-11.203546
▁pamilya	-11.203551
结	-11.203554
zek	-11.203566
权	-11.203682
ิด	-11.203708
▁Gen	-11.203723
▁Кудай	-11.203816
▁თუ	-11.203919
szy	-11.203940
▁Bagaimana	-11.204082
▁spiritu	-11.204094
īt	-11.204134
▁ਜਾ	-11.204173
▁dunya	-11.204262
▁ngatanan	-11.204475
ເມ	-11.204732
؟»	-11.204737
▁Pole	-11.204778
▁булған	-11.204867
▁hän	-11.204896
▁دەپ	-11.205036
▁қўй	-11.205053
▁چاہ	-11.205062
▁मि	-11.205137
▁Mata	-11.205219
ຢ	-11.205363
▁ҷо	-11.205388
▁Jeg	-11.205395
онро	-11.205412
▁awaké	-11.205443
μη	-11.205729
φορ	-11.205822
▁राह	-11.205829
94	-11.205904
ներին	-11.205925
اعت	-11.206242
nud	-11.206253
voj	-11.206418
▁ወደ	-11.206498
sera	-11.206642
▁شر	-11.206764
▁maayo	-11.206796
alidad	-11.206819
sua	-11.206908
तील	-11.206941
▁fá	-11.206999
▁අපි	-11.207063
▁ຮ	-11.207085
கு	-11.207197
lü	-11.207267
▁соң	-11.207298
ppi	-11.207356
စား	-11.207356
fte	-11.207507
▁maboko	-11.207641
డ్	-11.207683
▁Hel	-11.207707
▁jir	-11.207726
АР	-11.207799
పో	-11.207884
▁առ	-11.207910
▁یاد	-11.208058
ുമ	-11.208083
▁bèn	-11.208109
ника	-11.208156
شتی	-11.208221
▁هێناوه	-11.208396
▁gute	-11.208658
ဟု	-11.208702
لاش	-11.208815
orden	-11.208824
كو	-11.208852
pada	-11.209000
▁Ӯ	-11.209100
動	-11.209190
ojn	-11.209244
▁xch	-11.209300
ᎬᏩ	-11.209303
باشد	-11.209477
үнү	-11.209597
した	-11.209747
წყ	-11.209755
▁pel	-11.209908
כן	-11.210085
▁salah	-11.210157
▁faaite	-11.210352
arpoq	-11.210461
ranga	-11.210498
み	-11.210539
нос	-11.210553
▁Foto	-11.210672
▁тоа	-11.210937
▁samo	-11.210996
▁Եհովայի	-11.211346
riro	-11.211473
çı	-11.211610
▁24.	-11.211668
ವಿ	-11.211672
して	-11.211675
itate	-11.211813
ууга	-11.211902
使用	-11.211972
只	-11.212011
▁ချ	-11.212501
trabaho	-11.212541
xx	-11.212742
هۆی	-11.212962
▁яр	-11.213126
▁madahka	-11.213250
إ	-11.213383
utta	-11.213438
▁lay	-11.213800
Á	-11.213846
▁hier	-11.213864
іл	-11.213904
▁dispos	-11.214095
2007	-11.214120
ların	-11.214223
▁get	-11.214408
▁sə	-11.214948
লো	-11.215058
▁Tongana	-11.215091
▁ຕົວ	-11.215134
▁hand	-11.215207
▁vula	-11.215278
ksa	-11.215317
ങ്ക	-11.215391
▁ר	-11.215402
世界	-11.215414
▁dixit	-11.215513
▁isuma	-11.215551
▁kaha	-11.215557
▁Pana	-11.215655
Ú	-11.215674
▁liber	-11.215831
ghe	-11.215838
▁18,	-11.215884
ister	-11.215885
yini	-11.216063
HO	-11.216197
ībā	-11.216578
UT	-11.216600
kem	-11.216697
▁ambeni	-11.216745
▁ဆို	-11.216846
ば	-11.217033
шен	-11.217279
▁کریں	-11.217340
ێنه	-11.217367
▁Sihová	-11.217575
၏။	-11.217609
▁ngena	-11.217715
▁តាម	-11.217857
تانه	-11.218002
▁حق	-11.218033
▁kasance	-11.218051
ప్	-11.218215
▁sese	-11.218360
ਿੰ	-11.218378
▁niini	-11.218472
▁Tó	-11.218722
amin	-11.218859
▁ýaşa	-11.218912
වේ	-11.218913
安	-11.219274
pụta	-11.219295
▁maki	-11.219321
▁ваш	-11.219328
▁tausaga	-11.219495
▁وأ	-11.219643
uze	-11.219686
▁ସଂ	-11.219769
tch	-11.220093
ാൻ	-11.220097
botu	-11.220166
ตร	-11.220169
找	-11.220296
onta	-11.220345
оҳи	-11.220345
▁aɖe	-11.220361
کاته	-11.220369
ять	-11.220445
ള്	-11.220570
ίας	-11.220639
▁boye	-11.220684
▁däl	-11.220766
▁hoo	-11.220817
▁кӕн	-11.221041
▁тус	-11.221089
▁20,	-11.221180
▁кодта	-11.221222
▁minister	-11.221271
chan	-11.221272
ально	-11.221290
▁йөр	-11.221321
▁ndaxte	-11.221618
ጹ	-11.221659
▁ነገር	-11.221675
erne	-11.222077
่อ	-11.222296
▁என்று	-11.222509
▁institu	-11.223020
నుండి	-11.223038
ിന്	-11.223186
▁Инмар	-11.223195
uina	-11.223201
చూ	-11.223546
džia	-11.223584
шьа	-11.223625
▁badan	-11.223644
වල	-11.223708
▁пай	-11.223815
ਿੱ	-11.224014
երի	-11.224051
▁ٿو	-11.224056
ਯ	-11.224113
ngana	-11.224156
▁Kun	-11.224205
2004	-11.224280
nego	-11.224497
▁popo	-11.224729
juk	-11.224755
сть	-11.224762
graf	-11.224875
lave	-11.224881
▁Lmasiḥ	-11.224938
nwen	-11.225028
▁grupo	-11.225142
▁семейство	-11.225212
רע	-11.225236
▁sü	-11.225442
ጕ	-11.225486
ība	-11.225571
▁よう	-11.225675
▁bëgg	-11.225756
рез	-11.225976
▁خواهم	-11.226205
key	-11.226250
▁ҫинчен	-11.226308
▁Aka	-11.226314
▁йўл	-11.226316
раб	-11.226567
▁ẹni	-11.226672
ಕ್	-11.226678
stå	-11.226832
▁pita	-11.226836
▁Kristus	-11.227041
gati	-11.227121
03	-11.227214
▁talahau	-11.227255
▁ეს	-11.227257
▁سچ	-11.227294
لۇق	-11.227429
ளி	-11.227525
▁unu	-11.227640
ziona	-11.227696
▁lenge	-11.227702
тау	-11.227774
Kummissjoni	-11.227954
itet	-11.228093
кар	-11.228093
▁മാ	-11.228241
िका	-11.228492
ွား	-11.228502
дым	-11.228887
▁wektu	-11.229291
▁armej	-11.229424
EU	-11.229587
▁out	-11.229615
▁jamyo	-11.229706
▁okwe	-11.229753
▁fri	-11.229859
ቓ	-11.229877
ሆን	-11.229929
awen	-11.230025
▁поч	-11.230030
▁แต่	-11.230127
ەي	-11.230293
ams	-11.230418
وط	-11.230547
▁સં	-11.230594
▁video	-11.230982
▁Auto	-11.231202
ilay	-11.231222
qı	-11.231384
Ν	-11.231528
▁caku	-11.231610
اش	-11.231714
止	-11.231810
់	-11.231892
▁Бе	-11.231916
lungu	-11.231983
▁bolan	-11.231992
▁ผม	-11.232051
▁fle	-11.232148
▁Sí	-11.232326
ħħ	-11.232337
▁பா	-11.232350
ায়	-11.232493
lugit	-11.232519
lerini	-11.232523
▁එක	-11.232559
ంట	-11.232576
కో	-11.232585
公约	-11.232924
зер	-11.233204
▁buka	-11.233289
▁sonra	-11.233571
îc	-11.233577
cret	-11.233597
වි	-11.233675
ավոր	-11.233699
pper	-11.233733
rõk	-11.233820
▁svoj	-11.234037
зон	-11.234171
▁Бар	-11.234201
▁رہے	-11.234283
ٹھ	-11.234341
ಿಸುವ	-11.234441
יו	-11.234475
കള	-11.234494
▁skr	-11.234706
ᏍᏙᏗ	-11.234727
▁komo	-11.234884
ਾਈ	-11.235096
loko	-11.235105
كات	-11.235238
▁سته	-11.235289
▁туш	-11.235522
3/	-11.235628
να	-11.235945
ሥ	-11.236127
▁также	-11.236139
လုပ်	-11.236142
▁daha	-11.236176
figi	-11.236281
።	-11.236313
▁hver	-11.236503
tulo	-11.236685
數	-11.236777
▁иман	-11.236939
ബ	-11.237015
▁ог	-11.237168
▁Kí	-11.237218
råd	-11.237276
mă	-11.237458
▁аңла	-11.237492
▁ಒಂದು	-11.237609
rụ	-11.237725
ṣẹ	-11.237746
əyə	-11.237803
GI	-11.237864
system	-11.237999
▁noho	-11.238138
▁கு	-11.238332
▁هم	-11.238400
stil	-11.238539
▁Jehovha	-11.238549
zara	-11.238640
▁disse	-11.238750
关	-11.238780
▁ນ	-11.238870
▁maroñ	-11.238933
Be	-11.238948
▁ipa	-11.238978
راوه	-11.239055
▁över	-11.239105
▁Dé	-11.239246
▁mihi	-11.239395
güe	-11.239399
▁pae	-11.239644
ۇنداق	-11.239660
ནང་	-11.239870
▁Wu	-11.239953
ēm	-11.240314
▁చెప్ప	-11.240320
▁Jon	-11.240417
trato	-11.240496
რვ	-11.240720
▁Hudaý	-11.240733
▁იმ	-11.240739
▁кул	-11.240932
▁సా	-11.241034
▁кандай	-11.241139
▁ook	-11.241156
▁մեր	-11.241310
▁avec	-11.241437
ňyz	-11.241506
νο	-11.241637
VI	-11.241699
▁Heb	-11.241699
ɣi	-11.241753
wä	-11.241841
tsy	-11.242059
▁16)	-11.242151
میشه	-11.242398
бри	-11.242674
য়ে	-11.242870
dī	-11.242917
ntis	-11.242963
▁III	-11.243019
shwa	-11.243031
ჩ	-11.243271
neru	-11.243313
▁ఉండ	-11.243424
▁teh	-11.243518
▁២	-11.243529
▁الف	-11.243556
াই	-11.243737
suka	-11.243809
▁စေ	-11.243867
արդ	-11.244110
्र	-11.244256
ىگە	-11.244339
ott	-11.244561
▁jãn	-11.244633
▁tipo	-11.244654
zeni	-11.244678
▁दु	-11.244730
tembo	-11.244807
ighet	-11.244897
ାନ	-11.244905
hera	-11.244915
▁tanan	-11.244963
建立	-11.245142
uraa	-11.245173
▁olaga	-11.245395
ôr	-11.245421
▁direktiv	-11.245526
▁Kur	-11.245583
ाच्या	-11.245597
▁سی	-11.245615
▁ໄບ	-11.245684
▁harus	-11.245707
mål	-11.245727
▁وتی	-11.245746
ksen	-11.245846
▁дээр	-11.245895
ສໍາ	-11.245914
▁kilo	-11.246026
字	-11.246216
ҥ	-11.246239
▁бошқа	-11.246337
wɔ	-11.246522
▁kër	-11.246677
ίν	-11.246864
ାଇ	-11.246984
▁ҫын	-11.247278
زانن	-11.247396
▁fare	-11.247437
ера	-11.247448
▁biti	-11.247526
▁خانه	-11.247632
ጎ	-11.247638
ване	-11.247669
▁ساخت	-11.247682
▁Nun	-11.247696
kamba	-11.248058
կան	-11.248117
再	-11.248202
▁کاتێک	-11.248349
ണം	-11.248380
▁nco	-11.248439
гаа	-11.248458
ান	-11.248491
يب	-11.248578
▁جائے	-11.248726
▁mö	-11.248747
ыкты	-11.248751
ាន់	-11.248810
ించు	-11.248897
Ro	-11.249020
▁кылган	-11.249239
▁jaar	-11.249275
海	-11.249321
▁ಎಂದು	-11.249600
īgu	-11.249615
ാണ	-11.249617
skriv	-11.249695
०	-11.249880
▁debe	-11.249900
ій	-11.249906
▁lokola	-11.249907
▁York	-11.250016
tundu	-11.250130
▁kell	-11.250308
▁юу	-11.250396
រា	-11.250513
▁Anak	-11.250525
▁akken	-11.250543
വും	-11.250551
▁Йегъовӕ	-11.250669
▁ເບິນ	-11.250723
σεις	-11.250742
▁lika	-11.250770
गे	-11.250968
ាំ	-11.250974
▁مۇھەممەد	-11.251002
GU	-11.251042
▁ও	-11.251072
▁Pete	-11.251223
ۍ	-11.251566
lawo	-11.251631
▁inay	-11.251633
ಿದೆ	-11.251951
ιστ	-11.252002
ത്തെ	-11.252102
▁lòt	-11.252106
▁couma	-11.252147
▁گیا	-11.252161
▁fast	-11.252166
ಯೋ	-11.252191
▁that	-11.252230
vano	-11.252249
ികള	-11.252292
▁hen	-11.252321
ğu	-11.252415
илган	-11.252515
▁etmek	-11.252620
దే	-11.252642
▁bilo	-11.252643
bulu	-11.252672
▁ᎾᏍᎩᏯ	-11.252755
سانه	-11.252804
▁Бурган	-11.252899
itaki	-11.252909
ᏍᎨᏍᏗ	-11.252955
▁жыл	-11.252962
▁Bon	-11.253152
лем	-11.253421
▁merga	-11.253451
saar	-11.253532
ڕۆ	-11.253577
▁Из	-11.253589
▁یک	-11.253702
chap	-11.253748
▁25:	-11.253768
▁بنی	-11.253830
▁cewa	-11.253839
oji	-11.253845
▁болох	-11.254150
కొ	-11.254172
▁menm	-11.254190
ықә	-11.254249
нен	-11.254435
▁về	-11.254518
መስ	-11.254576
ця	-11.254847
Jo	-11.254873
ρί	-11.254913
▁werk	-11.254913
▁će	-11.254981
Imp	-11.255320
92	-11.255340
ուց	-11.255393
▁Mini	-11.255461
▁уу	-11.255577
schaft	-11.255756
▁19,	-11.255781
▁जे	-11.256012
▁gare	-11.256021
▁tuli	-11.256025
rå	-11.256248
▁ياكى	-11.256510
▁சொ	-11.256684
აც	-11.256754
రో	-11.256806
қә	-11.256845
۲	-11.256921
特别	-11.256955
gje	-11.256966
▁چىق	-11.257038
▁Ei	-11.257051
▁এক	-11.257051
▁аның	-11.257058
غى	-11.257080
▁كىشىلەر	-11.257237
глед	-11.257258
计	-11.257489
ាត់	-11.257657
▁होता	-11.257710
▁shu	-11.257729
▁لیکن	-11.257771
▁talo	-11.257787
▁Ս	-11.257866
▁kenn	-11.257925
08	-11.257931
▁Ո	-11.257978
▁puede	-11.258282
直	-11.258340
لىنى	-11.258525
नि	-11.258575
▁domin	-11.258581
▁شخص	-11.258650
たち	-11.258663
ൈ	-11.258901
నీ	-11.259076
▁leva	-11.259106
йм	-11.259157
▁сум	-11.259203
▁kuva	-11.259380
▁direct	-11.259524
▁nije	-11.259567
▁tim	-11.259706
ANG	-11.259725
ロ	-11.259751
വര്	-11.259939
▁قوي	-11.260108
တို့သည်	-11.260129
▁Дар	-11.260132
▁kakai	-11.260232
▁momo	-11.260232
hag	-11.260255
год	-11.260407
So	-11.260413
ีย	-11.260518
гӕн	-11.260579
▁ezalaki	-11.260585
▁یهوه	-11.260657
ەر	-11.260761
不能	-11.260935
رق	-11.261028
titsi	-11.261379
mbro	-11.261614
ttä	-11.261833
71	-11.261893
Í	-11.261941
ësh	-11.261974
▁ئىنكا	-11.262085
lere	-11.262139
orang	-11.262254
▁Fal	-11.262312
යක්	-11.262356
kaki	-11.262453
▁gye	-11.262486
mong	-11.262539
ธ	-11.262541
▁كېيىن	-11.262589
tő	-11.262709
elijk	-11.262754
▁id	-11.262781
▁бўлса	-11.262828
▁wagyz	-11.262878
хай	-11.262888
ɗan	-11.263089
ତ୍	-11.263208
▁ronojel	-11.263226
2009	-11.263331
ёр	-11.263375
័	-11.263398
▁ဟော	-11.263401
cala	-11.263419
estra	-11.263510
حق	-11.263635
fara	-11.263703
▁mooy	-11.263727
sikhathi	-11.263736
sulat	-11.263783
Рим	-11.263801
ອງ	-11.263879
▁ọrụ	-11.263907
▁että	-11.263939
සු	-11.263979
▁membantu	-11.264155
ስተ	-11.264206
▁ئۈ	-11.264239
▁ສາມາດ	-11.264296
ӗнче	-11.264334
▁bou	-11.264388
果	-11.264561
▁דורכפֿאַל	-11.264581
阿	-11.264586
2005	-11.264592
▁väl	-11.264593
achd	-11.264675
ël	-11.265208
ဟ	-11.265418
▁kino	-11.265421
务	-11.265649
▁ауаа	-11.265733
▁Satani	-11.265924
قب	-11.265926
ང	-11.266176
▁ᎠᏴ	-11.266235
фер	-11.266352
▁ទី	-11.266388
ြ	-11.266433
کند	-11.266544
▁pefea	-11.266611
	-11.266861
ئۇ	-11.266893
▁yalo	-11.267215
▁ಮು	-11.267215
δο	-11.267223
▁خوش	-11.267604
▁оч	-11.267668
जी	-11.267672
luunniit	-11.267718
▁Joßcan	-11.267718
ೃ	-11.267805
້ນ	-11.267971
тов	-11.268131
тик	-11.268139
▁dó	-11.268159
סט	-11.268167
▁talia	-11.268226
▁gata	-11.268371
▁ут	-11.268387
▁аларга	-11.268424
ချက်	-11.268437
vra	-11.268564
לו	-11.268578
▁fru	-11.269020
▁શક	-11.269128
ਹਾ	-11.269134
▁государств	-11.269148
布	-11.269154
▁Ӕ	-11.269241
▁grande	-11.269256
áwọn	-11.269426
▁اڳ	-11.269538
▁основ	-11.269621
▁បង្ហាញ	-11.269720
▁байх	-11.269736
ලි	-11.269737
▁kinabuhi	-11.269774
MU	-11.269876
▁bhfuil	-11.270007
Thixo	-11.270010
uria	-11.270072
yas	-11.270115
▁peri	-11.270123
▁Ilaah	-11.270212
кала	-11.270321
funda	-11.270526
▁eby	-11.270603
ള്ള	-11.270821
ሶ	-11.270865
▁ane	-11.270894
▁amû	-11.270909
stin	-11.270999
ебез	-11.271204
▁byi	-11.271368
▁jalan	-11.271449
නවා	-11.271581
دات	-11.271626
妇女	-11.271734
▁normal	-11.271889
vara	-11.271967
ည့်	-11.272240
▁Ngo	-11.272362
mış	-11.272526
▁Ту	-11.272620
ሑ	-11.272873
▁dokumentuyo	-11.272877
די	-11.272923
▁سک	-11.272937
▁شتێک	-11.272985
കര	-11.273002
sisi	-11.273160
▁Bibele	-11.273188
ņa	-11.273255
▁penge	-11.273351
तात	-11.273425
pró	-11.273429
▁nida	-11.273516
▁Ки	-11.273624
德	-11.273748
▁diese	-11.273802
သက်	-11.273838
देश	-11.273845
▁хи	-11.273993
▁υπ	-11.274043
▁standard	-11.274048
කි	-11.274121
太	-11.274312
▁ҳара	-11.274433
burg	-11.274574
کانیان	-11.274578
ماي	-11.274632
▁beste	-11.274661
ನ್	-11.274676
Ꮔ	-11.274735
▁Satanas	-11.274889
лған	-11.275078
ด้วย	-11.275172
▁enti	-11.275198
ły	-11.275301
▁الص	-11.275359
▁apre	-11.275393
ንም	-11.275414
кам	-11.275586
օ	-11.275626
فی	-11.275637
▁rau	-11.275784
нән	-11.275928
2008	-11.276047
fta	-11.276072
Jehovha	-11.276213
▁ଫୋଲଡର	-11.276325
▁пулӑш	-11.276366
▁atá	-11.276494
vele	-11.276499
▁tura	-11.276513
ƙar	-11.276736
▁tàbí	-11.276907
пол	-11.276981
▁eile	-11.276991
▁Jehobah	-11.277190
▁tempu	-11.277209
ื	-11.277312
ගන්න	-11.277369
ән	-11.277419
ပြော	-11.277589
sani	-11.277605
▁Ioane	-11.277687
▁ہے۔	-11.278005
▁آنها	-11.278206
ганда	-11.278287
▁’?	-11.278344
▁፤	-11.278517
▁kwuru	-11.278522
kuri	-11.278612
kwazi	-11.278633
▁ငါ	-11.278634
▁stat	-11.278818
ປະ	-11.278905
▁දෙවි	-11.278922
▁δεν	-11.278935
▁پێیان	-11.279017
מען	-11.279112
▁Siz	-11.279145
мал	-11.279212
▁güe	-11.279252
▁fano	-11.279271
igwa	-11.279319
▁دې	-11.279320
prof	-11.279376
bora	-11.279429
IC	-11.279522
▁алып	-11.279571
maly	-11.279596
▁काही	-11.279655
▁दो	-11.279741
мый	-11.279771
JA	-11.279867
▁؟	-11.279994
▁Мин	-11.280001
mira	-11.280022
命	-11.280079
▁raylal	-11.280092
raš	-11.280237
быҙ	-11.280650
▁эпир	-11.280657
աստ	-11.280750
ောင်း	-11.280794
▁Xe	-11.280833
▁pale	-11.280925
ىغا	-11.280939
ᏍᏗᏱ	-11.281007
91	-11.281043
▁ကျ	-11.281106
твор	-11.281202
▁zinthu	-11.281260
▁хуш	-11.281303
▁från	-11.281356
okú	-11.281487
glo	-11.281511
▁пла	-11.281513
▁Acht	-11.281524
miso	-11.281580
▁Salmo	-11.281678
rū	-11.281775
خۆ	-11.281920
bù	-11.282236
▁Estados	-11.282240
・	-11.282396
▁τον	-11.282418
▁Dji	-11.282623
lıq	-11.282688
▁ஒ	-11.282731
న్ని	-11.282787
ఖ	-11.282975
快	-11.282975
▁200	-11.283006
ropa	-11.283095
ој	-11.283164
mù	-11.283237
▁करा	-11.283335
▁မှု	-11.283341
žu	-11.283551
ี่	-11.283662
łu	-11.283664
▁uj	-11.283973
tö	-11.284005
▁ว่า	-11.284093
Je	-11.284147
ukuri	-11.284166
▁faha	-11.284184
▁ይህ	-11.284301
▁адӕм	-11.284323
▁Коръән	-11.284426
בר	-11.284451
▁hafa	-11.284622
зі	-11.284685
▁হয়	-11.284756
▁status	-11.284898
velo	-11.284904
ыннан	-11.284946
ਆ	-11.284956
▁funk	-11.285003
ần	-11.285029
▁lua	-11.285157
ழு	-11.285178
▁эки	-11.285210
ጐ	-11.285297
غۇچى	-11.285338
kkar	-11.285398
▁Алар	-11.285647
ச்ச	-11.285766
▁آورد	-11.285819
өк	-11.285846
llet	-11.285872
▁Jan	-11.286008
▁ciindi	-11.286054
lɛ	-11.286072
▁radi	-11.286150
▁агә	-11.286154
ஜ	-11.286170
▁эшләр	-11.286227
ടി	-11.286270
balik	-11.286521
▁US	-11.286669
kning	-11.286736
ەۋ	-11.286816
▁byo	-11.287036
ناکه	-11.287240
sque	-11.287297
utaki	-11.287384
▁rya	-11.287417
grund	-11.287436
mhair	-11.287533
akali	-11.287602
یوں	-11.287655
ئۇلار	-11.287804
▁زمين	-11.287923
▁faaa	-11.288095
▁Чи	-11.288124
әм	-11.288164
▁ግ	-11.288446
▁300	-11.288564
▁mult	-11.288691
▁għandhom	-11.288793
▁daytoy	-11.288795
stö	-11.288815
ācijas	-11.289007
▁қилиш	-11.289025
iil	-11.289117
▁gaga	-11.289202
▁Sun	-11.289255
զ	-11.289272
▁spa	-11.289523
rson	-11.289543
▁anima	-11.289627
▁jos	-11.289668
▁ຂຶ້ນ	-11.289668
уға	-11.289736
kje	-11.289803
ଭ	-11.289879
走	-11.289961
▁28:	-11.289968
▁ref	-11.290016
bunga	-11.290310
▁gahua	-11.290446
▁турында	-11.290452
ھى	-11.290576
▁Mil	-11.290632
▁avela	-11.290678
见	-11.290811
▁ນ້ອງ	-11.290850
మే	-11.290875
Wa	-11.290891
▁magaaho	-11.291140
▁наш	-11.291265
yisi	-11.291279
▁ו	-11.291561
ਂ	-11.291609
ŝ	-11.291715
quer	-11.291718
llugu	-11.291941
▁minu	-11.292030
▁fò	-11.292194
▁sị	-11.292391
▁جگه	-11.292408
▁deze	-11.292418
▁eso	-11.292434
şti	-11.292460
зеи	-11.292542
▁algun	-11.292791
ííł	-11.292800
londo	-11.292828
▁போ	-11.292900
huku	-11.293000
bilidad	-11.293050
íomh	-11.293246
ழ	-11.293246
ង្	-11.293300
ации	-11.293395
ашон	-11.293417
alam	-11.293646
▁foar	-11.293993
82	-11.294252
▁γ	-11.294344
europe	-11.294397
▁Sang	-11.294416
prend	-11.294563
▁स्व	-11.294572
έρ	-11.294696
▁tikang	-11.294718
▁れ	-11.294735
▁ᎢᏣ	-11.294749
ဗ	-11.294938
▁Tö	-11.295033
▁それ	-11.295234
如果	-11.295255
దేశ	-11.295276
ጡ	-11.295526
ശ്	-11.295568
▁Ҫ	-11.295598
▁muntu	-11.295689
▁При	-11.295759
programm	-11.295771
▁قورق	-11.295924
SL	-11.296086
tish	-11.296114
ლი	-11.296233
ሸ	-11.296407
▁గ	-11.296537
isten	-11.296647
▁Test	-11.296659
▁Сен	-11.296659
▁mahimo	-11.296724
▁رھ	-11.296850
▁oba	-11.296899
యో	-11.297026
ത്തിന്	-11.297162
ữ	-11.297282
▁уҡ	-11.297333
स्थ	-11.297342
▁قسم	-11.297401
ssuti	-11.297567
開	-11.297582
ىرى	-11.297674
balaj	-11.297695
▁هات	-11.297788
▁قىلدۇق	-11.297935
▁1998	-11.297949
▁করুন	-11.298185
tangira	-11.298198
▁vano	-11.298276
▁taki	-11.298379
▁бэ	-11.298446
ndri	-11.298449
▁Bbaibbele	-11.298468
στη	-11.298642
▁fou	-11.298783
▁usu	-11.298827
▁وارو	-11.298886
▁देवा	-11.298930
MB	-11.299037
ጌ	-11.299057
pare	-11.299112
大会	-11.299341
▁ಆಗ	-11.299419
ছিল	-11.299528
ungs	-11.299547
▁გან	-11.299638
saq	-11.299640
▁Mawu	-11.299876
لغان	-11.299881
ppel	-11.299887
кыр	-11.299932
avimo	-11.299982
▁Spa	-11.300005
jambo	-11.300294
▁كۆر	-11.300361
ії	-11.300414
ûn	-11.300765
呢	-11.300829
主席	-11.301136
▁vend	-11.301137
求	-11.301239
▁uso	-11.301419
▁қилди	-11.301592
▁خدای	-11.301867
▁مدد	-11.301977
▁waɗanda	-11.302010
▁Ubu	-11.302181
ndet	-11.302329
[...]
