<unk>	0.000000
<s>	0.000000
</s>	0.000000
▁の	-3.367324
.	-3.498251
▁,	-3.546586
▁に	-3.658723
▁は	-3.904186
▁を	-3.909138
▁て	-4.081415
の	-4.187885
▁た	-4.203114
▁	-4.222229
は	-4.348614
▁が	-4.427060
を	-4.491841
▁と	-4.587934
に	-4.647931
▁で	-4.714104
▁し	-4.796848
が	-4.894581
,	-4.929098
▁ます	-5.042008
▁こと	-5.114470
"	-5.119236
▁な	-5.206457
と	-5.244637
▁も	-5.260260
?	-5.262565
▁"	-5.266142
▁まし	-5.277442
▁い	-5.307738
▁か	-5.358872
で	-5.502243
▁その	-5.540956
▁人	-5.542217
▁(	-5.563298
だ	-5.565693
▁れ	-5.592949
▁よう	-5.597303
▁です	-5.600178
▁いる	-5.735188
▁する	-5.771771
っ	-5.839808
▁ある	-5.857087
:	-5.914650
です	-5.937939
ない	-5.941076
)	-5.947587
▁ない	-5.954799
て	-5.966845
▁この	-5.981327
▁から	-5.984428
か	-5.988287
な	-5.989105
▁それ	-6.031450
た	-6.033787
▁者	-6.038970
した	-6.054965
▁ん	-6.064987
▁神	-6.074003
▁-	-6.090631
▁たち	-6.094562
って	-6.096661
ます	-6.110951
▁ませ	-6.112141
い	-6.114996
▁う	-6.122748
も	-6.163892
った	-6.193820
▁あり	-6.222564
▁私	-6.241789
▁さ	-6.254045
よ	-6.256609
▁エホバ	-6.306258
!	-6.309243
▁何	-6.374722
▁や	-6.407091
から	-6.423008
▁的	-6.456301
▁いう	-6.465122
して	-6.480352
▁ため	-6.535244
こと	-6.537725
・	-6.545475
▁自分	-6.558582
する	-6.564865
▁でしょ	-6.580633
▁・	-6.584669
▁あなた	-6.602794
▁なり	-6.610354
▁もの	-6.626058
し	-6.639892
▁―	-6.658620
▁年	-6.667228
さ	-6.669618
▁これ	-6.674611
▁られ	-6.681968
▁ば	-6.694453
▁聖書	-6.700607
▁そう	-6.721632
んだ	-6.730657
る	-6.757879
▁彼	-6.791804
...	-6.818397
▁れる	-6.828465
▁イエス	-6.831490
ん	-6.838382
▁1	-6.858499
▁中	-6.876985
▁しかし	-6.880695
ま	-6.883660
▁なる	-6.894961
ね	-6.902157
▁また	-6.903431
者	-6.915880
▁でし	-6.934036
ー	-6.960099
▁人々	-6.967069
人	-6.975584
▁わたしたち	-7.004700
▁一	-7.020484
▁時	-7.037040
▁でき	-7.049064
▁なっ	-7.090106
てる	-7.106515
▁つい	-7.117400
▁こう	-7.117525
▁なら	-7.123444
▁そして	-7.126785
わ	-7.158832
▁‐	-7.174941
▁彼ら	-7.175516
."	-7.188675
▁述べ	-7.206412
▁どう	-7.209497
▁本	-7.211320
や	-7.212673
▁...	-7.216876
には	-7.217392
何	-7.232930
ら	-7.235845
▁なく	-7.242075
▁どんな	-7.278910
▁日	-7.292313
私	-7.293359
せん	-7.316897
当	-7.320412
]	-7.341712
事	-7.344725
▁第	-7.349966
▁今	-7.356314
▁わたし	-7.357451
▁だ	-7.369049
▁[	-7.371844
▁すべて	-7.382213
』	-7.385225
では	-7.392453
いた	-7.393221
▁多く	-7.399466
▁世界	-7.401502
▁よっ	-7.404178
▁次	-7.409687
中	-7.424389
▁他	-7.425791
▁証人	-7.428366
▁必要	-7.429679
▁より	-7.432494
▁4	-7.436508
▁2	-7.455732
▁クリスチャン	-7.462620
▁考え	-7.462873
く	-7.472031
▁間	-7.481848
▁5	-7.484211
▁彼女	-7.485594
なかっ	-7.491588
▁お	-7.491837
よう	-7.494967
▁どの	-7.500047
▁まで	-7.504066
▁たり	-7.523032
あなた	-7.534494
▁人間	-7.539222
▁見	-7.545758
▁家	-7.550660
▁ここ	-7.554088
▁べき	-7.555757
▁君	-7.567352
▁ください	-7.571550
しょう	-7.572768
▁二	-7.573037
のか	-7.578558
▁き	-7.583335
▁キリスト	-7.587942
▁3	-7.590854
▁できる	-7.603251
じゃ	-7.604536
▁後	-7.607597
くれ	-7.609922
ろう	-7.611821
します	-7.612686
▁前	-7.634235
▁問題	-7.643294
時	-7.644023
▁『	-7.660999
かった	-7.669429
▁なぜ	-7.672215
だけ	-7.683248
ある	-7.685826
いい	-7.698097
▁言葉	-7.705468
▁だけ	-7.705801
▁心	-7.709795
たち	-7.710120
▁あっ	-7.711360
▁へ	-7.711701
いて	-7.715659
▁俺	-7.723378
かれら	-7.728356
この	-7.734099
あり	-7.738199
あなたがた	-7.748284
▁上	-7.750728
▁ほど	-7.754462
▁対する	-7.755944
でき	-7.756531
んで	-7.767517
▁など	-7.768662
▁場合	-7.768846
▁られる	-7.769677
▁10	-7.771606
その	-7.774016
▁もう	-7.779059
▁ず	-7.785960
もの	-7.790281
2	-7.793689
▁せ	-7.797125
▁ページ	-7.800089
▁8	-7.815083
それ	-7.815214
▁子供	-7.819396
なけれ	-7.822714
でも	-7.824499
まで	-7.829322
がある	-7.840705
▁私たち	-7.847350
り	-7.850070
なら	-7.852134
ように	-7.852299
方	-7.859388
▁受け	-7.860682
▁しれ	-7.866101
しま	-7.866454
数	-7.871630
いる	-7.872943
そう	-7.874893
▁語	-7.878108
▁生活	-7.881394
である	-7.883321
彼	-7.889964
▁良い	-7.892089
▁7	-7.896698
▁僕	-7.902367
▁おら	-7.905885
▁愛	-7.916202
▁同じ	-7.918776
▁事柄	-7.919536
ぞ	-7.921081
▁王国	-7.921297
1	-7.934506
年	-7.934522
ている	-7.936821
▁目	-7.940602
▁月	-7.943180
つ	-7.945169
アッラ	-7.951590
▁でも	-7.952209
▁時間	-7.953972
▁大	-7.965683
▁よる	-7.966000
▁与え	-7.967978
▁今日	-7.969314
▁6	-7.970307
▁研究	-7.970351
▁点	-7.973567
▁助け	-7.979105
▁家族	-7.989319
▁節	-7.991347
▁不	-7.992146
▁12	-7.996088
▁ところ	-7.996709
っている	-7.999028
▁使徒	-8.000314
ろ	-8.002831
なく	-8.005521
達	-8.009315
▁パウロ	-8.013731
という	-8.018456
れ	-8.018867
▁15	-8.026485
▁力	-8.030617
であ	-8.033093
▁もし	-8.040648
▁さらに	-8.051784
▁つまり	-8.053064
▁よく	-8.055931
▁奉仕	-8.056627
我々	-8.058381
▁関係	-8.061814
▁一つ	-8.062782
▁地	-8.073862
▁9	-8.075179
出	-8.075280
▁章	-8.076276
子	-8.106025
▁11	-8.107438
▁だれ	-8.110889
▁おい	-8.112692
かれ	-8.114175
している	-8.116798
▁書	-8.118380
られる	-8.119972
▁お前	-8.123268
▁宗教	-8.124893
日	-8.124912
より	-8.125387
上	-8.130828
▁それら	-8.132961
された	-8.134616
▁手	-8.138670
手	-8.138812
ありま	-8.143004
▁実際	-8.143541
▁親	-8.145919
行	-8.149865
▁万	-8.150218
▁物	-8.151964
▁信仰	-8.154218
なの	-8.156259
;	-8.156502
▁対し	-8.157777
たい	-8.158934
▁関する	-8.160725
主	-8.160995
ス	-8.162199
てい	-8.163786
必要	-8.170029
▁得	-8.177192
▁たい	-8.178334
ために	-8.179769
本	-8.180120
-	-8.182848
これ	-8.182932
物	-8.184179
▁とき	-8.184503
▁兄弟	-8.187104
▁意味	-8.187591
目	-8.188075
▁来	-8.190713
▁言い	-8.192578
▁教え	-8.193848
分	-8.200827
へ	-8.200949
▁世	-8.204639
▁数	-8.206237
られ	-8.215124
▁仕事	-8.217145
さん	-8.222740
▁会衆	-8.222905
として	-8.225758
▁命	-8.226836
▁うち	-8.230398
▁思い	-8.234255
す	-8.234383
▁どこ	-8.236596
▁国	-8.236933
▁話	-8.238478
▁それで	-8.241276
▁示し	-8.243501
▁ですから	-8.251191
▁所	-8.256906
自分	-8.256942
われ	-8.257408
▁いい	-8.258235
言う	-8.261115
▁記事	-8.267346
どう	-8.267447
▁ヨハネ	-8.268047
▁大きな	-8.272362
▁確か	-8.277077
▁あれ	-8.279079
▁新しい	-8.280775
▁なさい	-8.281732
家	-8.282205
▁20	-8.282802
▁そこ	-8.283115
▁知っ	-8.283739
▁とっ	-8.290383
あ	-8.298717
▁性	-8.300023
▁これら	-8.300343
▁出	-8.304903
ここ	-8.310049
▁マタイ	-8.310857
後	-8.315261
なさい	-8.315756
▁天	-8.318303
▁言わ	-8.329492
になる	-8.331017
され	-8.334991
ください	-8.345335
▁結果	-8.345656
▁死	-8.346086
▁教会	-8.346950
▁14	-8.349783
ご自分	-8.352749
▁王	-8.354155
▁真	-8.355246
▁13	-8.355896
▁霊的	-8.355937
知	-8.358349
み	-8.359548
イ	-8.359632
▁子ども	-8.359863
▁せる	-8.369779
れば	-8.370131
と思	-8.384709
▁最初	-8.384942
▁3:	-8.386102
話	-8.386365
にも	-8.386733
▁イスラエル	-8.387534
持	-8.387563
▁/	-8.395194
しない	-8.395336
▁ああ	-8.396711
神	-8.409133
▁17	-8.410701
だよ	-8.411081
▁非常	-8.417153
▁主	-8.417237
▁18	-8.419240
ことが	-8.419293
お	-8.420348
大	-8.420828
▁持	-8.421573
▁共	-8.422841
▁水	-8.426059
▁ましょ	-8.427855
▁民	-8.430603
『	-8.430806
▁学	-8.431080
来	-8.431687
3	-8.431929
▁同	-8.432020
▁預言	-8.432147
▁だろ	-8.432461
▁結婚	-8.434394
また	-8.442465
▁され	-8.443552
▁2:	-8.445387
▁誰	-8.446421
▁!	-8.449114
できる	-8.449994
▁おり	-8.451423
時間	-8.452274
▁だが	-8.452368
だろ	-8.458250
▁理解	-8.458404
▁あの	-8.460128
▁女性	-8.460645
▁父	-8.465798
▁み	-8.466008
ってい	-8.466020
▁まだ	-8.470375
力	-8.471566
▁別	-8.472954
う	-8.476767
▁16	-8.482882
▁妻	-8.483520
▁影響	-8.485784
わたし	-8.488029
▁説明	-8.488417
▁19	-8.488917
けど	-8.489700
いま	-8.493446
▁方法	-8.496521
▁あるいは	-8.497225
▁答え	-8.497925
地	-8.501659
▁だから	-8.506705
させ	-8.514675
君	-8.517361
▁ローマ	-8.517629
s	-8.519391
き	-8.520174
らない	-8.523870
たら	-8.523965
▁行なう	-8.524654
でしょ	-8.526149
▁経験	-8.527196
行く	-8.528115
▁図版	-8.528783
▁明らか	-8.529049
▁理由	-8.529444
考え	-8.529745
▁身	-8.534755
▁子	-8.534919
▁以上	-8.535980
▁言っ	-8.537319
▁崇拝	-8.541536
外	-8.541546
度	-8.542861
される	-8.542995
▁さえ	-8.543423
前	-8.544043
▁幾	-8.549245
▁例えば	-8.554170
▁罪	-8.555826
▁持つ	-8.557037
▁行なわ	-8.558244
_	-8.559031
▁用い	-8.560678
彼女	-8.567380
があ	-8.567804
▁下	-8.573009
▁だっ	-8.573460
見て	-8.577386
▁言う	-8.580560
▁22	-8.582488
▁す	-8.585515
見	-8.585870
▁すれ	-8.586803
▁実	-8.587989
▁すぐ	-8.589983
▁世紀	-8.591620
ト	-8.593724
思う	-8.598242
▁完全	-8.600442
▁真理	-8.604196
体	-8.608429
▁いや	-8.608687
▁現在	-8.608816
▁教	-8.611351
▁道	-8.611833
▁創造	-8.612282
▁無	-8.616343
▁時代	-8.619608
▁支配	-8.620132
▁重要	-8.624363
▁業	-8.626060
▁示す	-8.629423
▁体	-8.632771
▁知ら	-8.633309
▁歳	-8.636604
られた	-8.638349
同じ	-8.638366
▁祈り	-8.638778
▁どうして	-8.639635
▁気	-8.640440
男	-8.641081
▁米国	-8.644744
▁24	-8.646816
▁方	-8.647655
▁あなた方	-8.651011
▁状態	-8.651156
▁かれら	-8.654434
について	-8.658828
▁行動	-8.659725
御	-8.662427
的	-8.662652
▁少なく	-8.668480
▁目的	-8.669649
▁新	-8.671311
せ	-8.673227
▁最も	-8.674465
▁求め	-8.675682
▁ほとんど	-8.675717
的な	-8.680960
▁よ	-8.681014
ため	-8.681419
▁ほか	-8.684947
▁危険	-8.685335
ル	-8.685746
▁あなたがた	-8.686836
べき	-8.687613
ン	-8.687739
▁ペテロ	-8.687856
▁ユダヤ	-8.692830
▁面	-8.694131
▁約束	-8.694446
になり	-8.698295
誰	-8.698322
▁車	-8.698784
▁詩編	-8.699749
▁コリント	-8.700956
▁場所	-8.701938
ば	-8.705368
▁もっと	-8.714376
▁そんな	-8.717987
▁人類	-8.720183
▁地上	-8.721122
今	-8.721745
▁事	-8.727058
▁21	-8.729227
▁全	-8.734915
一	-8.737752
▁関し	-8.743709
やる	-8.743765
ませ	-8.748247
▁分	-8.749473
▁ロ	-8.749693
前に	-8.751728
言って	-8.755810
行っ	-8.756967
なった	-8.758861
心	-8.758904
▁感じ	-8.759191
きた	-8.760074
▁活動	-8.763494
こんな	-8.769245
▁事実	-8.771067
▁ながら	-8.771543
▁ありがとう	-8.773817
▁見る	-8.779702
▁少し	-8.781043
▁思	-8.781070
車	-8.790470
▁一緒	-8.790926
▁得る	-8.791019
知っ	-8.791449
m	-8.791482
/	-8.792248
女	-8.792819
▁感謝	-8.793324
6:	-8.794193
▁喜び	-8.796076
来た	-8.796133
所	-8.799787
▁よい	-8.800714
▁名	-8.801316
▁わけ	-8.801822
▁注意	-8.805856
こう	-8.807036
▁平和	-8.808352
―	-8.811338
ア	-8.811432
▁信じ	-8.811786
▁病気	-8.813440
言っ	-8.814233
▁全く	-8.816326
▁若い	-8.817130
ないと	-8.818943
回	-8.819448
仕事	-8.819634
▁ご	-8.822487
▁十分	-8.822879
▁気持ち	-8.825040
聞	-8.825063
夜	-8.832422
にして	-8.834669
性	-8.834934
▁宣教	-8.835258
▁学校	-8.839185
▁生き	-8.839802
▁おける	-8.840078
'	-8.843709
どこ	-8.844101
▁努力	-8.846336
▁政府	-8.846628
▁夫	-8.848365
▁くれ	-8.853313
ク	-8.854819
言	-8.855541
▁希望	-8.857924
▁存在	-8.858553
々	-8.858863
下	-8.858884
▁同様	-8.860042
▁行く	-8.861449
▁考える	-8.862605
▁わか	-8.863765
わたしたち	-8.864539
▁ちょっと	-8.864557
▁態度	-8.864966
▁頭	-8.865447
▁聞	-8.866887
▁いつ	-8.866982
▁特に	-8.871659
月	-8.874611
▁かれ	-8.882044
▁分か	-8.882221
道	-8.883784
▁イザヤ	-8.884231
▁もちろん	-8.885977
良い	-8.887057
▁弟子	-8.888509
間	-8.888721
かっ	-8.890258
されて	-8.891235
▁仲間	-8.891358
▁地球	-8.891576
▁啓示	-8.892713
だな	-8.893022
▁科学	-8.893341
▁いつも	-8.895725
▁アメリカ	-8.898486
▁霊	-8.899454
ム	-8.900987
▁どれ	-8.902463
かな	-8.904287
気	-8.905039
▁とても	-8.907460
場所	-8.909644
もう	-8.912848
▁生じ	-8.913262
▁状況	-8.913573
▁行なっ	-8.914056
▁忠実	-8.915295
▁動物	-8.915610
的に	-8.917182
なん	-8.920216
世界	-8.922518
▁伝道	-8.923137
俺	-8.924331
▁若者	-8.925866
▁質問	-8.926023
▁ルカ	-8.926653
れた	-8.928862
▁自由	-8.930097
▁および	-8.930121
▁まず	-8.931545
問題	-8.933977
▁いえ	-8.934202
みたい	-8.934422
5	-8.937881
れない	-8.938988
▁大丈夫	-8.940804
▁号	-8.942574
まし	-8.944021
▁国民	-8.945186
え	-8.949593
▁律法	-8.950992
4	-8.951707
▁最後	-8.955010
▁認め	-8.956469
▁サタン	-8.957867
ド	-8.958167
▁受ける	-8.958322
▁始め	-8.958405
とき	-8.958631
▁記	-8.960493
▁ええ	-8.960884
▁ヘブライ	-8.966505
国	-8.967120
▁内	-8.968143
▁そこで	-8.969159
▁約	-8.971480
▁それでも	-8.974127
▁犠牲	-8.975773
▁与える	-8.977935
▁組織	-8.980541
一緒	-8.982674
▁終わり	-8.983024
ても	-8.983538
ズ	-8.985857
▁関心	-8.985988
見た	-8.986232
▁諸	-8.989554
▁社会	-8.990132
るか	-8.990486
▁際	-8.991400
▁あらゆる	-8.994119
▁テモテ	-8.997313
▁長老	-9.000543
ところ	-9.000605
ないか	-9.002127
下さい	-9.002604
殺	-9.003123
出来	-9.004956
▁知識	-9.006870
▁23	-9.008050
▁戦争	-9.008437
▁行ない	-9.010648
▁バプテスマ	-9.010773
▁カトリック	-9.012349
▁たら	-9.012477
▁州	-9.013132
▁女	-9.013366
▁25	-9.013667
▁ほう	-9.014149
▁紙	-9.014974
▁残	-9.018618
▁アッラ	-9.018681
▁男	-9.020323
▁%	-9.020590
▁決して	-9.021298
▁母	-9.022643
▁祝福	-9.023071
いない	-9.023764
と言	-9.025310
▁来る	-9.025387
だから	-9.026258
▁以前	-9.026856
りま	-9.029222
▁幸福	-9.029817
▁誌	-9.029933
▁呼ば	-9.030457
ず	-9.031059
▁息子	-9.031188
▁度	-9.031711
▁箴言	-9.037144
方法	-9.038637
タ	-9.039918
ドル	-9.041975
▁自身	-9.042084
▁個人	-9.043683
▁義	-9.044223
▁種	-9.044513
▁悪い	-9.045899
▁益	-9.046330
はず	-9.047543
人間	-9.048193
場合	-9.049422
▁いっ	-9.049869
期	-9.051792
▁一部	-9.052271
▁最近	-9.052286
好き	-9.053067
▁みんな	-9.053227
書	-9.053643
▁出席	-9.056329
▁大会	-9.056600
含ま	-9.057384
▁西暦	-9.057757
▁*	-9.059073
▁訳	-9.064920
ぁ	-9.066882
名	-9.068030
▁都市	-9.068347
▁恐れ	-9.068592
▁将来	-9.068620
▁生	-9.068774
かもし	-9.068913
会	-9.070395
死	-9.072822
め	-9.075428
元	-9.075933
▁道徳	-9.077048
▁変化	-9.078928
▁価値	-9.080184
多く	-9.081573
意味	-9.084922
▁集会	-9.085778
なんて	-9.085941
▁地域	-9.086496
▁ダビデ	-9.087173
▁思わ	-9.087341
▁歴史	-9.087697
▁くださる	-9.089086
▁エルサレム	-9.089950
▁精神	-9.090133
▁30	-9.093055
▁可能	-9.098009
水	-9.099142
▁言え	-9.103268
▁自	-9.104361
使	-9.106566
信じ	-9.107141
無い	-9.107595
万	-9.108157
ほど	-9.109066
▁例	-9.110186
▁ね	-9.111103
通り	-9.112007
▁分かり	-9.115171
▁小さな	-9.117995
▁ずっ	-9.119125
▁起き	-9.119381
式	-9.120558
▁行為	-9.120896
ですが	-9.123182
x	-9.123602
つの	-9.124723
▁the	-9.128496
作	-9.131906
▁証拠	-9.132547
▁木	-9.134262
先	-9.135555
命	-9.136204
▁たより	-9.136220
▁感情	-9.136651
すると	-9.136775
▁正しい	-9.138411
▁もと	-9.138847
▁続け	-9.141270
しろ	-9.141963
への	-9.143013
来る	-9.143938
▁伝え	-9.144502
▁知る	-9.144689
思い	-9.148437
彼ら	-9.149292
▁やめ	-9.150023
▁通し	-9.150466
▁皆	-9.150928
▁政治	-9.154504
人が	-9.160946
▁住む	-9.161619
見つけ	-9.164553
与え	-9.165351
▁あ	-9.167249
▁行き	-9.167761
しか	-9.168628
▁当時	-9.169510
よく	-9.169576
したい	-9.170423
電話	-9.171072
▁手紙	-9.171638
▁口	-9.173069
▁責任	-9.174571
▁ことば	-9.176145
▁よれ	-9.176318
語	-9.176530
▁●	-9.177776
▁じゃ	-9.177973
たく	-9.181063
▁もっ	-9.181430
▁助言	-9.182629
▁確信	-9.182769
▁思う	-9.182982
▁母親	-9.183287
▁従	-9.185594
もし	-9.188398
▁先	-9.190274
ダ	-9.190802
僕	-9.191092
▁様々	-9.192931
うか	-9.193334
まだ	-9.193922
なる	-9.195527
れる	-9.197042
▁健康	-9.197351
▁名前	-9.198252
▁アフリカ	-9.199054
こ	-9.201270
▁勧め	-9.202559
によって	-9.203007
▁医師	-9.203183
▁永遠	-9.204619
▁あと	-9.206056
N	-9.206923
ナ	-9.207230
点	-9.209531
▁人生	-9.210196
線	-9.212276
用	-9.213270
金	-9.213734
▁あろ	-9.213937
教え	-9.214852
関	-9.215882
▁一般	-9.217262
エホバ	-9.217350
生	-9.218818
つもり	-9.220086
▁とおり	-9.222364
▁現代	-9.223271
▁金	-9.223898
など	-9.223911
▁ただ	-9.224133
ような	-9.224840
▁ギリシャ	-9.226322
▁普通	-9.227416
▁悪	-9.228129
▁復活	-9.228946
はその	-9.231936
▁信頼	-9.232291
少し	-9.233051
動	-9.233743
▁見方	-9.236821
機	-9.237180
ったら	-9.238474
いう	-9.238520
y	-9.239834
民	-9.240664
▁情報	-9.241624
▁体制	-9.243145
頭	-9.243660
▁感	-9.244866
▁死ん	-9.245422
▁安全	-9.250074
▁しまい	-9.250117
言葉	-9.250172
▁しまう	-9.252045
▁娘	-9.254234
▁会	-9.254853
値	-9.256544
▁報告	-9.256751
▁警告	-9.257713
▁物質	-9.260575
▁三	-9.261364
▁家庭	-9.261459
くれる	-9.262531
▁抱	-9.262814
▁すでに	-9.265382
すぐ	-9.266197
▁血	-9.267748
▁全体	-9.268154
化	-9.268712
▁比較	-9.269019
▁受け入れ	-9.272613
感じ	-9.272922
▁すなわち	-9.275643
学	-9.276325
t	-9.277978
私たち	-9.278151
▁特別	-9.279738
とも	-9.282464
▁日本	-9.282784
▁お金	-9.282866
に入	-9.283495
▁われ	-9.283501
子供	-9.283727
▁ドイツ	-9.285080
▁回	-9.285175
▁記録	-9.285468
▁備え	-9.286938
一つ	-9.287490
▁愛する	-9.289154
▁離れ	-9.289291
入っ	-9.290236
ラ	-9.292272
▁男性	-9.292550
▁行	-9.293039
くる	-9.293124
6	-9.294158
▁違い	-9.296859
名前	-9.297096
▁市	-9.297448
▁奴	-9.297919
為	-9.298779
▁こ	-9.299064
▁させ	-9.300890
▁調査	-9.301006
▁教育	-9.302044
▁立場	-9.302103
▁外	-9.302226
▁昔	-9.302718
▁主義	-9.302819
すべて	-9.303365
リ	-9.305366
▁自然	-9.305578
関係	-9.309988
以上	-9.310013
法	-9.310683
▁さあ	-9.312255
▁ヤコブ	-9.313236
見る	-9.314877
かけ	-9.318500
身	-9.319523
▁示さ	-9.319947
始め	-9.320010
官	-9.321938
▁キロ	-9.322351
▁原因	-9.324964
▁一致	-9.324973
入れ	-9.325201
念	-9.328097
▁知り	-9.328261
▁海	-9.328474
▁反対	-9.331512
フ	-9.332453
知ら	-9.332459
▁山	-9.333264
▁指導	-9.333650
▁決定	-9.334752
そ	-9.334769
▁一方	-9.335114
助け	-9.335247
▁in	-9.336888
▁古代	-9.337642
a	-9.339069
▁かけ	-9.339492
なり	-9.340611
▁28	-9.342242
▁計画	-9.342641
戻	-9.342834
▁モーセ	-9.344647
▁見え	-9.347162
とか	-9.347672
▁話し	-9.348672
カ	-9.350043
▁入れ	-9.350353
0	-9.350462
▁知恵	-9.353775
▁姉妹	-9.355229
▁訪問	-9.355860
務	-9.356000
▁あんた	-9.356477
▁読む	-9.357774
全て	-9.359206
▁協会	-9.359507
こそ	-9.360675
解	-9.360721
▁光	-9.360739
させる	-9.361072
わけ	-9.362089
▁くださ	-9.362457
▁父親	-9.363307
面	-9.364255
▁読	-9.364573
<	-9.364593
▁わずか	-9.366141
▁誰か	-9.367217
▁電話	-9.367486
▁声	-9.367522
▁耳	-9.367974
▁原則	-9.368380
む	-9.370472
▁二つ	-9.370908
ファイル	-9.374333
▁必ず	-9.379688
▁やがて	-9.380249
▁円	-9.380341
▁自ら	-9.382784
▁したがって	-9.384850
笑	-9.384887
▁言語	-9.385966
▁解決	-9.386125
▁宇宙	-9.386239
▁生ま	-9.386288
きま	-9.386919
▁愛し	-9.387184
▁使	-9.387355
▁急	-9.387492
速	-9.388333
内	-9.388602
▁警察	-9.388627
▁はっきり	-9.388683
つけ	-9.391428
▁英国	-9.392282
▁保護	-9.394546
次	-9.395487
▁いいえ	-9.396206
共	-9.396439
▁多い	-9.396592
▁大切	-9.397794
▁奴隷	-9.400271
なければ	-9.401353
▁C	-9.401614
奴	-9.403472
信仰	-9.404263
天	-9.405101
▁忘れ	-9.405109
有	-9.406668
たか	-9.407195
▁ご覧	-9.407377
▁ゆく	-9.407492
▁A	-9.408122
▁加え	-9.409160
▁機会	-9.410119
▁最	-9.410582
無	-9.410715
B	-9.411865
すること	-9.412444
▁創世記	-9.414205
行き	-9.416019
そこ	-9.416061
様	-9.417794
居	-9.418042
P	-9.418130
送	-9.418344
見え	-9.418996
▁部分	-9.420167
お前	-9.420557
▁かなり	-9.420893
▁色	-9.421430
▁I	-9.424046
マン	-9.426516
▁やっ	-9.427753
すか	-9.427903
▁覚え	-9.427928
欲しい	-9.429832
▁魂	-9.431152
▁むしろ	-9.431559
とても	-9.431566
かも	-9.433245
世	-9.434787
▁開拓	-9.436239
▁常	-9.437104
▁強い	-9.437411
新しい	-9.438204
▁心配	-9.438558
▁すばらしい	-9.439032
▁員	-9.439071
▁話す	-9.441416
する者	-9.442183
着	-9.444679
▁親切	-9.444887
使用	-9.445161
▁高い	-9.445173
まっ	-9.447661
▁犯罪	-9.449023
▁近く	-9.450553
▁調べ	-9.450756
以外	-9.450978
ame	-9.452008
残	-9.455463
業	-9.455635
▁正確	-9.455844
▁大学	-9.456241
▁夜	-9.459487
愛	-9.459703
直	-9.460821
印	-9.461630
▁真実	-9.462057
▁ニューヨーク	-9.462168
ロ	-9.462490
▁違う	-9.462707
@	-9.464965
実	-9.465287
のもの	-9.466052
すれば	-9.466141
▁至る	-9.467175
▁患者	-9.467936
死ん	-9.469525
▁トム	-9.469757
▁友人	-9.469899
▁過去	-9.471891
▁再び	-9.473527
▁治療	-9.473772
▁ゆえに	-9.473825
得	-9.474788
▁土地	-9.476089
▁船	-9.477385
▁互い	-9.479977
乗	-9.480399
▁はず	-9.482186
▁訓練	-9.482586
発	-9.482812
▁一度	-9.483334
▁26	-9.483500
▁期間	-9.484234
▁もたらす	-9.485034
▁機	-9.486052
話を	-9.486207
▁暴力	-9.487022
▁求める	-9.488445
要	-9.489141
ソン	-9.492445
▁博士	-9.493427
答え	-9.494444
悪い	-9.495813
デ	-9.496377
▁よし	-9.496429
こちら	-9.496651
火	-9.497684
▁従う	-9.499237
▁たくさん	-9.499748
▁初めて	-9.499797
凡て	-9.500131
▁か月	-9.500659
▁法	-9.501601
▁公	-9.502575
),	-9.503012
▁みな	-9.503879
▁期待	-9.503951
違う	-9.504187
▁深い	-9.504683
▁フランス	-9.508111
▁出版	-9.508510
▁夫婦	-9.510413
一人	-9.511379
目ざめよ	-9.514049
▁能力	-9.514559
▁食べ	-9.515244
形	-9.515368
▁町	-9.516903
▁人びと	-9.517618
▁保つ	-9.518047
▁ど	-9.519004
▁住ん	-9.519382
色	-9.519805
▁□	-9.522445
ぜ	-9.523676
▁定め	-9.524520
▁語り	-9.524700
がない	-9.524917
▁小	-9.525594
たわ	-9.526623
約	-9.526834
もない	-9.527027
▁週	-9.527819
▁長い	-9.528217
ちら	-9.528759
▁早く	-9.530818
▁ダニエル	-9.531155
くらい	-9.531652
▁すぎ	-9.531906
▁出来事	-9.533560
▁ころ	-9.534687
▁足	-9.537045
▁刑	-9.537719
▁書き	-9.540831
▁それぞれ	-9.541421
▁成功	-9.541869
▁使用	-9.542122
▁食物	-9.542994
▁邪悪	-9.543178
のような	-9.545242
▁働き	-9.545980
▁形	-9.546198
▁習慣	-9.546258
▁敵	-9.548025
▁ドル	-9.548353
▁代	-9.549094
▁a	-9.549142
マ	-9.549896
口	-9.551395
▁テレビ	-9.551506
▁大勢	-9.552041
誌	-9.552056
▁各	-9.553906
英語	-9.553975
▁満足	-9.554565
▁経済	-9.554685
自身	-9.554974
▁かつて	-9.557571
▁病	-9.558765
使徒	-9.558895
不	-9.558970
▁成就	-9.559406
▁ヨブ	-9.560166
いつ	-9.562618
▁援助	-9.562869
▁億	-9.564567
▁監督	-9.564725
▁国際	-9.567117
▁アダム	-9.567734
▁なぜなら	-9.568369
▁相手	-9.569528
終	-9.570436
わよ	-9.570917
▁助ける	-9.571280
7	-9.571331
歳	-9.572414
リー	-9.572691
んじゃ	-9.572833
話し	-9.573306
▁栄光	-9.574086
▁増加	-9.574212
▁S	-9.574261
▁100	-9.574710
▁仕方	-9.574788
足	-9.575577
女性	-9.575837
▁火	-9.576764
▁送	-9.576859
▁死ぬ	-9.577081
▁しかも	-9.577411
にとって	-9.578558
▁そういう	-9.579082
部分	-9.579460
▁K	-9.580654
▁27	-9.581081
進ん	-9.582365
▁島	-9.584245
例	-9.584587
▁両親	-9.584707
▁悪魔	-9.584801
るわ	-9.585054
▁まさに	-9.585196
場	-9.585559
▁尋ね	-9.585741
▁羊	-9.588380
量	-9.590368
▁メートル	-9.590484
▁しか	-9.590865
▁高	-9.591010
▁エフェソス	-9.591051
▁川	-9.591554
▁権威	-9.591833
新	-9.592776
っても	-9.593225
らば	-9.594285
▁31	-9.594432
ち	-9.596118
家族	-9.596224
オ	-9.597962
父	-9.598664
▁ま	-9.599379
生き	-9.600828
▁グループ	-9.601347
▁発見	-9.603952
理由	-9.605365
変	-9.606002
▁教える	-9.606641
け	-9.608346
▁皆さん	-9.608688
のである	-9.609146
▁写真	-9.610281
▁全部	-9.610563
▁命令	-9.610668
▁信者	-9.610695
▁注目	-9.610784
顔	-9.610789
みま	-9.612300
合	-9.614688
▁宣べ伝える	-9.614862
▁驚く	-9.615035
連れ	-9.615355
▁最高	-9.618000
▁聖	-9.618142
懲罰	-9.622173
▁定	-9.622520
▁言って	-9.622946
分か	-9.623678
受け	-9.624013
▁旅行	-9.624899
▁エレミヤ	-9.625438
n	-9.626210
▁反応	-9.626340
音	-9.626978
▁あまり	-9.627231
▁P	-9.627556
▁T	-9.629631
起き	-9.630187
▁事態	-9.630852
▁ヨーロッパ	-9.632528
▁ジョン	-9.633371
▁40	-9.633377
立っ	-9.633633
部屋	-9.636155
高	-9.636340
▁守る	-9.636627
▁うん	-9.637366
▁富	-9.637951
▁簡単	-9.639915
食べ	-9.640035
▁準備	-9.640234
▁B	-9.640744
▁殺	-9.640913
生活	-9.641378
ちゃ	-9.641490
▁種類	-9.643015
▁たとえ	-9.644739
8	-9.645547
絶対	-9.647009
敵	-9.648344
帰	-9.648359
kg	-9.648798
▁国家	-9.649511
▁書か	-9.649534
▁音信	-9.649907
いけ	-9.650341
最も	-9.650532
▁苦しみ	-9.651834
▁毎日	-9.652625
状態	-9.652959
▁物事	-9.654193
▁疑問	-9.655380
▁神殿	-9.655405
約束	-9.656938
急	-9.656953
終わり	-9.658633
そんな	-9.659010
▁脚注	-9.660429
▁聖霊	-9.660632
▁お願い	-9.661357
▁式	-9.662257
ることは	-9.662477
ディ	-9.663428
▁学ぶ	-9.663742
▁用	-9.664317
▁南	-9.664662
出し	-9.664948
▁友達	-9.665879
▁待っ	-9.666849
▁模範	-9.666898
▁献身	-9.667562
▁音	-9.669077
派	-9.669546
出来る	-9.670237
罪	-9.670446
▁太陽	-9.670592
▁一番	-9.671771
コ	-9.671835
▁ご自身	-9.672138
▁非	-9.672236
▁忠節	-9.672536
選択	-9.675526
▁現実	-9.677185
なきゃ	-9.677318
▁専門	-9.678016
明	-9.678488
▁音楽	-9.680918
▁戻	-9.681370
d	-9.681592
通	-9.683055
ザ	-9.683815
▁29	-9.684130
▁言える	-9.687310
▁量	-9.687681
起こ	-9.689410
▁北	-9.690226
10	-9.691378
▁喜	-9.691506
▁主張	-9.692091
▁ばかり	-9.692626
S	-9.693257
思	-9.693944
』.	-9.694273
▁あら	-9.695636
▁良心	-9.696640
山	-9.697440
▁追	-9.697563
全	-9.699742
の間	-9.699822
人々	-9.700124
文字	-9.700251
▁環境	-9.700596
されている	-9.701424
てはならない	-9.703185
撃	-9.703856
悪	-9.704787
in	-9.705023
ブ	-9.707192
言わ	-9.707231
▁偽り	-9.707789
最初	-9.708024
▁正直	-9.709512
声	-9.710857
忘れ	-9.712024
▁特質	-9.712727
▁以来	-9.712747
だね	-9.712883
▁生物	-9.713598
▁油そそ	-9.714265
番	-9.714671
▁デ	-9.714684
人生	-9.714838
▁連れ	-9.715506
▁アブラハム	-9.716701
▁直面	-9.717451
▁パパ	-9.718334
だけど	-9.718659
だわ	-9.718710
▁長	-9.719997
▁雑誌	-9.720951
▁脳	-9.721405
▁表現	-9.721431
理	-9.721786
▁ア	-9.722500
▁または	-9.722737
▁歌	-9.722976
▁運動	-9.723745
た時	-9.724936
信	-9.725006
▁目標	-9.725196
▁成長	-9.725716
▁考慮	-9.725863
▁開か	-9.726029
▁聖句	-9.726176
▁くれる	-9.726381
▁詩	-9.726501
▁場	-9.726756
最後	-9.728994
▁ものみの塔	-9.729622
▁to	-9.730010
求め	-9.730620
探し	-9.731345
ツ	-9.732350
▁化	-9.732701
▁33	-9.732816
他の	-9.733475
互い	-9.734481
▁肉	-9.734579
理解	-9.735425
サ	-9.735434
▁くる	-9.735589
付け	-9.735809
▁友	-9.735910
見せ	-9.737538
風	-9.737658
正しい	-9.739272
常	-9.739505
室	-9.739607
▁取り	-9.740084
r	-9.740508
▁契約	-9.740919
なし	-9.741104
過ぎ	-9.741897
▁ご意志	-9.742059
殺し	-9.743320
▁迫害	-9.743559
▁新た	-9.743694
説明	-9.743994
▁しっかり	-9.744596
存在	-9.744605
に対して	-9.745142
列	-9.748546
意	-9.749337
または	-9.749555
▁ゆき	-9.749844
▁証明	-9.751064
▁32	-9.751172
▁ひとり	-9.752937
▁もはや	-9.754710
▁麻薬	-9.756510
▁挙げ	-9.756786
▁障害	-9.757783
▁技術	-9.757901
どんな	-9.759611
▁50	-9.760732
▁ママ	-9.762780
▁導き	-9.762801
▁予告	-9.762822
待っ	-9.763596
二	-9.764927
▁仕える	-9.765800
そして	-9.766087
▁見つけ	-9.766264
仲間	-9.767404
▁最大	-9.768523
▁傾向	-9.768988
▁裁判	-9.769624
▁好き	-9.769700
▁対処	-9.769771
確認	-9.769855
▁向け	-9.770192
チ	-9.770858
▁全て	-9.770984
▁食事	-9.771190
▁敬意	-9.771415
かかわら	-9.772371
写真	-9.772382
▁祭司	-9.772967
立	-9.773016
▁部	-9.773323
▁要求	-9.773547
▁記述	-9.773588
権	-9.775201
種	-9.775314
側	-9.775405
▁優れ	-9.778921
▁取る	-9.779387
A	-9.779635
見える	-9.779832
設定	-9.779913
気に	-9.780457
▁用いる	-9.780729
L	-9.780949
長	-9.781265
だが	-9.781305
▁慰め	-9.783031
▁鳥	-9.783604
木	-9.784584
▁認識	-9.784863
▁全員	-9.785970
▁つつ	-9.787247
バ	-9.787890
バー	-9.787919
▁効果	-9.788559
▁多	-9.789795
▁大きく	-9.791065
計画	-9.791242
▁バビロン	-9.791258
▁その他	-9.792049
▁当然	-9.792101
▁基本	-9.792941
▁向か	-9.793502
ることを	-9.793516
▁病院	-9.794147
大丈夫	-9.794212
▁もしくは	-9.794799
戦	-9.795012
▁エジプト	-9.796164
▁攻撃	-9.797028
自	-9.797374
▁年代	-9.797388
▁付	-9.797472
正	-9.797899
▁支持	-9.799852
▁>	-9.802048
誰か	-9.802374
ものみの塔	-9.802472
うち	-9.802623
▁似	-9.803209
員	-9.804063
人びと	-9.804938
野	-9.805136
▁強く	-9.805183
一度	-9.807302
母	-9.807705
▁まま	-9.807723
▁残り	-9.807848
▁豊か	-9.807854
▁◆	-9.808586
▁通り	-9.808652
光	-9.808687
とした	-9.808893
▁側	-9.808952
ったか	-9.809141
▁ふさわしい	-9.809776
使う	-9.810513
船	-9.811248
▁時期	-9.812501
リスト	-9.812757
▁み使い	-9.814418
座	-9.814697
▁両	-9.815460
大きな	-9.816755
▁余り	-9.816791
▁許し	-9.817591
ール	-9.819348
▁もたらし	-9.820532
ニ	-9.820903
▁まあ	-9.822250
入	-9.822956
随	-9.824498
9	-9.824699
▁of	-9.824904
許	-9.825053
どうか	-9.825788
▁うまく	-9.826155
▁症	-9.826459
▁4)	-9.826564
▁マルコ	-9.826591
▁初期	-9.827740
取り	-9.829638
▁出し	-9.829689
▁霊感	-9.829746
▁感じる	-9.829830
ござ	-9.831339
続け	-9.832528
▁賢明	-9.832973
▁いろいろ	-9.833507
▁学び	-9.834683
▁従順	-9.835220
たん	-9.835590
することが	-9.839220
読	-9.840648
▁分かる	-9.840897
▁顔	-9.840949
▁特権	-9.841359
▁働く	-9.842385
▁破壊	-9.843807
ベ	-9.844717
▁みる	-9.844746
▁続ける	-9.846555
ながら	-9.846628
▁ユダ	-9.846859
▁婦人	-9.847030
C	-9.847468
▁み子	-9.848176
▁想像	-9.849011
結果	-9.850562
いつも	-9.851254
▁you	-9.851995
▁関連	-9.852180
せい	-9.852848
頃	-9.853614
▁クレジット	-9.854225
i	-9.855544
▁倍	-9.856814
▁教徒	-9.857449
▁取っ	-9.857813
ッ	-9.858646
グ	-9.859389
どの	-9.859657
▁利用	-9.860106
止め	-9.860507
息子	-9.861107
▁証言	-9.861369
レ	-9.861396
▁過	-9.862442
▁世話	-9.862798
において	-9.862837
▁翻訳	-9.863385
基づい	-9.863556
▁ささげ	-9.864100
▁使わ	-9.864159
▁意見	-9.864243
まえ	-9.865225
HP	-9.866851
▁使う	-9.866990
▁熱心	-9.867524
▁させる	-9.867907
▁ところが	-9.867989
T	-9.868128
ご	-9.869273
▁仕え	-9.870847
▁銃	-9.871198
刑	-9.871606
▁み名	-9.871787
▁初め	-9.871978
▁心臓	-9.872094
▁十	-9.872353
▁率	-9.872909
▁番	-9.873251
嘘	-9.874866
による	-9.875849
▁絶え	-9.875951
▁会館	-9.875983
▁程度	-9.876028
▁M	-9.876204
娘	-9.877923
以前	-9.878302
▁ス	-9.878310
▁参加	-9.878828
▁公正	-9.878844
出す	-9.878883
▁結論	-9.879066
覚え	-9.879226
▁怒り	-9.881272
▁さて	-9.882950
▁飛行	-9.883421
伝え	-9.884070
いくつ	-9.884168
分かる	-9.885209
必ず	-9.885953
▁−	-9.886088
▁w	-9.886115
調べ	-9.886285
▁植物	-9.886508
なければならな	-9.887016
+	-9.887382
▁生きる	-9.888171
▁元	-9.889131
ター	-9.891181
▁そうすれば	-9.891294
別	-9.891747
▁大変	-9.891827
▁発行	-9.892255
▁スペイン	-9.894139
▁論	-9.894753
もっと	-9.895035
▁報い	-9.895052
▁拡大	-9.895304
▁通	-9.895393
星	-9.895793
▁アルコール	-9.895969
▁囲み	-9.896098
非常	-9.896689
剣	-9.897555
▁許	-9.898141
▁裁き	-9.899249
▁死者	-9.899745
▁任命	-9.900093
▁美しい	-9.900566
l	-9.900740
▁かなっ	-9.901009
結婚	-9.901246
異なっ	-9.902086
▁司祭	-9.902464
プ	-9.903186
▁いずれ	-9.903436
▁念	-9.903450
たもの	-9.904565
▁宣明	-9.904583
就	-9.904855
▁働	-9.905958
▁軍	-9.906171
▁難しい	-9.906743
▁ノア	-9.907650
▁指摘	-9.907723
いく	-9.908156
▁神聖	-9.908316
▁間違	-9.909638
返し	-9.909795
▁変え	-9.909927
▁見える	-9.909973
士	-9.910085
▁深く	-9.910567
れてい	-9.910759
▁重大	-9.910785
位	-9.911741
すべての	-9.912366
▁容易	-9.912477
▁限り	-9.912618
わたっ	-9.912817
行か	-9.913629
▁会社	-9.913803
▁それとも	-9.914085
▁戦い	-9.914849
食	-9.915185
いで	-9.915225
▁国々	-9.915296
▁D	-9.916418
▁F	-9.916449
会社	-9.916818
行け	-9.917308
▁読み	-9.919047
システム	-9.919239
▁ソロモン	-9.919762
行い	-9.921309
20	-9.921365
▁新聞	-9.922248
▁表わし	-9.922552
拍	-9.922706
準備	-9.922916
▁これらの	-9.923759
然	-9.924546
▁エ	-9.924764
妻	-9.924950
▁こっ	-9.925388
▁間違い	-9.926669
▁選択	-9.926935
▁立て	-9.927034
▁しばしば	-9.927288
空	-9.927402
型	-9.927827
容	-9.928807
▁熱	-9.929393
典	-9.930488
したが	-9.930592
変え	-9.932103
話す	-9.932443
▁される	-9.932630
▁貴	-9.933384
▁なれ	-9.934516
ガ	-9.935143
▁福音	-9.935922
密	-9.936688
知り	-9.936980
▁聞き	-9.937050
▁役割	-9.937629
▁偉大	-9.937971
書き	-9.939019
b	-9.939438
代	-9.939931
▁象徴	-9.940074
ただ	-9.940222
▁たばこ	-9.940252
▁強力	-9.940341
役	-9.941316
▁進歩	-9.941325
▁統治	-9.941356
▁J	-9.941745
▁部屋	-9.941855
▁願い	-9.943387
ると	-9.943908
▁大戦	-9.945155
▁つけ	-9.945674
離れ	-9.946323
▁犯し	-9.947022
ることが	-9.947908
キ	-9.948382
▁花	-9.948874
ミ	-9.949347
血	-9.950239
▁取り上げ	-9.950726
▁規準	-9.951880
同	-9.952052
▁先生	-9.952148
▁所有	-9.953753
▁決意	-9.953918
シ	-9.954042
算	-9.954485
▁官	-9.954823
▁え	-9.954979
可能性	-9.955098
小	-9.955410
▁マリア	-9.955876
▁指示	-9.956168
▁半	-9.956213
▁薬	-9.956221
▁立	-9.956798
▁血液	-9.956830
簡単	-9.957008
▁法律	-9.957135
▁手術	-9.957290
▁群衆	-9.957933
▁唯一	-9.958238
▁人口	-9.958349
殺す	-9.958375
▁大いに	-9.958379
=	-9.958500
▁失	-9.959002
実際	-9.959557
▁大抵	-9.959778
移動	-9.959806
いわ	-9.960216
c	-9.960613
▁なさ	-9.960685
実行	-9.961018
かしら	-9.961268
ラー	-9.961300
▁入	-9.962058
▁明日	-9.962934
ノ	-9.963663
文	-9.963797
等	-9.963829
信者	-9.964167
ヤ	-9.964186
▁群れ	-9.964307
変更	-9.964680
▁メシア	-9.964718
学校	-9.965532
▁持ち	-9.965587
故	-9.965861
▁座	-9.966216
わか	-9.966413
▁文書	-9.967187
週間	-9.967315
▁文	-9.967395
転	-9.967555
▁こそ	-9.967963
軍	-9.968301
州	-9.969605
▁楽園	-9.970018
不信	-9.970246
▁思え	-9.970390
▁生き方	-9.970430
ならない	-9.970551
間に	-9.971709
▁中国	-9.971901
▁みなさ	-9.972748
▁始まり	-9.972750
違い	-9.972979
言え	-9.973214
安全	-9.973415
%	-9.973602
▁カナダ	-9.975474
場合は	-9.975687
▁救い	-9.976733
▁貴重	-9.976747
▁要素	-9.977495
▁マ	-9.977698
カー	-9.978463
e	-9.979211
心配	-9.979313
▁x	-9.979689
ちゃん	-9.980176
危険	-9.981977
▁成員	-9.983606
▁入る	-9.983818
捜査	-9.984087
▁望	-9.985432
明確	-9.986980
▁見て	-9.987082
▁主人	-9.987085
▁自己	-9.987267
▁きっと	-9.989148
▁避け	-9.990440
▁着	-9.990507
▁自動	-9.991927
死ぬ	-9.992270
件	-9.992942
▁手段	-9.993462
~	-9.995131
▁告げ	-9.995139
▁聞く	-9.995565
らせ	-9.996217
やっ	-9.996291
失	-9.998023
たよ	-9.998052
なもの	-9.998082
▁ぬ	-9.998555
▁英語	-9.999002
表	-9.999267
▁分から	-9.999622
▁強調	-9.999697
ティ	-10.000841
お金	-10.001565
今日	-10.001804
▁権利	-10.002337
僧職	-10.002657
ジ	-10.002934
▁おく	-10.002996
▁細胞	-10.003058
▁抱く	-10.005273
しまう	-10.005633
一番	-10.006049
▁出る	-10.006605
事件	-10.007305
よい	-10.008892
アメリカ	-10.009048
▁圧力	-10.009672
▁パン	-10.010509
ぐ	-10.010781
ing	-10.011120
▁生命	-10.011236
限り	-10.011692
▁奇跡	-10.013028
▁教授	-10.013637
▁建設	-10.013874
▁空	-10.013901
▁離婚	-10.016292
▁支え	-10.017000
起	-10.018407
ばかり	-10.019794
▁生徒	-10.020429
守	-10.020721
▁置か	-10.020913
▁近い	-10.021162
▁N	-10.022429
失敗	-10.022758
▁作	-10.023317
▁G	-10.024210
産	-10.024487
▁敬虔	-10.024721
▁37	-10.026653
▁特定	-10.029166
▁オーストラリア	-10.029214
▁異	-10.029256
連絡	-10.029582
王	-10.029922
▁回復	-10.030122
▁避ける	-10.031258
真実	-10.031844
皆	-10.031946
友達	-10.032702
▁作る	-10.032887
ed	-10.033062
▁オ	-10.033560
▁正	-10.033568
▁1,2	-10.034553
▁大いなる	-10.034645
▁読者	-10.036171
▁石	-10.036297
▁少女	-10.036942
先生	-10.037853
まれ	-10.038086
▁高く	-10.038132
ちょっと	-10.039487
▁派	-10.040080
状況	-10.040602
▁酒	-10.040994
聖書	-10.041223
真理	-10.042032
▁カ	-10.042034
▁ひどい	-10.042710
薬	-10.042816
トン	-10.043051
エ	-10.043306
▁歩み	-10.043338
向か	-10.044306
▁毎年	-10.045291
ろうと	-10.045701
▁インド	-10.045825
かい	-10.046041
計	-10.046594
ほう	-10.046701
▁突然	-10.048083
▁最善	-10.048295
▁印刷	-10.048320
感	-10.048561
▁素晴らしい	-10.048916
さえ	-10.049010
▁伝える	-10.050706
会い	-10.051740
▁意識	-10.051979
&	-10.052686
げ	-10.052823
▁我	-10.053212
▁エゼキエル	-10.053642
和	-10.053982
入り	-10.054338
底	-10.055465
なっ	-10.056197
▁つ	-10.056354
▁サムエル	-10.057078
服	-10.057734
呼	-10.057904
ダメ	-10.058023
▁品	-10.058344
ent	-10.058554
海	-10.059538
たくさん	-10.059631
▁事故	-10.059978
友人	-10.060769
もなく	-10.060900
▁宣べ伝え	-10.061850
追加	-10.061930
てき	-10.062763
▁しるし	-10.063219
▁良く	-10.063289
素	-10.063946
▁イタリア	-10.064256
店	-10.065555
▁結	-10.065669
▁R	-10.065935
▁魚	-10.066535
らか	-10.066615
▁謙遜	-10.067274
真	-10.067912
出る	-10.068386
▁生じる	-10.068858
▁村	-10.069182
▁さまざま	-10.069498
▁一体	-10.069593
▁今や	-10.069928
▁35	-10.069940
▁事務	-10.070270
存じ	-10.070291
▁運転	-10.070504
田	-10.070992
▁大半	-10.071058
▁四	-10.071595
部	-10.071810
今度	-10.073315
▁古い	-10.074026
▁殺人	-10.075534
装	-10.076268
▁はじめ	-10.076468
▁大人	-10.076674
▁建物	-10.077251
氏	-10.077291
▁事件	-10.077432
分から	-10.077737
全部	-10.077921
▁根	-10.080480
所に	-10.081474
▁源	-10.081565
▁どうぞ	-10.081756
▁滅び	-10.081774
行動	-10.083704
▁興味深い	-10.083709
ハ	-10.083749
▁中心	-10.083770
感謝	-10.084170
▁規模	-10.084406
町	-10.085614
流	-10.085720
質問	-10.086724
▁しばらく	-10.086772
▁支部	-10.087191
▁記念	-10.087495
▁ほら	-10.087951
▁プログラム	-10.088328
▁収	-10.088366
▁ダメ	-10.088458
ゲーム	-10.088698
美	-10.089610
▁なんと	-10.090871
▁旅	-10.091082
p	-10.092375
▁エネルギー	-10.092468
▁夢	-10.092525
在	-10.092581
するために	-10.092894
犬	-10.093177
▁進化	-10.094139
▁保	-10.094431
▁行か	-10.094731
報	-10.095243
辺	-10.096301
▁利	-10.096610
▁死亡	-10.097170
▁リ	-10.097312
畏れ	-10.097485
んか	-10.098446
▁試練	-10.098778
▁満ち	-10.100077
▁西	-10.101042
▁風	-10.101886
▁余	-10.102199
▁思える	-10.102604
に対する	-10.104308
▁W	-10.104618
▁映画	-10.105395
▁恐らく	-10.105484
他	-10.107031
▁食べる	-10.107183
▁34	-10.108062
導	-10.108097
引	-10.108272
ネ	-10.108275
▁例え	-10.109128
▁師	-10.110316
▁極めて	-10.110811
傷	-10.110911
▁いいか	-10.111522
自由	-10.113248
解決	-10.114626
品	-10.114639
▁協力	-10.115073
記	-10.115614
▁不安	-10.116723
▁ファイル	-10.117223
二人	-10.117629
▁達し	-10.117730
▁ごく	-10.117796
▁結局	-10.118196
▁8)	-10.119131
▁健全	-10.119528
買っ	-10.119598
たり	-10.120220
▁賛美	-10.120289
▁励まし	-10.121066
D	-10.121834
郎	-10.122161
せる	-10.122218
▁教師	-10.122301
▁直接	-10.122511
配偶	-10.123123
▁務め	-10.123306
▁試み	-10.123549
▁被害	-10.124197
▁フィリピ	-10.124436
技術	-10.125201
▁表わす	-10.125506
すぎ	-10.125760
>	-10.125805
▁誕生	-10.126038
▁動か	-10.126981
▁開	-10.127061
▁調和	-10.127329
▁汚染	-10.127388
昨日	-10.127398
▁医	-10.128010
聞き	-10.128446
あの	-10.128447
どれ	-10.128636
▁ハ	-10.128698
▁冊	-10.128758
ありがとう	-10.128820
▁壁	-10.130530
▁いれ	-10.131185
▁地方	-10.131364
令	-10.131670
処	-10.131948
ずっ	-10.132128
▁200	-10.132376
命令	-10.132568
▁行け	-10.132633
▁ほんと	-10.132803
ット	-10.133051
▁痛み	-10.133274
夢	-10.133526
▁述べる	-10.133927
▁ちょうど	-10.134359
▁姿	-10.134782
▁適切	-10.135624
M	-10.136307
▁保証	-10.136330
▁入り	-10.136525
▁3)	-10.136740
望	-10.136919
ロー	-10.138055
親	-10.138741
▁失敗	-10.139189
十分	-10.139515
▁E	-10.140114
▁出エジプト	-10.140595
▁含め	-10.141335
銃	-10.142749
▁正しく	-10.142890
▁赤ちゃん	-10.142905
▁考え方	-10.143502
▁解放	-10.145274
年間	-10.145417
▁教訓	-10.145737
重要な	-10.146132
テ	-10.146725
分かり	-10.146782
▁逃げ	-10.146806
▁たいてい	-10.148072
続	-10.148629
▁近づ	-10.149503
▁なし	-10.149833
考える	-10.150170
▁少年	-10.150212
▁勉強	-10.150270
つく	-10.150704
いてい	-10.150715
かね	-10.151510
▁どうも	-10.151721
▁無視	-10.151900
みる	-10.152387
ヶ	-10.153131
屋	-10.153409
成功	-10.153624
▁H	-10.154032
質	-10.154364
f	-10.155594
▁捨て	-10.155609
定	-10.155631
▁応じ	-10.155647
▁数多く	-10.155826
▁ラ	-10.156363
▁困難	-10.156390
程	-10.156976
▁医学	-10.157144
知らせ	-10.157525
▁提供	-10.158234
▁楽し	-10.158689
▁野	-10.158710
▁有名	-10.159222
▁誠実	-10.159350
▁非難	-10.159403
▁輸血	-10.161024
▁いっそう	-10.161623
30	-10.162041
断	-10.162977
▁期	-10.163336
▁引	-10.163368
▁危機	-10.163694
決して	-10.163780
▁犬	-10.164597
背	-10.164778
ねえ	-10.164784
半	-10.164909
みんな	-10.165375
▁増え	-10.165425
▁医療	-10.166097
義	-10.166418
純	-10.166671
▁L	-10.166738
▁エバ	-10.166771
調	-10.166847
▁雨	-10.167958
▁あいつ	-10.168322
▁s	-10.168403
小さな	-10.168530
re	-10.169470
▁多数	-10.170817
▁平均	-10.171196
授け	-10.172055
働	-10.172801
▁いく	-10.172837
キー	-10.173295
▁払う	-10.173836
▁広く	-10.174544
▁ガラテア	-10.174739
別の	-10.175160
▁単に	-10.175699
▁命じ	-10.177094
▁役立つ	-10.177433
ビ	-10.177628
▁勇気	-10.178627
えば	-10.178658
▁収め	-10.179225
望み	-10.179522
▁楽しみ	-10.180272
▁朝	-10.180689
なってい	-10.181492
▁おかげ	-10.181581
E	-10.181908
▁おそらく	-10.182089
▁勝利	-10.182198
入力	-10.182422
込み	-10.183079
▁感染	-10.183129
▁右	-10.183268
価値	-10.183507
▁コロサイ	-10.183869
リング	-10.183870
へん	-10.184079
▁機関	-10.184171
得る	-10.184698
▁害	-10.184898
きて	-10.185767
▁ドア	-10.186407
▁ついに	-10.187334
▁設け	-10.188122
じ	-10.189337
▁貧しい	-10.191270
▁権	-10.192099
雨	-10.192498
▁愛情	-10.193198
呼ば	-10.193313
▁f	-10.193872
▁言及	-10.194415
▁願	-10.194551
いった	-10.194879
チーム	-10.195145
使い	-10.195745
読み	-10.195869
上げ	-10.195997
▁代表	-10.196017
逃げ	-10.196080
▁置い	-10.196703
▁当局	-10.197155
▁やすい	-10.198725
対し	-10.199846
状	-10.200771
▁忠誠	-10.201451
隊	-10.202174
週	-10.202186
▁服	-10.202225
発見	-10.202487
▁編	-10.203608
となり	-10.203834
City	-10.207129
やり	-10.207189
▁オレ	-10.207330
研究	-10.210044
スト	-10.211082
▁つれ	-10.211166
▁9)	-10.211563
まま	-10.211653
▁未	-10.211704
啓示	-10.213990
ぎ	-10.214184
▁1)	-10.214988
▁移動	-10.215064
▁化学	-10.215094
▁労働	-10.215114
▁割り当て	-10.215978
▁5)	-10.216138
▁土	-10.216552
▁そのもの	-10.217474
▁終わ	-10.219851
▁秩序	-10.220649
れている	-10.220703
▁評価	-10.221089
時代	-10.221290
病	-10.221664
▁管理	-10.224384
50	-10.225112
▁油	-10.227053
▁主権	-10.227447
▁空気	-10.227640
わかる	-10.227931
▁'	-10.228031
限	-10.228455
▁なんて	-10.228593
▁たぶん	-10.228925
▁生産	-10.228951
くそ	-10.229443
固	-10.230088
▁巨	-10.230623
▁14)	-10.231062
計算	-10.231392
▁文字	-10.232961
酷	-10.233197
▁作者	-10.233873
▁参照	-10.234385
ゴ	-10.234620
▁見込み	-10.235063
F	-10.235203
▁かつ	-10.235268
▁ヨセフ	-10.235690
▁外国	-10.235723
▁再	-10.235729
▁12)	-10.236399
▁代わり	-10.236672
▁手本	-10.237171
▁型	-10.237314
社	-10.237318
▁一日	-10.237383
▁単なる	-10.238127
▁ねえ	-10.238275
てお	-10.238736
■	-10.238853
情報	-10.238881
▁描写	-10.239071
▁取り決め	-10.239656
▁東	-10.239931
啓	-10.240070
▁洪水	-10.240374
魔	-10.240418
▁核	-10.240812
▁比べ	-10.240985
個	-10.241261
恐れ	-10.241265
▁働か	-10.241479
▁術	-10.241583
▁客	-10.241995
U	-10.243314
骨	-10.243762
▁ひとつ	-10.244037
創造	-10.244108
▁続く	-10.244918
▁胸	-10.245447
表示	-10.248517
完全	-10.249287
▁忍耐	-10.249753
しく	-10.249833
▁基づく	-10.249968
▁街	-10.250874
▁判断	-10.251582
▁1914	-10.251664
終わ	-10.251871
▁60	-10.252895
ガン	-10.253894
指定	-10.254374
宅	-10.254501
▁悪霊	-10.254605
従	-10.254672
観	-10.254876
▁ひ	-10.254981
▁晩	-10.255109
億	-10.255381
▁=	-10.255486
▁帝国	-10.255599
▁像	-10.255823
▁せよ	-10.255977
k	-10.256063
▁呼	-10.256589
定め	-10.256642
記録	-10.256735
▁ブラジル	-10.258942
▁伝統	-10.259152
見つか	-10.260115
▁好	-10.260547
▁16)	-10.261160
戻る	-10.261314
▁聞こえ	-10.261439
全能	-10.261716
生まれ	-10.262594
パ	-10.263000
▁ロンドン	-10.263093
やめ	-10.263329
▁複雑	-10.263472
安	-10.264027
▁相当	-10.264184
▁ほぼ	-10.264192
▁集め	-10.264514
早く	-10.265524
積	-10.266242
多	-10.266500
▁三つ	-10.266687
を行う	-10.266933
言い	-10.267978
▁患難	-10.268463
▁ふ	-10.269165
歩	-10.270030
良く	-10.270758
倍	-10.271953
AR	-10.272045
▁やはり	-10.272064
▁10)	-10.272788
▁器	-10.273385
▁永久	-10.273407
知る	-10.274069
川	-10.274988
▁ガン	-10.275249
▁建て	-10.275925
▁子孫	-10.277046
兵	-10.277583
共同	-10.278049
作り	-10.278306
▁悔い改め	-10.278449
▁だり	-10.279431
▁個	-10.279454
確率	-10.280140
選	-10.280223
▁とりわけ	-10.281128
▁通信	-10.281129
▁ごと	-10.281312
▁知らせ	-10.281756
K	-10.282348
▁テサロニケ	-10.282696
どうして	-10.282954
▁証し	-10.282960
▁実現	-10.283544
▁11)	-10.283911
▁寄付	-10.283921
付	-10.284232
▁描	-10.284276
▁遠く	-10.284566
▁続	-10.284807
創	-10.284985
▁不思議	-10.285229
全体	-10.285260
▁それに	-10.285318
これらの	-10.285412
▁件	-10.286737
▁and	-10.287337
▁ぶどう	-10.287499
▁イ	-10.288078
▁見せ	-10.288692
立て	-10.288712
▁幼い	-10.289566
と考え	-10.289672
▁放	-10.290214
警告	-10.290287
モ	-10.291212
▁気分	-10.291615
▁有益	-10.292080
腹	-10.292994
▁武器	-10.293636
▁適用	-10.293694
▁0	-10.293880
居る	-10.294479
▁生涯	-10.294641
兄弟	-10.295279
▁誘惑	-10.296241
シュ	-10.296393
肉	-10.296708
寝	-10.297206
▁ひどく	-10.297998
▁伴う	-10.298087
▁一層	-10.298327
▁コンピューター	-10.299047
▁サラ	-10.299404
っち	-10.299673
首	-10.299688
▁卒業	-10.300117
▁どうか	-10.300123
魂	-10.300285
▁資格	-10.300488
訳	-10.300924
無理	-10.301384
落ち	-10.301393
▁受け入れる	-10.301421
率	-10.301467
▁祈る	-10.301699
目的	-10.301839
▁地震	-10.302000
いや	-10.302092
▁なお	-10.302148
▁載せ	-10.303968
▁相	-10.304471
▁動機	-10.304874
▁冷	-10.305633
貴	-10.306217
−	-10.306406
となる	-10.306408
▁及ぼす	-10.306849
▁世代	-10.307073
作る	-10.307279
▁黙	-10.307611
経験	-10.307852
おう	-10.308413
▁住民	-10.308810
▁妊娠	-10.308861
犯	-10.309135
ウ	-10.309282
▁欲望	-10.309686
▁人種	-10.309962
▁引用	-10.310358
▁馬	-10.310415
聞く	-10.310618
▁ほんの	-10.310637
ボ	-10.311388
最高	-10.311444
息	-10.311472
▁思い起こ	-10.312594
▁ら	-10.312837
▁楽しい	-10.313233
確か	-10.313245
耳	-10.313903
情報を	-10.314260
▁策	-10.314548
ビデオ	-10.315120
▁士	-10.315271
なぜ	-10.315916
▁偶像	-10.316419
▁クソ	-10.316453
▁不足	-10.316739
視	-10.317391
▁委員	-10.317770
▁始ま	-10.318121
▁ストレス	-10.318408
つか	-10.318459
あれ	-10.318853
▁無理	-10.319065
▁語る	-10.319324
高い	-10.319835
R	-10.320197
ほしい	-10.320356
近	-10.320445
現在	-10.320630
おり	-10.320837
らしい	-10.320865
石	-10.321316
▁文化	-10.322652
w	-10.322969
▁尋ねる	-10.323302
▁題する	-10.323619
の下	-10.325130
ほとんど	-10.325365
▁記憶	-10.325678
殺人	-10.325744
好	-10.326013
▁レビ	-10.326107
ゆっくり	-10.326129
博士	-10.326476
近く	-10.327530
がい	-10.328241
▁起きる	-10.329760
▁連絡	-10.330294
気が	-10.330594
▁組	-10.331098
の問題	-10.331266
キリスト	-10.332471
セ	-10.332909
▁多分	-10.333118
知識	-10.334304
番号	-10.334314
曜	-10.334884
▁及ぼし	-10.335281
決め	-10.335380
位置	-10.335400
▁静か	-10.335556
▁喫煙	-10.335792
晩	-10.336458
コード	-10.336777
er	-10.337209
画	-10.337636
▁果たす	-10.339049
悟	-10.339214
ったん	-10.339333
街	-10.339375
▁17)	-10.340583
▁殺し	-10.340661
日に	-10.340992
▁注意深く	-10.341093
▁位置	-10.341992
▁13)	-10.342635
▁被	-10.342712
▁ニュース	-10.343566
配	-10.343567
走	-10.343668
▁園	-10.344276
ど	-10.345079
▁ロシア	-10.345476
▁骨	-10.345538
▁いま	-10.345956
を持つ	-10.346538
若い	-10.347217
▁兄	-10.347444
馬	-10.348228
定義	-10.348275
X	-10.349906
▁汚れ	-10.350374
ケ	-10.350842
住ん	-10.351106
▁一人	-10.351292
▁ごろ	-10.351878
▁人格	-10.352946
▁食糧	-10.353113
▁事典	-10.353184
▁全地	-10.353364
▁含む	-10.354077
〕	-10.354731
▁気づ	-10.354931
ドア	-10.355531
シー	-10.355824
角	-10.355862
▁付け	-10.356962
ック	-10.357257
▁かかる	-10.357398
▁類	-10.358072
▁もたら	-10.359655
▁70	-10.359730
▁銀行	-10.360366
▁7)	-10.360934
▁使い	-10.361115
両	-10.361735
悪魔	-10.361795
▁りっぱ	-10.361911
ナー	-10.362130
▁まるで	-10.362621
▁気づき	-10.362947
▁合	-10.363249
掛け	-10.363503
▁人物	-10.363805
リン	-10.364784
▁み言葉	-10.364927
スター	-10.365214
西	-10.366218
▁是認	-10.366816
責任	-10.367088
▁たとえば	-10.367161
▁1,000	-10.367542
▁自殺	-10.367688
▁族	-10.367768
▁45	-10.367911
現	-10.367992
▁激しい	-10.368026
秒	-10.368968
己	-10.369250
▁ゲーム	-10.369703
▁大統領	-10.370151
▁物語	-10.370214
島	-10.370215
守る	-10.370320
▁交わり	-10.370369
▁異なる	-10.370918
永遠	-10.370933
素晴らしい	-10.370971
注意	-10.371705
開け	-10.372309
脳	-10.372613
▁繰り返し	-10.372985
▁左	-10.373400
▁申命記	-10.373852
▁近	-10.374434
全く	-10.374960
データ	-10.375826
▁上げ	-10.376514
▁作業	-10.377122
類	-10.377339
映画	-10.377517
削除	-10.377522
与える	-10.378176
付き	-10.378273
▁元気	-10.378500
▁長く	-10.378736
▁とも	-10.378845
もので	-10.379077
▁実験	-10.379774
のみ	-10.380558
び	-10.381122
園	-10.381638
似	-10.381717
御許	-10.381787
▁始める	-10.381802
ったり	-10.382035
▁根拠	-10.382634
▁メキシコ	-10.382672
▁正当	-10.382771
師	-10.382909
▁冊子	-10.383985
相	-10.384355
歌	-10.385295
有効	-10.385331
▁表	-10.385871
▁役	-10.385896
▁タイムズ	-10.386157
▁部族	-10.386735
▁時々	-10.387856
大学	-10.388655
▁変わ	-10.390796
▁涙	-10.390938
▁探し	-10.390980
▁保ち	-10.391491
▁コ	-10.392086
▁対象	-10.392091
▁もらう	-10.392154
のお	-10.392338
向け	-10.392742
攻撃	-10.392760
▁認める	-10.393328
性的	-10.393361
▁観察	-10.393914
英	-10.394107
▁到来	-10.394363
ニー	-10.394651
▁兵士	-10.395665
▁過ぎ	-10.395963
額	-10.396102
▁ベテル	-10.396770
ロン	-10.397572
聖	-10.397740
▁魅力	-10.398270
パス	-10.398505
代わり	-10.399061
夫	-10.399754
▁乗っ	-10.400394
▁教理	-10.401801
▁装置	-10.401830
第	-10.401849
▁幾らか	-10.402507
00	-10.402620
▁百科	-10.402867
からだ	-10.404033
▁耐え	-10.405186
影響	-10.405187
▁周囲	-10.406173
セル	-10.406275
花	-10.406809
渡	-10.407088
▁赤	-10.407487
▁救	-10.407495
機能	-10.407862
台	-10.407890
▁つき	-10.408237
▁発展	-10.408423
▁提案	-10.408984
▁決め	-10.409712
戦争	-10.409845
合い	-10.410107
▁分野	-10.410195
▁変	-10.410398
▁台	-10.410448
▁36	-10.410641
▁神経	-10.410876
天使	-10.411333
器	-10.411454
っちゃ	-10.412460
活動	-10.412676
▁逆	-10.413215
変化	-10.413568
▁現われ	-10.413597
▁違	-10.414306
▁会話	-10.415657
▁起こ	-10.415935
ついて	-10.416318
▁ごめん	-10.416690
▁すごい	-10.416843
▁わかり	-10.416979
マー	-10.417905
▁会議	-10.417935
▁言	-10.418460
右	-10.418712
教	-10.419082
只	-10.419214
▁嘘	-10.420245
▁事がら	-10.420441
▁つく	-10.420506
館	-10.421399
▁開発	-10.422378
▁もっとも	-10.423014
▁従い	-10.423018
壁	-10.423407
▁贈り物	-10.423419
▁選ぶ	-10.424191
▁払	-10.424213
恩恵	-10.424361
▁恐ろしい	-10.424985
▁今回	-10.425405
▁発	-10.425529
▁逮捕	-10.425709
警察	-10.425938
保存	-10.425985
▁終わる	-10.427248
▁地位	-10.427514
末	-10.427848
▁見解	-10.427864
里	-10.428020
いたら	-10.428149
▁供給	-10.428386
相手	-10.428946
▁is	-10.429177
▁有害	-10.429241
▁災い	-10.429408
▁作り	-10.429529
▁以下	-10.430788
▁引き続き	-10.431288
見つける	-10.431353
▁幸い	-10.431516
▁様子	-10.431756
▁一時	-10.431790
▁すると	-10.432366
▁星	-10.432460
▁道路	-10.432631
▁同意	-10.432644
▁ハイ	-10.432976
▁調整	-10.433005
再	-10.433105
▁だめ	-10.433326
▁6)	-10.433467
▁恐れる	-10.434119
変わ	-10.434806
▁贖い	-10.434999
可能	-10.435264
▁有	-10.435495
▁店	-10.435573
言いま	-10.435874
▁聞か	-10.436372
▁見いだす	-10.436431
▁持た	-10.437037
▁歩	-10.437116
なされる	-10.437606
▁栄養	-10.437830
▁止め	-10.437878
▁宣言	-10.437945
▁抵抗	-10.438127
▁いけ	-10.438287
▁導	-10.438560
それら	-10.438694
▁特	-10.438930
込	-10.439729
▁守	-10.443321
を取	-10.444177
▁歯	-10.444421
▁中毒	-10.444985
▁およそ	-10.445298
▁15)	-10.446106
最	-10.446193
▁賜物	-10.446524
間違	-10.447275
お願い	-10.447276
▁発表	-10.447487
▁立ち	-10.447573
方向	-10.447611
宇宙	-10.448615
重	-10.448772
▁両方	-10.448835
▁線	-10.449141
FBI	-10.449153
であること	-10.449179
▁ごめんなさい	-10.449364
救	-10.449430
両親	-10.449496
強い	-10.450016
▁施設	-10.450326
能力	-10.450607
▁楽	-10.450962
慈悲	-10.451906
合う	-10.452254
▁寝	-10.452539
▁確認	-10.453058
▁限	-10.453228
▁信じる	-10.453644
ベル	-10.454022
病気	-10.454192
奨	-10.455320
おく	-10.455606
利用	-10.455796
調査	-10.456147
▁意図	-10.456752
端	-10.456945
かかる	-10.457227
▁剤	-10.457939
▁近づく	-10.458118
開始	-10.458399
▁超	-10.458528
心を	-10.459568
▁市民	-10.459705
▁機能	-10.459799
▁待て	-10.460022
▁単	-10.460161
▁諭し	-10.460295
▁虐待	-10.460588
▁年齢	-10.461014
▁頼	-10.461020
たと	-10.461459
▁種々	-10.461570
ッド	-10.461797
▁史	-10.461972
▁値	-10.462357
ムーサー	-10.462395
すぎる	-10.462571
だし	-10.463490
難しい	-10.463697
▁調べる	-10.464537
える	-10.464899
味	-10.465714
▁語ら	-10.465837
▁反	-10.466297
テスト	-10.466819
H	-10.466880
▁依然	-10.467053
▁深刻	-10.467984
▁帰っ	-10.468212
日本	-10.468350
▁過ごし	-10.468729
▁ゆえ	-10.469181
▁変える	-10.469461
幸せ	-10.470022
階	-10.470366
▁流れ	-10.471039
に関する	-10.472459
画像	-10.472665
▁神学	-10.473113
ること	-10.473775
持ち	-10.473811
明らか	-10.474024
▁同情	-10.474224
地上	-10.474620
▁ビル	-10.475458
▁神々	-10.475479
証拠	-10.475630
▁隣人	-10.475656
▁減少	-10.476523
▁意志	-10.476585
▁ささげる	-10.476622
任	-10.477115
▁牛	-10.477510
▁安定	-10.477525
▁系	-10.477776
メッセージ	-10.478204
の一部	-10.478839
▁やめろ	-10.478896
▁内容	-10.479140
▁一生	-10.479416
のための	-10.479887
▁O	-10.480270
主義	-10.480550
昔	-10.481207
▁成し遂げ	-10.481404
与えられ	-10.482322
▁アル	-10.482658
それに	-10.482824
▁機械	-10.482934
地球	-10.483277
アップ	-10.483445
われる	-10.485252
運	-10.485847
▁及ぶ	-10.486219
静	-10.486256
朝	-10.486333
▁幻	-10.486373
愛し	-10.486417
良	-10.487185
わが	-10.487760
三	-10.488956
盗	-10.489742
つき	-10.490911
いいか	-10.490980
ビル	-10.491080
箱	-10.491141
あなた方	-10.491183
であると	-10.491442
希望	-10.492028
▁扱う	-10.492208
▁了	-10.492461
▁アジア	-10.492795
プログラム	-10.492906
▁サン	-10.492986
▁すま	-10.493965
拒否	-10.494203
▁設計	-10.494242
フィル	-10.495030
イン	-10.495091
▁秘密	-10.495214
▁直	-10.495616
▁なん	-10.495694
秘密	-10.496399
イエス	-10.497013
報告	-10.497263
▁集まり	-10.498066
▁ド	-10.498121
▁訪れ	-10.498282
音楽	-10.498627
入る	-10.498795
初めて	-10.498854
積極	-10.499213
▁バ	-10.499311
▁入れる	-10.499344
▁思い出し	-10.500201
▁誤	-10.500618
▁箴	-10.501105
待	-10.501819
▁厳しい	-10.502275
姿	-10.502881
▁成る	-10.503173
▁選	-10.503491
▁居	-10.503657
▁とにかく	-10.503854
長い	-10.504234
連	-10.504435
長年	-10.504436
際	-10.504582
▁傾け	-10.505625
来い	-10.505783
▁スポーツ	-10.506106
▁腹	-10.506539
▁弁護	-10.506643
享受	-10.506682
信頼	-10.507905
チェック	-10.508781
論	-10.510040
▁望み	-10.510044
▁上手	-10.510119
▁牧師	-10.511033
〔	-10.511795
▁変わり	-10.511914
くて	-10.512073
表現	-10.512725
多い	-10.512962
▁頼む	-10.513241
▁果たし	-10.513836
これら	-10.514010
▁周り	-10.514611
環境	-10.514893
父親	-10.514991
▁悲しみ	-10.515333
▁段階	-10.515655
▁b	-10.516388
政府	-10.516677
間違い	-10.517651
▁克服	-10.517740
住	-10.518881
at	-10.519076
することは	-10.519249
▁失礼	-10.519771
▁3,4	-10.520285
コン	-10.520753
目撃	-10.521417
村	-10.521590
璧	-10.521943
▁湖	-10.522434
偉大	-10.523559
▁分裂	-10.523709
▁作ら	-10.523892
たし	-10.524029
▁バス	-10.524063
▁重	-10.524268
しい	-10.525628
▁あずかる	-10.525719
鍵	-10.526084
*	-10.526528
導き	-10.526580
▁版	-10.526692
▁親族	-10.526739
▁礼拝	-10.526820
開	-10.526868
▁葉	-10.527008
動物	-10.527542
▁システム	-10.528975
▁図	-10.529034
▁わたる	-10.529410
でもない	-10.529882
▁バカ	-10.530243
▁誉れ	-10.530392
▁300	-10.530678
▁強め	-10.530684
▁腕	-10.531189
古	-10.532072
▁祈	-10.532116
▁絵	-10.532854
▁男女	-10.532943
▁抱え	-10.533118
▁サム	-10.533696
帰る	-10.533701
▁name	-10.534015
▁こら	-10.534096
hat	-10.534254
数字	-10.534524
▁資料	-10.534650
号	-10.534719
▁叫び	-10.534859
▁幸せ	-10.535071
去っ	-10.536134
ダー	-10.536518
▁すみま	-10.537141
鳥	-10.537299
fo	-10.537435
グループ	-10.537713
▁不可能	-10.537745
信じる	-10.538259
公	-10.538550
▁緊急	-10.538860
犯罪	-10.538881
▁産	-10.539032
▁t	-10.539045
地獄	-10.539351
▁さらさ	-10.540151
置	-10.540235
▁男子	-10.540242
▁造ら	-10.540272
▁合わせ	-10.540576
▁料理	-10.541183
▁9,10	-10.541407
▁みなし	-10.541642
▁哲学	-10.541644
▁国連	-10.541890
ソ	-10.542296
▁弟	-10.542298
管理	-10.542561
北	-10.542791
▁しもべ	-10.542959
つまり	-10.544044
▁首	-10.544061
プロ	-10.544089
▁m	-10.544304
処理	-10.544336
楽	-10.546094
人物	-10.546691
飛行	-10.547130
みろ	-10.547262
送り	-10.547346
地域	-10.547614
▁地獄	-10.547747
▁卵	-10.547943
▁特徴	-10.548078
図	-10.548603
会う	-10.548619
紹介	-10.548839
▁工場	-10.549317
切れ	-10.549462
▁到着	-10.550206
▁食べ物	-10.550416
カメラ	-10.550679
▁5,000	-10.550815
席	-10.550923
不義	-10.551002
わかり	-10.551023
運転	-10.551197
▁懲らしめ	-10.551568
▁かかり	-10.552694
腕	-10.552888
毒	-10.552996
▁費用	-10.552999
▁プロ	-10.554053
やか	-10.554486
組織	-10.555297
▁殺す	-10.555534
▁大量	-10.556045
▁役立ち	-10.556596
▁強制	-10.556846
▁見いだし	-10.556949
▁制限	-10.557747
▁団体	-10.557890
▁ざる	-10.557957
▁クリスマス	-10.558349
▁望む	-10.558812
▁学生	-10.559542
気持ち	-10.559898
▁退け	-10.560160
ければ	-10.560203
▁館	-10.562626
頼	-10.562762
▁立つ	-10.562810
▁波	-10.562817
あげ	-10.563453
千	-10.563466
o	-10.564558
▁ク	-10.565145
▁依存	-10.565174
極	-10.565298
▁興味	-10.565751
証明	-10.566066
らず	-10.566098
▁局	-10.566913
大変	-10.567286
なければな	-10.567506
熱	-10.567518
▁悪行	-10.567681
▁落ち	-10.567693
▁傷	-10.567760
▁制御	-10.567893
とおり	-10.567912
▁思いやり	-10.568486
▁用意	-10.568677
放	-10.569437
▁38	-10.569459
▁お父さん	-10.569494
▁予	-10.569656
▁質	-10.569757
大きい	-10.569773
▁be	-10.570264
▁通常	-10.570471
要素	-10.570829
▁剣	-10.571358
上手	-10.571713
▁2)	-10.572160
▁話し合い	-10.572497
社会	-10.572793
引き	-10.573101
唯一	-10.573284
12	-10.573303
集め	-10.573480
▁苦痛	-10.573493
行為	-10.574095
▁こんにちは	-10.574277
我	-10.575174
▁予定	-10.575244
▁集中	-10.575260
もらう	-10.575494
路	-10.575597
▁ヨシュア	-10.575835
▁というのは	-10.576050
ランド	-10.576123
平和	-10.576387
アン	-10.576831
▁軍隊	-10.577713
虫	-10.578699
装置	-10.578804
重要	-10.578828
▁アン	-10.579479
院	-10.580158
友	-10.580803
曲	-10.580902
▁エイズ	-10.581685
▁受	-10.581823
▁呼び	-10.582959
▁犯人	-10.583097
思わ	-10.583097
▁混乱	-10.583361
取る	-10.583690
▁サ	-10.583830
▁巻	-10.583931
ごと	-10.584073
▁コーヒー	-10.584167
▁招待	-10.584201
シャ	-10.584361
うまく	-10.584468
交	-10.584768
▁選ば	-10.585937
紙	-10.586136
▁窓	-10.586339
百万	-10.586505
▁電気	-10.586552
▁表われ	-10.586986
ポート	-10.587070
命じ	-10.587394
▁見つか	-10.588016
▁2,000	-10.588595
▁断	-10.588779
▁欠け	-10.588839
▁バー	-10.588981
合わせ	-10.589031
▁c	-10.589064
▁つづけ	-10.589417
▁征服	-10.589737
事故	-10.589912
▁反映	-10.590328
▁うえ	-10.590766
▁清い	-10.591161
指	-10.591230
ワ	-10.591352
散	-10.591438
▁出す	-10.591523
距離	-10.591626
▁やり	-10.592401
▁爆発	-10.593246
▁今後	-10.593515
ページ	-10.594083
▁方向	-10.594109
▁18)	-10.594252
▁it	-10.594668
メ	-10.594858
母親	-10.595078
▁職	-10.595258
▁儀式	-10.595278
▁後ろ	-10.595692
父さん	-10.596296
描	-10.596313
したり	-10.596599
▁症状	-10.597469
▁驚	-10.597830
▁きれい	-10.597984
▁パラダイス	-10.598295
激	-10.598559
G	-10.598602
害	-10.598864
込む	-10.600511
動き	-10.602526
▁対照	-10.603326
▁l	-10.603347
める	-10.603649
▁表明	-10.603918
▁戦	-10.603933
メール	-10.604356
互	-10.604441
ジャ	-10.604630
▁X	-10.604755
▁詳細	-10.604955
▁妹	-10.605426
それで	-10.605722
策	-10.606012
▁冗談	-10.606526
消え	-10.606568
想像	-10.606784
▁夏	-10.607006
▁迎え	-10.608115
オプション	-10.608116
▁民族	-10.608242
タイプ	-10.608756
▁悲し	-10.608776
▁収穫	-10.609210
▁事情	-10.609260
示	-10.609421
▁ギレアデ	-10.609453
op	-10.609835
かける	-10.610722
皆さん	-10.611015
▁改善	-10.611235
g	-10.612253
▁4,000	-10.612505
▁マタ	-10.613727
▁数々	-10.613891
ラン	-10.613959
やつ	-10.614164
電	-10.614169
▁運	-10.614465
波	-10.614988
▁独	-10.615299
バカ	-10.616168
ついた	-10.616467
▁愛さ	-10.617394
▁穴	-10.618153
棒	-10.618983
▁千	-10.619198
られている	-10.619328
▁憎しみ	-10.619641
あと	-10.619829
接	-10.620689
▁司教	-10.621658
▁当たり	-10.621954
▁失わ	-10.622266
▁維持	-10.622539
事実	-10.622630
▁引き	-10.622904
▁否定	-10.623457
▁取れ	-10.623743
勉強	-10.623847
全然	-10.623926
▁司会	-10.624195
11	-10.624632
自然	-10.624950
▁ヘブ	-10.625978
▁反逆	-10.626197
差	-10.626287
▁戻る	-10.626443
▁悪く	-10.628280
▁講演	-10.628692
最大	-10.628875
銀行	-10.628922
▁ぼく	-10.629189
▁腐敗	-10.631158
を表示	-10.631266
▁払い	-10.632136
▁実行	-10.632456
▁構成	-10.632548
▁残し	-10.632632
借り	-10.632833
弾	-10.632904
en	-10.633183
大きく	-10.633364
▁そのまま	-10.633492
違	-10.633677
▁アー	-10.634940
▁少ない	-10.635932
▁トン	-10.636168
▁あげ	-10.636957
▁地図	-10.637002
▁隊	-10.637441
遅れ	-10.637594
▁わが	-10.637774
▁ベ	-10.637913
▁安心	-10.637936
ぶ	-10.638221
根	-10.638756
▁そ	-10.639217
行う	-10.639397
▁昨年	-10.640631
▁達成	-10.640671
俗	-10.640901
▁緊張	-10.641350
満たさ	-10.641481
▁法王	-10.641603
言語	-10.641897
▁守り	-10.642152
手紙	-10.642187
▁歩む	-10.642735
▁信条	-10.642788
嫌	-10.642814
モデル	-10.642928
▁条件	-10.643250
▁そば	-10.643259
▁列王	-10.643662
▁ほしい	-10.644187
聴	-10.644462
等しい	-10.645487
▁確実	-10.646414
▁詳しく	-10.646537
▁差し伸べ	-10.647237
▁ジャック	-10.647409
協力	-10.647455
男性	-10.648589
どち	-10.649548
▁おきて	-10.649570
ワード	-10.649763
▁集ま	-10.649876
▁救出	-10.650567
▁創世	-10.650865
幅	-10.650989
左	-10.651772
細胞	-10.652022
▁驚き	-10.652336
▁レ	-10.652651
▁息	-10.652793
▁原子	-10.652923
▁とこし	-10.653130
捨て	-10.653250
▁床	-10.653359
▁飲む	-10.653692
▁のみ	-10.653789
られてい	-10.653813
▁異教	-10.654184
▁貪欲	-10.654838
受ける	-10.654895
,2	-10.655134
▁作用	-10.655663
▁ピーター	-10.655871
絵	-10.656552
▁まこと	-10.656719
▁ガス	-10.656777
▁白	-10.657650
もら	-10.658555
乳	-10.658756
の人々	-10.660130
種類	-10.660295
▁羽	-10.661382
▁チーム	-10.661747
▁総	-10.663937
▁善良	-10.663947
▁墓	-10.664350
▁道理	-10.664351
予定	-10.664376
得られ	-10.664738
サー	-10.664743
▁強	-10.664771
▁続き	-10.665188
▁連	-10.665379
▁お母さん	-10.665572
▁恐怖	-10.665627
進	-10.666686
▁置く	-10.667962
▁岩	-10.668012
入手	-10.668471
局	-10.668591
▁ロマ	-10.668846
▁取ら	-10.669196
▁憐れみ	-10.669517
加え	-10.670691
▁動き	-10.670888
▁19)	-10.671018
逮捕	-10.671087
40	-10.671287
▁こういう	-10.671288
▁活用	-10.671689
セット	-10.671723
▁標準	-10.671762
ですから	-10.672400
取って	-10.672477
▁こめ	-10.672558
▁いわゆる	-10.672929
しかし	-10.673060
示し	-10.673060
烈	-10.673229
エラー	-10.673625
▁のち	-10.673752
▁メッセージ	-10.674419
ジョン	-10.674794
▁共通	-10.675174
▁敵対	-10.675510
美しい	-10.675832
▁相続	-10.676069
全員	-10.676107
▁あいだ	-10.676225
▁44	-10.676275
優れ	-10.676865
ウィ	-10.676987
酒	-10.677477
▁人気	-10.677987
▁カリフォルニア	-10.678152
意思	-10.678167
▁権力	-10.678574
入れる	-10.678750
旅	-10.679483
後ろ	-10.680001
▁大きい	-10.680103
▁もらい	-10.680258
▁for	-10.680425
▁起こし	-10.680587
▁日曜	-10.680917
▁ソ連	-10.681573
▁誇り	-10.681589
▁愚か	-10.681703
かれる	-10.681844
J	-10.682417
破壊	-10.682867
患者	-10.683170
▁ト	-10.683937
▁送り	-10.684122
▁警官	-10.684521
▁検査	-10.684804
▁招	-10.685313
系	-10.686285
▁背	-10.686584
幸運	-10.686714
レン	-10.686822
▁肉体	-10.687126
O	-10.687262
▁計算	-10.688200
いても	-10.688727
さま	-10.688733
立つ	-10.689042
呼ぶ	-10.689074
▁石油	-10.689454
▁徐	-10.689507
バス	-10.689905
ビー	-10.689966
止	-10.690060
ホ	-10.690444
▁短い	-10.691139
レット	-10.691547
▁善	-10.691822
使わ	-10.692024
裏	-10.692317
南	-10.692522
クラス	-10.693131
▁付け加え	-10.693167
置いて	-10.693254
▁やる	-10.693550
▁覆	-10.693872
▁指	-10.694572
たいと	-10.694770
嫌い	-10.694889
っかり	-10.694938
切	-10.694943
▁失う	-10.695247
▁平衡	-10.696240
にお	-10.696315
効果	-10.696372
▁me	-10.696821
▁毛	-10.697507
▁不正	-10.697609
▁裏	-10.697632
納得	-10.697842
あまり	-10.697970
束	-10.698212
▁いかに	-10.698290
▁地面	-10.698581
▁掲載	-10.698641
隠し	-10.699535
努力	-10.699574
組	-10.699702
任せ	-10.699893
興味	-10.700130
▁発生	-10.700199
王国	-10.701026
▁襲	-10.701210
▁観	-10.701521
加	-10.701549
▁室	-10.701598
症	-10.701615
諸	-10.702019
▁推定	-10.702152
▁永	-10.702233
▁d	-10.702619
あらゆる	-10.702811
霊	-10.702918
一切	-10.703459
▁わざ	-10.703691
▁消	-10.704559
証	-10.704896
▁楽しむ	-10.704970
▁連邦	-10.705128
ぐらい	-10.705252
▁許可	-10.705322
▁昨	-10.705622
▁属する	-10.705624
▁出さ	-10.706379
▁失い	-10.706612
▁財産	-10.706815
ガー	-10.706863
▁y	-10.707076
▁つか	-10.707124
物語	-10.707149
レベル	-10.707414
▁連合	-10.707480
▁センチ	-10.707515
▁励み	-10.707747
▁答える	-10.707790
ひ	-10.708018
眠	-10.708171
▁"『	-10.708447
ってお	-10.708583
エネルギー	-10.708716
▁あそこ	-10.709321
▁かける	-10.709589
サイズ	-10.710011
立ち	-10.710454
界	-10.710488
問わ	-10.710707
▁負	-10.711245
▁重い	-10.711290
▁帰る	-10.711335
科学	-10.711527
べ	-10.711575
▁潜	-10.711851
▁着け	-10.712185
▁育て	-10.712497
戦い	-10.712497
▁完	-10.712709
▁たく	-10.712845
▁ベン	-10.712888
▁訴え	-10.714113
正規	-10.714129
▁500	-10.714440
▁素	-10.716029
▁中央	-10.716264
▁界	-10.716388
ねば	-10.716715
▁やめる	-10.716939
▁願う	-10.717426
らん	-10.717944
赤	-10.718120
▁感動	-10.718253
実験	-10.718511
▁導く	-10.718800
ヒ	-10.718993
不明	-10.719081
▁見つける	-10.719149
▁詩篇	-10.720974
▁箇所	-10.721344
▁背景	-10.721642
▁嫌	-10.721675
とり	-10.722052
特別	-10.722426
▁批判	-10.722795
向	-10.723312
案	-10.723660
▁わかる	-10.723823
▁地下	-10.724035
▁暮らし	-10.724082
▁専心	-10.724952
思え	-10.725090
決定	-10.725630
▁通じ	-10.725791
▁ジョージ	-10.726273
穴	-10.726856
留	-10.726876
祈	-10.726888
ブル	-10.727443
▁大きさ	-10.727482
▁えっ	-10.727722
生物	-10.727828
▁羊飼い	-10.728018
▁V	-10.728072
利	-10.728492
それぞれ	-10.728904
夏	-10.728905
▁区	-10.729629
少年	-10.729772
製	-10.729903
望む	-10.730072
▁横	-10.730316
▁規則	-10.730440
▁うれし	-10.731039
ロック	-10.731335
ップ	-10.731395
▁このような	-10.731639
パー	-10.731981
▁避難	-10.732475
100	-10.732639
▁留め	-10.732656
保護	-10.732758
▁建築	-10.732880
I	-10.733224
曜日	-10.733404
だめ	-10.733788
▁携帯	-10.733842
z	-10.733890
▁鉄	-10.734149
きっと	-10.734314
科	-10.734442
▁箱	-10.734833
▁救わ	-10.735211
未	-10.735518
\	-10.736101
来世	-10.736628
▁乳	-10.737088
せよ	-10.737626
▁識別	-10.737890
くな	-10.738657
▁懸	-10.738935
背後	-10.739264
様に	-10.739472
▁開け	-10.739855
軍事	-10.739960
▁滅ぼ	-10.739982
▁午後	-10.740048
▁苦難	-10.740587
▁やすく	-10.740635
気分	-10.741320
悲惨	-10.741404
許し	-10.741446
近い	-10.741610
▁送る	-10.741811
▁数字	-10.742307
▁42	-10.742567
▁寄せ	-10.743134
▁同じく	-10.743606
W	-10.744515
変換	-10.744694
▁実証	-10.744738
事な	-10.744828
なくな	-10.744904
V	-10.745131
▁恵み	-10.745323
髪	-10.745556
太陽	-10.746137
▁扱	-10.746414
▁触れ	-10.746449
▁距離	-10.746565
▁角	-10.747003
▁会い	-10.747241
▁買う	-10.747736
Comm	-10.747746
楽し	-10.748267
▁崩壊	-10.748455
犠牲	-10.748940
テン	-10.749291
▁21)	-10.749335
▁トラック	-10.749338
▁巣	-10.749433
▁自問	-10.749698
迫	-10.750017
▁生まれ	-10.750024
源	-10.750029
クルアーン	-10.750124
期待	-10.750211
▁独身	-10.750539
古い	-10.750718
▁肝要	-10.752352
に関して	-10.752425
▁皮膚	-10.753076
▁祭り	-10.753302
▁必ずしも	-10.754110
▁きちんと	-10.754475
切り	-10.754784
毛	-10.755005
▁姦淫	-10.755723
▁薬物	-10.755852
▁自制	-10.756436
▁努め	-10.756485
▁汝	-10.756604
ファ	-10.756680
[	-10.756836
フランス	-10.756913
▁論争	-10.757047
楽園	-10.757444
チャ	-10.757461
魔法	-10.757483
▁低い	-10.758123
▁市場	-10.758277
チャンス	-10.758406
続ける	-10.758440
返	-10.758769
▁舌	-10.758883
▁処理	-10.759097
▁超える	-10.759338
参加	-10.759517
▁日々	-10.759628
▁満たす	-10.759890
ペ	-10.760112
催	-10.760262
▁ナ	-10.762903
聞こえ	-10.763488
原因	-10.763678
▁救う	-10.763824
理解し	-10.764282
けない	-10.764327
▁パ	-10.764376
らが	-10.764438
▁挑戦	-10.764556
▁何千	-10.764590
生命	-10.764821
▁擁護	-10.764954
住む	-10.765878
普通	-10.765960
条件	-10.766540
病院	-10.766566
▁印象	-10.766589
タン	-10.766676
リア	-10.767188
▁まったく	-10.767540
明日	-10.768431
▁ハルマゲドン	-10.768762
ガス	-10.768989
▁諸国	-10.769270
▁報道	-10.769894
▁娯楽	-10.770298
▁どおり	-10.770327
ニュース	-10.770399
▁2,3	-10.770915
▁幾百万	-10.771150
治療	-10.772004
死に	-10.772500
▁長さ	-10.772583
▁6,7	-10.772647
なくなる	-10.772861
▁合計	-10.773049
隣	-10.773169
▁め	-10.773171
▁見た	-10.774117
発生	-10.774412
というのは	-10.774585
従う	-10.774772
魚	-10.775152
▁資金	-10.775253
願	-10.775262
▁額	-10.775507
格	-10.775510
ツール	-10.775673
らっ	-10.775764
▁いつか	-10.776152
▁写本	-10.776615
成長	-10.776616
だれ	-10.776796
▁いかが	-10.776883
精神	-10.777008
兄	-10.777317
▁心理	-10.777397
▁39	-10.777782
ログ	-10.777999
許可	-10.778057
巡回	-10.778393
破	-10.778422
襲	-10.779115
▁区域	-10.779273
▁シ	-10.779690
▁貧困	-10.780275
パン	-10.780395
邪	-10.780538
アイデア	-10.780951
▁23)	-10.781021
▁少数	-10.781179
▁流	-10.781567
ジー	-10.781573
求める	-10.781575
押し	-10.781593
▁完成	-10.782098
除	-10.782286
▁プロテスタント	-10.782682
やれ	-10.782723
▁刺激	-10.782858
学者	-10.784108
字	-10.784217
▁扱い	-10.784298
円	-10.784411
▁髪	-10.784666
▁年間	-10.784704
▁ベッド	-10.785128
既に	-10.785601
▁金銭	-10.786502
▁級	-10.786527
▁交通	-10.786546
▁安	-10.786586
▁報じ	-10.786888
▁妨げ	-10.787090
▁高さ	-10.787268
分け	-10.787769
▁携わ	-10.787808
▁マジ	-10.787883
白	-10.787992
東	-10.788167
▁疲れ	-10.788586
取得	-10.789242
▁近所	-10.789306
取引	-10.789395
▁おき	-10.789566
奇	-10.789668
起こる	-10.789727
ましょ	-10.789918
▁クラス	-10.790081
頼む	-10.792150
▁困	-10.792262
▁砂	-10.792294
▁無料	-10.793111
善行	-10.793425
かなり	-10.793490
強く	-10.793495
▁異邦	-10.793694
どころ	-10.793957
ることに	-10.794200
▁禁じ	-10.794507
医者	-10.794697
▁いき	-10.795479
待て	-10.795511
▁乗	-10.796753
自動	-10.797139
▁データ	-10.797189
▁淫行	-10.797242
記憶	-10.797335
降り	-10.797509
▁リスト	-10.798274
▁適	-10.798408
情	-10.798462
都市	-10.798831
▁災害	-10.798842
▁爆弾	-10.798990
15	-10.799055
▁関心事	-10.800062
▁青年	-10.800112
大統領	-10.800871
かせ	-10.800947
一連	-10.801522
ネット	-10.801806
アルマン	-10.801867
だったら	-10.802488
慈悲深	-10.802726
▁わ	-10.803123
▁黒	-10.803419
感じる	-10.803705
▁処置	-10.804515
#	-10.806026
▁枚	-10.806121
▁アドバイス	-10.806558
▁盗	-10.807050
▁拒否	-10.808202
▁生き残る	-10.808292
▁ジェーン	-10.808348
はかれ	-10.808432
▁飲ん	-10.808504
h	-10.809028
反対	-10.809598
接続	-10.809847
▁センター	-10.809905
▁森	-10.810084
▁科	-10.810151
有罪	-10.810253
ユー	-10.810380
▁ル	-10.811524
歴史	-10.811593
▁興奮	-10.812387
小さい	-10.812467
赦し	-10.812489
▁知	-10.812705
▁筆者	-10.813354
▁偽	-10.813585
▁喜ば	-10.814262
なのに	-10.814345
学生	-10.814467
▁偶然	-10.814692
謀	-10.814837
▁呼吸	-10.815490
▁宣伝	-10.815779
客	-10.816401
▁片	-10.816643
▁層	-10.816663
航空	-10.816667
▁亡くな	-10.816690
▁行なえる	-10.816815
▁製	-10.816819
▁半分	-10.816901
▁至	-10.816963
対	-10.817297
▁培う	-10.817321
バン	-10.817542
クリック	-10.817898
▁設立	-10.818670
ーン	-10.818791
仰せ	-10.818809
護	-10.819254
▁帰	-10.819776
▁予想	-10.819995
ts	-10.821094
▁冬	-10.821201
パリサイ	-10.821295
売	-10.821713
▁製品	-10.821733
肢	-10.821840
▁生存	-10.822392
エン	-10.822406
▁純粋	-10.822408
飲ん	-10.822478
▁施し	-10.822511
るように	-10.822907
▁食	-10.823085
▁制度	-10.823217
書く	-10.824256
検	-10.824816
半分	-10.825215
▁ウ	-10.825363
における	-10.825624
▁何ら	-10.825750
▁セ	-10.825768
あんた	-10.825866
▁五	-10.826523
▁うそ	-10.826667
▁キ	-10.827029
株	-10.827282
教徒	-10.827695
▁過程	-10.827907
▁紹介	-10.827918
想	-10.827931
▁払わ	-10.828007
仕え	-10.828411
▁The	-10.828492
反応	-10.828501
監視	-10.828730
▁ビ	-10.828850
ける	-10.829270
▁走	-10.829502
▁動く	-10.829525
▁開始	-10.829754
▁対	-10.829986
複雑	-10.830321
▁かぎ	-10.830887
サン	-10.831007
▁あふれ	-10.831908
宗教	-10.832157
裕福	-10.833385
なお	-10.833552
▁不法	-10.833837
つける	-10.834056
遠	-10.834061
▁オランダ	-10.834288
Q	-10.834346
▁以降	-10.834594
判断	-10.835243
でる	-10.835249
呼び	-10.835501
けば	-10.836222
▁43	-10.836496
美咲	-10.837029
胸	-10.837051
▁偏見	-10.837280
ぬ	-10.837861
▁記し	-10.838161
一致	-10.838643
現れ	-10.838743
▁流行	-10.839271
▁徹	-10.839325
▁それゆえ	-10.839394
▁脅威	-10.839566
マス	-10.839726
▁あまりに	-10.839727
▁値する	-10.839891
嬉し	-10.840187
▁欲しい	-10.840261
▁天使	-10.840579
al	-10.841079
▁一例	-10.841455
▁やっと	-10.841476
▁待	-10.841657
▁闘い	-10.841832
▁メール	-10.842083
▁自体	-10.842127
▁許す	-10.842711
▁活発	-10.843246
▁若	-10.843753
片	-10.844241
▁公園	-10.844773
▁不満	-10.845400
▁携え	-10.845440
のまま	-10.845563
▁苦し	-10.846067
開発	-10.846129
▁産業	-10.846261
▁破滅	-10.846448
▁選び	-10.846954
米	-10.847642
可能な	-10.847769
▁ピ	-10.847922
黒	-10.848236
カード	-10.848276
弁	-10.848779
瞬間	-10.848906
▁意	-10.849119
▁80	-10.849350
変える	-10.849604
▁+	-10.849668
▁死後	-10.849719
カン	-10.850081
大切	-10.850284
▁道具	-10.850406
讃え	-10.850412
▁ビデオ	-10.850547
▁簡	-10.850629
▁戻り	-10.850715
▁野生	-10.851139
児	-10.851333
とこ	-10.851542
▁ディ	-10.851597
▁徒	-10.851633
▁法廷	-10.851689
無効	-10.851808
▁20)	-10.852009
▁悩ま	-10.852214
した時	-10.852434
▁筋肉	-10.852592
▁下す	-10.852831
クス	-10.853093
):	-10.853500
▁出かけ	-10.853705
▁熱意	-10.853843
ならび	-10.853907
▁すご	-10.853964
▁65	-10.854343
▁動	-10.854894
▁ちゃん	-10.854947
健康	-10.855644
▁まい	-10.855796
▁逃れ	-10.856026
DE	-10.856144
アー	-10.856788
無駄	-10.857531
▁ダ	-10.857656
▁畑	-10.857699
▁h	-10.858273
▁死体	-10.858298
▁背教	-10.858453
検索	-10.858788
▁なぜか	-10.858884
頂	-10.859330
▁アリ	-10.859395
▁集団	-10.860116
▁論じ	-10.861216
土	-10.862124
ウン	-10.862593
データを	-10.863081
▁待つ	-10.863255
▁飲み	-10.863615
this	-10.863957
▁編集	-10.863960
キミ	-10.864302
信用	-10.864551
▁つもり	-10.864785
▁わな	-10.865658
▁感覚	-10.866039
要求	-10.866836
▁副	-10.867311
なか	-10.867772
勢	-10.867827
もらい	-10.867980
▁優	-10.868532
▁小さい	-10.868979
受け入れ	-10.869280
▁消え	-10.870045
▁なくなる	-10.870060
こい	-10.870173
▁~	-10.871159
▁兵器	-10.871292
評価	-10.871359
▁療法	-10.871387
悪く	-10.871431
▁インターネット	-10.871742
給	-10.871940
制	-10.872186
枚	-10.872202
床	-10.872619
提供	-10.872715
▁向こう	-10.872931
▁消費	-10.873048
▁示唆	-10.873368
▁堅く	-10.873620
出せ	-10.874077
過	-10.874165
経済	-10.874196
▁七	-10.874395
▁公平	-10.874848
ション	-10.875560
習	-10.875574
▁超え	-10.875741
礼拝	-10.875867
▁大気	-10.876366
当たっ	-10.876794
▁ユー	-10.877138
自ら	-10.877183
▁勝	-10.877322
パーティー	-10.878258
▁み父	-10.878536
だい	-10.878981
▁収入	-10.879024
過去	-10.879085
▁体重	-10.879357
▁400	-10.879391
▁終え	-10.880102
▁死に	-10.881180
▁90	-10.881255
現実	-10.881448
ただけ	-10.881736
▁達する	-10.882540
めて	-10.882771
陰	-10.883139
Y	-10.883244
演	-10.883388
▁飢え	-10.883883
▁1970	-10.884348
▁歴代	-10.884784
▁医者	-10.884921
支配	-10.885009
警官	-10.885830
▁望ま	-10.885908
▁疑い	-10.886069
援助	-10.886137
▁ジェイ	-10.886242
割	-10.886262
▁友情	-10.886465
医	-10.886490
やり方	-10.886905
▁引き起こす	-10.887670
▁伴	-10.887692
▁極	-10.887811
▁まさか	-10.888448
メートル	-10.889155
介	-10.889304
および	-10.889363
▁森林	-10.889639
ああ	-10.889917
▁円熟	-10.889979
▁幾千	-10.890068
▁3,000	-10.890077
▁配布	-10.890314
貸し	-10.890420
▁海岸	-10.890469
▁保険	-10.890786
いき	-10.891173
▁5,6	-10.891295
▁個々	-10.891342
▁ホ	-10.891365
▁表面	-10.891367
審判	-10.891534
▁ずつ	-10.891547
▁アナ	-10.891586
▁内部	-10.891840
▁呼ぶ	-10.892249
ものである	-10.892376
獣	-10.892514
法的	-10.892939
潔	-10.892994
▁伝	-10.893879
ly	-10.894071
▁始まる	-10.894511
もらえ	-10.895193
っき	-10.895254
▁訪ね	-10.895520
▁p	-10.896017
▁隠	-10.896070
将来	-10.896594
▁守ら	-10.896901
▁いら	-10.897027
はお	-10.897041
子ども	-10.897140
疑	-10.897262
隠れ	-10.897680
▁おはよう	-10.897750
▁説	-10.897883
単	-10.898042
▁異常	-10.898048
▁義務	-10.898118
set	-10.899076
▁雄	-10.899487
歯	-10.899837
ピ	-10.899906
▁カメラ	-10.900033
▁現	-10.900153
段	-10.901121
▁優先	-10.901561
ママ	-10.902216
くなる	-10.902487
▁社	-10.902618
▁登場	-10.903039
告げ	-10.903446
感情	-10.903749
▁制	-10.903904
ポ	-10.904137
戻り	-10.904700
帰り	-10.904900
を作成	-10.904923
▁学べ	-10.905257
剤	-10.906404
テレビ	-10.906416
▁鍵	-10.906949
▁初	-10.907015
弟	-10.907294
▁賢い	-10.907310
▁遺伝子	-10.907515
ボタン	-10.907712
▁パリ	-10.907776
ワシントン	-10.907944
ne	-10.908581
深い	-10.909030
▁扱わ	-10.909508
u	-10.909509
▁番組	-10.909517
職	-10.909997
終了	-10.910330
▁ヘイ	-10.910409
▁看護	-10.910699
▁遠い	-10.910789
▁かね	-10.911027
あるいは	-10.911049
尋ね	-10.911222
▁おお	-10.911251
トップ	-10.911533
当人	-10.911797
▁寛大	-10.911920
牛	-10.912085
▁渡	-10.912115
面白い	-10.912422
▁不滅	-10.912686
▁借り	-10.912745
クソ	-10.913428
ゼ	-10.914280
物質	-10.914343
▁48	-10.914355
生徒	-10.914466
▁ミカ	-10.914573
まず	-10.914951
▁22)	-10.915118
▁任務	-10.915180
旅行	-10.915335
▁首都	-10.915620
材	-10.915689
てあげ	-10.915729
草	-10.915861
▁U	-10.915907
▁姉	-10.915919
▁青	-10.916237
殊	-10.916320
▁抱き	-10.916439
▁食品	-10.916445
▁コリ	-10.916652
▁宝	-10.917086
ふ	-10.917149
▁いかなる	-10.917428
▁列	-10.918011
船長	-10.918082
▁基礎	-10.918101
▁独立	-10.918163
しもべ	-10.918254
ギ	-10.919050
▁あんな	-10.919182
▁画像	-10.919236
示す	-10.919562
st	-10.919813
▁分子	-10.921056
もろ	-10.921265
余	-10.923045
▁聴	-10.923058
▁最悪	-10.923214
▁ジョー	-10.923430
▁メ	-10.923616
しまい	-10.923626
ちょうど	-10.923715
▁さん	-10.924385
部下	-10.924889
森	-10.924925
機械	-10.924932
▁判決	-10.925633
ひとつ	-10.925718
門	-10.925926
▁塩	-10.925966
▁書物	-10.926270
無し	-10.926465
知れ	-10.926885
預言	-10.926961
黙	-10.927608
▁悪化	-10.927683
ほか	-10.927760
▁雪	-10.927780
た方	-10.927902
へと	-10.928513
▁本物	-10.928584
▁かかわり	-10.928803
▁展望	-10.929649
▁難し	-10.930419
▁起こる	-10.930420
あげる	-10.930731
▁監視	-10.931028
使え	-10.931099
流れ	-10.931288
原	-10.931513
▁雲	-10.931746
▁増大	-10.932454
▁あて	-10.932517
▁勤勉	-10.932611
試み	-10.933213
非	-10.933371
▁ニュー	-10.933715
▁屋根	-10.934022
▁みなす	-10.934024
▁起こり	-10.934555
ックス	-10.934870
▁保存	-10.934907
政治	-10.935724
取	-10.935737
良か	-10.935998
▁マイク	-10.936076
そこで	-10.936130
▁臨在	-10.936303
v	-10.936367
怒	-10.936429
▁実践	-10.936565
▁4,5	-10.936678
▁鏡	-10.936698
▁福祉	-10.936811
▁過ごす	-10.936829
返す	-10.936841
受	-10.936853
▁検討	-10.936861
管	-10.937151
▁職場	-10.937405
▁割	-10.937431
便	-10.937723
寛容	-10.937762
らせる	-10.937818
▁on	-10.938148
▁出来	-10.938641
▁料	-10.938666
売っ	-10.938800
出発	-10.939351
▁迫	-10.939451
向き	-10.939519
▁高校	-10.939531
▁広い	-10.939569
▁特色	-10.939637
▁年長	-10.939744
んな	-10.940010
▁地区	-10.940429
lt	-10.941349
怒り	-10.941488
▁タ	-10.941768
▁戦闘	-10.941847
完	-10.942740
渡し	-10.942963
子孫	-10.943306
群	-10.943785
再び	-10.944615
過ごし	-10.945544
負	-10.946071
勇気	-10.946110
▁遂げ	-10.946399
獄	-10.946525
▁黒人	-10.946842
内容	-10.946849
▁施す	-10.947146
▁誤り	-10.947194
▁落ち着	-10.947381
作品	-10.948048
▁親しい	-10.948152
▁ジェームズ	-10.948197
与	-10.948308
▁既に	-10.948545
▁強める	-10.949059
▁55	-10.949368
▁ミ	-10.949443
▁毎週	-10.949979
去	-10.950019
▁投獄	-10.950474
▁酸素	-10.950575
逆	-10.950764
us	-10.950831
所有	-10.951144
▁だけど	-10.951436
▁マル	-10.951894
▁禁止	-10.951951
狂	-10.951985
▁三位一体	-10.952711
構造	-10.952812
▁熱帯	-10.953011
▁選手	-10.953526
▁気づか	-10.954401
▁加	-10.954692
かわか	-10.954692
決	-10.955385
▁形成	-10.955452
▁肺	-10.955549
退	-10.955630
ねぇ	-10.955999
▁16,17	-10.956365
正確	-10.956493
25	-10.956594
二つ	-10.956603
▁楽しく	-10.956879
▁電	-10.957074
▁置き	-10.957248
高く	-10.958620
国内	-10.958650
▁事業	-10.958873
▁なれる	-10.958924
キン	-10.959155
▁視	-10.959190
▁革命	-10.959430
▁今年	-10.959611
▁囚人	-10.959870
▁砂漠	-10.960152
▁範囲	-10.960882
▁検	-10.961728
広がっ	-10.961899
▁本誌	-10.962187
始める	-10.962455
?)	-10.962626
▁面白い	-10.962649
▁ペ	-10.962701
▁当てはま	-10.963448
▁解	-10.963468
▁携わる	-10.963734
食べる	-10.964030
▁氷	-10.964037
▁公式	-10.964197
▁執行	-10.964585
▁不義	-10.964600
料理	-10.964630
▁電子	-10.965263
テキスト	-10.965305
▁隣	-10.965498
▁概念	-10.965626
守り	-10.965662
▁服装	-10.965894
バック	-10.966090
▁降り	-10.966723
徒	-10.966808
一日	-10.966964
ぼ	-10.966986
▁24)	-10.967192
▁職業	-10.967242
▁米	-10.967458
▁途中	-10.967654
▁喜ばしい	-10.967752
減	-10.967783
▁重荷	-10.968016
▁サマリア	-10.969135
▁繁栄	-10.969190
▁近づき	-10.969240
▁時計	-10.969269
助ける	-10.969527
エル	-10.969567
神々	-10.969640
プロジェクト	-10.970223
▁フランク	-10.970608
▁占め	-10.970857
世話	-10.970896
▁隠れ	-10.971008
▁うつ病	-10.971024
▁優しい	-10.971304
▁唱え	-10.971358
中心	-10.971764
かかり	-10.972134
るもの	-10.972607
を設定	-10.972680
▁温和	-10.972853
粉	-10.972954
▁独り	-10.973709
とし	-10.973906
フィ	-10.974010
祈り	-10.974188
ウス	-10.974463
デン	-10.974792
▁トラ	-10.974902
マイル	-10.975047
やすい	-10.975153
保	-10.975233
出さ	-10.975260
世代	-10.975427
痛	-10.975850
年代	-10.976005
けれ	-10.976214
▁うれしい	-10.976701
ショー	-10.977077
追	-10.977565
▁毒	-10.977839
対応	-10.977952
フォル	-10.978048
開く	-10.978219
▁各々	-10.978444
欲し	-10.978793
バラ	-10.979095
未来	-10.979630
▁サウル	-10.979689
▁競争	-10.979838
▁鼻	-10.980082
▁オー	-10.980166
喜び	-10.980456
▁感銘	-10.981014
▁レイ	-10.981706
▁末	-10.981828
▁仲	-10.982010
疲れ	-10.982501
越	-10.982633
▁USA	-10.982702
▁み前	-10.983725
▁買い	-10.983884
▁厳	-10.984338
楽しみ	-10.984571
抜け	-10.984651
族	-10.984946
▁列車	-10.985002
球	-10.985092
▁黙想	-10.985516
パパ	-10.986109
操作	-10.986669
ライン	-10.986673
▁宣告	-10.986755
▁定義	-10.987025
▁傷つけ	-10.987142
像	-10.987595
▁団	-10.987941
▁つらい	-10.988057
▁良か	-10.988072
井	-10.988655
▁低	-10.988846
上が	-10.989016
▁罰	-10.989808
▁穏やか	-10.990137
さらに	-10.990161
▁そい	-10.990396
60	-10.990486
▁ヨハ	-10.990569
▁マイケル	-10.990668
忠実	-10.990744
ction	-10.990833
ード	-10.990839
▁費やし	-10.990919
▁対応	-10.990969
おかげ	-10.991330
奴隷	-10.991465
却	-10.991581
犯人	-10.991594
▁なくなり	-10.991755
葉	-10.991955
▁どうし	-10.992236
▁8,9	-10.992346
▁大陸	-10.992438
th	-10.992711
▁カー	-10.992861
▁乱用	-10.992965
▁四つ	-10.993338
大地	-10.993344
▁匹	-10.993661
無視	-10.993771
暮らし	-10.994364
▁睡眠	-10.994824
意識	-10.995278
▁無駄	-10.995586
携帯	-10.995770
▁利益	-10.996100
▁n	-10.996324
▁なす	-10.996916
反	-10.996928
▁洞察	-10.996996
おうと	-10.997165
妹	-10.997191
詳細	-10.997209
することを	-10.997458
▁引き起こし	-10.997881
▁メアリー	-10.998269
on	-10.998497
▁移	-10.999777
▁未来	-10.999918
ワン	-11.000335
▁生み出す	-11.000635
領域	-11.000825
停止	-11.000829
国の	-11.000979
▁包	-11.001073
▁筋	-11.001299
▁雌	-11.001526
幸福	-11.001540
』."	-11.002326
▁聴衆	-11.002717
▁高め	-11.003049
トム	-11.003270
払	-11.003416
▁直ちに	-11.003646
教会	-11.003683
いか	-11.003694
▁41	-11.005322
顧客	-11.005332
言いた	-11.005345
▁貢献	-11.005573
財産	-11.005911
▁何百	-11.006724
▁際立	-11.007100
長期	-11.007147
いなか	-11.007190
▁費	-11.007538
▁エリヤ	-11.008128
サポート	-11.008175
▁もしも	-11.008535
偽	-11.008556
▁フィル	-11.008815
▁アイ	-11.008847
gt	-11.008983
関わ	-11.009304
指揮	-11.009679
▁改宗	-11.009735
▁競技	-11.009756
▁盗み	-11.009795
好み	-11.009935
▁理想	-11.010139
ED	-11.010852
ポイント	-11.011033
みた	-11.011450
到着	-11.011744
▁整え	-11.011904
喜	-11.012168
▁広告	-11.012182
ヤツ	-11.012287
▁門	-11.012662
▁出発	-11.012669
▁相違	-11.012897
やら	-11.013337
ちに	-11.013985
▁テトス	-11.013992
どうぞ	-11.014486
▁上昇	-11.014805
▁衣服	-11.014912
スキー	-11.014940
▁re	-11.014944
レイ	-11.014960
層	-11.015251
▁ホン	-11.015611
慢	-11.015773
ておき	-11.016006
ML	-11.016059
▁衛生	-11.016175
恵み	-11.016255
遺	-11.016576
▁他人	-11.016733
障	-11.016830
まわ	-11.016873
▁処刑	-11.017652
▁みことば	-11.017684
▁会う	-11.017700
▁ラジオ	-11.017735
速度	-11.017859
触れ	-11.017861
▁絶滅	-11.017982
▁加わ	-11.018053
消	-11.018160
▁いっぱい	-11.018459
▁わし	-11.018847
勧め	-11.019416
▁下し	-11.019678
▁恵	-11.019734
投げ	-11.019958
▁予防	-11.020083
▁さわやか	-11.020264
▁荷	-11.020286
▁港	-11.020401
当たり	-11.020512
▁信	-11.021154
ちだ	-11.021344
造	-11.021541
ジン	-11.021609
▁切り	-11.022195
りゃ	-11.022197
▁主題	-11.022367
ロード	-11.022485
▁草	-11.022601
▁告白	-11.022659
基本	-11.022993
▁打	-11.023189
▁短	-11.023243
▁やもめ	-11.023326
予	-11.023751
蔵	-11.023778
の研究	-11.023787
始まり	-11.024045
▁フ	-11.024097
▁戒め	-11.024571
▁堅	-11.025047
打ち	-11.025306
▁抱か	-11.025473
教育	-11.025855
市場	-11.026032
▁ふたり	-11.026301
百	-11.026583
▁あり得	-11.027020
▁遊び	-11.027427
▁緑	-11.027637
判	-11.027668
イスラエル	-11.027944
勝利	-11.027966
▁文字通り	-11.028175
▁午前	-11.028297
▁遭	-11.028360
▁カード	-11.028479
▁割合	-11.028543
▁勢力	-11.028567
あたし	-11.028914
省	-11.028987
税	-11.029182
▁せい	-11.029189
大好き	-11.029535
正しく	-11.029576
残り	-11.029985
微	-11.030058
▁早	-11.030383
カル	-11.030692
板	-11.030920
▁路	-11.032041
▁頼る	-11.032427
遠く	-11.032796
人類	-11.032963
訓戒	-11.033165
▁歩ん	-11.033215
▁向上	-11.033787
婚	-11.033816
▁かぎり	-11.034784
深く	-11.035206
ホテル	-11.035433
善い	-11.035963
▁くらい	-11.036319
▁明白	-11.036346
▁いよいよ	-11.036550
デザイン	-11.036906
▁弾	-11.037146
▁指し	-11.037456
▁啓	-11.037498
横	-11.037861
▁平	-11.038034
元気	-11.038554
ill	-11.038559
証言	-11.038606
隠	-11.038663
▁28)	-11.038695
▁帰り	-11.038791
レス	-11.039091
▁イギリス	-11.039522
▁分析	-11.039800
▁諸島	-11.040508
▁軽	-11.040964
▁銀	-11.041080
狙	-11.041303
探す	-11.042158
完了	-11.042181
▁誓い	-11.042475
▁燃料	-11.042771
つかの	-11.042966
せない	-11.043269
▁ウィ	-11.043577
映像	-11.043693
▁掛け	-11.044160
▁偽善	-11.044568
▁ルツ	-11.044988
▁理論	-11.045118
専門	-11.045194
▁芸術	-11.045534
▁なるほど	-11.045665
級	-11.046507
馬鹿	-11.046710
▁保健	-11.046850
いよ	-11.046872
笑い	-11.047344
▁コン	-11.047466
異なる	-11.047612
▁書籍	-11.048017
▁きわめて	-11.048679
▁外科	-11.048757
or	-11.048769
▁金属	-11.048839
▁数え	-11.048944
▁性質	-11.049335
マーク	-11.049345
▁演奏	-11.050071
▁少	-11.050142
影	-11.050442
▁か国	-11.050568
▁闇	-11.051176
▁グ	-11.051224
償	-11.051335
▁寄	-11.051540
巧み	-11.051561
ノー	-11.051987
▁イン	-11.052031
ic	-11.052148
移	-11.052567
補	-11.053316
▁切	-11.055144
▁エル	-11.055340
まっすぐ	-11.055801
▁限界	-11.055842
▁19,20	-11.056481
▁製造	-11.056488
out	-11.056508
▁ファ	-11.056974
▁ウソ	-11.057132
▁You	-11.057192
ボール	-11.057402
象	-11.057600
▁つける	-11.057615
▁思考	-11.057697
▁テスト	-11.057809
武器	-11.058140
▁遣わし	-11.058272
以来	-11.058911
▁我ら	-11.059396
▁de	-11.060408
捕まえ	-11.060599
作成	-11.060790
000	-11.060959
房	-11.061212
▁自信	-11.061267
▁企業	-11.061814
▁婦	-11.061894
メアリー	-11.062013
結	-11.062159
▁隠し	-11.062325
▁ワ	-11.062696
▁劇	-11.062789
投資	-11.062855
世紀	-11.062898
▁ロバート	-11.062963
▁改革	-11.062976
▁欲求	-11.063210
▁パス	-11.063381
市	-11.063385
弁護	-11.063524
▁接触	-11.063726
▁教皇	-11.064043
リンク	-11.064046
誕生	-11.064287
サービス	-11.064288
麗	-11.064321
▁失望	-11.064410
▁起	-11.064868
▁施	-11.064916
▁ただし	-11.065156
▁関	-11.065579
もって	-11.065609
▁かかわる	-11.065663
▁促進	-11.065793
▁速度	-11.065972
▁動かし	-11.065974
▁お名前	-11.066088
▁橋	-11.066317
▁ザ	-11.066545
思い出	-11.066679
▁ご親切	-11.066746
▁弱い	-11.067188
▁こも	-11.067283
コマンド	-11.067423
▁運命	-11.067427
▁造り	-11.067831
集	-11.068222
▁ソ	-11.068329
遊	-11.068411
▁ゆだね	-11.068493
▁遅れ	-11.068596
アフリカ	-11.068906
マタイ	-11.069526
▁議論	-11.069901
高慢	-11.069965
▁デート	-11.069969
▁統計	-11.070117
▁ホテル	-11.070137
▁六	-11.071445
春	-11.071964
▁奪わ	-11.072116
キス	-11.072652
できるように	-11.072944
▁胤	-11.073481
ビュー	-11.073617
グラフ	-11.073647
▁リー	-11.073895
▁炎	-11.074085
▁北部	-11.074372
救う	-11.074681
察	-11.074693
興	-11.074914
▁氏	-11.074951
▁戸	-11.076032
▁にくい	-11.076271
メント	-11.076396
▁近年	-11.076514
▁孤独	-11.076733
覚	-11.076947
▁レベル	-11.077090
ごく	-11.077368
▁人工	-11.077539
▁ジム	-11.077592
毎日	-11.077615
▁エデン	-11.077852
食事	-11.077978
温	-11.078191
試験	-11.078250
変わら	-11.078429
成	-11.078554
▁肩	-11.078616
待つ	-11.078825
聞け	-11.078858
▁押し	-11.079047
▁オーケ	-11.079278
▁ウイルス	-11.079358
▁相談	-11.080243
もあ	-11.080613
編集	-11.080924
罰	-11.081294
▁くださり	-11.081801
▁出産	-11.081834
▁終結	-11.082441
▁犯す	-11.082521
▁生き物	-11.082686
冷	-11.082867
▁不快	-11.082879
いただけ	-11.082912
企業	-11.083771
アル	-11.083954
▁おもに	-11.083987
おいて	-11.084033
試	-11.084070
▁ポルノ	-11.084200
圧	-11.084255
富	-11.084517
書か	-11.084556
▁ふさわしく	-11.084729
▁確立	-11.085035
▁陥	-11.085061
核	-11.085293
様々	-11.085333
▁農場	-11.085612
手段	-11.086708
あたり	-11.086761
▁機構	-11.087763
運動	-11.087857
▁反する	-11.087999
▁スウェーデン	-11.088189
▁正常	-11.088608
▁成果	-11.088861
▁見よ	-11.089386
団	-11.090016
有名	-11.090117
▁眠	-11.090548
イル	-11.091416
▁いやし	-11.092535
16	-11.092730
▁6,000	-11.092882
▁惑星	-11.093228
猫	-11.093999
都合	-11.094025
フィールド	-11.094065
飲み	-11.094271
時計	-11.094304
記事	-11.094542
▁14,15	-11.094662
▁取り入れ	-11.094860
▁釈放	-11.094913
すごい	-11.094975
▁美	-11.095398
▁有効	-11.095614
▁網	-11.096000
▁真に	-11.096098
吉	-11.096239
満足	-11.096704
▁生み出し	-11.096761
▁他方	-11.096878
▁見事	-11.097580
メン	-11.097641
▁称賛	-11.098273
個人	-11.098969
マド	-11.099144
▁向ける	-11.099266
▁当初	-11.099557
▁白人	-11.099596
ーん	-11.099665
サム	-11.099989
▁ノー	-11.100213
必要がある	-11.101075
▁無事	-11.101366
▁管	-11.101883
キロ	-11.102004
▁ヨナ	-11.102295
▁南部	-11.102631
▁農業	-11.102747
込ま	-11.102828
少女	-11.102888
▁気遣い	-11.103297
親切	-11.103489
▁行使	-11.103681
▁7,8	-11.103849
,1	-11.103896
▁動かす	-11.104302
▁13,14	-11.104472
はならない	-11.104475
▁罪人	-11.105109
▁ガ	-11.105240
みな	-11.105337
▁皇帝	-11.105393
▁胎児	-11.105553
▁省	-11.105995
▁ポール	-11.106482
▁乗り	-11.106500
突然	-11.106800
▁とどまる	-11.107068
▁奥さん	-11.107338
▁試	-11.107349
▁ヘンリー	-11.107681
▁どっち	-11.107727
庫	-11.108181
昼	-11.108189
コピー	-11.108642
▁杭	-11.108787
窓	-11.109198
14	-11.109764
▁煙	-11.109930
大な	-11.110040
長く	-11.110138
▁数学	-11.110230
▁待ち	-11.110757
▁先祖	-11.111246
▁話し合う	-11.111336
ロス	-11.111510
▁そりゃ	-11.111539
用い	-11.111576
提案	-11.111628
▁正義	-11.112436
ティー	-11.112525
の結果	-11.112867
ユダヤ	-11.113242
ザー	-11.113406
▁最新	-11.113770
▁低下	-11.114451
▁つづける	-11.114506
静か	-11.114509
▁手伝	-11.114629
▁起源	-11.115088
迷	-11.115149
▁武	-11.115303
▁同紙	-11.115326
仕	-11.115486
▁じゅう	-11.115587
おい	-11.115659
周り	-11.116167
勝	-11.116255
始ま	-11.116291
▁OK	-11.116491
▁状	-11.116596
▁憤り	-11.116673
▁評判	-11.116946
▁振る舞い	-11.117004
▁遅く	-11.117144
▁奇妙	-11.117179
▁支援	-11.117285
▁今朝	-11.117305
▁反抗	-11.117493
▁脂肪	-11.117630
▁分け	-11.117761
話せ	-11.117941
▁つの	-11.118190
,5	-11.118449
▁失業	-11.119032
久	-11.119251
様子	-11.119756
ジェ	-11.120000
▁例外	-11.120844
▁住み	-11.120932
前述	-11.120935
▁ハー	-11.121400
▁確証	-11.121481
▁校	-11.121697
ve	-11.122212
▁遊	-11.122400
▁ガラス	-11.122790
▁地帯	-11.122985
ライト	-11.123836
▁われわれ	-11.123851
▁現場	-11.123958
▁美しさ	-11.124015
▁臨む	-11.124047
経	-11.124109
▁階	-11.124140
▁東京	-11.124344
絶	-11.124949
▁すっかり	-11.125077
一人一人	-11.125213
テーブル	-11.125465
終わる	-11.125989
若	-11.126143
期間	-11.126207
の色	-11.126367
動作	-11.126465
▁考	-11.126563
測	-11.126598
▁バビロニア	-11.126887
13	-11.127289
▁ショー	-11.127950
▁交渉	-11.128002
▁いただき	-11.128290
▁ラテン	-11.128588
▁修理	-11.128804
迎え	-11.128813
項	-11.128840
▁ぜひ	-11.129366
▁冒頭	-11.129472
シン	-11.129824
属	-11.130068
眼	-11.130250
▁荒廃	-11.130308
アクセス	-11.130344
▁上る	-11.130381
称	-11.130466
▁好み	-11.130490
▁ボス	-11.130551
▁固く	-11.130585
跡	-11.131527
▁訓戒	-11.131604
▁中立	-11.131618
▁提出	-11.131663
▁当てはめる	-11.131937
es	-11.132008
▁ブルックリン	-11.132062
▁歓迎	-11.132225
▁売り	-11.132389
▁受け取	-11.132518
帯	-11.132859
単語	-11.132984
言える	-11.133002
早	-11.133024
▁夕食	-11.133060
▁進む	-11.133310
手伝	-11.133982
▁群	-11.134240
▁さい	-11.134292
▁生き残	-11.134534
▁白い	-11.134828
▁飲料	-11.134973
▁遺体	-11.135365
熟	-11.135668
▁結び	-11.136071
建物	-11.136245
▁決める	-11.136318
▁開く	-11.136635
▁商業	-11.136660
▁撃	-11.137049
▁ライオン	-11.137126
▁歩く	-11.137301
▁思慮深い	-11.137643
ダウン	-11.138003
▁性格	-11.138303
©	-11.138400
政	-11.138794
段階	-11.138827
議論	-11.139931
▁様式	-11.140685
▁捜査	-11.140922
ベン	-11.141172
閉じ	-11.141234
ミー	-11.141269
▁悲劇	-11.141372
▁確かめ	-11.141430
▁ジャ	-11.141489
▁裁き人	-11.141639
▁途上	-11.141673
▁経	-11.142417
聞か	-11.142497
▁立てる	-11.142554
▁ペルシャ	-11.142761
橋	-11.142770
脱	-11.142806
県	-11.142813
立た	-11.143261
▁春	-11.143269
▁招き	-11.143643
▁強盗	-11.143801
ライ	-11.143941
怖	-11.144308
▁一定	-11.144439
当て	-11.144588
▁壮大	-11.145372
▁論議	-11.145570
▁堕落	-11.145600
▁損な	-11.145816
▁造物	-11.146058
SL	-11.146136
会議	-11.146263
▁尊敬	-11.146435
▁遺伝	-11.146892
▁ヒトラー	-11.147278
▁平安	-11.147404
降	-11.147460
▁なあ	-11.147653
救い	-11.147712
▁本部	-11.147875
トラック	-11.148167
▁ヒ	-11.148216
▁購入	-11.148452
偉力	-11.148690
▁亡く	-11.148829
買う	-11.149203
オン	-11.149260
▁枝	-11.149369
▁イサク	-11.149680
審	-11.150094
▁タイプ	-11.150213
▁説得	-11.151051
▁ペンテコステ	-11.151069
▁違いない	-11.151407
ネットワーク	-11.151629
各	-11.151667
アナ	-11.152022
住まい	-11.152042
構わ	-11.152152
▁大胆	-11.152409
勤	-11.152802
▁仮	-11.153109
▁規定	-11.153323
▁会長	-11.153799
me	-11.153871
▁学べる	-11.153913
なれ	-11.154105
▁牧者	-11.154227
▁膨大	-11.154248
不可能	-11.154302
▁皮	-11.154387
▁訪れる	-11.154452
トリ	-11.154485
ps	-11.154623
▁あー	-11.154844
変わり	-11.154877
▁ダンス	-11.155068
標	-11.155074
独特	-11.156083
▁まさしく	-11.156379
フォルト	-11.156590
▁150	-11.156848
コンピュータ	-11.156919
▁いわば	-11.156953
土地	-11.156982
▁当て	-11.157093
ジェクト	-11.157345
▁ウィル	-11.157771
以外の	-11.157869
復活	-11.158779
▁観光	-11.158859
▁1990	-11.159004
▁侵入	-11.159730
ミス	-11.159916
何と	-11.160119
まり	-11.160261
打	-11.160325
分析	-11.160475
▁試験	-11.160572
▁属し	-11.160765
縮	-11.161409
軽く	-11.161993
▁裁	-11.162292
ウィン	-11.162774
っぱり	-11.163283
▁絶望	-11.163496
次第	-11.164048
▁一員	-11.164653
▁招く	-11.164757
▁ベル	-11.165477
▁アイルランド	-11.166142
本気	-11.166235
価格	-11.166245
▁足り	-11.166322
働く	-11.166432
▁1,2)	-11.166576
するため	-11.167007
▁しかしながら	-11.167149
会え	-11.167576
▁除	-11.167635
セン	-11.167727
術	-11.167748
▁信用	-11.167799
障害	-11.168163
▁銘	-11.168300
慣れ	-11.168322
▁宝石	-11.168410
▁祝い	-11.168700
入ら	-11.169304
▁構造	-11.169400
避け	-11.169607
お話し	-11.169639
▁調子	-11.169880
▁1980	-11.170025
▁10,11	-11.170951
ジュ	-11.171376
サイト	-11.171909
▁とどま	-11.172709
▁タイ	-11.172824
▁防ぐ	-11.172830
▁及び	-11.173183
ation	-11.173334
▁子羊	-11.173372
ヘ	-11.174154
▁警備	-11.174366
解放	-11.174372
▁土台	-11.174403
るさ	-11.174427
▁不幸	-11.174604
▁ポルトガル	-11.174999
▁by	-11.175382
▁解釈	-11.175813
米国	-11.176200
▁公開	-11.176321
隠す	-11.176380
ひどい	-11.176453
▁わたり	-11.176633
パラ	-11.176755
尊	-11.176910
▁極端	-11.177173
利益	-11.177252
賞	-11.177516
▁激しく	-11.178412
▁臨	-11.178575
▁練習	-11.178725
▁進	-11.179255
ビジネス	-11.179314
▁クリス	-11.179401
▁用心	-11.179986
▁神様	-11.180240
▁落ち着け	-11.180275
▁多様	-11.180658
太	-11.180970
▁囲	-11.181037
一体	-11.181266
▁任	-11.181475
酸	-11.181744
▁走る	-11.181898
ペン	-11.181928
▁注解	-11.181938
▁業者	-11.181953
ベッド	-11.182085
▁11,12	-11.182832
懸	-11.183205
▁代理	-11.183232
)...	-11.183359
学習	-11.183359
▁孤立	-11.183456
▁誤解	-11.183549
▁ロック	-11.184122
支援	-11.184531
バイス	-11.184810
▁養	-11.185165
▁脱	-11.185184
混乱	-11.185388
▁タイム	-11.185389
ども	-11.185469
▁あきらめ	-11.185733
▁不可欠	-11.185852
▁授業	-11.185928
善	-11.186138
▁付き	-11.186151
▁ブ	-11.186186
繁	-11.186255
▁おかし	-11.186472
ルート	-11.186724
▁th	-11.186745
▁勇敢	-11.186818
▁賞	-11.187133
▁邪	-11.187157
▁接する	-11.187192
運命	-11.187344
途中	-11.187480
もん	-11.187504
▁尊重	-11.187506
説	-11.187527
基	-11.187541
▁いくら	-11.187807
▁i	-11.187935
ボックス	-11.188060
願い	-11.188250
承	-11.188848
扱い	-11.188942
買い	-11.189032
▁御	-11.189572
▁著名	-11.189896
▁光景	-11.189966
▁育てる	-11.190181
▁メディア	-11.190330
被害	-11.190637
次元	-11.190804
ともに	-11.190991
クトル	-11.191298
▁名称	-11.191471
▁席	-11.191730
▁ダン	-11.191913
18	-11.191932
▁戦う	-11.192286
▁保た	-11.192358
じゃん	-11.192487
殺害	-11.192592
▁倒れ	-11.192698
御心	-11.193135
▁有し	-11.193257
空間	-11.193298
▁柔和	-11.193536
気づ	-11.193542
▁眠り	-11.193563
軸	-11.194124
ドイツ	-11.194246
▁聞こえる	-11.194307
このような	-11.194450
▁not	-11.194741
▁進め	-11.194795
▁従わ	-11.194961
▁バン	-11.194997
爆発	-11.195422
▁天的	-11.196127
ダン	-11.196154
▁栽培	-11.196210
ディー	-11.196636
▁致	-11.196781
最近	-11.196826
袋	-11.197029
務め	-11.197276
性を	-11.197448
▁領域	-11.197639
異	-11.197756
モン	-11.197846
70	-11.197957
▁創	-11.198035
▁119	-11.198057
▁加える	-11.198547
送る	-11.198702
▁狂	-11.198713
▁殺害	-11.199021
▁モ	-11.199156
▁塔	-11.199333
▁経営	-11.199712
▁ニック	-11.199867
▁負け	-11.199980
▁造	-11.200526
▁板	-11.200587
▁死人	-11.200861
▁暗	-11.201018
困難	-11.201175
▁築く	-11.201324
▁並	-11.201365
ビン	-11.201394
▁ウィリアム	-11.201542
▁警戒	-11.201549
リス	-11.201613
▁ワールド	-11.201743
平均	-11.202053
バージョン	-11.202557
具体	-11.203036
▁当たる	-11.203285
要る	-11.203388
▁キー	-11.203415
▁前途	-11.203749
▁服従	-11.203794
▁衣	-11.204741
▁結構	-11.204857
▁ポーランド	-11.205030
▁チャールズ	-11.205043
▁スイス	-11.205601
▁税	-11.205736
▁そっ	-11.206334
▁全き	-11.206385
あっ	-11.206424
備え	-11.206855
▁割礼	-11.206882
ニア	-11.207405
失う	-11.207440
an	-11.207500
▁見出し	-11.207804
▁打ち	-11.207981
▁発達	-11.208258
飲む	-11.208298
参照	-11.208363
▁翼	-11.208372
寄	-11.208528
▁端	-11.208578
▁要する	-11.208588
▁販売	-11.208965
楽しい	-11.209112
ネル	-11.209618
回り	-11.209725
ロボット	-11.209937
コール	-11.210041
▁たび	-11.210665
▁気づく	-11.210828
▁ナイジェリア	-11.210841
▁プロジェクト	-11.211321
▁後日	-11.211739
ヌ	-11.211881
ーヒーム	-11.212229
▁秒	-11.212462
▁衝撃	-11.212579
▁左右	-11.213067
証人	-11.213096
▁含	-11.213180
▁ほ	-11.213449
働き	-11.213474
落	-11.213657
強	-11.214043
▁む	-11.214127
▁イスラ	-11.214373
制御	-11.214379
不当	-11.214828
裁判	-11.214857
▁存続	-11.215006
▁老	-11.215075
id	-11.215293
▁マー	-11.215321
▁がち	-11.215554
負け	-11.215709
▁紛争	-11.215786
ルール	-11.215809
▁場面	-11.216099
潜	-11.216265
19	-11.216413
▁幼児	-11.216423
時期	-11.216888
双方	-11.216936
▁話し合	-11.217226
済み	-11.217360
▁フィリピン	-11.217993
▁行なえ	-11.218151
▁矛盾	-11.218231
▁進展	-11.218248
if	-11.218255
費	-11.218289
述べ	-11.218340
▁向かい	-11.218510
▁書く	-11.218574
動か	-11.218999
▁ジャーナル	-11.219158
モード	-11.219265
▁女王	-11.219674
油	-11.219769
▁飲酒	-11.219905
0.	-11.220277
▁強国	-11.220407
▁樹木	-11.220724
▁DNA	-11.220748
学ぶ	-11.221334
収	-11.221558
ずつ	-11.221724
に与え	-11.221922
▁修道	-11.221950
皮	-11.222381
▁2000	-11.222486
,3	-11.222628
いっぱい	-11.222775
現場	-11.223645
▁食料	-11.223708
▁尽くし	-11.224422
クター	-11.224818
奪	-11.224846
▁学習	-11.225767
▁怒	-11.225794
▁育	-11.226032
同様	-11.226076
▁味	-11.226537
少なく	-11.226671
せば	-11.226781
▁幅	-11.227163
邪悪	-11.227224
▁本文	-11.227252
▁底	-11.227465
至	-11.227634
▁起こす	-11.227824
▁安息	-11.227944
▁中絶	-11.228462
雄	-11.228893
規則	-11.228951
追跡	-11.228966
▁サービス	-11.229161
▁精	-11.229468
兵士	-11.229983
滞	-11.230763
▁シュ	-11.231342
▁べ	-11.231459
▁順	-11.231463
▁要因	-11.231791
▁穀物	-11.232277
▁発作	-11.232486
圧倒	-11.232856
ファン	-11.232944
青	-11.233250
▁荒野	-11.233545
▁見倣う	-11.233647
▁my	-11.233836
読む	-11.233843
▁スター	-11.234194
▁マーク	-11.234259
っけ	-11.234378
▁取り除	-11.234428
用意	-11.234602
指示	-11.235237
恐怖	-11.235342
▁急げ	-11.235402
▁支払い	-11.235677
乗り	-11.235725
節	-11.235924
▁昼	-11.236012
▁速く	-11.236077
ノード	-11.236400
事態	-11.236497
▁珍しい	-11.236777
▁カール	-11.237240
▁12,13	-11.237469
かって	-11.237610
故意	-11.237674
Z	-11.237787
仮	-11.237928
沢山	-11.238132
トラ	-11.238361
▁向かう	-11.238434
▁増し	-11.238892
レー	-11.239152
検査	-11.239228
いまし	-11.239730
についての	-11.239983
▁来たる	-11.240100
▁価格	-11.240116
▁交わる	-11.240140
▁移住	-11.240759
厳しい	-11.240849
▁絶	-11.241108
▁振り返	-11.241199
▁汝ら	-11.241248
援	-11.241337
▁テロ	-11.241362
▁泣き	-11.241852
▁倣う	-11.241888
置き	-11.242380
▁新しく	-11.242574
▁明るい	-11.242807
▁満たし	-11.242852
▁成し遂げる	-11.242893
▁負担	-11.242990
▁サル	-11.243054
▁文明	-11.243320
▁次第	-11.243353
90	-11.243662
▁母さん	-11.243853
▁破	-11.244394
▁憎む	-11.244422
サーバ	-11.245471
▁25)	-11.245769
繰り返し	-11.246420
覧	-11.246469
祈る	-11.246722
表示する	-11.246731
▁給	-11.246817
すでに	-11.246854
尉	-11.247174
疑問	-11.247302
▁パーティー	-11.247541
ゲ	-11.247591
▁後悔	-11.247931
消し	-11.248007
▁テーブル	-11.248029
施設	-11.248213
▁荷物	-11.248505
▁信念	-11.248566
▁落胆	-11.248725
▁出来る	-11.248733
平	-11.249125
▁内面	-11.249564
▁判	-11.249842
▁ロー	-11.249866
▁清め	-11.250408
▁都	-11.250413
▁シー	-11.250982
進化	-11.251104
▁ヤツ	-11.251176
▁同僚	-11.251205
也	-11.251745
▁首尾	-11.251771
▁ラン	-11.251823
パターン	-11.251945
待ち	-11.252076
ite	-11.253320
▁それなら	-11.253643
▁気候	-11.253827
▁自国	-11.253969
▁遂	-11.254102
テロ	-11.254533
▁児	-11.255035
▁診断	-11.255067
▁ハン	-11.255071
順	-11.255119
羊	-11.255866
80	-11.256091
版	-11.256739
モジュ	-11.256777
▁原	-11.257351
▁ポ	-11.257380
戦う	-11.257497
維持	-11.257532
撮	-11.257771
▁高価	-11.257812
ヒー	-11.257846
関心	-11.257886
動く	-11.258412
行列	-11.258576
▁野菜	-11.258927
ひとり	-11.259269
▁セックス	-11.259304
以内	-11.259400
▁カナン	-11.259542
▁見分ける	-11.259868
▁ホール	-11.260099
▁疾患	-11.260396
▁野獣	-11.260696
治	-11.260943
進む	-11.261094
怖い	-11.261419
▁就	-11.261930
もちろん	-11.262206
▁炭素	-11.262892
▁ござ	-11.263290
▁ファラオ	-11.263649
▁知らせる	-11.263767
▁人体	-11.263850
▁沿	-11.264671
傷つけ	-11.264881
伝える	-11.265044
▁快楽	-11.265530
靴	-11.265797
オブ	-11.266170
誓う	-11.266338
▁我が	-11.266713
▁ロボット	-11.267001
▁火山	-11.267413
てこ	-11.267869
▁26)	-11.268595
▁カル	-11.268806
▁乾燥	-11.269353
▁驚か	-11.269692
▁掃除	-11.270391
▁高度	-11.270621
▁果た	-11.270658
▁前もって	-11.270682
▁サイ	-11.270803
弱	-11.270837
▁そっち	-11.270935
▁飢きん	-11.271172
▁著述	-11.271175
構築	-11.271212
▁行状	-11.271454
▁争い	-11.271563
▁国立	-11.271564
契約	-11.271646
駅	-11.271646
▁加わる	-11.272010
org	-11.272042
▁祭壇	-11.272859
取っ	-11.273699
▁いただく	-11.273851
嬢	-11.273978
ur	-11.274244
なれる	-11.274573
理論	-11.274673
たれ	-11.274708
▁600	-11.274796
▁集める	-11.275420
一方	-11.275423
銀河	-11.275448
筋	-11.275670
ゼロ	-11.275733
文化	-11.275747
▁農	-11.275842
▁ニューズ	-11.276033
▁ウォルター	-11.276402
▁49	-11.276674
タル	-11.276729
▁家畜	-11.276935
▁勝る	-11.277406
下げ	-11.277451
▁処罰	-11.277471
選ぶ	-11.277595
▁虫	-11.277606
射	-11.277807
tional	-11.277900
歴	-11.278221
▁蛇	-11.278303
確信	-11.278347
▁シャ	-11.278437
課	-11.278482
岩	-11.278576
愛する	-11.279106
▁味わ	-11.279388
生産	-11.279934
▁措置	-11.280203
▁処女	-11.280938
▁補	-11.281069
▁レッド	-11.281219
▁表紙	-11.281260
▁we	-11.281478
無事	-11.281514
ンドウ	-11.281532
is	-11.281610
▁あたり	-11.281785
▁半数	-11.281849
▁支える	-11.281885
認め	-11.281915
▁衝突	-11.282668
徳	-11.282949
心臓	-11.283123
禁じ	-11.283250
休	-11.283942
▁遠	-11.284048
▁犯	-11.284376
縁	-11.284694
売り	-11.284953
▁現象	-11.285293
▁築き上げる	-11.286016
少ない	-11.286288
ボス	-11.286363
唱	-11.286366
▁見いださ	-11.286452
▁備える	-11.286490
▁探す	-11.287268
▁昆虫	-11.287284
▁15,16	-11.287580
囲	-11.287590
違いない	-11.287623
タイム	-11.288118
▁獣	-11.288133
作業	-11.288298
▁変更	-11.288320
▁きずな	-11.288767
▁阻	-11.289339
▁靴	-11.289454
▁いっしょ	-11.289525
▁試し	-11.289657
選ば	-11.290229
▁以後	-11.290694
虚偽	-11.290805
探	-11.290820
▁前進	-11.290836
起きる	-11.291728
▁ナチ	-11.291840
なされ	-11.291869
挨	-11.291939
止める	-11.292280
▁ひと	-11.292357
当然	-11.292426
▁表わ	-11.292547
▁太平洋	-11.292645
離	-11.292719
予測	-11.292747
メータ	-11.293487
▁弱	-11.293618
立場	-11.293707
感覚	-11.293721
任務	-11.293893
サジ	-11.294089
▁46	-11.294244
死体	-11.294467
すら	-11.294844
▁形態	-11.295190
▁要	-11.295341
はっきり	-11.295606
比べ	-11.295691
直接	-11.296072
▁g	-11.296389
▁退屈	-11.296446
長さ	-11.296490
▁走り	-11.296893
▁見舞	-11.296900
▁インタビュー	-11.297443
まったく	-11.297832
▁発電	-11.297849
マシン	-11.297865
▁持てる	-11.297967
無く	-11.298056
▁ショック	-11.298223
▁宿	-11.298290
▁信号	-11.298327
賢い	-11.298397
ヴァ	-11.298527
▁難民	-11.298976
尾	-11.298984
▁成	-11.299014
▁リチャード	-11.299178
標準	-11.299537
▁フィ	-11.299850
24	-11.299903
▁マラキ	-11.300605
▁寒	-11.300622
載	-11.300775
▁配	-11.300823
数学	-11.301409
過ぎる	-11.302050
▁寿命	-11.302277
遅く	-11.302428
▁豊富	-11.302435
▁忙しく	-11.302535
すね	-11.302630
才	-11.303111
▁マリファナ	-11.303554
▁お年寄り	-11.303565
ail	-11.304244
心霊	-11.304329
痛ましい	-11.304429
▁47	-11.304486
here	-11.304507
輪	-11.304533
▁難い	-11.304715
▁変わる	-11.304747
教師	-11.304985
優	-11.305016
▁判事	-11.305184
▁驚嘆	-11.305284
焼	-11.305690
▁強さ	-11.305898
権利	-11.305997
挙	-11.306040
▁開き	-11.306238
▁進み	-11.306278
出来事	-11.306351
▁防	-11.306514
ぶん	-11.306563
差し	-11.306891
▁当てはめ	-11.306896
ar	-11.307232
▁免疫	-11.307364
報酬	-11.307366
爆弾	-11.307384
▁_	-11.307476
▁顕著	-11.307577
去る	-11.307891
四	-11.308043
バイ	-11.308088
▁署名	-11.308092
▁追い求める	-11.308209
撮影	-11.308362
ドン	-11.308743
ri	-11.309121
帳	-11.309430
▁救援	-11.309469
▁売春	-11.309670
乱	-11.309682
▁基	-11.310005
緑	-11.310131
会話	-11.310305
切っ	-11.310541
担当	-11.310727
▁建造	-11.310781
難	-11.310801
お父さん	-11.311049
▁逃げる	-11.311280
▁流し	-11.311386
主張	-11.311491
ヨ	-11.311496
▁杯	-11.311535
うね	-11.311949
裁	-11.312405
le	-11.313220
title	-11.313248
ブロック	-11.313326
みのり	-11.313395
▁試合	-11.313464
実現	-11.313475
▁慣行	-11.314097
国民	-11.314109
炎	-11.314202
少	-11.314748
驚	-11.314812
誓	-11.315047
▁書き記	-11.315070
▁受け取り	-11.315144
ry	-11.315346
市民	-11.315379
参	-11.315440
渡す	-11.315576
飛	-11.315728
科学者	-11.315882
見ま	-11.316152
豊か	-11.316297
▁老人	-11.316421
▁広範	-11.316449
▁図書	-11.316558
▁やり方	-11.316665
▁広大	-11.316673
巨	-11.316815
el	-11.316869
▁立証	-11.317176
▁アッシリア	-11.317414
▁苦しむ	-11.317439
▁庭	-11.317448
▁残る	-11.317517
▁見捨て	-11.317853
訓練	-11.318406
悔	-11.318501
▁51	-11.319000
,4	-11.319169
ID	-11.319372
バッグ	-11.319519
拶	-11.319986
ちょうだい	-11.320007
係	-11.320097
RS	-11.320182
▁工業	-11.320841
祖先	-11.321244
中国	-11.321638
▁結ぶ	-11.321894
資金	-11.321985
きれい	-11.322140
▁サーバ	-11.322537
▁載	-11.322694
▁燃える	-11.322779
▁日付	-11.322989
▁予言	-11.323005
自体	-11.323053
大きさ	-11.323217
▁ゼカリヤ	-11.323286
▁接し	-11.323400
▁谷	-11.323563
▁go	-11.323684
▁ビジネス	-11.323908
精	-11.324038
出かけ	-11.324072
▁迷信	-11.324114
匹	-11.324147
授業	-11.324241
▁馬鹿	-11.324320
目標	-11.324538
▁占	-11.324614
▁糖	-11.325536
いだ	-11.325667
▁材料	-11.325998
▁果たして	-11.326127
▁望ましい	-11.326261
▁袋	-11.326572
原子	-11.326660
▁1960	-11.327003
規模	-11.327109
▁おか	-11.327465
▁排斥	-11.327652
it	-11.327663
校	-11.327699
▁頼み	-11.327736
▁法則	-11.327755
▁おも	-11.327792
やあ	-11.327829
▁彼等	-11.327841
筈	-11.327864
▁指針	-11.327880
▁細か	-11.328161
▁高齢	-11.328362
▁経過	-11.328463
応	-11.328534
如何	-11.328651
雪	-11.328691
▁バチカン	-11.328760
▁お話し	-11.328855
置く	-11.329175
崇拝	-11.329221
▁吟味	-11.329843
▁課	-11.330102
コーヒー	-11.330236
▁ルー	-11.330420
▁休暇	-11.330434
砲	-11.330654
掟	-11.330835
▁差別	-11.330840
何時	-11.331788
続き	-11.331838
▁古	-11.332026
▁k	-11.332068
▁退	-11.332175
軽	-11.332597
呼び出	-11.332800
▁遣わ	-11.332928
々に	-11.333965
▁ぐらい	-11.334113
化学	-11.334223
▁翌日	-11.334260
ケン	-11.334496
▁明	-11.334509
▁帯	-11.334538
チン	-11.334836
▁じっ	-11.335164
特に	-11.335498
つい	-11.336250
▁顧み	-11.336476
ホール	-11.336601
▁9,10)	-11.336743
▁バランス	-11.336747
映	-11.336802
▁受け継	-11.336868
▁時点	-11.336963
▁資産	-11.337210
▁降	-11.337461
続く	-11.337619
▁全面	-11.337656
▁会え	-11.337914
▁離れる	-11.337926
ゆ	-11.338122
惑星	-11.338190
▁設定	-11.338544
▁別れ	-11.338562
学び	-11.338572
▁現われる	-11.338761
シア	-11.339334
遊び	-11.339365
騙	-11.339797
200	-11.339914
▁ゴ	-11.339978
払う	-11.339979
挙げ	-11.340319
フォード	-11.340696
▁ヤ	-11.340795
▁交換	-11.340798
▁〔	-11.340901
▁沿岸	-11.341215
▁抑制	-11.341602
沢	-11.341653
se	-11.341770
▁治める	-11.341997
神経	-11.342206
▁加わり	-11.342337
▁蓄え	-11.342761
議	-11.342977
ケース	-11.343197
▁訴える	-11.343223
▁運ぶ	-11.343280
地図	-11.343291
禁止	-11.343399
▁抱える	-11.343437
▁ニ	-11.343467
▁腰	-11.343596
▁基準	-11.343801
▁体内	-11.343818
▁字	-11.343925
▁年老い	-11.344181
▁通過	-11.344276
尿	-11.344397
氷	-11.344435
正直	-11.344539
▁丸	-11.344574
抜き	-11.344858
卵	-11.345334
設計	-11.345446
選び	-11.345521
規	-11.345567
▁泥	-11.345608
▁分別	-11.345914
作戦	-11.345950
▁過ち	-11.346077
▁吸収	-11.346178
空気	-11.346253
▁由来	-11.346642
▁暗い	-11.347135
雲	-11.347371
▁引く	-11.347435
▁担当	-11.347946
▁理	-11.348110
▁国境	-11.348192
▁ミス	-11.348323
アルゴリズム	-11.348493
夫人	-11.348516
▁去	-11.348717
ll	-11.348902
ave	-11.349162
▁ネヘミヤ	-11.349311
▁聖職	-11.349429
拘	-11.349538
題	-11.350238
▁コンピュータ	-11.350272
▁27)	-11.350466
練習	-11.350722
回復	-11.350727
▁負債	-11.350873
▁自著	-11.350886
▁もろ	-11.351238
クラブ	-11.351354
▁辛抱強く	-11.351895
損	-11.352049
上がり	-11.352292
程度	-11.352332
幕	-11.352391
▁温度	-11.352519
▁辛抱強さ	-11.352589
振り	-11.352954
向こう	-11.353371
期限	-11.353559
耐え	-11.353939
▁問い	-11.354610
特	-11.354687
手術	-11.355004
▁清潔	-11.355039
▁体験	-11.355430
▁区別	-11.355489
▁あずか	-11.355567
試合	-11.355774
暴	-11.355854
▁ケ	-11.355949
▁追い求め	-11.356061
▁丘	-11.356222
17	-11.356382
▁バイ	-11.356600
城	-11.356716
替	-11.356999
公正	-11.357059
▁1975	-11.357092
▁忠告	-11.357376
▁セント	-11.357531
縦	-11.357717
赤ちゃん	-11.357839
認識	-11.357900
▁脚	-11.357937
▁海洋	-11.357977
適用	-11.357985
国際	-11.358048
▁嘆き	-11.358353
▁逃れる	-11.358377
▁おいしい	-11.358680
▁唱える	-11.358712
▁取引	-11.358904
▁衛星	-11.359025
▁難	-11.359320
▁孫	-11.359720
一杯	-11.359923
▁赤い	-11.360168
ンズ	-11.360170
議員	-11.360337
37	-11.360342
▁敬	-11.360419
▁トイレ	-11.360646
,10	-11.360818
医療	-11.360857
分子	-11.360949
▁スピード	-11.361097
▁快く	-11.361234
印刷	-11.361900
いたわ	-11.362097
▁亡くなり	-11.362185
レクトリ	-11.362283
▁取り入れる	-11.362368
社長	-11.362453
わせ	-11.362638
掴	-11.363079
もね	-11.363145
集中	-11.363313
掛ける	-11.363563
▁追放	-11.364655
▁盛	-11.364719
▁運ば	-11.365050
上げる	-11.365526
抜	-11.365849
▁バクテリア	-11.366495
▁苦悩	-11.366753
札	-11.367099
幾	-11.367206
▁痛	-11.367338
ティング	-11.367398
痛み	-11.367464
価	-11.367546
慎	-11.368001
▁優しく	-11.368170
詩	-11.368176
最悪	-11.368293
請	-11.368358
▁当てはまる	-11.368381
工場	-11.368593
▁飛	-11.368834
ッツ	-11.369376
▁案内	-11.369514
▁オリーブ	-11.369581
▁伴い	-11.369693
の間で	-11.369769
▁励ま	-11.369771
問	-11.369930
▁ようやく	-11.370040
失礼	-11.370261
因	-11.370677
▁罪深い	-11.370779
▁挙げる	-11.370982
ナン	-11.371208
▁祝	-11.371250
史	-11.371250
▁賢く	-11.371624
▁説教	-11.371648
de	-11.371791
▁忘れる	-11.372066
▁勧める	-11.372102
▁異議	-11.372192
▁アレックス	-11.372483
機会	-11.372683
▁ゆか	-11.372812
▁週末	-11.373038
初	-11.373358
甦	-11.373373
交換	-11.373385
酸化	-11.373523
▁返	-11.373769
▁作品	-11.373957
終え	-11.374017
▁気遣	-11.374033
▁__________	-11.374400
あちこち	-11.374408
ブラ	-11.374887
▁成人	-11.374967
500	-11.375430
▁珍し	-11.375553
どっ	-11.376051
オー	-11.376055
▁抑え	-11.376206
育	-11.376311
▁とらえ	-11.376467
変わる	-11.376578
注目	-11.376722
▁うわさ	-11.376869
通じ	-11.377505
くあ	-11.377582
イブラ	-11.377595
増え	-11.377839
講	-11.378009
▁現金	-11.378016
▁e	-11.378019
一生	-11.378040
▁飛ぶ	-11.378324
ユ	-11.378774
おけ	-11.378867
▁もらえ	-11.378998
更に	-11.379718
始まる	-11.380119
プル	-11.380231
▁巻き込	-11.380275
▁美しく	-11.380374
被	-11.380478
▁上り	-11.380887
▁エンジン	-11.381327
▁半ば	-11.381618
▁注	-11.381697
容疑	-11.381888
▁17,18	-11.382439
▁階段	-11.382740
意見	-11.383075
しっかり	-11.383281
するための	-11.383507
▁欠陥	-11.383521
▁過ぎ越し	-11.383799
▁努める	-11.383830
▁ミスター	-11.383957
▁おれ	-11.384093
▁ジェ	-11.384339
▁着ける	-11.384579
▁好む	-11.384807
密接	-11.384814
補助	-11.385249
婦	-11.385584
驚く	-11.385998
▁No	-11.386294
▁資源	-11.386606
生きる	-11.387095
速く	-11.387713
司	-11.388054
▁弱さ	-11.388153
▁ビール	-11.388186
侵入	-11.388216
天気	-11.388278
▁示せ	-11.388330
▁メイ	-11.388414
聞こえる	-11.388524
慎重	-11.388601
スク	-11.388824
労働	-11.389286
部隊	-11.389286
集団	-11.389362
単に	-11.390124
▁つなが	-11.390690
満	-11.390761
▁上回る	-11.390769
休み	-11.390862
▁住所	-11.391004
▁交わ	-11.391017
感染	-11.391391
いたい	-11.391544
▁31)	-11.391627
▁来い	-11.391932
▁do	-11.392165
▁み手	-11.392435
▁最低	-11.392444
教授	-11.392480
▁それどころか	-11.392799
いきま	-11.392842
▁わきまえ	-11.393169
リーダー	-11.393314
▁歩き	-11.393397
▁清く	-11.393517
時点	-11.393619
▁それゆえに	-11.393690
▁勝手	-11.393983
化する	-11.393985
▁休	-11.394008
▁沢山	-11.394306
▁迎える	-11.394427
▁特性	-11.394528
欧	-11.394551
▁慎み	-11.394792
▁べく	-11.394968
▁住宅	-11.395203
インド	-11.395370
メディア	-11.395953
留意	-11.396292
▁類似	-11.396678
興味深い	-11.396781
▁旧	-11.396886
▁ブラック	-11.396992
▁矯正	-11.397199
疑い	-11.397299
払い	-11.397442
ァ	-11.397834
▁味わう	-11.397944
悲し	-11.398918
エンジン	-11.398925
▁飛び	-11.399034
信号	-11.399037
▁ヘ	-11.399158
▁作物	-11.399267
▁粉	-11.399485
▁博物	-11.399584
▁介入	-11.399652
▁階級	-11.399872
▁遭う	-11.400067
,6	-11.400112
若者	-11.400200
宿	-11.400222
不安	-11.400347
▁黒い	-11.400456
超	-11.400565
スタ	-11.401025
センター	-11.401132
▁死刑	-11.401376
▁速	-11.401531
▁何と	-11.401618
▁キャ	-11.401873
▁Y	-11.401974
拡張	-11.402134
ほ	-11.402215
であれ	-11.402560
▁can	-11.402650
ローマ	-11.402827
▁拘	-11.403097
分布	-11.403449
▁複数	-11.403601
▁針	-11.403846
▁ハリー	-11.404736
▁辞典	-11.404916
▁需要	-11.405334
データベース	-11.405394
▁多少	-11.405423
et	-11.405442
▁討議	-11.405634
▁交友	-11.405996
▁生み出さ	-11.406084
▁予測	-11.406188
▁吸	-11.406215
うん	-11.406593
▁あいさつ	-11.406923
▁住まい	-11.406997
ぶり	-11.407214
ドウ	-11.407536
再生	-11.408118
▁対策	-11.408145
ート	-11.408693
▁係	-11.408928
▁ジャン	-11.409014
▁カイン	-11.409166
ハイ	-11.409509
▁倫理	-11.409570
▁布	-11.409718
▁傾ける	-11.409979
▁気が	-11.410066
付ける	-11.410121
ング	-11.410479
▁操	-11.410518
▁聴く	-11.410568
くり	-11.410749
▁けが	-11.410914
▁雰囲気	-11.411480
▁後半	-11.411632
▁宗派	-11.411654
▁チェック	-11.411661
比較	-11.411902
きれ	-11.412692
▁出身	-11.412893
▁富む	-11.412909
スパイ	-11.412935
▁3,4)	-11.413495
▁そのうえ	-11.413515
廃棄	-11.413658
各人	-11.414208
▁職員	-11.414251
操	-11.414297
▁ごとく	-11.414343
▁思い出さ	-11.414498
▁流刑	-11.414660
機関	-11.414969
遣わし	-11.415213
▁兆	-11.415345
▁えぇ	-11.415674
▁記者	-11.415785
解析	-11.416279
▁番号	-11.416326
▁ne	-11.416595
生成	-11.416842
えて	-11.416895
▁投資	-11.416919
体験	-11.417227
亡くな	-11.417228
ラス	-11.417520
▁乗客	-11.417907
▁言い表わし	-11.418087
▁強化	-11.418252
▁戸口	-11.418481
▁120	-11.418751
危機	-11.419592
を越え	-11.420034
▁べし	-11.420097
▁空港	-11.420362
ゴン	-11.420397
かし	-11.421185
▁象	-11.421251
総	-11.421354
椅子	-11.421777
使える	-11.421779
▁頼り	-11.421885
▁are	-11.421915
▁ごみ	-11.422233
▁捨てる	-11.422315
同意	-11.422336
▁ホーム	-11.422614
▁トンネル	-11.422955
ニング	-11.423733
投	-11.423791
▁覚える	-11.423891
▁焦点	-11.424601
▁大好き	-11.425598
▁植	-11.425934
サイン	-11.426054
フリー	-11.426073
47	-11.426397
▁位	-11.426544
▁促し	-11.426613
te	-11.426939
リスク	-11.426965
持つ	-11.427095
▁寝る	-11.427421
を開	-11.427434
▁既	-11.427513
▁低く	-11.427952
▁33)	-11.428151
たって	-11.428329
しむ	-11.428697
ハー	-11.428809
▁会場	-11.428870
▁作成	-11.429045
▁商品	-11.429157
▁コロンビア	-11.429230
鉄	-11.429332
▁外見	-11.429365
▁ネット	-11.429517
魔術	-11.429562
早い	-11.430101
ころ	-11.430293
施し	-11.430650
▁ねたみ	-11.430872
▁アンド	-11.430946
jp	-11.431231
▁陰	-11.431296
▁デザイン	-11.431512
▁喜ぶ	-11.431544
▁切手	-11.431573
オフィス	-11.431693
訪ね	-11.431903
抱	-11.432022
▁倣	-11.432191
ンス	-11.432402
まあ	-11.432586
回し	-11.432787
警備	-11.432855
の意見	-11.433157
▁欠如	-11.433651
労	-11.433900
ジョ	-11.434031
▁ネズミ	-11.434174
▁魔術	-11.434419
▁ロト	-11.434476
▁告げる	-11.434628
おかしい	-11.434757
両方	-11.434850
▁面倒	-11.434886
▁以内	-11.434921
▁作家	-11.434999
ヌー	-11.435661
q	-11.435745
数値	-11.435844
▁早い	-11.435912
章	-11.436093
祝福	-11.436202
▁本来	-11.436307
でし	-11.436673
▁赤ん坊	-11.437108
▁服し	-11.437856
ダイ	-11.438202
▁転	-11.438250
育て	-11.438473
義務	-11.438746
▁闘う	-11.438854
▁引っ越し	-11.438913
▁アパート	-11.439655
▁確固	-11.439681
暴力	-11.439787
領	-11.440533
イオ	-11.440562
▁チ	-11.440606
大いなる	-11.440687
▁小冊子	-11.440777
▁児童	-11.440787
つけろ	-11.440844
▁各自	-11.441128
▁28,29	-11.441501
▁論理	-11.441581
英文	-11.441849
▁温か	-11.442039
▁1919	-11.442142
まれる	-11.442258
▁渡し	-11.442444
近づ	-11.442594
▁チャーリー	-11.442946
▁72	-11.443008
▁すぐれ	-11.443076
▁影	-11.443347
ええ	-11.443352
爆	-11.443402
深	-11.443581
安定	-11.444114
▁進行	-11.444163
com	-11.444175
岸	-11.444907
▁乗せ	-11.445039
取れ	-11.445124
▁禁令	-11.445235
▁歓び	-11.445623
▁敵意	-11.445643
▁有用	-11.445908
ごろ	-11.445943
料	-11.446455
ATO	-11.446555
▁値段	-11.446757
▁ゆ	-11.447224
▁掲げ	-11.447286
ケーキ	-11.447454
ゾ	-11.447469
玉	-11.447579
歩く	-11.447755
どのような	-11.447772
きり	-11.447998
▁カン	-11.448022
トゥ	-11.448213
▁耐える	-11.448311
プロセス	-11.448585
▁盲目	-11.448812
▁負う	-11.448845
デル	-11.448919
▁花嫁	-11.449049
▁典型	-11.449398
▁マク	-11.449403
▁no	-11.449410
▁外部	-11.449435
▁周辺	-11.449487
▁企て	-11.450238
▁アンナ	-11.450510
▁エン	-11.450624
▁情	-11.451010
▁辛抱	-11.451159
まさに	-11.451236
▁ビタミン	-11.451388
▁アテネ	-11.451766
▁高める	-11.451938
自己	-11.452140
▁都合	-11.452556
ハン	-11.452690
▁思い煩い	-11.452813
刻	-11.452847
▁伝達	-11.453306
整	-11.453452
カット	-11.453574
勝手	-11.453796
向かう	-11.454719
ドー	-11.455036
オレ	-11.455229
捜し	-11.455379
さい	-11.455491
申し上げ	-11.455604
アウト	-11.455613
▁司	-11.455884
▁18,19	-11.456105
手が	-11.456369
▁情勢	-11.456405
▁かわいい	-11.456443
タイ	-11.456972
対処	-11.457082
▁ファン	-11.457147
▁意義	-11.457269
範囲	-11.457314
▁歌う	-11.457425
▁築	-11.457772
ジミー	-11.457892
デート	-11.457914
▁余分	-11.457976
▁上げる	-11.458218
事務	-11.458392
▁1973	-11.458714
活	-11.458849
どおり	-11.459259
ad	-11.459478
▁司法	-11.459555
2)	-11.459776
戸	-11.459851
▁終わらせ	-11.459873
▁動作	-11.459896
▁テープ	-11.460643
▁Go	-11.461150
▁飲み物	-11.461432
▁仏教	-11.461432
食べ物	-11.461679
ルーム	-11.462147
遺伝子	-11.462368
▁追求	-11.462379
▁with	-11.462396
納	-11.462425
▁頻	-11.462430
▁小麦	-11.463406
▁実例	-11.463591
▁ガリラヤ	-11.463786
▁待ち望	-11.464245
劇的	-11.464274
新た	-11.464321
▁いちばん	-11.464520
ニューヨーク	-11.464547
奇妙	-11.464566
相談	-11.464567
忘れる	-11.464958
▁ヒンズー	-11.465002
▁学ば	-11.465306
▁ティ	-11.465352
刊	-11.465424
▁題	-11.465481
▁循環	-11.465635
うる	-11.465776
らわ	-11.466107
欲	-11.466317
▁放送	-11.466849
養	-11.467343
▁疫病	-11.467640
▁29)	-11.467714
▁ラッセル	-11.467792
忙しい	-11.467969
態度	-11.468099
ウェル	-11.468122
コンピューター	-11.468240
つつ	-11.468399
休憩	-11.468903
買	-11.469085
配列	-11.469337
内部	-11.469572
従い	-11.469760
落とし	-11.469939
安心	-11.469962
こっ	-11.470111
▁動揺	-11.470174
回転	-11.470177
煙	-11.470287
始	-11.470335
▁ボ	-11.470366
▁適当	-11.470517
▁議会	-11.470552
▁兵	-11.470608
正義	-11.470724
▁まとめ	-11.470816
▁生ずる	-11.471210
ダンス	-11.471547
▁20,21	-11.471748
お母さん	-11.472076
果	-11.472388
▁毎月	-11.472398
▁喜ばせ	-11.472477
▁対立	-11.472945
化し	-11.473231
ファー	-11.473682
CIA	-11.473733
単位	-11.473879
▁ボート	-11.474240
▁畏	-11.474266
▁表示	-11.474769
▁湾	-11.475108
赦	-11.475600
▁捕まえ	-11.475651
▁コード	-11.475667
▁回転	-11.475797
▁器官	-11.476028
▁同誌	-11.476040
ダイア	-11.476603
▁指定	-11.476694
▁惜しみなく	-11.476884
▁交	-11.476985
老齢	-11.477210
更新	-11.477366
考え方	-11.477548
防	-11.478136
▁駆	-11.478376
▁依頼	-11.478613
持た	-11.478735
▁テーマ	-11.478796
んでも	-11.479295
▁助長	-11.479371
ちま	-11.479519
▁誘拐	-11.479607
制限	-11.479677
▁役立	-11.479917
稼	-11.480259
▁神話	-11.480743
ind	-11.480813
面倒	-11.480838
YO	-11.480983
▁かわい	-11.480993
曹	-11.481437
▁郵便	-11.481816
▁意欲	-11.481989
▁翌	-11.482055
出身	-11.482315
衛	-11.482387
▁思想	-11.482470
▁ボール	-11.482850
なくなり	-11.482876
フェ	-11.483199
▁微	-11.483225
▁韓国	-11.483364
▁糸	-11.484241
初期	-11.484245
帽子	-11.484361
▁越え	-11.484568
行わ	-11.484760
,7	-11.485188
湾	-11.485458
▁話し方	-11.485472
指導	-11.485564
▁おめでとう	-11.485620
▁航海	-11.485862
堅	-11.486117
国家	-11.486244
製品	-11.486412
▁島々	-11.487019
戻す	-11.487168
▁おそれ	-11.487256
▁暴行	-11.487461
なあ	-11.487776
死亡	-11.487841
▁成績	-11.488436
▁ねぇ	-11.488775
恐れる	-11.488855
▁振り	-11.488918
▁見張	-11.489072
▁v	-11.489081
▁登	-11.489164
ミン	-11.489178
ガキ	-11.489727
▁読ま	-11.490114
共通	-11.490209
▁接続	-11.490237
▁報	-11.490302
佐	-11.491269
新聞	-11.491285
▁ケン	-11.491426
▁民数記	-11.491700
庭	-11.491922
党	-11.492049
タグ	-11.492247
▁思い出	-11.492366
▁持ち物	-11.492499
夕食	-11.492637
▁1945	-11.493217
まじめ	-11.493258
資産	-11.493731
増加	-11.493738
▁評	-11.494235
▁配慮	-11.494796
修正	-11.495008
誇り	-11.495028
▁スーパー	-11.495293
▁植え	-11.495464
▁落とし	-11.495601
▁おいで	-11.495748
▁派遣	-11.495799
▁小さく	-11.496031
▁箱船	-11.496655
アス	-11.496755
▁埋葬	-11.496825
▁篇	-11.496839
▁責務	-11.497079
叫	-11.497190
暗号	-11.497295
ホーム	-11.497318
応じ	-11.497371
▁定める	-11.497522
▁シリア	-11.497565
文書	-11.497611
▁尊厳	-11.498426
▁ひそ	-11.498484
▁大声	-11.498512
柱	-11.498804
▁話題	-11.499139
▁慣れ	-11.499228
▁照らし	-11.499563
いただき	-11.499717
▁きっかけ	-11.499832
一部	-11.499958
細	-11.500513
▁キャンプ	-11.500784
▁OF	-11.500915
to	-11.501234
▁八	-11.501594
▁引き寄せ	-11.501650
▁見分け	-11.501738
まとめ	-11.501901
そり	-11.501925
▁凶	-11.502192
▁輸送	-11.502325
▁くびき	-11.502424
▁よか	-11.502615
誤	-11.502658
気だ	-11.503217
▁つながり	-11.503483
▁採用	-11.503767
▁広める	-11.504002
そば	-11.504336
災	-11.504336
教える	-11.504369
イメージ	-11.504434
服従	-11.504584
巻	-11.504694
▁エステル	-11.504771
▁訴訟	-11.505116
▁ガソリン	-11.505273
尽くし	-11.505373
▁再生	-11.505755
▁1974	-11.505825
それらの	-11.506042
▁裁く	-11.506097
▁イザ	-11.506371
壊	-11.506394
誓い	-11.506517
▁操作	-11.506798
▁沈	-11.507090
▁実在	-11.507291
撃つ	-11.507515
了	-11.507639
案内	-11.508214
建て	-11.508456
信心	-11.508689
▁すみ	-11.508821
▁和	-11.508912
▁キャロル	-11.508977
ah	-11.509131
仮定	-11.509284
う者	-11.509530
写	-11.509542
本物	-11.509798
▁み業	-11.509977
柄	-11.510430
苦労	-11.510447
▁休み	-11.510571
▁怖い	-11.510711
コース	-11.510713
▁笑い	-11.510802
▁出血	-11.511212
▁申し出	-11.511692
▁ペット	-11.511871
進め	-11.512042
▁とどめ	-11.512136
尻	-11.512846
▁アラン	-11.513000
▁泣	-11.513061
▁味わい	-11.513356
▁減らす	-11.513373
▁おもちゃ	-11.513394
▁パラ	-11.513658
そういう	-11.513738
▁背中	-11.513740
▁幼	-11.513825
▁あわれみ	-11.513969
だらけ	-11.514142
不足	-11.514196
▁Z	-11.514300
▁申命	-11.514324
匂い	-11.514463
▁養う	-11.514516
低い	-11.514567
妙	-11.515172
才能	-11.515276
▁滅ぼす	-11.515480
▁宛	-11.515644
バル	-11.515656
▁イメージ	-11.515769
▁イヤ	-11.516078
▁買い物	-11.516149
優先	-11.516665
茶	-11.516747
荷	-11.516776
丸	-11.517038
▁コー	-11.517329
まして	-11.517775
▁幾百	-11.518032
▁著者	-11.518231
22	-11.518399
▁基盤	-11.518461
出会	-11.518530
ウェイ	-11.518602
通し	-11.518879
▁建てる	-11.518884
構成	-11.518956
ir	-11.518960
テキサス	-11.519024
▁TRAN	-11.519027
配置	-11.519038
▁燃え	-11.519877
聞かせ	-11.520003
▁闘争	-11.520128
▁ラザロ	-11.520159
イツ	-11.520166
▁歌い	-11.520519
▁城壁	-11.520600
列車	-11.520671
▁呼びかけ	-11.520746
籍	-11.521003
乏	-11.521179
調べる	-11.521256
▁頑張	-11.521297
▁デービッド	-11.521420
加減	-11.521618
▁給料	-11.521662
ta	-11.521854
アリ	-11.522559
▁商売	-11.522619
道路	-11.522895
を認め	-11.523046
スクリプト	-11.523067
▁すむ	-11.523108
作用	-11.523240
▁ハワイ	-11.523836
▁不利	-11.523838
▁恩恵	-11.523965
▁執筆	-11.524295
壊れ	-11.524359
▁会員	-11.524583
トル	-11.524700
▁教え手	-11.524801
▁お持ち	-11.524803
存	-11.525060
▁1972	-11.525118
ビア	-11.525145
具合	-11.525169
ぇ	-11.525232
▁胃	-11.525263
着く	-11.525292
アイ	-11.525592
試し	-11.525640
▁かんする	-11.525760
▁宣	-11.525770
表す	-11.526352
▁ネットワーク	-11.526804
▁上っ	-11.526946
▁ほっ	-11.527020
▁洗	-11.527094
十	-11.527137
▁連盟	-11.527522
▁苦労	-11.527689
十分に	-11.528505
対象	-11.528708
▁軍勢	-11.528710
▁圏	-11.528898
ズボン	-11.529061
▁読書	-11.529214
▁恥	-11.529670
▁マン	-11.529886
法律	-11.529928
創り	-11.529994
記号	-11.529997
具	-11.531087
▁抑える	-11.531519
▁1985	-11.531606
▁タクシー	-11.531606
繋が	-11.531803
意志	-11.531898
脚	-11.531947
▁マルタ	-11.532541
報い	-11.532630
されること	-11.532763
▁中東	-11.532888
通信	-11.532969
▁文字どおり	-11.533529
包	-11.533576
キャン	-11.533643
▁党	-11.533957
Pro	-11.534152
▁工事	-11.534266
▁陛下	-11.534746
▁敬う	-11.534952
▁抗議	-11.535044
避難	-11.535164
する必要がある	-11.535252
▁退ける	-11.535336
▁脅し	-11.535659
▁啓発	-11.536051
▁マックス	-11.536065
▁鉄道	-11.536101
医師	-11.536109
有能	-11.536126
メンバー	-11.536150
▁闘	-11.536409
まるで	-11.536507
▁r	-11.536651
とけ	-11.537076
▁チャンス	-11.537088
起こす	-11.537097
託	-11.537216
ネス	-11.537484
ogle	-11.537680
▁七つ	-11.537750
遣わ	-11.537938
気付	-11.538046
▁pro	-11.538098
クリスチャン	-11.538524
フィンチ	-11.538621
の選択	-11.538915
▁塵	-11.538957
▁絆	-11.538994
▁コミュニケーション	-11.539030
るために	-11.539065
リース	-11.539563
大型	-11.539597
謙虚	-11.539705
カウント	-11.539762
▁吸う	-11.539786
越し	-11.539819
▁ごらん	-11.540002
▁内側	-11.540025
▁腐	-11.540265
道具	-11.540692
泥	-11.540996
▁バック	-11.541316
▁入院	-11.541545
おき	-11.541665
▁励ます	-11.541847
×	-11.542027
に適	-11.542131
守護	-11.542336
▁同士	-11.542471
▁来た	-11.542472
▁勢い	-11.542745
▁働き人	-11.542803
▁テモ	-11.543393
▁責め	-11.543600
▁バル	-11.543721
▁寛容	-11.544023
▁喜ばせる	-11.544181
▁災厄	-11.544536
▁才能	-11.544658
鏡	-11.544708
課題	-11.544746
▁終了	-11.544769
魅力	-11.544786
ポンド	-11.544871
▁快適	-11.545079
短	-11.545100
▁詳しい	-11.545266
神聖	-11.545436
ムハン	-11.545520
▁名誉	-11.545859
▁厳しく	-11.545923
いろいろ	-11.545985
複数	-11.546219
▁真っ	-11.546240
▁ハンナ	-11.546512
暗く	-11.546930
▁よろしく	-11.546935
▁フェ	-11.547171
▁途	-11.547194
羽	-11.547271
▁本質	-11.547426
▁人権	-11.547551
難し	-11.547647
発表	-11.547736
▁使え	-11.547744
▁違反	-11.548007
午後	-11.548497
▁話し手	-11.548503
ッチ	-11.548848
布	-11.549161
▁ネ	-11.549307
▁ボク	-11.549324
▁自覚	-11.549354
▁クロ	-11.549694
西暦	-11.549736
イベント	-11.549816
▁土壌	-11.550083
殴	-11.550097
▁黄色	-11.550129
ぼう	-11.550408
調子	-11.550936
金持ち	-11.550954
艦	-11.551254
36	-11.551846
▁至ら	-11.551940
▁検索	-11.552381
マル	-11.552829
▁誠	-11.552926
▁年月	-11.553124
インスト	-11.553180
▁復しゅう	-11.553247
老	-11.553342
盤	-11.553361
▁見いだせ	-11.553541
▁あずかり	-11.553585
家庭	-11.553764
,17	-11.553770
づけ	-11.553774
▁無知	-11.553965
ンジョ	-11.554455
▁輝く	-11.554638
スペース	-11.555031
▁比喩	-11.555107
▁st	-11.555269
けれど	-11.555507
▁ワイン	-11.555537
衣	-11.555798
▁果物	-11.555810
冗談	-11.556012
▁曲	-11.556109
埋め	-11.556207
兵器	-11.556339
▁ピラト	-11.556494
▁オーストリア	-11.556567
詰め	-11.556642
▁射	-11.556712
▁54	-11.557252
▁図る	-11.557595
困	-11.557601
完成	-11.557767
▁税金	-11.558080
迷惑	-11.558135
泊	-11.558145
▁サー	-11.558208
▁発明	-11.558366
招待	-11.558404
DNA	-11.558535
腐	-11.558562
まる	-11.558723
明白	-11.558730
▁異端	-11.558912
乗る	-11.559035
能	-11.559202
▁貸し	-11.559217
▁狭い	-11.560032
▁オリンピック	-11.560136
▁えー	-11.560335
残る	-11.560359
▁そもそも	-11.560741
厳	-11.560931
▁伝説	-11.561043
伝	-11.561082
予想	-11.561098
ルカ	-11.561291
割り	-11.561377
▁霊性	-11.561410
引く	-11.561809
偏	-11.562172
▁52	-11.562208
しき	-11.562382
ご覧	-11.562416
▁立た	-11.563169
の理由	-11.563558
▁将軍	-11.564119
▁小屋	-11.564215
▁トロント	-11.564322
ヴ	-11.564521
▁投	-11.564545
▁追跡	-11.564624
▁問いかけ	-11.564644
知らず	-11.564679
結構	-11.564889
コスト	-11.565033
,12	-11.565195
タウン	-11.565502
▁22,23	-11.565534
li	-11.565824
▁停止	-11.565973
味方	-11.566029
▁アベル	-11.566076
▁単位	-11.566548
受け取	-11.566682
▁祖母	-11.566996
▁滞	-11.567000
▁欠点	-11.567047
菌	-11.567329
炉	-11.567417
▁妥協	-11.567481
一瞬	-11.567756
姉	-11.568009
▁黙示	-11.568165
▁ヨ	-11.568273
▁吹き	-11.568288
関連	-11.568517
窮	-11.568617
▁棒	-11.568893
超え	-11.569010
▁郵	-11.569093
▁懸念	-11.569127
と同	-11.569376
▁こたえ応じ	-11.569462
▁著作	-11.569609
分野	-11.569766
▁展示	-11.570662
▁捧げ物	-11.570681
▁葬式	-11.571378
ゲン	-11.571598
属する	-11.571630
▁ご主人	-11.571795
▁悩み	-11.571904
▁舞台	-11.572174
▁立ち向かう	-11.572274
ig	-11.572439
▁衝動	-11.572445
翻訳	-11.572534
消費	-11.572553
▁香	-11.572719
▁眼	-11.572900
事業	-11.573069
下る	-11.573077
くせ	-11.573369
抱え	-11.573665
ラックス	-11.573803
▁食卓	-11.574065
同士	-11.574190
▁罪悪	-11.574619
thon	-11.574730
セント	-11.574949
概念	-11.575137
起こり	-11.575146
決める	-11.575389
うな	-11.575469
自殺	-11.575524
恐ろしい	-11.575604
▁取り除く	-11.576120
▁800	-11.576149
▁軒	-11.576201
満ち	-11.576276
帰っ	-11.576340
ジャー	-11.576439
さら	-11.576517
▁陸	-11.576593
直し	-11.576627
▁エラー	-11.576913
▁一団	-11.577078
▁合う	-11.577104
▁完了	-11.577561
糸	-11.577623
▁新約	-11.577661
誘拐	-11.577668
特徴	-11.577682
商品	-11.577705
▁権限	-11.577719
▁決	-11.577977
▁ボブ	-11.578123
▁ウィン	-11.578694
オフ	-11.578842
確保	-11.578972
▁サウロ	-11.579499
革命	-11.580276
▁チャ	-11.580467
ガール	-11.580482
保証	-11.580587
気づき	-11.580639
▁輪	-11.580721
▁24,25	-11.580726
▁バリー	-11.580895
▁駅	-11.581361
▁なんとか	-11.581525
▁設備	-11.581527
調整	-11.581583
杯	-11.581635
たね	-11.581799
▁7,000	-11.582009
免	-11.582155
▁促	-11.582634
ステップ	-11.582843
▁砂糖	-11.583058
を参照	-11.583115
径	-11.583175
もらえる	-11.583466
偽り	-11.583560
▁尾	-11.583584
スタイル	-11.584120
人口	-11.584602
▁配下	-11.584756
▁伝染	-11.585192
東京	-11.585251
▁秋	-11.585375
残し	-11.585407
燃料	-11.585441
公開	-11.585525
低	-11.585545
現代	-11.585588
▁一掃	-11.585876
▁節約	-11.585976
▁処	-11.586001
ブック	-11.586158
ローン	-11.586561
2001	-11.586677
プレート	-11.586801
▁テキスト	-11.587172
うわ	-11.587648
▁冷たい	-11.587852
履	-11.588023
販売	-11.588037
▁寂し	-11.588119
ヨハネ	-11.588130
ルー	-11.588317
テル	-11.588340
たび	-11.588773
錠	-11.589221
▁めった	-11.589254
▁扉	-11.589370
を含む	-11.589690
▁リン	-11.589769
▁生来	-11.589861
▁田舎	-11.589863
▁テロリスト	-11.589956
▁ナイフ	-11.590018
▁去る	-11.590155
弱い	-11.590753
名の	-11.591101
初め	-11.591288
▁特異	-11.591816
▁うる	-11.591938
握	-11.591986
説得	-11.592051
▁占める	-11.592125
粒子	-11.592191
しながら	-11.592629
▁53	-11.592682
いくら	-11.592743
ロシア	-11.592813
▁返事	-11.593179
場で	-11.593187
▁何十	-11.593633
電気	-11.593794
▁費やす	-11.594193
ラム	-11.594383
▁使える	-11.594417
やがて	-11.594463
▁有利	-11.594515
導く	-11.594602
▁トニー	-11.594798
▁捜し	-11.594839
覆	-11.595002
▁身分	-11.595234
▁sh	-11.595345
▁借金	-11.595392
騒ぎ	-11.595837
ww	-11.596092
コー	-11.596499
モノ	-11.596790
▁とどまり	-11.597225
セックス	-11.597236
no	-11.597441
▁免れ	-11.597778
バーグ	-11.597802
▁負傷	-11.598042
▁ち	-11.598062
▁家事	-11.598409
不思議	-11.598497
扱う	-11.598574
ネー	-11.598643
愚か	-11.598746
ビス	-11.598889
▁発揮	-11.599032
▁びっくり	-11.599715
▁東洋	-11.599904
識	-11.600163
▁境遇	-11.600329
▁返し	-11.600828
▁欺	-11.600886
▁山々	-11.601259
▁もらえる	-11.601347
45	-11.601550
旨	-11.602437
▁奥	-11.602543
ワイン	-11.602609
1%	-11.602739
他人	-11.603055
▁ゼパニヤ	-11.603177
▁詐欺	-11.603309
▁書き送	-11.603339
ra	-11.603367
,0	-11.603528
消化	-11.603755
▁習わし	-11.603917
強力	-11.604070
▁そろ	-11.604179
クロ	-11.604880
nu	-11.605102
演奏	-11.605144
潰	-11.605218
▁残虐	-11.605798
▁関与	-11.606042
ヌス	-11.606195
▁不平	-11.606308
殿	-11.606472
▁臣民	-11.606524
▁売	-11.606568
▁奪	-11.606591
届	-11.606830
▁差し伸べる	-11.606903
光る	-11.607466
婦人	-11.607526
スターク	-11.607626
発明	-11.607881
▁泥棒	-11.607964
勝ち	-11.608052
▁運び	-11.608991
容易	-11.609104
りに	-11.609114
奥	-11.609667
▁女子	-11.609824
ソース	-11.610234
know	-11.610406
帰依	-11.610497
▁1976	-11.610560
トー	-11.610745
立証	-11.610839
ユース	-11.611031
▁暮らす	-11.611094
▁平気	-11.611356
▁バラ	-11.611481
▁最小	-11.611501
選手	-11.611504
▁容疑	-11.611609
涙	-11.611724
芸術	-11.611734
呼吸	-11.611765
▁株	-11.611962
▁ペテ	-11.612447
奉	-11.612589
▁模様	-11.612806
▁測定	-11.612886
▁広げ	-11.613042
乗せ	-11.613061
浴	-11.613137
▁無線	-11.613302
▁リットル	-11.613338
▁かえって	-11.613346
通常	-11.613461
らに	-11.613708
▁地的	-11.613847
▁ホルモン	-11.613980
▁美術	-11.614347
きみ	-11.614640
▁インディアン	-11.614750
小さく	-11.615129
▁もてなし	-11.615172
▁おっと	-11.615262
▁政権	-11.615281
▁促す	-11.615499
質問を	-11.615578
▁とがめ	-11.615628
シャー	-11.615727
現象	-11.615786
▁充	-11.615855
決ま	-11.615922
tion	-11.615942
▁必死	-11.616006
▁同国	-11.616160
得意	-11.616225
▁温かい	-11.616527
▁嵐	-11.616569
▁打ち砕	-11.616729
▁苦しい	-11.616819
▁太	-11.616982
喚	-11.617063
▁おやすみ	-11.617629
警部	-11.617718
商	-11.617789
▁普	-11.617797
知れない	-11.617880
·	-11.618350
▁コントロール	-11.618396
パティ	-11.618548
▁拒	-11.618734
リオ	-11.619548
▁刻	-11.619644
わし	-11.619696
樹	-11.619699
切る	-11.620046
▁懐	-11.620053
ava	-11.620403
▁(2)	-11.620646
▁話せ	-11.620780
▁繁殖	-11.620872
,8	-11.620901
▁比	-11.620996
▁ジョ	-11.621631
▁猫	-11.621665
▁焼	-11.621940
アプリケーション	-11.622439
供給	-11.622457
平安	-11.622489
▁観測	-11.622713
▁深さ	-11.622745
▁デンマーク	-11.622762
▁結合	-11.623113
▁話しかけ	-11.623507
▁虐殺	-11.624029
▁アロン	-11.624227
▁鋭い	-11.624290
▁季節	-11.624423
議会	-11.624600
ゴール	-11.624617
住所	-11.624830
起こし	-11.624996
戻れ	-11.625023
▁損なう	-11.625057
鳴	-11.625378
合わ	-11.625381
▁繊維	-11.625813
▁注射	-11.625867
▁工	-11.625908
▁マリー	-11.625971
,11	-11.626070
▁一杯	-11.626162
大人	-11.626279
▁(19	-11.626355
▁主婦	-11.626599
▁部門	-11.626602
▁名声	-11.626640
デー	-11.626678
▁血管	-11.627098
ba	-11.627340
確	-11.627361
思い起	-11.627430
▁時刻	-11.627775
▁決ま	-11.627804
拡大	-11.627923
苦	-11.628022
▁五つ	-11.628675
▁66	-11.628731
▁縛	-11.628800
▁ギ	-11.628897
▁朗読	-11.628983
▁理性	-11.629212
▁境界	-11.629467
▁お茶	-11.629774
▁審判	-11.629856
▁知り合い	-11.630061
▁がたい	-11.630127
▁しだい	-11.630166
▁並べ	-11.630469
▁議員	-11.630602
恋	-11.630656
▁細菌	-11.630826
▁霊者	-11.630864
▁そろそろ	-11.630882
▁役人	-11.631112
ゼル	-11.631158
▁祭	-11.631325
▁1971	-11.631362
▁21,22	-11.631371
▁ハバクク	-11.631658
▁短く	-11.631816
→	-11.631909
興奮	-11.631919
▁視力	-11.631960
▁品物	-11.632185
▁トルコ	-11.632649
▁減	-11.632659
▁張り	-11.632808
▁特集	-11.632999
▁テ	-11.633166
逃げる	-11.633229
ジャック	-11.633295
殺せ	-11.633409
▁一言	-11.633425
別れ	-11.633849
▁レストラン	-11.633931
ter	-11.634275
▁プ	-11.634608
猶	-11.634625
▁新鮮	-11.635093
▁跡	-11.635407
止ま	-11.635504
▁散	-11.635564
にもかかわらず	-11.635956
発展	-11.636031
▁下さ	-11.636095
背く	-11.636242
▁冠	-11.636736
▁エチオピア	-11.636763
▁帯び	-11.637187
▁捕	-11.637713
女王	-11.637859
▁及	-11.637874
▁To	-11.638099
▁ID	-11.638632
冬	-11.638738
▁広め	-11.638741
合計	-11.638758
▁たたえ	-11.639408
マイ	-11.639493
見な	-11.639721
▁観点	-11.639732
ion	-11.639941
署名	-11.640239
▁憲法	-11.640512
▁カエサル	-11.640730
▁まれ	-11.640884
▁辺	-11.641212
▁体力	-11.641326
▁損害	-11.641426
偶然	-11.641497
▁柱	-11.641550
▁込め	-11.641569
着き	-11.641584
ース	-11.641685
ho	-11.641716
替え	-11.642574
▁触	-11.642578
,14	-11.642599
推測	-11.642862
テーマ	-11.642879
▁要約	-11.642923
込め	-11.643010
会える	-11.643017
▁けんか	-11.643188
集ま	-11.643503
肩	-11.644215
ギリシャ	-11.644238
▁捕らえ	-11.644344
▁驚異	-11.645033
誦	-11.645140
▁よみがえら	-11.645249
武	-11.645576
鼻	-11.645602
▁焼き	-11.645706
▁化石	-11.645795
ウッド	-11.646514
ドレス	-11.646846
▁時折	-11.646984
周	-11.646989
シェ	-11.647191
ライド	-11.647294
▁回り	-11.647470
ジョー	-11.647481
液	-11.647511
▁ブロ	-11.647791
区	-11.647943
ボード	-11.648253
ようこそ	-11.648314
異常	-11.648456
▁シン	-11.648485
ake	-11.648524
▁皮肉	-11.648769
グラム	-11.648842
▁ユ	-11.648861
▁そし	-11.649158
▁チョウ	-11.649327
▁欺き	-11.649434
▁貿易	-11.649435
▁百	-11.649497
レル	-11.649628
ウイルス	-11.649724
滴	-11.649738
▁備わ	-11.649801
▁下り	-11.649944
▁粘土	-11.650143
▁ボー	-11.650646
づ	-11.651042
統計	-11.651161
卒業	-11.651172
▁放射	-11.651240
ーナ	-11.651302
▁無限	-11.651363
情報が	-11.651970
足り	-11.651977
▁ノ	-11.652505
桁	-11.652510
展開	-11.652528
公園	-11.652653
▁全般	-11.652657
▁異性	-11.653321
▁突き	-11.653330
▁アモス	-11.653371
▁ヨルダン	-11.653434
▁利点	-11.653445
▁ルート	-11.653794
▁数十	-11.653847
ニック	-11.653924
否定	-11.653937
▁空間	-11.653984
▁拡張	-11.654147
▁パンフレット	-11.654200
▁欠か	-11.654240
届け	-11.654663
怪	-11.654829
シャツ	-11.655016
▁母乳	-11.655023
我慢	-11.655393
▁30)	-11.655462
▁広	-11.655493
らしく	-11.655508
▁And	-11.655579
▁スタイル	-11.655602
臭い	-11.655887
▁con	-11.656190
▁投げ	-11.656293
▁どんどん	-11.656497
▁閉じ込め	-11.656628
依頼	-11.656696
▁鮮	-11.657186
▁形式	-11.657393
▁61	-11.657405
記入	-11.657513
▁努めて	-11.657646
▁エド	-11.657660
▁増	-11.657719
▁75	-11.657771
▁乗る	-11.657781
▁uni	-11.657899
▁乾	-11.658041
▁幹	-11.658312
▁シドニー	-11.658894
▁物資	-11.658905
▁西洋	-11.658987
署	-11.659322
第一	-11.659397
小説	-11.659557
権限	-11.659719
▁召	-11.660231
▁陥り	-11.660345
▁屋	-11.660447
外国	-11.660490
▁フォル	-11.660589
list	-11.660608
砂	-11.660826
っぽ	-11.661269
行ける	-11.661291
▁フリー	-11.661447
▁予約	-11.661549
▁パー	-11.661572
済	-11.661876
そのまま	-11.662025
▁拷問	-11.662107
▁19,20)	-11.662245
ジェット	-11.662348
見せる	-11.662457
▁全土	-11.662650
▁エズラ	-11.662696
▁講じ	-11.663032
▁終	-11.663426
▁ハロルド	-11.663511
考慮	-11.663687
▁ペン	-11.664234
電子	-11.664546
▁政策	-11.664599
▁流血	-11.664746
▁暗号	-11.664885
おそらく	-11.665090
権威	-11.665115
盛	-11.665129
▁負わ	-11.665308
さあ	-11.665313
曲線	-11.665374
▁実体	-11.665394
▁登録	-11.665689
綺	-11.665720
▁楽器	-11.665768
▁断言	-11.665878
マシ	-11.665961
▁無力	-11.666476
▁ジ	-11.666535
仲	-11.666833
含め	-11.666923
▁憂うつ	-11.667109
▁忙しい	-11.667723
▁商	-11.667839
▁処分	-11.667854
▁毎	-11.668151
大会	-11.668185
tell	-11.668244
▁知れ	-11.668787
▁広ま	-11.668873
▁なんら	-11.669058
▁so	-11.669539
▁装飾	-11.669595
ッシュ	-11.669782
▁レース	-11.670473
うれしい	-11.670486
▁1989	-11.670543
候補	-11.670728
支持	-11.670871
痛い	-11.670940
開き	-11.671009
旦	-11.671279
▁結びつ	-11.671350
ger	-11.671542
定数	-11.671547
ばい	-11.671612
▁スパイ	-11.671979
▁暴露	-11.672029
▁液体	-11.672047
▁損失	-11.672720
▁改め	-11.672857
▁申	-11.673514
ヨーロッパ	-11.673557
っぽい	-11.674258
▁苦しめ	-11.674428
モンド	-11.674431
句	-11.674541
▁食い	-11.674674
非難	-11.674792
▁汚	-11.674839
テクノロジー	-11.674973
一般	-11.675110
ケット	-11.675214
▁整	-11.675217
▁パターン	-11.675232
▁選挙	-11.675327
▁撮影	-11.675389
▁見張り	-11.675426
▁ヴァ	-11.675564
▁アラビア	-11.675895
ボート	-11.676200
グル	-11.676284
副	-11.676410
▁祝う	-11.676726
惨め	-11.676938
▁1983	-11.676990
▁アア	-11.677175
プラ	-11.677444
高さ	-11.677514
▁文献	-11.677961
▁到達	-11.678055
後悔	-11.678246
▁合わせる	-11.678271
▁廉直	-11.678274
▁祈願	-11.678340
▁軌道	-11.678603
▁憎	-11.678819
▁打ち明け	-11.678955
数え	-11.679007
▁あらし	-11.679260
出せる	-11.679281
恵	-11.680149
▁クラブ	-11.680175
比	-11.680533
▁猛	-11.680721
▁商人	-11.681162
迷う	-11.681179
▁34)	-11.681689
チェ	-11.682012
▁35)	-11.682031
閉め	-11.682100
キャ	-11.682323
苦し	-11.682384
流れる	-11.683397
ハウス	-11.683540
▁オリバ	-11.683568
観測	-11.683588
吸	-11.683657
かす	-11.684115
▁徳	-11.684354
いずれ	-11.684522
観察	-11.684564
as	-11.684884
▁正す	-11.684916
駄目	-11.685025
▁課題	-11.685040
▁He	-11.685138
▁要点	-11.685392
▁ラビ	-11.685656
▁集	-11.686090
ごめん	-11.686189
▁満	-11.686203
軌道	-11.686421
▁ひざ	-11.686511
サル	-11.686588
年齢	-11.686596
▁ホセア	-11.686800
ふう	-11.687015
▁軽い	-11.687031
ざ	-11.687074
ナイフ	-11.687429
どうも	-11.687591
屈	-11.687620
sh	-11.687694
▁気付	-11.687699
ッキー	-11.687756
支払い	-11.687811
脅威	-11.687837
植物	-11.687973
▁覆う	-11.688126
奥さん	-11.688143
パイ	-11.688169
▁覚	-11.688247
▁山脈	-11.689027
折	-11.689090
購入	-11.689290
千万	-11.689447
ント	-11.689480
▁へりくだ	-11.689558
▁1991	-11.689648
0)	-11.689719
出席	-11.690247
捧げ	-11.690443
広げ	-11.690641
組み合わせ	-11.690804
企	-11.690814
▁キャリー	-11.690950
▁嫌悪	-11.690999
パーティ	-11.690999
すばらしい	-11.691047
思考	-11.691206
慈悲深い	-11.691230
▁正し	-11.691640
っきり	-11.691750
ドラ	-11.691810
▁手引き	-11.691894
▁推測	-11.691981
修理	-11.692204
▁ケイ	-11.692219
▁キス	-11.692225
ラリ	-11.692245
▁思い出す	-11.692441
▁正教会	-11.692513
くちゃ	-11.692733
▁修道院	-11.693192
▁ケース	-11.693342
▁参考	-11.693489
掃除	-11.693605
スタン	-11.694227
▁気温	-11.694457
ッカー	-11.694619
▁an	-11.694891
▁十字架	-11.694912
見よ	-11.694914
▁応	-11.695145
▁トリ	-11.695210
▁姿勢	-11.695295
▁生え	-11.695319
▁バアル	-11.695340
▁頭痛	-11.695395
▁文脈	-11.695666
▁悟り	-11.695748
▁重さ	-11.695789
あんな	-11.695983
▁総督	-11.696069
どうし	-11.696264
▁据え	-11.696754
▁陥る	-11.696858
▁増す	-11.696865
キング	-11.697130
▁告発	-11.697195
抜く	-11.697309
▁関節	-11.697372
フォ	-11.697478
ずる	-11.697726
湖	-11.697957
評	-11.697979
▁様	-11.698313
▁閉じ	-11.698348
▁ギリシ	-11.698485
分割	-11.698564
▁明示	-11.698570
man	-11.699287
pos	-11.699454
▁増える	-11.699535
▁ヘロデ	-11.699563
多分	-11.699705
▁ベルリン	-11.700045
リック	-11.700109
独	-11.700425
パリ	-11.700527
▁生態	-11.700602
描き	-11.700660
▁設ける	-11.700754
ビット	-11.700762
▁お告げ	-11.700793
▁信徒	-11.701021
▁止ま	-11.701021
▁容認	-11.701039
▁教義	-11.701080
▁祖父	-11.701661
ワーク	-11.701843
35	-11.701948
▁会堂	-11.702474
▁出会い	-11.702577
▁信ずる	-11.702609
荷物	-11.702651
解く	-11.702667
ボン	-11.702687
行方	-11.702771
j	-11.703170
▁やぎ	-11.703229
unit	-11.703254
ルド	-11.703300
▁書類	-11.703376
網	-11.703743
ie	-11.703832
▁all	-11.703989
▁製作	-11.704228
▁故郷	-11.704252
そのもの	-11.704269
▁確かめる	-11.704271
▁香り	-11.704634
勝つ	-11.704673
ぼく	-11.704717
▁座り	-11.705013
▁正しさ	-11.705162
▁フィンランド	-11.705194
▁ナオミ	-11.705302
▁海老名	-11.705302
▁中傷	-11.705454
▁分かれ	-11.706061
▁浮	-11.706335
▁培	-11.706394
ゆく	-11.706620
コントロール	-11.706738
刺	-11.706823
閉	-11.706967
保持	-11.707171
針	-11.707252
ms	-11.707284
汝	-11.707450
戒	-11.707983
la	-11.708016
モー	-11.708076
ネズミ	-11.708167
▁単語	-11.708257
▁画	-11.708259
上昇	-11.708323
▁再建	-11.708387
くなり	-11.709153
950	-11.709208
▁14;	-11.709225
▁成し	-11.709558
▁悲	-11.709858
▁大衆	-11.709921
食い	-11.709971
国語	-11.710019
▁お気	-11.710260
▁飾り	-11.710458
▁マシン	-11.710510
麻薬	-11.711125
いえ	-11.711199
途	-11.711575
ight	-11.711593
▁抜け	-11.711747
チップ	-11.712152
ロンドン	-11.712301
▁価	-11.712539
最善	-11.712627
サンプル	-11.712651
3%	-11.712765
▁えさ	-11.712948
ant	-11.713121
ソー	-11.713325
▁善意	-11.713905
▁なぞらえ	-11.713997
挿入	-11.714059
高校	-11.714149
アパート	-11.714161
▁エリック	-11.714433
▁垂訓	-11.715447
クリスマス	-11.715544
▁一歩	-11.716120
等しく	-11.716130
▁アンタ	-11.716165
心な	-11.716450
▁恐る	-11.716808
▁満ちる	-11.716858
▁パートナー	-11.717079
▁遅い	-11.717315
扱	-11.717354
ロイド	-11.717381
食料	-11.717402
▁洗濯	-11.717709
現れる	-11.717900
▁黄金	-11.717977
▁倣い	-11.718389
誠	-11.718410
谷	-11.718548
ドゥ	-11.718604
▁天幕	-11.718718
含	-11.718947
▁インフレ	-11.718951
何者	-11.719023
間違え	-11.719461
▁張	-11.719622
▁屈し	-11.719827
あらかじめ	-11.719829
▁制定	-11.719916
中央	-11.720000
▁けど	-11.720160
増	-11.720395
呼びかけ	-11.720471
▁設置	-11.720910
▁探検	-11.721189
張	-11.721198
我が	-11.721497
解釈	-11.721533
▁帰宅	-11.721557
,500	-11.721572
言わせ	-11.721642
書類	-11.721910
滅	-11.722376
▁即	-11.722407
五	-11.722751
スーパー	-11.722965
選挙	-11.723001
ランダム	-11.723040
解明	-11.723617
雇	-11.723750
直面	-11.723775
いな	-11.723800
▁任せ	-11.723905
落ちる	-11.723972
▁エノク	-11.724225
▁1986	-11.724308
▁使命	-11.724334
不正	-11.725524
▁クマ	-11.725554
サイ	-11.725719
▁分離	-11.726050
▁同市	-11.726120
▁決まり	-11.726455
切り替え	-11.726518
▁有する	-11.726983
▁アルゼンチン	-11.727006
ヵ	-11.727169
やが	-11.727201
▁1978	-11.727281
徹	-11.727429
を用意	-11.727616
▁侮辱	-11.727916
▁裸	-11.728346
▁懇願	-11.728653
▁合意	-11.728870
読み込	-11.728909
▁友だち	-11.728917
依存	-11.728927
訪問	-11.728928
挑戦	-11.728938
違反	-11.729061
スティ	-11.729211
▁いろんな	-11.729288
▁帰還	-11.729317
▁布告	-11.729424
振	-11.730041
,16	-11.730057
▁金持ち	-11.730058
▁警部	-11.730099
▁専念	-11.730327
▁雇用	-11.730484
望ま	-11.730588
▁銀河	-11.730769
▁電力	-11.730805
▁気質	-11.730986
▁収める	-11.731195
▁1979	-11.731682
▁故	-11.732007
▁摂取	-11.732011
ton	-11.732134
▁率先	-11.732299
スコ	-11.732377
▁ふれ告げる	-11.732574
コス	-11.732575
▁おかしい	-11.732695
張り	-11.732729
▁我慢	-11.732735
まい	-11.732748
▁宿題	-11.732842
▁8,000	-11.732847
死者	-11.732982
触	-11.733335
▁聞け	-11.733509
ストン	-11.733815
▁ゴミ	-11.733982
つれ	-11.734049
平方	-11.734101
▁使者	-11.734756
▁和解	-11.734923
棚	-11.734934
マイナス	-11.734941
制度	-11.735396
やすく	-11.735666
▁発言	-11.735724
▁削除	-11.735814
遠い	-11.735985
ぷり	-11.736126
グリ	-11.736258
灯	-11.736399
▁実施	-11.736501
▁欲し	-11.736644
いいえ	-11.736651
mount	-11.736672
▁ダイヤモンド	-11.736808
空中	-11.737067
ex	-11.737499
▁欠	-11.737673
▁ドライバー	-11.737783
餌	-11.737952
舌	-11.737954
賛成	-11.738015
決断	-11.738031
過程	-11.738046
有意義	-11.738084
▁ほめ	-11.738127
▁印	-11.738602
▁恋愛	-11.738637
▁謎	-11.738640
レク	-11.738995
幹	-11.739467
血液	-11.739520
▁ライト	-11.739570
▁銅	-11.739913
▁水分	-11.740115
▁シカゴ	-11.740257
▁ポスト	-11.740400
栄光	-11.741009
薄	-11.741108
中止	-11.741224
メイン	-11.741461
ine	-11.741527
▁じ	-11.741796
▁圧制	-11.741893
▁みずから	-11.742022
32	-11.742080
▁築き上げ	-11.742567
▁朝食	-11.742611
もたらす	-11.742689
軍隊	-11.742719
プリ	-11.742752
礼	-11.742854
▁深	-11.742971
地下	-11.743027
▁プラスチック	-11.743614
パーセント	-11.744064
▁占い	-11.744743
▁取	-11.744828
▁指す	-11.744998
▁エリシャ	-11.745036
種々	-11.745051
▁見かけ	-11.745064
▁除去	-11.745385
ord	-11.745557
ncil	-11.745596
可愛	-11.745642
▁圧迫	-11.745852
▁賛成	-11.746110
▁US	-11.746298
▁領	-11.746346
▁育ち	-11.746432
奨励	-11.746522
ざる	-11.746838
診	-11.746965
▁いただける	-11.747183
知恵	-11.747315
▁110	-11.747350
▁笑	-11.747365
迅	-11.748016
▁大使	-11.748093
ch	-11.748116
▁ヴィ	-11.748139
▁唇	-11.748248
気付か	-11.748296
▁CD	-11.748350
▁いくらか	-11.748398
▁沈黙	-11.748648
▁ソドム	-11.749225
それとも	-11.749437
▁レクリエーション	-11.749524
▁不良	-11.749559
物事	-11.750048
ノン	-11.750054
▁著しい	-11.750222
仕方	-11.750386
驚き	-11.750452
タブ	-11.750505
オス	-11.750690
▁50%	-11.750814
藤	-11.751030
▁取り付け	-11.751036
去ら	-11.751147
なさ	-11.751404
▁差	-11.751735
いかが	-11.751894
▁滅ぼし	-11.752387
▁衰え	-11.752441
▁優秀	-11.752663
泉	-11.753214
br	-11.753264
▁離	-11.753390
▁服する	-11.753447
HT	-11.753728
▁更に	-11.754205
▁継続	-11.754419
75	-11.754454
▁履	-11.754500
▁プレゼント	-11.754566
▁条約	-11.754601
▁成分	-11.754627
しゃ	-11.754688
up	-11.754755
▁滅びる	-11.754946
▁神秘	-11.754979
まった	-11.755002
▁支払う	-11.755019
,13	-11.755164
遅い	-11.755185
▁取り戻	-11.756387
em	-11.756482
▁ウォール	-11.756774
クティブ	-11.756845
幽	-11.757070
裏切	-11.757075
do	-11.757552
▁まか	-11.757681
強盗	-11.757850
イス	-11.758122
フェル	-11.758154
訪れ	-11.758341
egion	-11.758384
すま	-11.758481
▁見いだせる	-11.758508
毎	-11.758585
紳士	-11.758608
▁競走	-11.758621
飛び	-11.758861
注	-11.758925
注文	-11.759077
立てる	-11.759219
保険	-11.759350
ニュー	-11.759477
▁サンゴ	-11.760179
訴	-11.760264
▁排	-11.760279
▁脱出	-11.760739
達成	-11.760771
▁ホー	-11.761502
▁火事	-11.761551
scription	-11.761687
▁グレ	-11.761930
効	-11.762093
贈り物	-11.762440
闘	-11.762485
結局	-11.762486
描く	-11.762793
▁伏せ	-11.762809
▁獲物	-11.762944
番組	-11.763113
▁標的	-11.763136
▁称号	-11.763183
▁仕組み	-11.763235
▁推論	-11.763241
▁疲労	-11.763394
営	-11.763494
▁1997	-11.763499
がいない	-11.763766
▁不明	-11.764076
▁腎臓	-11.764137
進歩	-11.764184
▁確率	-11.764258
▁作り出す	-11.764532
もしくは	-11.764542
スリム	-11.764723
復	-11.764990
▁録音	-11.765105
▁北極	-11.765107
▁著し	-11.765246
▁直前	-11.765527
戦闘	-11.765626
▁終える	-11.766068
▁ヒゼキヤ	-11.766242
world	-11.766272
▁\	-11.766935
▁重視	-11.767247
るための	-11.767359
▁It	-11.767421
性格	-11.767490
▁ケニア	-11.768007
▁オブ	-11.768224
直す	-11.768647
歓迎	-11.768654
改善	-11.768668
律法	-11.768709
設け	-11.768721
に合	-11.769042
▁発し	-11.769120
差し置	-11.769342
▁あたかも	-11.769460
▁用語	-11.769539
ヤン	-11.769924
▁観客	-11.770126
ボー	-11.770160
▁32)	-11.770240
パワー	-11.770242
善悪	-11.770491
登	-11.770507
▁職人	-11.770520
▁歓喜	-11.770959
インターネット	-11.770977
ショット	-11.771029
情報は	-11.771227
▁積ん	-11.771476
▁持ち主	-11.771507
▁拍	-11.771704
ッター	-11.771778
塩	-11.771783
▁ヘビ	-11.771891
▁アーサー	-11.772225
▁思い起こす	-11.772320
アウ	-11.772697
▁刈り取る	-11.772790
確かめ	-11.773003
▁映像	-11.773102
禁	-11.773132
▁家系	-11.773168
▁広がり	-11.773179
ひどく	-11.773325
▁池	-11.773450
ィ	-11.773875
究極	-11.773938
短い	-11.774112
カイ	-11.774158
▁粒子	-11.774331
▁上司	-11.774551
▁子宮	-11.774909
▁シオン	-11.774922
▁可	-11.775139
ご存	-11.775266
▁se	-11.775672
▁保障	-11.776029
枝	-11.776414
傾向	-11.776488
▁つながる	-11.776587
結合	-11.776634
▁踊り	-11.776650
▁繰り返す	-11.777121
ビール	-11.777130
▁ようこそ	-11.777821
デス	-11.777838
▁台所	-11.777869
同僚	-11.778098
▁カレン	-11.778174
守れ	-11.778224
▁マイ	-11.778295
▁中庭	-11.778413
▁投票	-11.778702
▁目覚め	-11.779000
▁輝かしい	-11.779059
▁婚約	-11.779125
▁炉	-11.779399
▁青い	-11.779467
▁待た	-11.779595
しばらく	-11.779629
ダウンロード	-11.779653
はじめ	-11.779733
追放	-11.779882
▁欽定	-11.780120
▁容器	-11.780173
攻	-11.780183
▁ルイス	-11.780668
▁as	-11.781112
▁モスクワ	-11.781217
▁病人	-11.781343
▁入力	-11.781399
▁ベトナム	-11.781422
put	-11.781872
▁長官	-11.782966
▁レオ	-11.783076
▁市内	-11.783229
ギー	-11.783240
イヤ	-11.783288
21	-11.783359
▁鉛	-11.783385
ぶっ	-11.783603
▁届	-11.783626
▁こたえ	-11.784066
キシ	-11.784199
ヴィ	-11.784265
公平	-11.784416
棄	-11.784451
▁うわ	-11.784882
本質	-11.784886
▁ぬぐ	-11.785051
▁1984	-11.785075
響	-11.785251
域	-11.785278
担	-11.785591
ike	-11.785642
▁安らぎ	-11.785893
塔	-11.785949
が可能	-11.786047
▁1995	-11.786398
来たら	-11.786538
▁ミサ	-11.786814
▁謝	-11.786902
one	-11.787043
▁ター	-11.787239
▁ホワイト	-11.787357
▁憂慮	-11.787437
▁平等	-11.787753
▁消し	-11.787966
color	-11.788054
▁腺	-11.788563
技	-11.788667
せろ	-11.788939
衝突	-11.789128
誠実	-11.789213
取り組	-11.789362
▁著	-11.789473
フル	-11.789591
▁1982	-11.789592
▁いったん	-11.789686
▁読み書き	-11.789753
易	-11.789840
練	-11.790091
可	-11.790314
冊	-11.790721
▁出現	-11.791254
ルズ	-11.791409
▁覆い	-11.791662
接触	-11.791877
▁タバコ	-11.791978
▁在	-11.792118
ヴォ	-11.792192
至上	-11.792224
姉妹	-11.792325
あそこ	-11.792411
▁真珠	-11.792446
▁抗	-11.792464
益	-11.792471
回る	-11.792570
be	-11.792781
▁1988	-11.792796
迷い	-11.792829
表面	-11.792830
▁夢中	-11.793160
ニス	-11.793241
スラム	-11.793815
▁集まる	-11.793920
欠	-11.794191
▁チーズ	-11.794365
▁行方	-11.794542
▁大西洋	-11.794678
▁独り子	-11.794905
▁生き延び	-11.794924
代表	-11.795267
ふり	-11.795319
パートナー	-11.795534
ほぼ	-11.795538
即座	-11.795883
近づく	-11.796035
▁事例	-11.796218
▁(1)	-11.796224
お話	-11.796234
▁携わり	-11.796862
▁もつ	-11.796926
▁終わらせる	-11.797060
om	-11.797191
▁ニュージーランド	-11.797269
▁鼓舞	-11.797373
▁祖父母	-11.797585
一時	-11.797757
▁弱く	-11.797850
km	-11.797938
▁輝き	-11.798090
▁実り	-11.798581
秘	-11.798583
寒	-11.798863
経路	-11.799013
▁族長	-11.799193
▁そそ	-11.799288
苦しみ	-11.799339
▁理知	-11.799348
▁ども	-11.799569
▁劇場	-11.799605
▁娼婦	-11.799804
略	-11.799819
▁動脈	-11.799835
委員会	-11.799961
▁女神	-11.800159
飯	-11.800307
虚し	-11.800340
ドライブ	-11.800448
クション	-11.800797
▁サッカー	-11.801037
▁6,7)	-11.801553
墓	-11.801687
▁受け取る	-11.801883
わずか	-11.801975
▁王座	-11.801988
やめろ	-11.801999
ぺ	-11.802080
話せる	-11.802114
▁ことごとく	-11.802138
コイン	-11.802364
人気	-11.802366
▁トーマ	-11.802645
わり	-11.802760
ALS	-11.802817
▁清さ	-11.803035
▁ぴったり	-11.803049
滅ぼ	-11.803214
▁スミス	-11.803220
噂	-11.803546
勿	-11.803717
▁果て	-11.803782
▁巻き物	-11.803951
費用	-11.804002
封	-11.804770
泣	-11.804786
▁クレア	-11.804923
▁やれ	-11.804996
或	-11.805163
▁切っ	-11.805222
ピン	-11.805359
フレンド	-11.805369
れん	-11.805593
▁縦	-11.805655
▁オレンジ	-11.805684
▁逃亡	-11.805740
▁バプテスト	-11.806212
▁地中海	-11.806282
▁劣	-11.806341
ue	-11.806479
labe	-11.806576
こういう	-11.806602
巣	-11.806742
筆	-11.806753
優秀	-11.806786
投票	-11.806790
返事	-11.807035
渡せ	-11.807104
▁HIV	-11.807344
,15	-11.807496
▁精力	-11.807878
スーツ	-11.807927
照	-11.807997
▁マイナス	-11.808111
▁恋	-11.808210
▁クレ	-11.808214
スピード	-11.808412
▁丁目	-11.808781
だら	-11.809190
▁出かける	-11.809264
▁是非	-11.809649
▁放出	-11.809747
口座	-11.809843
災厄	-11.810028
刺激	-11.810058
▁ロイ	-11.810061
▁もうけ	-11.810076
家畜	-11.810110
特定の	-11.810320
▁駄目	-11.810505
▁行事	-11.810546
ld	-11.811006
▁リサ	-11.811078
▁余儀	-11.811389
チョ	-11.811456
多量	-11.811624
』"	-11.811914
▁敏感	-11.812070
気味	-11.812160
▁止まれ	-11.812191
▁繰り返	-11.812500
▁イカ	-11.812671
▁就く	-11.812745
▁フロリダ	-11.812825
コート	-11.813110
班	-11.813272
▁荒	-11.813285
抵抗	-11.813285
産業	-11.813322
焼き	-11.813673
無限	-11.813681
恥	-11.814385
▁ライ	-11.814438
▁ヒント	-11.814467
▁岸	-11.814966
▁強大	-11.815184
▁あえて	-11.815188
▁オフィス	-11.815310
▁フロ	-11.815445
▁結末	-11.815903
ディング	-11.815906
呼べ	-11.815958
▁弱点	-11.816092
▁199	-11.816440
▁見地	-11.816635
崩壊	-11.816657
スカ	-11.816763
▁合い	-11.817392
以下	-11.817517
シーン	-11.818089
▁慢	-11.818104
登録	-11.818189
▁モー	-11.818688
ライアント	-11.818746
▁過ぎ去っ	-11.818804
▁243	-11.818892
眠り	-11.818974
▁良	-11.819066
▁HT	-11.819160
あまりに	-11.819273
プレイ	-11.819276
財	-11.819390
▁奪う	-11.819537
▁コール	-11.819634
▁売る	-11.819646
que	-11.819828
▁シナイ	-11.819860
▁1969	-11.819865
▁教科	-11.819943
file	-11.820172
▁数千	-11.820257
oul	-11.820413
▁天候	-11.820580
サラ	-11.820921
▁趣味	-11.821304
イギリス	-11.821466
捜索	-11.821467
猿	-11.821467
陸	-11.821583
基地	-11.821847
▁夕方	-11.821873
捕ま	-11.821873
▁聴き	-11.821888
ヒル	-11.822233
▁生ける	-11.822387
▁壊れ	-11.822393
将	-11.822718
▁エリ	-11.822918
推	-11.822921
▁騒音	-11.822958
訊	-11.822995
▁取り引き	-11.822996
▁事項	-11.823101
ドリ	-11.823119
23	-11.823278
▁ダニー	-11.823418
▁行進	-11.823634
▁獄	-11.823707
▁10%	-11.823725
知り合い	-11.823870
捉え	-11.823904
▁脅	-11.823991
尽	-11.824100
過ごす	-11.824466
▁メンバー	-11.824469
フィー	-11.824540
▁向き	-11.824571
ステータス	-11.824618
▁暗闇	-11.824754
▁必	-11.825147
寝る	-11.825268
レート	-11.825498
▁エディ	-11.825652
赤い	-11.825658
大量	-11.825877
▁見学	-11.825897
ペソ	-11.826073
▁救助	-11.826136
▁らしい	-11.826278
▁交際	-11.826319
せられる	-11.826446
バレ	-11.826850
記念	-11.826902
▁生殖	-11.827017
▁鎖	-11.827044
▁把握	-11.827184
シート	-11.827199
▁ミルク	-11.827501
しるし	-11.827909
頑張	-11.828025
▁44)	-11.828463
のご	-11.828760
▁わき	-11.829360
▁略奪	-11.829378
▁要請	-11.829675
▁水準	-11.829709
成果	-11.829942
限定	-11.829992
▁賃金	-11.830044
▁復	-11.830248
▁器具	-11.830254
▁修	-11.830276
▁菌	-11.830338
▁結びつけ	-11.830341
▁速い	-11.830763
▁老化	-11.830777
▁作り出し	-11.830869
um	-11.830886
ローカル	-11.830889
飾	-11.830959
稿	-11.831090
6%	-11.831260
スポーツ	-11.831384
法則	-11.831446
並べ	-11.831469
▁ありえ	-11.831611
る必要がある	-11.831685
▁ペルー	-11.831755
▁http	-11.831845
招	-11.831865
▁消防	-11.831880
クラ	-11.831920
▁取り戻す	-11.832281
mb	-11.832331
▁リック	-11.832670
トーク	-11.832770
凶	-11.832976
将軍	-11.833082
▁知性	-11.833098
戦略	-11.833126
▁推	-11.833459
▁上記	-11.833558
▁埋め	-11.833561
▁ブリタニカ	-11.833630
ーズ	-11.833697
な情報	-11.833724
▁物体	-11.833823
▁殴	-11.834139
thing	-11.834249
▁傷つける	-11.834552
▁におい	-11.834616
宿題	-11.834717
戻ら	-11.834791
シャン	-11.834986
▁悟	-11.835022
先進	-11.835414
▁寒い	-11.835619
▁広がる	-11.835835
ミング	-11.835972
▁幕屋	-11.836081
▁どうやら	-11.836187
すなわち	-11.836370
▁連続	-11.836649
▁ルーシー	-11.836655
▁処方	-11.836677
ベイ	-11.837021
▁折	-11.837099
▁サイン	-11.837158
▁防止	-11.837292
▁むなしい	-11.837399
▁署	-11.837672
,19	-11.837831
おいで	-11.837933
▁肌	-11.837951
▁教区	-11.837960
離婚	-11.838065
もたらし	-11.838169
ポー	-11.838211
サイド	-11.838273
▁天体	-11.838431
▁露	-11.838445
▁閉鎖	-11.838947
▁250	-11.839337
テープ	-11.839441
▁ブリ	-11.839602
勇敢	-11.839712
尊敬	-11.839722
▁アリス	-11.839827
▁ロサンゼルス	-11.839869
雷	-11.840282
type	-11.840312
▁Comm	-11.840463
誘	-11.840586
カップ	-11.840589
住人	-11.840632
▁妨害	-11.840668
▁眺め	-11.840669
ear	-11.840774
仕える	-11.840826
▁獲得	-11.840934
豆	-11.840950
ンポート	-11.840961
進み	-11.841266
mo	-11.841283
諦	-11.841380
▁1918	-11.841394
▁教室	-11.841453
▁国語	-11.841530
che	-11.841722
エンド	-11.842180
ケール	-11.842276
▁承	-11.842361
逸	-11.842499
▁現状	-11.842675
▁1981	-11.842768
カス	-11.842900
老人	-11.842904
▁打つ	-11.843071
飛ぶ	-11.843298
reg	-11.843676
▁生き残り	-11.843861
▁ナザレ	-11.844028
▁手伝い	-11.844744
限界	-11.844893
▁14,15)	-11.845012
▁700	-11.845304
▁ガイド	-11.845369
▁強ま	-11.845389
▁出会	-11.845455
▁綿	-11.845519
▁硬貨	-11.845760
▁何時	-11.846087
倒れ	-11.846158
ガイ	-11.846269
▁対抗	-11.846642
たがって	-11.846699
なす	-11.846854
▁ヨナタン	-11.847672
▁遂げる	-11.847695
▁酷	-11.847704
▁引き合	-11.847876
▁145	-11.847878
▁頂	-11.847914
退屈	-11.848132
▁マラリア	-11.848388
揚	-11.848462
▁投げ込	-11.848491
▁計	-11.848812
▁切れ	-11.848878
▁ha	-11.849001
▁乱	-11.849262
リオン	-11.849566
告	-11.849769
経営	-11.849817
嘲笑	-11.849830
▁治	-11.849851
独立	-11.849869
食物	-11.850012
当時	-11.850262
▁着陸	-11.850326
ort	-11.850337
▁ひな	-11.851184
▁黙示録	-11.851368
赤ん坊	-11.851490
視点	-11.851599
慎重に	-11.851614
▁匹敵	-11.851686
小屋	-11.851737
▁1,500	-11.851928
ーツ	-11.852473
▁コメント	-11.852480
脱出	-11.852783
ギャ	-11.852962
▁失意	-11.853021
凄	-11.853186
▁火災	-11.853302
▁流れる	-11.853333
シティ	-11.853353
▁密	-11.853393
▁推進	-11.853423
ッタ	-11.853735
▁死因	-11.853933
玄	-11.854203
▁痛い	-11.854385
▁脅か	-11.854430
機嫌	-11.854750
セッション	-11.854892
▁損	-11.854918
▁ハンク	-11.855053
▁そうして	-11.855679
▁まく	-11.856225
▁撃つ	-11.856388
▁探	-11.856531
権力	-11.856564
▁(1	-11.856586
強制	-11.856623
▁井戸	-11.856726
▁広場	-11.856868
以下の	-11.856886
▁耐え忍ぶ	-11.856937
んよ	-11.857102
括	-11.857311
ホン	-11.857334
▁1994	-11.857358
▁公衆	-11.857571
▁貞潔	-11.857652
▁20%	-11.857656
迷わせ	-11.857672
き去る	-11.857873
▁道筋	-11.857981
▁矢	-11.858267
責め	-11.858297
優しい	-11.858344
▁順応	-11.858378
▁ハッ	-11.858439
▁熟考	-11.858631
あい	-11.858830
▁農家	-11.858882
▁パトリック	-11.859029
不幸	-11.859079
えず	-11.859500
▁下が	-11.859726
07	-11.859775
改	-11.859887
メキシコ	-11.859999
2%	-11.860102
▁83	-11.860112
▁視覚	-11.860241
▁あた	-11.860395
▁至り	-11.860846
▁ベルギー	-11.861031
詩編	-11.861066
▁付ける	-11.861163
寄せ	-11.861280
▁読め	-11.861361
マッカ	-11.861479
ブス	-11.861706
▁いやいや	-11.861941
▁水面	-11.862012
▁or	-11.862063
構	-11.862218
▁しかる	-11.862283
▁抑圧	-11.862420
▁十二	-11.862653
▁貯蔵	-11.862664
▁便利	-11.862672
▁モデル	-11.862809
▁住みか	-11.862961
▁浪費	-11.863135
▁産み	-11.863146
TP	-11.863243
▁数百	-11.863250
たまえ	-11.863404
把握	-11.863419
動かす	-11.863503
▁怪	-11.863542
生存	-11.863558
闇	-11.863690
捏造	-11.864395
▁玄関	-11.864453
▁目ざめ	-11.864608
▁文句	-11.864632
膜	-11.864947
プレ	-11.864951
効率	-11.865170
がかれ	-11.865241
フィート	-11.865341
ループ	-11.865482
▁海底	-11.865641
▁見守	-11.865726
▁賭博	-11.865896
プス	-11.865951
▁家具	-11.866083
▁甘い	-11.866428
上がる	-11.866504
さず	-11.866508
▁ピアノ	-11.866559
▁部隊	-11.866571
▁段	-11.866680
▁有難	-11.866790
▁セル	-11.867479
▁光線	-11.867619
▁反乱	-11.867714
▁スカイ	-11.867760
▁口論	-11.867895
our	-11.868106
▁ギャンブル	-11.868539
奇跡	-11.868619
登場	-11.868676
▁証	-11.868772
▁付近	-11.868800
イブ	-11.869106
ガラス	-11.869252
ジャン	-11.869284
▁メシヤ	-11.869476
致	-11.869508
▁保管	-11.869515
▁運河	-11.869525
▁入口	-11.869534
ザン	-11.869562
un	-11.870055
▁ボストン	-11.870113
▁触れる	-11.870197
▁養子	-11.870237
▁ベツレヘム	-11.870264
つら	-11.870318
破滅	-11.870323
貧しい	-11.870326
視覚	-11.870370
▁中止	-11.870634
▁グラム	-11.870766
▁発音	-11.870881
験	-11.870899
▁報酬	-11.871092
▁wh	-11.871125
▁バルナバ	-11.871177
▁マリ	-11.871674
脅	-11.871735
イカ	-11.871761
る前に	-11.871959
腰	-11.872019
オープン	-11.872043
ライブ	-11.872048
メニュー	-11.872701
思い出す	-11.872728
▁知能	-11.872894
▁静	-11.873064
▁仮に	-11.873090
並	-11.873171
▁素早く	-11.873355
▁1940	-11.873567
▁彫刻	-11.873623
92	-11.873653
▁渡り	-11.873764
▁ウェブ	-11.874002
▁艦	-11.874018
▁見せる	-11.874077
▁過剰	-11.874198
形成	-11.874299
▁眠れ	-11.874392
Scrip	-11.874586
エゴ	-11.874602
▁微生物	-11.875360
▁無い	-11.875629
集合	-11.875635
▁56	-11.875679
最小	-11.875685
▁具合	-11.875854
▁力強い	-11.875930
▁林	-11.876225
▁通る	-11.876533
▁放棄	-11.876620
▁いらいら	-11.876666
▁騒ぎ	-11.876702
▁国王	-11.876798
放し	-11.877182
ab	-11.877199
宣言	-11.877276
区別	-11.877320
▁アラブ	-11.877821
▁変革	-11.877887
時々	-11.878243
ate	-11.878358
▁代価	-11.878468
7%	-11.878535
▁財政	-11.878886
▁ポケット	-11.879193
able	-11.879336
▁厄介	-11.879406
散歩	-11.879428
天地	-11.879504
摂氏	-11.879551
▁結核	-11.879553
▁堕胎	-11.879724
戚	-11.879724
▁1977	-11.879869
▁損傷	-11.880280
沿	-11.880297
▁あふれる	-11.880380
4%	-11.880523
皿	-11.880696
仮説	-11.880724
災い	-11.880894
運ぶ	-11.881227
ウィル	-11.881451
▁ルール	-11.881493
ile	-11.881748
▁本能	-11.881790
▁束縛	-11.881913
見つかる	-11.882201
▁見つめ	-11.882277
ホー	-11.882382
論争	-11.882474
▁産物	-11.882589
汚れ	-11.882597
意図	-11.882674
マイク	-11.882691
自信	-11.882932
し続け	-11.883078
ロウ	-11.883438
▁疑う	-11.883549
▁かなう	-11.883578
,20	-11.883784
27	-11.883915
一般的な	-11.884153
5%	-11.884480
ゥ	-11.884612
▁ポー	-11.884772
▁年度	-11.884782
▁仕	-11.885191
下さ	-11.885700
ェ	-11.885767
▁親友	-11.885837
▁批評	-11.885839
▁何者	-11.885921
広い	-11.885962
▁同等	-11.886155
充	-11.886253
手法	-11.886272
▁アクセス	-11.886349
ーム	-11.886693
付与	-11.886782
▁明るく	-11.886865
▁代償	-11.887195
▁We	-11.887249
▁古く	-11.887261
記述	-11.887738
▁タイヤ	-11.888243
主人	-11.888266
▁あげる	-11.888350
滑	-11.888455
ウェ	-11.888620
割る	-11.888858
祭	-11.888954
▁砕	-11.889140
かわり	-11.889425
現金	-11.889586
▁校長	-11.889688
▁脅かす	-11.889998
ゴミ	-11.890105
沈	-11.890690
▁ふざけ	-11.890860
▁同盟	-11.890936
▁プレ	-11.891027
▁気象	-11.891136
▁放射線	-11.891161
▁蚊	-11.891258
空港	-11.891269
英雄	-11.891279
ウソ	-11.891361
▁中世	-11.891762
レイヤー	-11.892106
げた	-11.892162
▁着く	-11.892425
願う	-11.892503
,18	-11.892817
置け	-11.893465
▁エフェ	-11.893726
key	-11.894092
▁(3)	-11.894238
ルス	-11.894610
踏	-11.894628
▁和らげる	-11.894691
偶像	-11.894763
プレゼント	-11.894835
敏	-11.895040
▁ウル	-11.895208
▁コロ	-11.895399
隔	-11.895542
▁パイロット	-11.895617
時刻	-11.895700
▁調理	-11.895744
▁ふれ告げ	-11.895900
IL	-11.895963
形式	-11.896017
▁話せる	-11.896098
▁人数	-11.896214
▁グリーン	-11.896447
保障	-11.896563
資本	-11.896624
▁192	-11.896847
▁亡くなる	-11.896903
ia	-11.897283
▁プラ	-11.897666
相当	-11.897760
従え	-11.897847
▁香港	-11.897909
▁効率	-11.898048
▁追い	-11.898163
▁生み	-11.898201
分解	-11.898257
丘	-11.898271
▁ブルー	-11.898397
辞書	-11.898398
▁刃	-11.898542
需	-11.898713
快	-11.899124
▁誤用	-11.899195
んね	-11.899210
ピー	-11.899221
2,3	-11.899426
▁有毒	-11.899478
▁裏切り	-11.899596
▁課程	-11.899693
▁反射	-11.899780
▁駐車	-11.899931
エラ	-11.899942
▁可愛	-11.900002
詳しく	-11.900077
▁58	-11.900090
▁レコード	-11.900111
▁言い訳	-11.900144
▁言い方	-11.900321
とこし	-11.900372
提	-11.900401
log	-11.900690
走る	-11.900719
▁ブラ	-11.900849
▁チップ	-11.900899
かつて	-11.901346
すり	-11.901369
▁装	-11.901381
▁伸ばし	-11.901414
助	-11.901474
▁雨林	-11.901487
▁データベース	-11.901529
▁黄	-11.901883
28	-11.902257
見逃	-11.902605
ck	-11.902949
▁授け	-11.903252
▁もともと	-11.903417
▁首相	-11.903538
▁カータ	-11.903603
収穫	-11.903636
背景	-11.903745
いたり	-11.903895
▁誓約	-11.904130
認証	-11.904134
▁凝	-11.904612
▁予算	-11.904658
▁当惑	-11.904763
重い	-11.904763
一族	-11.904909
▁ミリ	-11.905065
夢中	-11.905354
交渉	-11.905427
▁住居	-11.905515
▁was	-11.905648
1)	-11.905707
▁審理	-11.905841
▁父祖	-11.905884
巻き	-11.906407
あいつ	-11.906582
▁すき	-11.906724
チャー	-11.906898
▁メリー	-11.906919
倒	-11.907104
▁ドー	-11.907289
ガル	-11.907386
べきで	-11.907475
▁いただ	-11.907657
▁灰	-11.907669
▁1987	-11.907676
▁5,6)	-11.907791
▁エリザベス	-11.908108
▁ブース	-11.908200
めた	-11.908454
香	-11.908503
▁ナチス	-11.908800
▁クモ	-11.908833
end	-11.908938
▁地下鉄	-11.909015
▁ソビエト	-11.909537
▁毎晩	-11.909840
▁勘	-11.909860
ブリ	-11.909929
▁留める	-11.909975
▁ギャング	-11.910005
賭け	-11.910110
マッチ	-11.910136
▁狙	-11.910201
▁モアブ	-11.911120
政策	-11.911163
かつ	-11.911472
▁農夫	-11.911548
int	-11.911618
▁休息	-11.911651
▁従事	-11.911876
▁火星	-11.912220
▁クリ	-11.912273
▁瞬間	-11.912297
▁夫人	-11.912311
▁数える	-11.912527
▁64	-11.912570
▁振る	-11.912631
▁ニサン	-11.912923
▁オハ	-11.913009
▁戦車	-11.913061
▁石炭	-11.913706
▁第一	-11.913733
バンド	-11.914038
▁イングランド	-11.914079
大金	-11.914233
物体	-11.914309
絶え	-11.914503
ダル	-11.914774
turn	-11.914784
置い	-11.914957
▁叫	-11.915019
修	-11.915048
テーション	-11.915127
開ける	-11.915583
▁チリ	-11.915721
▁停	-11.915817
ナス	-11.915995
▁残忍	-11.916169
助言	-11.916339
▁固	-11.916403
地区	-11.916705
▁fro	-11.916751
タス	-11.916770
デイ	-11.916884
▁クラ	-11.917201
▁売ら	-11.917347
▁除く	-11.917847
手配	-11.917929
名誉	-11.918014
離れる	-11.918379
▁当たり前	-11.918386
示した	-11.918395
▁ゴム	-11.918639
▁回避	-11.918800
ベルト	-11.918864
▁労	-11.918923
▁暗示	-11.918974
アドレス	-11.918997
由	-11.919215
▁滝	-11.919550
撃ち	-11.919690
モア	-11.919902
▁起因	-11.920038
▁アレ	-11.920105
▁固定	-11.920241
▁木材	-11.920423
▁フル	-11.920722
▁1999	-11.920969
▁風邪	-11.920991
▁相対	-11.921154
▁方式	-11.921334
▁虐げ	-11.921707
▁1939	-11.921922
▁ハンガリー	-11.922154
▁憎ま	-11.922459
▁分泌	-11.922536
▁いたずら	-11.922551
親友	-11.922585
▁抗生物質	-11.922628
▁全身	-11.922693
▁ニー	-11.922752
▁よろしい	-11.922831
▁ロス	-11.922969
クル	-11.923042
▁秘め	-11.923107
矢	-11.923146
▁移り	-11.923223
ick	-11.923323
▁ニネベ	-11.923591
▁マラウィ	-11.923609
box	-11.923911
すん	-11.923995
降らせ	-11.924143
▁豚	-11.924212
▁サンタ	-11.924233
住民	-11.925146
ソフト	-11.925261
取り出し	-11.925364
▁縁	-11.925407
密度	-11.925449
ごらん	-11.925453
▁暖かい	-11.925517
白い	-11.925687
レース	-11.925744
工	-11.925773
ol	-11.925790
48	-11.925831
▁サイズ	-11.926008
▁z	-11.926104
▁危う	-11.926239
業者	-11.926333
▁23,24	-11.926418
いること	-11.926520
▁申し訳	-11.926835
お客様	-11.926879
▁尋問	-11.926902
▁Q	-11.926939
▁ひき	-11.927002
最適	-11.927121
もはや	-11.927335
▁危害	-11.927349
▁うるさ	-11.927820
▁あり得る	-11.928087
▁リンダ	-11.928468
▁接	-11.928559
とく	-11.928793
▁やつら	-11.928819
▁たたえる	-11.928873
談	-11.928972
▁妨げる	-11.929025
▁守り行なう	-11.929047
▁最高潮	-11.929047
▁コカイン	-11.929119
の権利	-11.929171
▁認可	-11.929987
▁実感	-11.930079
▁ギデオン	-11.930167
ッサ	-11.930211
カレ	-11.930241
語る	-11.930492
売る	-11.930675
ph	-11.930715
集まり	-11.930763
▁手話	-11.930809
▁ヘクタール	-11.930823
▁遭い	-11.930839
▁応答	-11.930884
モス	-11.931053
▁踏み	-11.931145
ハーバード	-11.931516
▁枢機卿	-11.931522
▁金融	-11.931845
▁耕	-11.932113
受け入れる	-11.932195
▁お尋ね	-11.932347
切望	-11.932553
曲が	-11.932596
▁請願	-11.932600
以降	-11.932600
哀れ	-11.932606
il	-11.932685
見つめ	-11.932843
▁執	-11.933072
▁薬剤	-11.933099
▁律	-11.933159
▁止める	-11.933210
▁句	-11.933249
▁さっ	-11.933469
▁とんでもない	-11.933739
▁差し	-11.933763
▁先端	-11.933857
▁スティーブ	-11.934013
ティブ	-11.934056
▁ライフ	-11.934208
寧	-11.934414
取ら	-11.934422
基準	-11.934443
▁か所	-11.934608
残す	-11.934794
スキャン	-11.934829
歩き	-11.935076
▁隠す	-11.935330
▁いちじく	-11.935465
質量	-11.935657
▁楽しめる	-11.935770
下り	-11.936038
と同様に	-11.936047
▁なんじ	-11.936189
怖が	-11.936209
戴	-11.936225
便利	-11.936333
割れ	-11.936425
▁御国	-11.936544
▁トマス	-11.936550
▁ちがう	-11.936760
トリン	-11.936849
ナルド	-11.936902
▁固い	-11.936994
スペイン	-11.937019
▁舟	-11.937053
▁右側	-11.937211
ut	-11.937618
高級	-11.937818
▁細	-11.937842
顎	-11.938045
▁暴徒	-11.938059
緊急	-11.938132
光栄	-11.938143
▁重ね	-11.938447
▁嫌い	-11.938466
話題	-11.938529
▁野球	-11.938609
▁ジェシー	-11.938889
▁魔女	-11.939138
ro	-11.939178
▁36)	-11.939544
芸	-11.939644
▁ツール	-11.939834
▁授	-11.939877
▁滑	-11.939951
塊	-11.939963
競争	-11.939971
▁漁師	-11.939991
下が	-11.940043
マーン	-11.940309
▁エレ	-11.940495
▁参	-11.940638
▁103	-11.940857
祝い	-11.941022
▁悲嘆	-11.941093
▁演じ	-11.941277
▁未満	-11.941445
▁聖堂	-11.941481
たす	-11.941803
バランス	-11.941877
▁組み合わせ	-11.942120
あう	-11.942281
▁雇い主	-11.942417
ay	-11.942454
▁he	-11.942571
▁悪意	-11.942855
▁のど	-11.942857
正しか	-11.942893
▁ジーン	-11.942901
釈	-11.943137
▁ごう慢	-11.943519
民族	-11.943616
ニン	-11.943825
分裂	-11.943935
ごめんなさい	-11.943994
にくい	-11.944001
▁親子	-11.944194
▁裏づけ	-11.944237
日付	-11.944429
▁違犯	-11.944520
▁責め苦	-11.945149
▁いやす	-11.945158
港	-11.945354
▁受け継ぐ	-11.945601
ほんの	-11.945907
虚	-11.945922
▁知力	-11.946114
捕まえる	-11.946175
右手	-11.946220
▁保てる	-11.946238
▁持て	-11.946385
の高い	-11.946411
重大	-11.946929
供	-11.946999
▁プラス	-11.947010
▁激	-11.947063
アリス	-11.947130
そん	-11.947177
誤り	-11.947265
帝国	-11.947777
▁襲撃	-11.947896
がかり	-11.948292
▁直径	-11.948319
▁沿い	-11.948499
▁キャン	-11.948932
僅	-11.949021
インチ	-11.949158
華	-11.949236
▁一貫	-11.949308
▁シロ	-11.949347
住宅	-11.949407
▁コピー	-11.949484
▁足跡	-11.949714
▁選択した	-11.949834
▁地点	-11.949864
もっとも	-11.950078
▁捕虜	-11.950146
カラ	-11.950493
ヨン	-11.950729
大勢	-11.950846
▁危ない	-11.950900
▁デーリー	-11.950901
見方	-11.951023
縛	-11.951051
▁アブ	-11.951424
どり	-11.951694
▁さようなら	-11.951805
加える	-11.951878
に基づいて	-11.951939
頼み	-11.952256
敬	-11.952362
▁ともかく	-11.952415
夕	-11.952452
合わせる	-11.952793
シス	-11.952811
干	-11.952896
畑	-11.953004
測定	-11.953092
▁酔っ	-11.953168
▁盲人	-11.953231
追っ	-11.953548
▁食欲	-11.953653
▁サイエンス	-11.953676
▁up	-11.953919
ひと	-11.953933
▁勤め	-11.954301
笛	-11.954537
▁断食	-11.954757
▁ノルウェー	-11.954819
予約	-11.955062
シェル	-11.955165
▁スコット	-11.955410
▁str	-11.955535
▁リンク	-11.955568
我ら	-11.955576
▁凄	-11.955790
▁右手	-11.956217
▁取り組む	-11.956366
且	-11.956409
の問題は	-11.956514
ワー	-11.956516
▁一見	-11.956643
習慣	-11.956766
希	-11.956770
▁消滅	-11.956995
地点	-11.957055
▁代わる	-11.957258
▁ライアン	-11.957288
▁催	-11.957404
▁骨折	-11.957484
突き	-11.957542
ッカ	-11.957553
▁63	-11.957685
収入	-11.957904
▁伸び	-11.958041
▁切る	-11.958288
▁協議会	-11.958297
▁ガラ	-11.958336
平気	-11.958411
▁607	-11.958562
fun	-11.958577
▁遺跡	-11.958970
到達	-11.959077
▁付き合	-11.959144
▁積	-11.959251
分離	-11.959317
▁目指し	-11.959322
▁干ばつ	-11.959646
26	-11.959686
▁ただ中	-11.959856
▁乾杯	-11.959876
▁トミー	-11.959880
▁ラザフォード	-11.960124
▁裏切	-11.960761
▁修正	-11.960943
▁暴虐	-11.961179
▁たまたま	-11.961293
▁囲い	-11.961476
ブロ	-11.961599
恋人	-11.961872
答える	-11.961908
外れ	-11.961957
▁あなたたち	-11.962030
か月	-11.962242
▁わざわざ	-11.962339
屋根	-11.962567
王子	-11.962607
適切な	-11.963005
ディン	-11.963246
きたら	-11.963452
▁解説	-11.963601
丁	-11.963802
▁ヨエル	-11.963878
貧	-11.963920
スクリーン	-11.963934
ers	-11.963939
解読	-11.964024
▁確保	-11.964602
▁戻ら	-11.964616
恩	-11.965358
▁たつ	-11.965386
ip	-11.965515
ゲイ	-11.965908
▁国旗	-11.966045
▁ビリー	-11.966154
謎	-11.966208
監督	-11.966213
坊	-11.966242
帰れ	-11.966775
▁展開	-11.966825
▁作戦	-11.966848
▁託	-11.966858
▁政	-11.967007
▁担う	-11.967080
▁助か	-11.967141
暗	-11.967174
▁カイ	-11.967597
▁料金	-11.967694
エイリアン	-11.967801
▁元素	-11.967837
▁基地	-11.967881
取り戻	-11.968199
▁UR	-11.968392
グラス	-11.968463
建設	-11.968637
問う	-11.969364
蔑	-11.969470
孫	-11.969506
▁技師	-11.969578
▁代わ	-11.969735
▁地表	-11.969901
アイテム	-11.970000
資源	-11.970362
8%	-11.970460
▁軸	-11.970860
▁復帰	-11.971243
pi	-11.971416
▁災難	-11.971526
▁悪夢	-11.971538
▁運営	-11.971558
ies	-11.971605
酔	-11.971697
▁ビン	-11.971796
悠	-11.971915
レストラン	-11.971931
▁おのおの	-11.972019
▁見つかる	-11.972107
▁余裕	-11.972194
フォント	-11.972335
▁帽子	-11.972343
団体	-11.972369
▁漁	-11.972756
▁程	-11.972877
▁満た	-11.973027
▁免	-11.973087
弧	-11.973232
▁復興	-11.973320
IN	-11.973410
▁一家	-11.973855
▁ウェブサイト	-11.974398
▁発掘	-11.974404
▁ダーウィン	-11.974422
▁ネコ	-11.974676
▁届け	-11.974717
人形	-11.975222
▁目立	-11.975330
正体	-11.975443
▁勝ち	-11.975544
▁間近	-11.975671
▁重力	-11.975689
▁規制	-11.975762
教訓	-11.975764
伏せ	-11.975772
釈放	-11.976022
▁集合	-11.976106
全員が	-11.976524
▁豆	-11.976601
鬼	-11.976648
輩	-11.977011
塗	-11.977139
落ち着	-11.977155
っぱ	-11.977241
▁全巻	-11.977269
▁城	-11.977360
▁まずい	-11.977558
▁勝つ	-11.977594
▁辞書	-11.977606
嵐	-11.977673
奉仕	-11.977698
▁メイン	-11.977702
▁褒め	-11.977928
ストラ	-11.977958
建築	-11.978024
▁くつろ	-11.978252
▁取り組	-11.978327
▁断片	-11.978355
art	-11.978471
ジム	-11.978539
エディ	-11.978750
▁at	-11.978796
▁畜	-11.978811
那	-11.978904
▁0.	-11.978967
一団	-11.979112
▁雑草	-11.979352
社会的	-11.979409
劣	-11.979413
▁昼食	-11.979468
雑	-11.979486
ity	-11.979633
ゴリ	-11.979679
▁暴動	-11.979709
▁なんぢ	-11.979765
▁着る	-11.980322
ハラ	-11.980450
レッド	-11.980501
コーディング	-11.980843
フォーマ	-11.980855
否	-11.981464
蛇	-11.981549
製造	-11.981580
トイレ	-11.981606
暗い	-11.981969
翼	-11.982005
例えば	-11.982045
▁相変わらず	-11.982051
▁カラ	-11.982222
▁赤子	-11.982273
押す	-11.982319
▁手がかり	-11.982347
▁めぐ	-11.982415
new	-11.982599
▁兵役	-11.982787
ak	-11.982792
住み	-11.983094
▁逃げろ	-11.983218
としての	-11.983376
監	-11.983398
汚染	-11.983457
▁切断	-11.983783
▁生まれつき	-11.984045
▁導入	-11.984193
▁戦士	-11.984704
英国	-11.984717
▁com	-11.984737
けた	-11.984776
▁カラー	-11.984995
▁腫瘍	-11.985041
▁郊外	-11.985378
休暇	-11.985400
多数	-11.985580
メイ	-11.986133
▁立ち上が	-11.986173
▁突如	-11.986518
御名	-11.986758
タスク	-11.987065
向い	-11.987350
▁ワシ	-11.987393
▁さよなら	-11.987634
▁巻き	-11.987743
ピュ	-11.988069
▁樹	-11.988146
▁治世	-11.988523
▁ご寄付	-11.988533
▁輸入	-11.988891
▁スーザン	-11.988927
▁クーポ	-11.988938
メル	-11.989020
▁ゆけ	-11.989314
▁シモン	-11.989445
伏	-11.989568
単なる	-11.989580
▁めぐる	-11.989601
救え	-11.990034
につけ	-11.990244
お待ち	-11.990469
▁莫大	-11.990667
▁サメ	-11.990871
▁コル	-11.991040
▁o	-11.991168
黄色	-11.991232
機会を	-11.991414
マウス	-11.991423
魔女	-11.991764
それでも	-11.991793
▁90%	-11.991968
下し	-11.992049
▁平原	-11.992310
生き物	-11.992315
▁発育	-11.992320
近所	-11.992375
泣き	-11.992414
MS	-11.992666
▁浸	-11.992826
らす	-11.992876
ティン	-11.993152
読め	-11.993181
▁肝臓	-11.993409
▁アラ	-11.993412
裁き	-11.993600
ヴィン	-11.993800
刀	-11.993816
▁済み	-11.993883
300	-11.993884
新約	-11.994009
▁提起	-11.994229
▁疑念	-11.994257
▁リーダー	-11.994442
▁胎	-11.994531
▁炭	-11.994723
今回	-11.994778
開けろ	-11.994802
暇	-11.995038
キャンプ	-11.995270
▁ワイ	-11.995934
▁資力	-11.996114
贈	-11.996357
取り上げ	-11.996733
▁安い	-11.997153
▁王権	-11.997306
▁吸い	-11.997337
つなが	-11.997459
▁In	-11.997464
についても	-11.997653
co	-11.997945
▁むだ	-11.998009
▁フラ	-11.998261
速い	-11.998309
▁プライバシー	-11.998399
Ste	-11.998447
加盟	-11.998508
ru	-11.998555
備	-11.998704
ウォーカー	-11.999052
wha	-11.999510
▁洗い	-11.999605
▁ツ	-11.999619
▁嬉し	-11.999664
▁召し	-11.999818
▁熟練	-11.999849
真似	-11.999936
宰	-11.999978
▁創始	-12.000002
▁ab	-12.000329
粒	-12.000541
ラウンド	-12.000886
消す	-12.000906
▁ご存	-12.000966
▁目次	-12.000977
傍	-12.000992
叔父	-12.000992
▁空想	-12.001020
▁ゆける	-12.001172
▁フィリ	-12.001189
辞	-12.001432
▁取って代わ	-12.001532
ゴー	-12.001771
▁支払わ	-12.002219
報を	-12.002244
捨	-12.002267
▁真ん中	-12.002321
▁言い換え	-12.002337
▁ヘル	-12.002600
▁帰し	-12.002834
▁考察	-12.002834
▁凍	-12.002856
▁標	-12.002879
忠誠	-12.002969
悲しみ	-12.003054
いろ	-12.003186
遂	-12.003268
▁待ち受け	-12.003558
▁迷	-12.003684
▁作り上げ	-12.003698
▁1998	-12.004056
▁スコットランド	-12.004099
▁構	-12.004148
▁論文	-12.004292
返せ	-12.004315
▁持ち込	-12.004436
▁アサ	-12.004439
▁強姦	-12.004511
▁深み	-12.004780
▁シャーロッ	-12.004821
,700	-12.004838
▁取り出し	-12.004845
深刻	-12.004958
もつ	-12.004980
眺め	-12.005033
▁言動	-12.005041
▁サイモン	-12.005301
結論	-12.005475
ヤー	-12.005573
▁ヤバ	-12.005746
▁味方	-12.005786
朗	-12.005802
▁誓	-12.005824
業界	-12.005869
志	-12.005916
ナイ	-12.006354
地位	-12.006587
▁巧妙	-12.006735
複	-12.006742
▁オンライン	-12.006826
▁産む	-12.006904
夫婦	-12.006973
▁修復	-12.007373
▁104	-12.007426
▁乗り越え	-12.007738
探せ	-12.007771
▁ルター	-12.007940
▁周	-12.007948
old	-12.007950
▁マイクロ	-12.008142
▁球	-12.008263
消息	-12.008266
▁かかわ	-12.008403
▁予見	-12.008545
スタート	-12.008615
中毒	-12.008626
▁泉	-12.008831
忠告	-12.008894
▁座席	-12.008957
突	-12.008964
交通	-12.009005
喜ぶ	-12.009016
緒	-12.009016
糖	-12.009254
▁固有	-12.009303
ソート	-12.009421
ラル	-12.009468
黄金	-12.009592
▁解明	-12.009629
待た	-12.009645
▁some	-12.009727
▁机	-12.010176
pen	-12.010661
拝	-12.010696
フラ	-12.010954
譲	-12.010973
▁画面	-12.011329
▁哀れ	-12.011578
▁爆	-12.011656
▁怖が	-12.011658
踏み	-12.011737
信念	-12.011753
▁救い主	-12.011902
▁解消	-12.012045
▁撃て	-12.012223
▁英	-12.012225
ink	-12.012309
▁Py	-12.012781
伝統	-12.012877
看護	-12.012877
仕掛け	-12.012884
▁座る	-12.012920
通過	-12.013062
▁ベイ	-12.013208
妨げ	-12.013247
▁サンフランシスコ	-12.013378
▁嘆願	-12.013511
▁献堂	-12.013624
▁アマゾン	-12.013785
▁キング	-12.014076
バグ	-12.014215
▁会合	-12.014230
湯	-12.014337
▁海水	-12.014638
iki	-12.014648
境	-12.014675
ターン	-12.014698
エクス	-12.014705
庁	-12.014851
正当	-12.014956
▁ピンク	-12.015148
正常	-12.015399
▁捜索	-12.015478
▁天国	-12.015821
裂	-12.015893
長官	-12.015915
築	-12.015918
▁62	-12.015954
エッジ	-12.016006
時宜	-12.016201
ラボ	-12.016458
ベイビー	-12.016614
っこ	-12.016730
リード	-12.016738
▁小説	-12.016769
懐	-12.016797
▁南極	-12.016973
▁2002	-12.017056
逆境	-12.017373
▁速さ	-12.017422
▁ミサイル	-12.017471
▁遭遇	-12.017493
▁グレース	-12.017535
▁耐	-12.017665
▁添え	-12.017736
スコア	-12.017770
ことなく	-12.017906
▁掛ける	-12.017950
▁突	-12.017982
▁組合	-12.017984
▁68	-12.018034
▁ユーモア	-12.018055
▁とりこ	-12.018135
▁弁	-12.018584
ゲル	-12.018608
貢献	-12.018855
▁化粧	-12.018991
値段	-12.019146
▁晩さん	-12.019153
▁好ま	-12.019235
▁善い	-12.019255
▁深める	-12.019260
▁麻痺	-12.019601
ウム	-12.020088
たばかり	-12.020103
▁けれども	-12.020377
▁別居	-12.020387
▁久しぶり	-12.020535
の影響	-12.020718
真っ	-12.020806
マネー	-12.020926
▁ふつう	-12.021200
▁通う	-12.021292
メモリ	-12.021477
▁明快	-12.021520
RL	-12.022138
▁激怒	-12.022440
▁散歩	-12.022441
丈	-12.022823
よろしい	-12.022866
ミッション	-12.022926
▁外側	-12.023138
▁フォ	-12.023303
閉じ込め	-12.023406
ペア	-12.023480
之	-12.023484
模倣	-12.023506
▁警報	-12.023704
▁再開	-12.023773
性質	-12.023808
語り	-12.023957
ブラック	-12.024038
▁see	-12.024308
かせる	-12.024502
セー	-12.024566
レーン	-12.025022
航	-12.025107
▁落ちる	-12.025245
穏	-12.025399
ハード	-12.025521
▁don	-12.025790
▁はなはだ	-12.025908
▁2,500	-12.026280
▁独裁	-12.026353
滅ぼし	-12.026728
連続	-12.027072
▁ブライアン	-12.027090
▁オル	-12.027253
決まり	-12.027574
▁敗北	-12.027575
▁とうとう	-12.027896
取り戻す	-12.027970
▁水道	-12.028329
エジプト	-12.028352
ゲート	-12.028352
ありさ	-12.028641
輝	-12.028675
▁塗	-12.028688
▁粗	-12.028738
独房	-12.028809
ピアノ	-12.028939
▁やら	-12.029107
▁ゆる	-12.029163
手助け	-12.029180
清	-12.029219
持て	-12.029509
▁イラン	-12.029574
▁スー	-12.029888
▁肥	-12.030100
エント	-12.030100
グリーン	-12.030111
▁願望	-12.030388
▁電波	-12.030446
手順	-12.030462
届き	-12.030528
ォ	-12.030710
絶望	-12.031036
▁マスター	-12.031144
▁フラン	-12.031213
▁いきさつ	-12.031447
▁洗礼	-12.031532
文法	-12.031706
わく	-12.031737
▁行列	-12.031784
▁書士	-12.031951
▁調	-12.032142
▁エレン	-12.032265
▁みたい	-12.032327
ストリート	-12.032389
熱い	-12.032436
▁フレ	-12.032525
▁発射	-12.032697
▁理事	-12.032826
▁ゴー	-12.032833
▁種子	-12.032836
机	-12.032966
▁一面	-12.033103
▁肥満	-12.033266
見かけ	-12.033439
▁130	-12.033444
遺体	-12.033471
▁22,23)	-12.033682
▁ディーン	-12.033843
▁落	-12.033850
すご	-12.033957
▁さす	-12.034187
昨	-12.034469
心理	-12.034557
確実に	-12.034591
探索	-12.034998
キリ	-12.035193
▁できごと	-12.035221
▁温まる	-12.035457
49	-12.035468
役立つ	-12.035552
▁sa	-12.035571
▁改	-12.035640
▁推薦	-12.035878
▁なぞ	-12.036101
▁ドン	-12.036211
EMA	-12.036292
クール	-12.036421
▁ペンシルバニ	-12.036527
▁探し求め	-12.036627
施	-12.036661
▁mo	-12.036704
はるか	-12.036729
▁陪	-12.036882
▁被告	-12.036921
潮	-12.036994
妊娠	-12.037039
清算	-12.037077
石油	-12.037113
ラジオ	-12.037186
▁怖く	-12.037321
▁キャシー	-12.037354
▁応じる	-12.037767
▁うつ	-12.037787
バリ	-12.038271
▁イラク	-12.038330
▁救い出し	-12.038573
▁折り	-12.038747
▁候	-12.038762
タク	-12.038765
明瞭	-12.038950
真ん中	-12.039079
恐らく	-12.039081
最低	-12.039123
▁イー	-12.039129
▁ハニ	-12.039174
▁殴打	-12.039488
▁緑色	-12.039509
支払	-12.039750
▁使い方	-12.039804
多様	-12.039834
わせる	-12.039845
per	-12.040346
▁分解	-12.040398
編	-12.040487
ヤシ	-12.040577
▁たしか	-12.040578
▁26,27	-12.040947
▁家屋	-12.040948
レブ	-12.041112
▁怠	-12.041163
▁らい病	-12.041487
辿	-12.041487
▁概して	-12.041502
▁アルバート	-12.041556
▁西部	-12.041587
シンプ	-12.041619
▁ナショナル	-12.041690
くん	-12.041786
▁討論	-12.041917
▁エイ	-12.041949
▁ジュー	-12.042090
不法	-12.042395
授ける	-12.042676
ラップ	-12.042891
統	-12.043144
反抗	-12.043178
済む	-12.043289
外出	-12.043298
▁悟る	-12.043616
▁退職	-12.043616
▁つま	-12.043919
▁大工	-12.044210
▁工学	-12.044300
▁ジョセフ	-12.044317
▁コンクリート	-12.044443
燃え	-12.044461
陥	-12.044593
▁ジョニー	-12.044611
▁ゼロ	-12.044676
▁基金	-12.045038
肌	-12.045221
▁16,17)	-12.045257
反逆	-12.045280
▁衣類	-12.045349
古代	-12.045447
▁行政	-12.045578
▁空腹	-12.045595
垂れ	-12.045669
押さえ	-12.045726
oh	-12.045880
ヘレン	-12.046037
▁いとこ	-12.046060
▁おなか	-12.046220
▁テクノロジー	-12.046249
▁ポート	-12.046290
▁否	-12.046441
,9	-12.046569
▁性行為	-12.046625
▁ブル	-12.046716
ポール	-12.046782
ラッシュ	-12.046876
▁39)	-12.047043
ガード	-12.047060
占	-12.047195
29	-12.047480
ノート	-12.047644
怪物	-12.047691
変動	-12.047979
▁詰め	-12.048038
▁経て	-12.048450
リアン	-12.048493
▁慣習	-12.048536
▁ウォーカー	-12.048580
▁能	-12.048619
支え	-12.048767
▁おっしゃ	-12.048834
▁仲良	-12.049025
▁スクリーン	-12.049148
▁1,200	-12.049182
▁収集	-12.049196
▁スティーブン	-12.049339
Web	-12.049408
閣下	-12.049429
長老	-12.049438
▁汗	-12.049485
天才	-12.049513
叶	-12.049589
▁発する	-12.049756
パート	-12.049763
貴重	-12.049835
ティス	-12.049945
カラー	-12.050004
発電	-12.050095
▁忌	-12.050446
▁六つ	-12.050730
▁フィリップ	-12.050948
青い	-12.051102
▁クジラ	-12.051216
▁提	-12.051229
材料	-12.051589
▁肝炎	-12.051632
固定	-12.051648
▁打撃	-12.051693
▁看	-12.051785
貸	-12.052152
るところ	-12.052283
ーブ	-12.052776
▁揺れ	-12.052901
とお	-12.053278
警	-12.053337
低く	-12.053443
▁東部	-12.053580
要請	-12.053629
▁ヘラルド	-12.053670
▁あらわ	-12.053695
and	-12.053720
▁干渉	-12.053925
▁公表	-12.054008
▁経路	-12.054034
▁トップ	-12.054369
▁都会	-12.054693
▁主教	-12.054825
▁音声	-12.054852
▁堂々	-12.055179
▁恥ずかしい	-12.055418
does	-12.055578
炭素	-12.055582
アイコン	-12.055589
泥棒	-12.055595
台無し	-12.055638
果実	-12.055688
▁談	-12.055779
適	-12.055891
▁イルカ	-12.056437
つながり	-12.056480
員が	-12.056855
▁格好	-12.056957
々しい	-12.057170
腸	-12.057198
▁忍び	-12.057494
▁幾分	-12.057502
▁薄い	-12.057727
▁審問	-12.057769
ちなん	-12.057774
▁終始	-12.057780
若さ	-12.057954
足す	-12.058057
▁レバノン	-12.058230
▁殻	-12.058564
▁収益	-12.058644
▁誘	-12.058838
いつか	-12.059029
▁おけ	-12.059056
▁いじめ	-12.059062
かき	-12.059114
▁ゾンビ	-12.059375
▁至っ	-12.059611
失い	-12.059965
▁習得	-12.060020
ヘル	-12.060108
▁いっさい	-12.060137
▁ゲイ	-12.060186
99	-12.060211
,800	-12.060326
連邦	-12.060493
▁マギ	-12.060720
ウェブ	-12.060775
▁こん	-12.061401
▁ポンド	-12.061549
専	-12.061592
▁承認	-12.061802
チャンネル	-12.061807
検討	-12.061813
衛星	-12.061897
tor	-12.061986
▁1996	-12.062173
十億	-12.062225
ko	-12.062471
▁ローレ	-12.062580
▁28,29)	-12.062656
詞	-12.062674
手足	-12.062844
▁イエズス	-12.062980
強さ	-12.063086
vi	-12.063133
▁誘い	-12.063182
▁ブラウン	-12.063264
▁就職	-12.063385
▁反論	-12.063419
▁控え	-12.063548
▁外出	-12.063593
▁偏	-12.063613
豚	-12.063787
狼	-12.063889
▁アレルギー	-12.064042
ベース	-12.064154
放送	-12.064260
▁ブー	-12.064284
選択し	-12.064409
1943	-12.064481
▁エレベーター	-12.065075
▁デュ	-12.065133
▁形作	-12.065594
▁言わせ	-12.065894
エリア	-12.065962
▁ミー	-12.065974
胤	-12.065995
▁冒とく	-12.066009
▁よせ	-12.066020
▁人形	-12.066033
医学	-12.066192
▁見過ご	-12.066392
▁国教会	-12.066809
▁大酒	-12.067001
宮	-12.067147
▁通貨	-12.067154
▁野心	-12.067748
向かい	-12.067809
癖	-12.068090
対策	-12.068181
階段	-12.068186
仕組み	-12.068202
name	-12.068502
▁差し出し	-12.068550
上司	-12.068675
ワル	-12.068865
追う	-12.068962
▁辛い	-12.069119
フス	-12.069137
▁妥当	-12.069276
▁57	-12.069435
▁糞	-12.069486
Go	-12.069650
単独	-12.069952
浜	-12.070067
林	-12.070101
儲け	-12.070147
▁引き起こ	-12.070150
▁輸出	-12.070219
聖霊	-12.070323
軍勢	-12.070360
▁悪事	-12.070367
▁ふえ	-12.070563
ブラウザ	-12.070762
▁外れ	-12.070774
ポン	-12.070823
走り	-12.070853
▁勤務	-12.071111
▁下ろし	-12.071239
▁恒	-12.071243
▁40%	-12.071976
▁シャワー	-12.072247
指紋	-12.072311
保管	-12.072361
獲得	-12.072361
トロン	-12.072384
▁再会	-12.072413
993	-12.072494
が不	-12.072523
▁民衆	-12.072569
io	-12.072581
▁子育て	-12.072605
商売	-12.072737
▁義人	-12.072902
▁患	-12.073021
▁濃度	-12.073126
▁侵略	-12.073193
極めて	-12.073272
▁巨人	-12.073379
配する	-12.073476
渡り	-12.073717
ボル	-12.073832
乗れ	-12.073853
▁不信	-12.073927
▁さし絵	-12.074320
趣味	-12.074426
エルサレム	-12.074428
▁寝室	-12.074469
稼ぎ	-12.074472
Do	-12.074489
ワイ	-12.074492
▁ワクチン	-12.074536
▁地理	-12.074538
▁甲	-12.074628
海岸	-12.074657
戦士	-12.074906
シオ	-12.074926
カバー	-12.074945
▁13,14)	-12.075144
群れ	-12.075250
▁訳し	-12.075269
▁どな	-12.075418
▁殉教	-12.075430
▁73	-12.075593
ベリー	-12.075676
▁34,35	-12.075744
謝	-12.075954
▁崇敬	-12.076017
ando	-12.076055
▁汚い	-12.076072
則	-12.076189
▁水素	-12.076316
▁急増	-12.076530
吹き	-12.076588
▁ジャングル	-12.076644
land	-12.076889
▁ロン	-12.077028
▁シェ	-12.077030
▁ハエ	-12.077071
UE	-12.077147
▁De	-12.077216
▁衣装	-12.077343
▁マーフィー	-12.077353
キュー	-12.077438
クロス	-12.077516
▁カメ	-12.077620
▁採	-12.077789
▁語りかけ	-12.077903
指令	-12.078016
殖	-12.078214
ult	-12.078254
付き合	-12.078587
▁レイプ	-12.078713
救助	-12.078734
▁報復	-12.078855
▁庫	-12.078883
バード	-12.078905
▁アポロ	-12.078913
▁愉快	-12.079059
▁注文	-12.079122
ンド	-12.079491
▁増し加え	-12.079493
置か	-12.079587
▁積み	-12.079596
▁IP	-12.079631
▁買	-12.079647
▁液	-12.079649
ss	-12.079692
▁暗殺	-12.079848
き去	-12.079864
▁常用	-12.079905
▁考案	-12.079919
フォン	-12.080069
会見	-12.080294
ジェーン	-12.080846
飲	-12.080860
優しく	-12.080879
▁いただけ	-12.081043
ざし	-12.081291
裂け	-12.081507
▁高まり	-12.081529
▁雑	-12.081547
IS	-12.081586
▁ベルト	-12.081757
避ける	-12.081923
▁戦略	-12.082385
▁NASA	-12.082425
黒い	-12.082469
▁ジョーンズ	-12.082685
▁たいせつ	-12.082690
スティック	-12.082897
重荷	-12.082977
▁right	-12.082995
▁浸透	-12.083077
言い方	-12.083181
捕え	-12.083247
せられ	-12.083380
▁造り主	-12.083478
落と	-12.083637
山々	-12.083834
▁ショーン	-12.083941
con	-12.084037
,21	-12.084217
動機	-12.084288
流行	-12.084498
牧	-12.084792
リュー	-12.085016
▁合わ	-12.085039
テニス	-12.085111
コメント	-12.085232
▁秘書	-12.085506
rent	-12.086001
述	-12.086169
08	-12.086171
果て	-12.086321
マッ	-12.086412
右側	-12.086601
腫	-12.086720
▁Oh	-12.087009
カトリック	-12.087284
負う	-12.087291
グラ	-12.087468
▁活力	-12.087646
▁先頭	-12.087678
▁マイル	-12.087833
去り	-12.087961
美人	-12.088278
▁くつ	-12.088290
一歩	-12.088304
巻き込	-12.088678
▁クレジットカード	-12.088934
▁宮	-12.088965
▁軍備	-12.089070
▁捕らわれ	-12.089126
尋問	-12.089349
不敬	-12.089597
OK	-12.089671
cm	-12.089688
訴え	-12.090183
▁やみ	-12.090532
▁180	-12.090725
イーサ	-12.090779
▁陰謀	-12.090784
▁役目	-12.090794
▁直後	-12.090800
▁請求	-12.091086
▁物品	-12.091126
▁頑	-12.091244
ver	-12.091366
▁財布	-12.091434
肺	-12.091522
▁言い開き	-12.091558
降伏	-12.091612
逃れ	-12.091746
▁user	-12.091765
▁周期	-12.091808
飾り	-12.092182
▁否認	-12.092224
▁市長	-12.092241
目覚め	-12.092256
▁パーセント	-12.092557
ソル	-12.093090
▁仕掛け	-12.093092
爵	-12.093257
識別	-12.093281
▁増やす	-12.093402
▁ブロック	-12.093424
マスク	-12.093832
リーナ	-12.094065
▁取り組み	-12.094193
▁ひん	-12.094670
▁生き延びる	-12.094688
やる気	-12.094777
▁グラフ	-12.094928
寄り	-12.095072
▁アラスカ	-12.095298
56	-12.095407
▁遠慮	-12.095409
リル	-12.095433
▁己	-12.095657
▁1935	-12.095690
res	-12.095793
裸	-12.095814
防衛	-12.095830
▁合図	-12.096079
▁遺産	-12.096111
▁宮殿	-12.096225
日々	-12.096327
▁まき	-12.096395
尽くす	-12.096500
熱心	-12.096626
▁上空	-12.096981
くわ	-12.097186
▁ケイト	-12.097313
▁治め	-12.097317
ジェイ	-12.097453
▁駆け	-12.097480
▁トウモロコシ	-12.097532
▁寄稿	-12.097538
ぎり	-12.097568
▁1968	-12.097677
作家	-12.097705
▁麻酔	-12.097724
▁配置	-12.097796
認める	-12.097824
▁除き去	-12.097923
阻	-12.097975
▁3;	-12.098143
繋	-12.098245
辞め	-12.098265
釣り	-12.098288
▁天井	-12.098306
▁形造	-12.098325
real	-12.098361
執り	-12.098384
▁培い	-12.098653
▁プール	-12.098731
▁表情	-12.098839
▁等	-12.098876
▁貨	-12.098931
▁だったら	-12.098980
過ち	-12.099308
ノア	-12.099397
Gener	-12.099496
▁宿る	-12.099511
▁4,5)	-12.099607
▁なさる	-12.099729
▁正気	-12.100108
泡	-12.100140
▁移民	-12.100151
▁厚	-12.100172
都	-12.100188
誤解	-12.100307
画面	-12.100645
▁返済	-12.100726
受け取り	-12.100891
尽く	-12.101429
辛	-12.101604
申し出	-12.101695
コル	-12.101938
扉	-12.102324
閉鎖	-12.102328
召	-12.102400
▁get	-12.102660
▁転換	-12.102672
同様に	-12.102869
銀	-12.102938
収集	-12.102943
いなく	-12.103107
▁用途	-12.103325
▁リスク	-12.103465
失わ	-12.103541
▁焼け	-12.103775
▁禁	-12.103798
からさ	-12.103955
リフ	-12.104177
▁ナン	-12.104413
ばく	-12.104589
▁6;	-12.104837
確実	-12.104969
好む	-12.105005
反省	-12.105212
▁垂	-12.105371
,23	-12.105499
▁左側	-12.105673
伴	-12.105794
▁見逃	-12.105909
届く	-12.105934
▁笑顔	-12.105980
▁上がり	-12.106043
▁ラハブ	-12.106108
わず	-12.106176
▁上がる	-12.106180
▁はじめて	-12.106203
▁ブルース	-12.106256
▁とらえる	-12.106451
▁業績	-12.106539
▁例証	-12.106544
▁深め	-12.106693
基礎	-12.106709
雑誌	-12.106768
▁139	-12.107035
▁掘り	-12.107451
▁引き上げ	-12.107483
うまい	-12.107587
オル	-12.107599
▁快い	-12.107744
洗	-12.107904
減少	-12.107976
▁竹	-12.107978
▁近親	-12.108107
▁防御	-12.108139
ベス	-12.108391
▁合成	-12.108429
▁ゴール	-12.108579
ディア	-12.108747
トス	-12.108837
▁スペース	-12.109019
▁始	-12.109108
▁目指す	-12.109438
ぜい	-12.109489
飼	-12.109542
▁費や	-12.109693
▁餌	-12.109808
▁テント	-12.109978
かえり	-12.110009
劇	-12.110247
▁use	-12.110640
▁描く	-12.110741
▁指輪	-12.110821
▁倉庫	-12.111032
▁蓄積	-12.111110
ゼン	-12.111148
ープ	-12.111220
▁よそ	-12.111284
▁養育	-12.111311
▁そら	-12.111655
ブルク	-12.111685
▁star	-12.111794
▁性病	-12.112066
▁160	-12.112081
▁1000	-12.112105
申し込み	-12.112110
▁無害	-12.112231
どっち	-12.112391
駆	-12.112527
蓋	-12.112568
▁コラ	-12.112570
抱く	-12.112674
造り	-12.112772
ンブル	-12.113011
▁化し	-12.113075
進行	-12.113138
戦え	-12.113141
屈辱	-12.113257
糞	-12.113259
ポケット	-12.113291
▁ピン	-12.113441
ぐる	-12.113563
▁ずい	-12.113609
ばら	-12.113668
座り	-12.113699
▁攻め	-12.113795
▁サイト	-12.114005
保つ	-12.114151
▁生長	-12.114418
公式	-12.114497
フード	-12.114785
▁ミカエル	-12.114804
ステ	-12.114870
▁介護	-12.115026
宝	-12.115117
哀	-12.115138
▁ジュリア	-12.115144
ミリ	-12.115255
ノス	-12.115351
▁ボタン	-12.115392
踊	-12.115428
フレーム	-12.115461
卿	-12.115462
みなさい	-12.115532
運び	-12.115640
▁しめ	-12.115964
▁ふり	-12.115993
しめ	-12.116096
必然	-12.116208
▁カップ	-12.116362
▁スト	-12.116532
廷	-12.116749
▁渇望	-12.116932
寒い	-12.117473
▁厳格	-12.117540
タイトル	-12.117715
▁ゾウ	-12.117889
▁落ち着き	-12.118009
デスク	-12.118025
手がかり	-12.118032
win	-12.118111
ーラ	-12.118233
▁イベント	-12.118390
▁ガブリエル	-12.118482
▁ステージ	-12.118526
支	-12.118820
▁ハチ	-12.119061
道徳	-12.119415
▁留ま	-12.119623
▁プリ	-12.119662
創世記	-12.119903
ストリー	-12.120137
▁リース	-12.120191
di	-12.120373
▁パレスチナ	-12.120811
それなのに	-12.120876
▁ヨセフス	-12.120998
▁知覚	-12.121062
ease	-12.121106
▁哺乳	-12.121276
争	-12.121283
▁腸	-12.121423
▁仕打ち	-12.121442
地震	-12.121722
おめでとう	-12.122103
son	-12.122105
誘惑	-12.122108
成し遂げ	-12.122140
駐車	-12.122146
農場	-12.122413
▁9;	-12.122435
▁おびえ	-12.122653
▁防衛	-12.123049
▁曲げ	-12.123088
淡	-12.123231
▁伐採	-12.123321
▁127	-12.123466
▁台湾	-12.123523
▁論評	-12.123542
▁スタジアム	-12.123547
▁上位	-12.123576
簡	-12.123642
▁アドレス	-12.123821
▁家々	-12.124176
盗み	-12.124197
わっ	-12.124242
孤児	-12.124297
予告	-12.124346
診断	-12.124382
唱え	-12.124494
論文	-12.124559
イスラー	-12.124606
▁向い	-12.124619
関与	-12.124648
なせ	-12.124731
▁暴	-12.124747
出され	-12.124784
リーン	-12.124799
▁翌朝	-12.124932
▁2,3)	-12.125049
七	-12.125128
▁威	-12.125186
▁保持	-12.125273
▁900	-12.125316
ce	-12.125413
追い	-12.125563
▁地質	-12.125716
▁恋人	-12.126174
▁強烈	-12.126226
▁示せる	-12.126254
all	-12.126295
資料	-12.126585
格好	-12.126675
着陸	-12.126682
▁浴び	-12.127264
▁原住民	-12.127337
▁飲ま	-12.127364
▁動詞	-12.127492
没頭	-12.127579
▁移植	-12.128306
▁手入れ	-12.128344
▁英雄	-12.128624
タバコ	-12.128782
福音	-12.128828
万軍	-12.128914
▁西側	-12.129308
▁キム	-12.129352
▁ウクライナ	-12.129815
▁打ちひし	-12.130061
表記	-12.130189
耕	-12.130652
返り	-12.130658
雌	-12.131020
ショック	-12.131050
▁心痛	-12.131054
エイ	-12.131078
叫ぶ	-12.131173
症状	-12.131179
設	-12.131269
イヤー	-12.131424
▁Web	-12.131535
▁局長	-12.131613
▁怒る	-12.131773
▁ネイサン	-12.131865
▁一因	-12.131974
すみま	-12.132248
▁ビクトリア	-12.132266
▁捕ま	-12.132373
朝食	-12.132518
かわいい	-12.132586
▁97	-12.132683
ちよ	-12.132851
バイト	-12.132977
片付け	-12.133241
▁聖人	-12.133249
子女	-12.133422
▁活	-12.133563
▁ワトソン	-12.133648
▁嘲笑	-12.133802
▁愛す	-12.134040
▁長生き	-12.134136
▁分ける	-12.134387
パル	-12.134399
▁み座	-12.134442
クリア	-12.134489
▁好まし	-12.134673
▁畏敬	-12.134800
ントン	-12.134935
▁ご要求	-12.135007
▁謙	-12.135046
▁グローバル	-12.135051
広告	-12.135520
フリ	-12.135558
▁人命	-12.135838
▁安らか	-12.136067
▁蒸気	-12.136114
ケイ	-12.136147
▁煮	-12.136168
イラ	-12.136179
おかしな	-12.136312
思い出し	-12.136317
▁1,3	-12.136343
寝た	-12.136348
倒す	-12.136427
▁釣り	-12.136440
見張	-12.136899
犯し	-12.136900
▁スーツ	-12.136979
▁グレン	-12.136986
ラベル	-12.137017
▁熟	-12.137528
▁but	-12.137543
イタリア	-12.137869
▁洗う	-12.137924
gr	-12.138131
▁去り	-12.138139
文明	-12.138316
▁戦場	-12.138337
▁千年期	-12.138443
01	-12.138474
費やし	-12.138756
▁タン	-12.138832
万年	-12.138967
▁取決め	-12.138994
▁移入	-12.139088
▁機器	-12.139089
オリ	-12.139093
くら	-12.139117
▁復習	-12.139126
理想	-12.139206
▁持続	-12.139235
▁混ぜ	-12.139570
ビジョン	-12.139728
get	-12.139739
▁装備	-12.139793
wf	-12.139809
▁ゲ	-12.139848
ee	-12.139963
SE	-12.140112
▁泣く	-12.140184
ブルー	-12.140209
▁エミリー	-12.140276
検証	-12.140304
▁酸	-12.140398
▁領土	-12.140501
▁つまら	-12.140631
▁冒険	-12.140865
伸ばし	-12.140895
▁日光	-12.141128
婆	-12.141144
プール	-12.141192
よこせ	-12.141301
週末	-12.141399
▁原語	-12.141400
▁貧	-12.141425
ナル	-12.141437
発作	-12.141562
AME	-12.141768
ist	-12.141770
▁日没	-12.141771
ライフル	-12.142006
塵	-12.142282
暮らす	-12.142287
リアル	-12.142289
不満	-12.142362
▁平方キロ	-12.142371
ケル	-12.142552
コフ	-12.142589
▁見知ら	-12.142617
▁根絶	-12.142689
おかし	-12.142753
従わ	-12.142835
▁マラ	-12.142888
嘆	-12.143067
▁分類	-12.143069
▁こたえ応じる	-12.143176
たぶん	-12.143417
▁免れる	-12.143751
▁造る	-12.143888
リソース	-12.143978
▁合衆国	-12.144015
条	-12.144334
通る	-12.144376
▁秘訣	-12.144610
IT	-12.144968
▁行ける	-12.145390
最中	-12.145536
▁遅	-12.145544
▁軽減	-12.145585
▁ケベック	-12.145621
▁動機づけ	-12.145675
▁カット	-12.145765
▁経費	-12.145931
▁臨み	-12.146235
▁怪物	-12.146293
▁パーティ	-12.146540
▁だいたい	-12.146678
砂漠	-12.146829
od	-12.146912
割り当て	-12.146998
are	-12.147006
溺れ	-12.147109
▁卿	-12.147110
切断	-12.147190
犯す	-12.147450
▁裏付け	-12.147626
▁デモ	-12.147661
got	-12.147835
アプローチ	-12.147856
屋上	-12.147897
▁伝承	-12.147904
舟	-12.147931
書け	-12.148006
▁アーマン	-12.148224
▁パイ	-12.148285
▁読める	-12.148311
▁個性	-12.148491
▁すら	-12.148727
▁庭園	-12.148841
借	-12.148862
▁鉱山	-12.149022
トラブル	-12.149149
印象	-12.149335
陽	-12.149349
▁横断	-12.149649
讃	-12.150096
▁just	-12.150105
知らぬ	-12.150290
▁故国	-12.150314
イイ	-12.150403
▁ラッパ	-12.150508
▁づけ	-12.150521
会場	-12.150848
▁加工	-12.150853
amp	-12.150947
ヴィス	-12.150960
発言	-12.151018
一員	-12.151091
▁アス	-12.151118
▁真夜中	-12.151155
▁叔父	-12.151175
▁ジェット	-12.151285
▁丁	-12.151330
余裕	-12.151397
逃	-12.151670
▁エイミー	-12.151725
借金	-12.151777
▁軍人	-12.151917
出版	-12.152152
▁等しい	-12.152263
浴び	-12.152791
▁探求	-12.152943
▁拒み	-12.152962
ダム	-12.153003
かり	-12.153109
解け	-12.153199
▁農民	-12.153436
旋	-12.153660
▁シャツ	-12.153722
▁インドネシア	-12.153767
飽き	-12.153962
▁translat	-12.154124
▁なのに	-12.154141
▁人質	-12.154158
▁尽くす	-12.154169
役割	-12.154336
ピース	-12.154405
▁サリー	-12.154866
▁清	-12.155237
吐	-12.155263
▁現に	-12.155334
▁80%	-12.155433
▁塗り	-12.155547
▁メモ	-12.155552
査	-12.155907
▁白く	-12.155967
叫び	-12.156008
推定	-12.156021
▁叫び声	-12.156034
背中	-12.156541
たりし	-12.156657
▁ドクター	-12.156699
プラス	-12.156703
▁宿舎	-12.156904
やっと	-12.156975
地面	-12.157237
▁歌詞	-12.157391
▁ネブカドネザル	-12.157392
▁双	-12.157466
▁ビー	-12.157919
殻	-12.157932
▁デル	-12.158000
▁一行	-12.158095
マリ	-12.158178
▁貝	-12.158255
アイディア	-12.158263
ダニエル	-12.158274
酸素	-12.158381
光明	-12.158839
▁適応	-12.158893
傷つける	-12.158927
記者	-12.159068
晒	-12.159141
▁字義	-12.159232
プライ	-12.159485
▁チョコレート	-12.159798
▁ブレ	-12.160157
ows	-12.160424
▁甚だ	-12.160470
払わ	-12.160478
▁惑わ	-12.160577
▁診察	-12.160582
有する	-12.160797
▁文学	-12.160844
▁分配	-12.161117
▁惨事	-12.161132
▁拒む	-12.161446
八	-12.161448
▁眠る	-12.161483
▁照明	-12.161825
▁効	-12.161892
▁うんざり	-12.161990
▁頂点	-12.162171
メロ	-12.162227
▁支払	-12.162405
境界	-12.162904
ジョブ	-12.162938
カナダ	-12.162986
▁レベッカ	-12.163182
▁おじ	-12.163275
▁凡	-12.163282
スタンド	-12.163464
▁輝	-12.163514
▁枯れ	-12.163649
逃が	-12.164031
▁具	-12.164175
▁ぜい	-12.164245
広	-12.164259
▁撃ち	-12.164364
▁まちがい	-12.164419
▁筆	-12.164549
ハート	-12.164611
AC	-12.164616
▁誘わ	-12.164882
▁湿	-12.164926
プラグイン	-12.165199
カテ	-12.165473
▁盗人	-12.165481
▁鳴き声	-12.165608
▁欺く	-12.165616
▁クロス	-12.165709
▁魅	-12.165750
打つ	-12.165891
話しかけ	-12.166322
▁利得	-12.166638
▁探査	-12.166808
締め	-12.166827
59	-12.167019
▁わざと	-12.167149
cit	-12.167217
生理	-12.167292
厚	-12.167403
敬虔	-12.167519
防ぐ	-12.167604
遺産	-12.167649
ケガ	-12.167683
継が	-12.167775
臭	-12.168159
▁避妊	-12.168264
提出	-12.168447
▁1967	-12.168462
大いに	-12.168476
▁カリ	-12.168482
▁time	-12.168487
9,000	-12.168713
げさ	-12.168999
▁赤血球	-12.169158
開か	-12.169531
冒	-12.169566
処分	-12.169625
▁translation	-12.169686
▁スタート	-12.169726
勘	-12.169798
杖	-12.169833
皮膚	-12.169844
ハム	-12.170106
▁全域	-12.170138
▁講	-12.170249
▁国外	-12.170298
▁試みる	-12.170519
▁リベカ	-12.170558
至る	-12.170585
おばさん	-12.170636
▁マヤ	-12.170713
▁届く	-12.170795
見捨て	-12.171070
▁くじ	-12.171158
▁躍る	-12.171230
▁盗む	-12.171310
55	-12.171635
▁ガー	-12.171804
▁2003	-12.171869
▁結び付け	-12.172142
使命	-12.172143
消滅	-12.172192
損傷	-12.172259
態	-12.172293
▁走れ	-12.172418
▁ワニ	-12.172453
レポート	-12.172545
デモ	-12.172639
▁ソール	-12.172727
ool	-12.172730
▁ルーテル	-12.172889
▁バイオ	-12.172932
▁言い表わす	-12.172969
▁サウス	-12.172984
▁南米	-12.173098
▁志	-12.173161
est	-12.173402
▁ケビン	-12.173887
テス	-12.173957
欺	-12.173982
ふれ	-12.174022
▁バグ	-12.174227
ace	-12.174257
臨	-12.174274
1000	-12.174411
▁受け継が	-12.174481
合衆国	-12.174500
▁慈善	-12.174772
会わ	-12.174875
▁生む	-12.175214
▁only	-12.175226
▁法人	-12.175260
▁逆ら	-12.175279
手は	-12.175324
▁詩人	-12.175377
ect	-12.175452
▁破る	-12.175809
レーション	-12.175934
舞	-12.176015
▁除き去る	-12.176426
ナイト	-12.176651
▁迎え入れ	-12.176692
▁槍	-12.176706
逃亡	-12.176847
故郷	-12.176875
▁かたく	-12.177192
▁塊	-12.177348
頑	-12.177430
殆	-12.177470
▁気付か	-12.177478
▁ウェ	-12.177505
▁あいま	-12.177944
9%	-12.177953
gre	-12.178006
生じ	-12.178164
▁浴びせ	-12.178189
テキ	-12.178273
▁内気	-12.178590
▁ガーナ	-12.178787
ウェア	-12.178954
イア	-12.179045
▁高ま	-12.179110
券	-12.179155
レッスン	-12.179186
グレ	-12.179260
▁業界	-12.179265
野球	-12.179374
▁純	-12.179525
▁従え	-12.179754
▁欧州	-12.179831
下ろし	-12.180193
▁おや	-12.180507
▁うまい	-12.180534
浮か	-12.180632
▁前後	-12.180986
▁思慮	-12.181040
▁所長	-12.181041
▁タグ	-12.181495
姫	-12.181526
孤独	-12.181550
イザヤ	-12.181553
舞台	-12.181581
焦点	-12.181595
▁此	-12.181679
成就	-12.181704
▁2004	-12.182082
▁ブロシュアー	-12.182106
梅	-12.182108
ap	-12.182175
▁同棲	-12.182177
▁色彩	-12.182187
吹	-12.182308
▁Thi	-12.182335
頂け	-12.182428
図書	-12.182567
ns	-12.182673
代理	-12.182719
飲め	-12.182787
標的	-12.182873
▁売買	-12.182962
▁汚す	-12.183112
コア	-12.183352
レイン	-12.183393
うんざり	-12.183916
霊的	-12.183920
継続	-12.183944
▁15,16)	-12.183974
ize	-12.184253
つめ	-12.184286
▁37)	-12.184478
ボーイ	-12.184761
覆い	-12.184847
▁方々	-12.184988
▁ローズ	-12.185268
継	-12.185411
そうした	-12.185695
▁救済	-12.185905
▁和らげ	-12.186079
▁属性	-12.186087
風呂	-12.186262
圏	-12.186270
▁グラ	-12.186606
▁決議	-12.186784
別個	-12.186935
▁合理	-12.187320
65	-12.187664
リッジ	-12.187689
▁全米	-12.187772
ツィ	-12.188050
▁願い求め	-12.188517
胎	-12.188598
気落ち	-12.188631
奮闘	-12.188640
げる	-12.188685
許す	-12.188785
アダム	-12.188836
罪深い	-12.188866
金属	-12.188931
▁排出	-12.188932
▁サンパウロ	-12.189111
まう	-12.189394
▁欄	-12.189433
ish	-12.189994
▁被る	-12.189994
▁まね	-12.190336
▁ヘン	-12.190552
▁思い出せ	-12.190653
pg	-12.190693
がち	-12.191032
不能	-12.191155
給料	-12.191230
諜	-12.191441
盗む	-12.191478
▁職務	-12.191782
▁見当	-12.191847
▁体系	-12.191854
▁写	-12.191880
▁ことわざ	-12.191887
▁コース	-12.191976
ディス	-12.192233
▁監	-12.192264
マスター	-12.192287
▁緊	-12.192354
OS	-12.192410
向上	-12.192513
悪化	-12.192677
▁随	-12.192743
駆け	-12.192747
,26	-12.192846
▁一途	-12.192890
▁扱い方	-12.193040
癌	-12.193388
ヘブライ	-12.193401
指輪	-12.193454
報復	-12.193456
ザル	-12.193506
▁Photo	-12.193659
左側	-12.193659
▁ケーブル	-12.193746
▁待ち望む	-12.194031
不要	-12.194062
▁宴	-12.194074
項目	-12.194199
▁お礼	-12.194236
▁口語	-12.194546
▁意味深い	-12.194801
▁壊滅	-12.195196
▁よみがえらせ	-12.195245
▁25%	-12.195451
▁血圧	-12.195581
彩	-12.195680
テロリスト	-12.195924
▁アプリケーション	-12.195935
取れる	-12.196240
rue	-12.196265
▁公会議	-12.196356
▁とっても	-12.196577
ヘン	-12.196599
▁妙	-12.196606
▁タラ	-12.196746
▁海軍	-12.196796
▁受け止め	-12.197244
▁おとな	-12.197275
やれる	-12.197532
ream	-12.197806
報いる	-12.197812
▁マット	-12.198025
▁屈	-12.198121
喧嘩	-12.198166
田舎	-12.198216
カム	-12.198306
▁モン	-12.198383
種族	-12.198411
▁バナナ	-12.198450
崎	-12.198500
▁歓ぶ	-12.198514
▁1,4	-12.198825
lo	-12.198912
とっても	-12.198977
read	-12.198983
▁7,8)	-12.199308
付く	-12.199344
▁濃い	-12.199381
部門	-12.199480
無知	-12.199558
惨	-12.199594
コミュニティ	-12.199600
▁アニー	-12.199649
▁NY	-12.200084
▁労苦	-12.200093
ちが	-12.200167
▁手順	-12.200191
▁暑い	-12.200209
値する	-12.200297
廃	-12.200604
▁下水	-12.200772
の両方	-12.200865
つづけ	-12.200897
▁移転	-12.201022
帰宅	-12.201022
67	-12.201042
▁ジー	-12.201082
▁件数	-12.201137
▁引き出し	-12.201167
▁ぜひとも	-12.201168
▁ジャーナリスト	-12.201196
▁狩猟	-12.201229
ヴェ	-12.201285
▁聞き届け	-12.201303
▁69	-12.201562
玉座	-12.201595
▁生か	-12.201613
悩	-12.201624
▁ふた	-12.201627
凍	-12.201891
▁ウサギ	-12.202100
▁いらっしゃい	-12.202139
▁ヒト	-12.202299
▁働かせ	-12.202555
▁外交	-12.202666
有り	-12.202831
ばか	-12.202888
▁ノート	-12.202956
ドラッグ	-12.202978
文句	-12.203055
▁ネル	-12.203304
ショウ	-12.203318
▁ゼ	-12.203417
▁ごちそう	-12.203497
▁閉	-12.203734
▁タンパク質	-12.203773
▁木々	-12.203957
▁非行	-12.204475
▁れんが	-12.204509
成し	-12.204705
▁踊	-12.204868
▁玉	-12.204971
申	-12.205152
▁Mo	-12.205226
灰	-12.205266
暁	-12.205607
▁オカルト	-12.205625
▁あんま	-12.205722
▁1965	-12.205819
ュ	-12.205900
▁パキスタン	-12.205907
トリック	-12.206011
論理	-12.206082
▁恥ず	-12.206098
余り	-12.206245
こない	-12.206462
チーズ	-12.206645
▁ベス	-12.206906
▁ちく	-12.207038
▁帰せ	-12.207233
暗闇	-12.207402
捨てる	-12.207420
▁注釈	-12.207461
朝早く	-12.207688
内密	-12.207770
浪	-12.207975
未熟	-12.208043
AM	-12.208170
▁支出	-12.208175
れること	-12.208254
引用	-12.208518
兄さん	-12.208523
▁コート	-12.208536
▁チェス	-12.208603
▁辛	-12.208642
▁茶	-12.208792
かげ	-12.208904
マネ	-12.209027
カリ	-12.209404
尋ねる	-12.209913
票	-12.210189
棟	-12.210214
ソフトウェア	-12.210222
づく	-12.210223
陣	-12.210265
三角形	-12.210289
96	-12.210348
ff	-12.210400
▁申し訳ない	-12.210433
▁統一	-12.210474
▁やせ	-12.210494
ジド	-12.210510
,600	-12.210668
交わ	-12.210696
チョウ	-12.210756
▁原理	-12.210972
▁寂しい	-12.210977
ニク	-12.210993
▁欲	-12.211343
▁アメリカン	-12.211400
83	-12.211937
気づか	-12.211970
アプリ	-12.212178
,28	-12.212294
裏切り	-12.212311
,100	-12.212375
アート	-12.212449
停	-12.212618
▁危	-12.212626
成績	-12.212652
応答	-12.212657
永久	-12.212668
周囲	-12.212678
コンテンツ	-12.212768
▁エサウ	-12.212790
事情	-12.212873
▁過ぎ去り	-12.212888
信心深い	-12.212918
▁Re	-12.212936
▁カーラ	-12.213017
最新	-12.213051
▁双子	-12.213212
▁虚偽	-12.213260
飲ま	-12.213290
しり	-12.213430
落とす	-12.213513
▁悔い改める	-12.213519
消える	-12.213790
おさら	-12.213857
行われる	-12.213996
▁sy	-12.214023
フレ	-12.214273
扱わ	-12.214277
▁支	-12.214558
▁ストーリー	-12.214582
▁格	-12.215038
陛下	-12.215087
向ける	-12.215167
性愛	-12.215450
▁ほこり	-12.215549
暮れ	-12.215570
▁半島	-12.215591
▁留守	-12.215796
MP	-12.215920
▁正体	-12.216022
TV	-12.216139
▁感心	-12.216279
渡る	-12.216324
▁ナンシー	-12.216457
ウル	-12.216588
辛い	-12.216777
うつ	-12.216834
封じ	-12.216896
▁廃	-12.216998
▁手伝う	-12.217210
▁ディスコ	-12.217446
ージェント	-12.217463
▁紅海	-12.217588
情熱	-12.217623
ひき	-12.217884
▁杖	-12.218329
,22	-12.218544
▁ローラ	-12.218611
▁主任	-12.218712
64	-12.218819
月間	-12.218904
やく	-12.218981
ーター	-12.218987
▁ノース	-12.219041
▁景色	-12.219109
▁だま	-12.219313
▁付く	-12.219501
Py	-12.219538
▁マスク	-12.219757
▁38)	-12.219903
芝	-12.219962
負債	-12.219975
▁耐え忍	-12.220047
損失	-12.220122
近付	-12.220491
▁同然	-12.220598
ごう	-12.220714
気違い	-12.220814
▁著書	-12.221030
追いかけ	-12.221131
▁進路	-12.221169
77	-12.221340
▁タイラー	-12.221351
コンパ	-12.221354
▁ミツバチ	-12.221419
▁ロープ	-12.221485
チュ	-12.221592
▁ふる	-12.221761
りっぱ	-12.221770
ドロ	-12.221829
▁日中	-12.221879
ニスター	-12.222009
▁WHO	-12.222285
還	-12.222301
▁にくく	-12.222306
▁策略	-12.222322
▁エドワード	-12.222385
▁挿絵	-12.222395
▁幻滅	-12.222442
▁深まり	-12.222556
▁レンズ	-12.222604
▁最適	-12.222611
▁11,12)	-12.222674
▁ストー	-12.223503
部品	-12.223530
洗い	-12.223604
ma	-12.223653
▁艦隊	-12.223961
兆	-12.224129
泳	-12.224257
没	-12.224392
▁カロリー	-12.224478
▁花婿	-12.224835
整理	-12.225000
戻し	-12.225071
▁預	-12.225101
フー	-12.225215
▁ヤコ	-12.225245
クイーン	-12.225296
▁中断	-12.225315
側面	-12.225324
▁不和	-12.225373
▁尊	-12.225413
▁ヒー	-12.225457
▁田	-12.225547
▁飼育	-12.225559
差別	-12.225580
利口	-12.225591
▁ボランティア	-12.225620
▁どけ	-12.225621
神様	-12.225646
▁30%	-12.225714
生か	-12.225776
▁響き	-12.225899
▁初頭	-12.226089
▁晴れ	-12.226156
▁毎朝	-12.226765
AP	-12.227077
舎	-12.227173
索	-12.227179
シフト	-12.227324
▁各国	-12.227343
▁表象	-12.227346
温室	-12.227421
▁狩り	-12.227438
フレッド	-12.227476
BI	-12.227705
失望	-12.227711
十戒	-12.228032
いとこ	-12.228222
叩	-12.228351
▁振	-12.228514
ぴ	-12.228585
▁つまずか	-12.228623
▁後継	-12.228805
▁すげ	-12.228924
▁病原	-12.228952
クビ	-12.229039
▁j	-12.229164
ぐり	-12.229411
▁依り頼む	-12.229729
▁所得	-12.229914
ペット	-12.229917
美術	-12.229927
▁顕微鏡	-12.230341
▁デジタル	-12.230411
▁総会	-12.230556
植	-12.230769
▁まちが	-12.230985
▁ひたすら	-12.231171
▁海面	-12.231250
▁どうにか	-12.231584
▁かく	-12.231756
▁エマ	-12.231988
抑え	-12.232009
江	-12.232075
▁450	-12.232095
▁ヨシヤ	-12.232116
▁照	-12.232325
アルバム	-12.232326
▁スープ	-12.232523
▁宝くじ	-12.233079
集める	-12.233588
▁憤慨	-12.234004
code	-12.234054
▁爪	-12.234074
▁蜜	-12.234256
▁アク	-12.234270
ヴァー	-12.234553
▁アレクサンドロス	-12.234564
よろしく	-12.234770
▁意気	-12.234799
召集	-12.234833
hen	-12.234879
黒人	-12.234935
cl	-12.235130
▁疎通	-12.235504
PS	-12.235589
▁ロケット	-12.235716
おれ	-12.235944
lib	-12.235989
▁エリコ	-12.236050
広く	-12.236067
▁苦	-12.236439
恥ずかしく	-12.236449
▁ボン	-12.236780
▁レーザー	-12.236857
足し	-12.236926
轄	-12.237012
ob	-12.237030
んど	-12.237058
ベーション	-12.237075
考	-12.237253
▁とげ	-12.237505
▁2005	-12.237772
ライズ	-12.237797
cr	-12.237958
pe	-12.238212
笑顔	-12.238411
▁墓地	-12.238445
▁乱暴	-12.238814
▁曲が	-12.239122
▁文法	-12.239164
ーション	-12.239181
▁成す	-12.239339
準	-12.239357
,30	-12.239478
▁アハブ	-12.239513
▁厚い	-12.239573
▁岩石	-12.239628
▁贈	-12.239709
▁嘆	-12.239761
▁見通し	-12.239794
▁まわり	-12.239820
ER	-12.240009
クレ	-12.240170
活用	-12.240186
▁歩け	-12.240212
ーク	-12.240505
▁シーズン	-12.240689
果た	-12.240746
▁皿	-12.240786
部長	-12.240956
機器	-12.240992
肉体	-12.241025
つて	-12.241480
左右	-12.241528
▁スイッチ	-12.241578
▁聴覚	-12.241656
▁卓	-12.242100
冒険	-12.242244
食用	-12.242251
緊張	-12.242253
▁締め	-12.242363
伸び	-12.242482
▁資本	-12.242669
毎年	-12.242832
本部	-12.242959
繰り返す	-12.242971
噛	-12.243873
▁改訂	-12.243949
▁窮	-12.243992
ロイ	-12.244478
▁元々	-12.244868
ワシ	-12.245104
▁順番	-12.245168
通す	-12.245210
ケツ	-12.245241
▁現存	-12.245258
事項	-12.245560
▁復讐	-12.245584
▁ホームズ	-12.245732
▁トー	-12.245984
76	-12.246011
叩き	-12.246306
▁たちまち	-12.246508
録	-12.246563
知らん	-12.246746
療法	-12.246826
ナツメ	-12.246880
▁スタン	-12.247000
ハッ	-12.247143
▁ブドウ	-12.247289
▁殺せ	-12.247414
接近	-12.247423
ウェー	-12.247507
▁飲み過ぎ	-12.247555
なき	-12.247589
出会い	-12.248096
▁築き	-12.248433
ler	-12.248574
▁清掃	-12.248575
囚人	-12.248640
▁悩	-12.248703
▁いだく	-12.249153
アクション	-12.249269
置き換え	-12.249290
旗	-12.249484
▁散ら	-12.249632
幼	-12.249782
きちんと	-12.249785
近親	-12.249849
ピーター	-12.249876
ガラ	-12.250202
移住	-12.250333
▁助け手	-12.250438
つきま	-12.250711
,27	-12.251374
特許	-12.251596
裕	-12.251784
▁斜面	-12.251964
ストレス	-12.251966
鮮	-12.251996
▁TR	-12.252151
プラン	-12.252220
厄介	-12.252308
警戒	-12.252322
▁顧みる	-12.252337
周辺	-12.252389
アラ	-12.252435
並み	-12.252504
りなさい	-12.252665
▁サイエンティスト	-12.252707
悪人	-12.252715
▁ふう	-12.252842
ヴァン	-12.252980
▁薬品	-12.253000
▁捕え	-12.253368
工学	-12.253373
▁マウス	-12.253428
ube	-12.253597
▁排除	-12.253657
▁デスク	-12.253680
add	-12.253854
終わらせ	-12.253925
▁取り計ら	-12.254148
よこしま	-12.254246
ハンド	-12.254283
一言	-12.254425
芽	-12.254648
憶	-12.254711
▁グリ	-12.254739
▁助	-12.254766
▁焼か	-12.254771
▁one	-12.254778
33	-12.254817
爪	-12.254836
妨害	-12.254839
もや	-12.254930
▁引き付け	-12.254980
▁トマト	-12.255286
▁フェリ	-12.255438
圧力	-12.255521
▁撮	-12.255544
▁思わず	-12.255585
ショ	-12.255657
▁フォー	-12.256017
クジラ	-12.256028
ge	-12.256126
ティア	-12.256313
だす	-12.256374
▁言い渡	-12.256451
,25	-12.256617
▁文章	-12.256633
ちょ	-12.256680
▁意向	-12.256800
見事	-12.256833
▁趣	-12.256905
▁未婚	-12.256965
ムシ	-12.256985
▁下がれ	-12.257043
冠	-12.257093
▁噴火	-12.257145
▁あい	-12.257323
ゾンビ	-12.257406
大使	-12.257430
マルヤ	-12.257517
▁巡礼	-12.257526
い事	-12.257607
▁ラリー	-12.257710
▁錠	-12.257741
▁人殺し	-12.257757
,31	-12.257893
グマ	-12.258078
ern	-12.258133
たかも	-12.258354
まずい	-12.258415
▁集い	-12.258976
▁召集	-12.259170
▁役員	-12.259176
思わせ	-12.259241
マジ	-12.259330
▁計り知れない	-12.259345
▁刊行	-12.259355
▁感ずる	-12.259517
▁奥義	-12.259920
及び	-12.259951
苦痛	-12.259959
▁やつ	-12.259989
▁力づけ	-12.260015
▁きたる	-12.260195
避	-12.260237
▁調節	-12.260268
ドゥー	-12.260275
▁条	-12.260280
▁結びつき	-12.260458
ジョージ	-12.260494
独り	-12.260665
ほし	-12.260779
▁叫ぶ	-12.260829
lex	-12.260833
勇	-12.261148
▁たたき	-12.261451
▁親し	-12.261460
下す	-12.261631
塞	-12.261763
▁ロジャー	-12.261821
▁フィリスティア	-12.261858
▁オゾン	-12.261892
▁方針	-12.262139
アード	-12.262386
▁虚	-12.262429
パソコン	-12.262464
怖く	-12.262490
あきらめ	-12.262530
認	-12.262574
今朝	-12.262612
▁議長	-12.262628
▁予備	-12.262726
年若い	-12.262812
問い	-12.262813
▁仰	-12.262902
▁分派	-12.262980
内側	-12.263481
▁九	-12.263515
▁葬儀	-12.263697
▁猿	-12.264229
猛	-12.264272
▁ボリビア	-12.264380
▁細い	-12.264386
▁混	-12.264389
▁動植物	-12.264414
▁12,13)	-12.264477
▁論題	-12.264503
▁take	-12.264514
▁思いがけ	-12.264546
骨折	-12.264664
回数	-12.264859
▁敬い	-12.264863
拾	-12.264982
忍耐	-12.265061
設置	-12.265062
▁追い出し	-12.265155
ニャ	-12.265254
▁せいぜい	-12.265307
金庫	-12.265342
デュ	-12.265363
▁前半	-12.265536
ell	-12.265581
眠れ	-12.265620
ハンサム	-12.265782
▁アンドリュー	-12.265939
動かし	-12.266666
▁憤	-12.266671
デール	-12.266715
クト	-12.266734
▁釣り合い	-12.266936
られず	-12.266944
▁戦時	-12.266988
▁とりあ	-12.267023
▁綱	-12.267070
▁トゥ	-12.267255
▁申し上げ	-12.267308
▁へび	-12.267336
▁部品	-12.267363
MA	-12.267499
永	-12.267557
トリー	-12.267560
▁救い出す	-12.267610
苦難	-12.267619
天国	-12.267697
▁あくまで	-12.267778
が重要	-12.268040
付か	-12.268359
▁43)	-12.268491
伝達	-12.268585
訪れる	-12.268622
▁仕返し	-12.268818
▁拒絶	-12.268886
34	-12.268943
恨	-12.269175
仮想	-12.269382
切れる	-12.269460
▁診療	-12.269567
ならず	-12.269584
▁重く	-12.270014
午前	-12.270016
悪事	-12.270080
▁ジュ	-12.270164
簿	-12.270204
▁18;	-12.270279
処罰	-12.270298
着け	-12.270462
▁ダニ	-12.270830
▁さらす	-12.270936
▁大臣	-12.271072
▁見極める	-12.271072
ロール	-12.271260
▁取り去	-12.271386
▁演説	-12.271514
▁地雷	-12.271604
たま	-12.271677
inte	-12.271819
▁フレッド	-12.271934
▁建	-12.271934
▁暗黒	-12.271973
▁河川	-12.271991
▁リポート	-12.272200
▁ヘロイン	-12.272515
▁薄	-12.272534
ice	-12.272545
▁用い方	-12.272545
▁少なから	-12.272546
▁声明	-12.272652
▁アレク	-12.273466
後代	-12.273698
▁憎み	-12.273893
楽しく	-12.273902
▁取り上げる	-12.274006
ステージ	-12.274376
The	-12.274524
▁ケーキ	-12.274530
▁ひとたび	-12.274541
▁取れる	-12.274985
台なし	-12.275060
▁暦	-12.275249
爆破	-12.275371
無料	-12.275519
▁さかのぼ	-12.275576
▁温暖	-12.275663
狙い	-12.275715
ボク	-12.276027
浮	-12.276061
メモ	-12.276097
▁オリビア	-12.276317
親し	-12.276543
▁とり	-12.276555
ヘッド	-12.276564
ライダー	-12.276750
▁複合	-12.276787
▁ティンダル	-12.277067
齢	-12.277089
▁整理	-12.277120
キャプ	-12.277142
▁ベー	-12.277250
▁テレサ	-12.277431
貨	-12.277516
▁昇	-12.277717
▁アンディ	-12.277763
粗	-12.277920
85	-12.277961
野獣	-12.278142
▁済ま	-12.278249
▁キューバ	-12.278265
授	-12.278387
▁落ち込	-12.278526
▁脅かし	-12.278636
▁及ば	-12.278644
sa	-12.278655
▁59	-12.278964
▁間違え	-12.278977
▁カレンダー	-12.279049
ブログ	-12.279217
▁エクス	-12.279285
,24	-12.279511
▁アルバム	-12.279587
捨てろ	-12.279613
▁エクアドル	-12.279625
▁Canada	-12.279626
▁前方	-12.279669
▁雄牛	-12.279698
▁王妃	-12.280281
糧	-12.280434
資格	-12.280531
注射	-12.280538
▁郡	-12.280700
清め	-12.280861
▁すべ	-12.281019
▁ほめたたえ	-12.281039
戯れ	-12.281054
▁面白	-12.281315
投げ込	-12.281408
導入	-12.281553
▁戻れ	-12.282142
▁フィリポ	-12.282214
無線	-12.282278
▁移し	-12.282800
詳しい	-12.283125
メーカー	-12.283148
▁肥料	-12.283246
飢え	-12.283376
お疲れ	-12.283394
添え	-12.283483
▁ぶり	-12.283521
ニウム	-12.283896
つぶ	-12.283954
▁ヘリコプター	-12.284023
▁配達	-12.284575
▁芸	-12.284615
符	-12.284694
IP	-12.284715
▁ためらう	-12.284830
換	-12.284848
▁霧	-12.284892
奪う	-12.285013
壊し	-12.285110
▁放射能	-12.285366
▁メル	-12.285460
▁順位	-12.285490
▁学問	-12.285625
▁ハロー	-12.285882
51	-12.285887
やめる	-12.286050
▁疑	-12.286128
急ぎ	-12.286294
ドック	-12.287008
一斉に	-12.287016
シオン	-12.287423
インタ	-12.287580
ピク	-12.287796
夜中	-12.287798
▁浜辺	-12.287927
▁喪失	-12.287942
解き	-12.288062
▁テン	-12.288154
ive	-12.288218
▁お手伝い	-12.288287
妄想	-12.288340
▁惜し	-12.288343
▁DVD	-12.288383
▁保て	-12.288455
ブランド	-12.288464
▁大佐	-12.288469
▁松	-12.288497
▁初子	-12.288549
国々	-12.288667
イー	-12.288668
スライ	-12.288848
▁つまずき	-12.288992
▁Cons	-12.289054
▁パニック	-12.289067
げん	-12.289081
少数	-12.289357
▁投げかけ	-12.289493
地方	-12.289631
▁1946	-12.290092
の保護	-12.290103
およそ	-12.290143
いかに	-12.290161
▁ポイント	-12.290168
down	-12.290534
▁呼び求める	-12.290799
CD	-12.290892
▁un	-12.290901
ゾナ	-12.291140
発射	-12.291180
▁タンク	-12.291280
儀	-12.291339
オーバー	-12.291350
▁棚	-12.291870
▁苦々し	-12.291943
流し	-12.292244
除き	-12.292352
思い出せ	-12.292414
▁提唱	-12.292471
▁癖	-12.292490
▁グラス	-12.292670
捕獲	-12.292858
▁年鑑	-12.292921
▁オオカミ	-12.292953
用語	-12.292973
ハニ	-12.293034
▁誇る	-12.293050
まみれ	-12.293061
▁堂	-12.293322
アジア	-12.293717
マルコ	-12.293771
▁普及	-12.293915
▁トル	-12.293985
▁孤児	-12.294069
ワット	-12.294251
汚	-12.294346
適正	-12.294627
▁ブラン	-12.294691
▁障壁	-12.294862
▁13;	-12.294868
°	-12.295110
▁肢体	-12.295237
▁くだら	-12.295336
ext	-12.295831
温度	-12.295886
甲	-12.296194
▁入り込	-12.296204
朝鮮	-12.296265
賜物	-12.296339
チケット	-12.296341
ついに	-12.296576
バリー	-12.296668
▁ヌ	-12.297167
▁雷	-12.297241
▁歯科	-12.297353
▁ペンキ	-12.297365
▁平穏	-12.297371
▁浮か	-12.297703
伍	-12.297712
建	-12.297731
▁お話	-12.297934
母さん	-12.297994
セス	-12.298106
▁ヘリ	-12.298135
相応し	-12.298228
ぶら	-12.298433
▁ペース	-12.298915
絶滅	-12.298919
利用でき	-12.298948
動脈	-12.298961
ズム	-12.299120
▁タイトル	-12.299448
▁見せかけ	-12.299591
▁侵害	-12.299891
▁引き渡	-12.300261
ドール	-12.300292
▁マケドニア	-12.300306
岡	-12.300321
ちょう	-12.300379
スロー	-12.300429
▁尽き	-12.300682
▁風景	-12.300800
▁奇	-12.300904
▁訪ねる	-12.301014
関わり	-12.301156
旧	-12.301228
▁91	-12.301301
▁リズム	-12.301320
▁60%	-12.301374
貧困	-12.301558
▁諸君	-12.301562
ゆま	-12.301618
金額	-12.301985
▁慈悲	-12.302299
ーグル	-12.302484
リャ	-12.302530
EO	-12.302629
▁万一	-12.302720
沃	-12.302942
▁索引	-12.302943
▁殺りく	-12.302945
▁むすこ	-12.302973
▁往々	-12.303019
der	-12.303053
▁カルロス	-12.303074
リュ	-12.303197
▁催し	-12.303289
支払う	-12.303299
汚い	-12.303309
▁衰退	-12.303349
▁サポート	-12.303482
▁コウモリ	-12.303503
400	-12.303796
むしろ	-12.303884
倒し	-12.303909
スビー	-12.304091
オンライン	-12.304252
例外	-12.304504
▁世論	-12.304593
ミルク	-12.304688
▁礼	-12.304703
▁アイザック	-12.304752
▁爆破	-12.304765
uk	-12.304834
▁ウッド	-12.304923
度々	-12.304986
晴れ	-12.304996
▁フィルム	-12.305001
ダース	-12.305028
ルト	-12.305126
人種	-12.305283
▁シンガポール	-12.305394
▁バンド	-12.305520
▁ザンビア	-12.305567
稚	-12.305567
▁風潮	-12.305621
▁押さ	-12.305730
増し	-12.305736
センチ	-12.305742
31	-12.305820
▁ラム	-12.305839
lock	-12.306134
▁争	-12.306200
▁4.0	-12.306216
▁45)	-12.306353
▁賢人	-12.306516
ose	-12.306532
▁グローブ	-12.306540
▁St	-12.306655
ベスト	-12.306660
▁見守る	-12.306736
分ける	-12.306775
,29	-12.306803
祖父	-12.306945
▁節度	-12.307025
ピア	-12.307119
▁内戦	-12.307153
he	-12.307186
▁開ける	-12.307206
ミル	-12.307281
▁手続き	-12.307291
▁こんばん	-12.307306
んぞ	-12.307455
▁105	-12.307502
▁再度	-12.307524
elect	-12.307556
▁諦	-12.307590
触れる	-12.308002
▁芝	-12.308143
▁盛り	-12.308303
▁水平	-12.308497
43	-12.308615
白人	-12.308660
▁指し示	-12.308797
ul	-12.309107
▁ヌー	-12.309266
▁出来上が	-12.309283
離し	-12.309350
▁やむ	-12.309390
鎖	-12.309465
66	-12.309551
コリント	-12.309552
トレイ	-12.309604
▁敷	-12.309629
▁新生	-12.309629
ヘイ	-12.309664
おお	-12.309857
▁ヒル	-12.309965
▁ならわし	-12.310026
折り	-12.310133
焼け	-12.310405
▁勃発	-12.310586
▁カウンセラー	-12.310858
揃	-12.310881
▁ハリケーン	-12.310935
▁So	-12.311080
山岳	-12.311119
▁食堂	-12.311563
▁クイン	-12.311597
▁ラクダ	-12.311634
歌う	-12.311711
▁ステップ	-12.311826
▁置いて	-12.311857
思える	-12.311990
▁統合	-12.312124
復讐	-12.312216
統合	-12.312304
ジャンプ	-12.312314
PI	-12.312368
おじさん	-12.312388
▁ベラ	-12.312435
▁おう	-12.312485
風邪	-12.312492
上級	-12.312699
text	-12.312778
女子	-12.312830
▁引き裂	-12.312974
バート	-12.312975
▁ニュートン	-12.313131
▁作り話	-12.313208
貧者	-12.313281
▁じか	-12.313302
▁柔らかい	-12.313396
▁ゴモラ	-12.313489
▁1941	-12.313581
きっ	-12.313598
▁現わし	-12.313934
▁ナイ	-12.314057
▁漂	-12.314095
▁賭け	-12.314288
▁兆候	-12.314407
当たる	-12.314433
▁君主	-12.314791
知らせる	-12.314793
▁汚し	-12.314889
▁探り	-12.314974
サブ	-12.315156
▁クー	-12.315165
▁寺院	-12.315188
通知	-12.315434
▁突き止め	-12.315439
重さ	-12.315553
▁祝祭	-12.315855
▁差し迫	-12.316167
▁微小	-12.316246
▁遺物	-12.316338
▁アイデア	-12.316880
クリス	-12.317218
▁ドラゴン	-12.317220
▁セプトゥアギンタ	-12.317249
▁愛着	-12.317288
▁ハート	-12.317325
▁写し	-12.317467
ッティ	-12.317510
▁レイチェル	-12.317534
鉱	-12.317567
象徴	-12.317616
タクシー	-12.317648
▁苦情	-12.318056
人殺し	-12.318068
くして	-12.318080
楽しむ	-12.318082
▁疲れ果て	-12.318586
way	-12.319115
カタ	-12.319213
▁弾丸	-12.319243
▁礼儀	-12.319266
出血	-12.319311
▁購	-12.319507
分類	-12.319514
▁接し方	-12.319841
the	-12.320064
オーストラリア	-12.320313
征服	-12.320347
判明	-12.320533
▁飼	-12.320627
▁フットボール	-12.320659
マリア	-12.320911
▁3,	-12.320941
祭り	-12.321054
▁服役	-12.321179
すな	-12.321189
※	-12.321461
▁アンティオキア	-12.321462
▁父上	-12.321537
▁78	-12.321581
▁おびただしい	-12.321642
敗	-12.321690
スタンス	-12.321714
▁原始	-12.321749
▁ワン	-12.321861
▁パン種	-12.322039
jw	-12.322174
▁広まり	-12.322244
▁ダー	-12.322610
どけ	-12.322751
▁ぬぐい去	-12.323026
RE	-12.323054
光景	-12.323065
ホームズ	-12.323312
▁中間	-12.323348
▁混合	-12.323361
▁そっくり	-12.323387
▁8,9)	-12.323535
▁下痢	-12.323754
▁返す	-12.323796
添	-12.323975
▁冒	-12.324000
▁電池	-12.324005
憲	-12.324042
▁95	-12.324102
▁キプロス	-12.324135
▁もてなす	-12.324159
中身	-12.324194
▁寄生虫	-12.324203
ざま	-12.324341
悲劇	-12.324417
▁閣下	-12.324466
▁ちょ	-12.324829
ょ	-12.325281
EN	-12.325667
▁最中	-12.325734
ドラゴン	-12.325751
収益	-12.325755
▁存	-12.325974
▁ノック	-12.326072
モント	-12.326123
チア	-12.326195
体制	-12.326255
ぶる	-12.326807
ロープ	-12.326840
▁アブラム	-12.327057
▁幾十	-12.327102
▁ルイ	-12.327335
▁All	-12.327428
▁ビッグ	-12.327570
▁軟	-12.327718
恐ろしく	-12.327775
▁判明	-12.328166
拷問	-12.328460
負担	-12.328489
▁基づ	-12.328496
垂	-12.328617
▁ざ	-12.328677
名簿	-12.328687
▁夜明け	-12.328816
▁殺し屋	-12.328820
▁弱め	-12.329104
ml	-12.329203
誤差	-12.329288
とどまら	-12.329313
▁けれど	-12.329462
μ	-12.329502
プロトコル	-12.329509
▁振動	-12.329563
スキル	-12.329578
普遍	-12.329607
▁格言	-12.329663
▁通報	-12.329697
▁解雇	-12.329755
▁図表	-12.329798
▁隅	-12.329800
必	-12.329818
▁カリブ	-12.329877
▁クロー	-12.329919
明るい	-12.330088
みが	-12.330564
応報	-12.330618
笑う	-12.330870
3)	-12.330874
▁ありがたい	-12.330888
EX	-12.330916
ざり	-12.331077
マイケル	-12.331209
満たす	-12.331223
▁物価	-12.331391
▁ho	-12.331415
▁やけど	-12.331469
教室	-12.331590
慰め	-12.332071
▁チェ	-12.332194
▁陣営	-12.332203
cess	-12.332271
▁減らし	-12.332288
▁99	-12.332403
憂い	-12.332465
堂	-12.332713
ニヤ	-12.332771
▁通じる	-12.332793
▁幕	-12.332829
ブレ	-12.332968
▁受精	-12.333045
▁所属	-12.333076
▁得意	-12.333186
ペル	-12.333608
▁罰金	-12.333717
るという	-12.333982
▁レジ	-12.334031
話し合	-12.334083
▁濃	-12.334091
ツァ	-12.334620
同然	-12.334622
▁2009	-12.334902
❑	-12.334903
ッソ	-12.335436
▁出費	-12.335670
▁2010	-12.335779
▁how	-12.335779
▁怠惰	-12.335801
壊す	-12.335830
▁変異	-12.335895
▁幼子	-12.336090
▁手助け	-12.336170
▁水路	-12.336185
▁県	-12.336576
▁われら	-12.336599
大戦	-12.336600
涼	-12.336789
now	-12.336913
▁ジュリエット	-12.336919
日曜	-12.336946
相続	-12.336959
▁性交	-12.337027
概	-12.337424
▁エス	-12.337487
▁明かり	-12.337508
▁1963	-12.337785
ピーク	-12.337852
▁見失	-12.337880
▁果実	-12.337901
弟子	-12.337934
72	-12.337936
植え	-12.337951
▁ウォル	-12.338012
スキ	-12.338059
▁賢	-12.338170
▁通わせる	-12.338276
データの	-12.338387
盛り	-12.338501
やし	-12.338887
▁山地	-12.339042
▁引き金	-12.339064
▁増し加える	-12.339116
リンゴ	-12.339201
▁わく	-12.339371
寄付	-12.339395
捧げる	-12.339732
PD	-12.339733
召し	-12.339862
net	-12.340204
▁La	-12.340372
▁マーティン	-12.340412
安い	-12.340438
▁改良	-12.340513
▁落とす	-12.340636
▁傷つ	-12.340867
▁ぶっ	-12.341022
ment	-12.341185
▁異言	-12.341682
▁オープン	-12.341705
▁際立た	-12.341918
硬	-12.342097
▁喉	-12.342153
傾け	-12.342196
どんどん	-12.342197
ボストン	-12.342490
年上	-12.342581
掘	-12.342837
▁25,26	-12.343233
▁材	-12.343248
▁108	-12.343389
欲する	-12.343412
募	-12.343435
▁思い煩	-12.343546
▁中身	-12.343736
▁パイプ	-12.343835
撃て	-12.343987
▁おばあちゃん	-12.343988
▁ならせ	-12.344241
栄え	-12.344346
78	-12.344737
痕	-12.344895
デジタル	-12.344963
▁弓	-12.345043
▁目立つ	-12.345115
求	-12.345177
繕	-12.345786
覗	-12.345786
▁最古	-12.346291
▁詰ま	-12.346318
68	-12.346470
ゲー	-12.346499
▁一環	-12.346631
スタッフ	-12.346893
甘い	-12.346904
▁ボル	-12.346946
モール	-12.346951
▁絵画	-12.347293
モンスター	-12.347305
▁ステ	-12.347338
隣人	-12.347472
▁びん	-12.347518
str	-12.347651
湿	-12.347742
倉庫	-12.347750
栄養	-12.347758
追求	-12.347762
しばしば	-12.347778
イング	-12.347849
▁帰する	-12.347865
虐殺	-12.347961
ベラ	-12.348065
93	-12.348204
今後	-12.348603
▁即位	-12.348619
▁奪い	-12.348619
▁ちがい	-12.348783
抜ける	-12.348939
ヒト	-12.349439
▁不能	-12.349776
高度	-12.350126
一定	-12.350185
▁投与	-12.350204
巡礼	-12.350533
講演	-12.350585
▁崩れ	-12.350652
89	-12.350782
▁がんば	-12.351027
守ら	-12.351213
慈	-12.351253
▁キュロス	-12.351283
なんとか	-12.351288
愚鈍	-12.351333
応え	-12.351354
昇	-12.351422
現わす	-12.351489
タマ	-12.351576
ポリシー	-12.351667
▁消す	-12.352035
▁側面	-12.352312
▁ジェイコブ	-12.352444
CC	-12.352484
クリ	-12.352683
▁渡す	-12.352859
果たす	-12.352936
暗殺	-12.352957
グローバル	-12.353323
睡眠	-12.353333
載せ	-12.353516
▁love	-12.353679
▁守れ	-12.353767
ボーン	-12.353783
▁ウィルソン	-12.353977
▁幾十億	-12.354324
uck	-12.354364
ほら	-12.354506
▁ののしり	-12.354701
留守	-12.354730
▁ナイル	-12.354815
▁済	-12.355046
揺	-12.355194
54	-12.355397
▁将校	-12.355593
▁リード	-12.355717
▁きっぱり	-12.355720
ッキング	-12.355742
▁チュー	-12.355833
買え	-12.355886
▁整える	-12.355920
喉	-12.356118
順番	-12.356302
しすぎ	-12.356334
代償	-12.356621
使い方	-12.356688
すっかり	-12.356692
の海	-12.356737
▁ニコチン	-12.356796
▁連れ去	-12.357224
▁10,11)	-12.357238
1958	-12.357301
▁カスタ	-12.357388
▁包み	-12.357592
▁継	-12.357636
▁ソース	-12.357759
▁変動	-12.357868
ホスト	-12.357964
▁シベリア	-12.358236
南東	-12.358377
集会	-12.358377
荒	-12.358412
▁おじさん	-12.358448
ツェ	-12.358488
▁70%	-12.358509
六	-12.358901
欄	-12.358931
AT	-12.358973
気候	-12.359026
オレンジ	-12.359182
ファイ	-12.359285
▁アフガニスタン	-12.359420
▁王位	-12.359517
▁敬礼	-12.359583
かぶ	-12.359587
▁教え方	-12.359599
ally	-12.359795
すべ	-12.360044
食う	-12.360147
▁台風	-12.360162
▁覚まし	-12.360402
▁愛し合う	-12.360407
頼り	-12.360600
ラプラス	-12.360633
▁パル	-12.360667
作れ	-12.360673
れるように	-12.360749
覚まし	-12.360755
戯	-12.360784
▁透明	-12.360848
▁泳	-12.360987
▁体育	-12.360999
▁戦後	-12.361028
▁ラベル	-12.361305
▁居留	-12.361306
▁いす	-12.361525
書き換え	-12.361597
指摘	-12.361764
▁幾万	-12.361801
ポリス	-12.361897
▁ふん	-12.362000
▁占領	-12.362024
お兄さん	-12.362052
▁ケリー	-12.362206
,32	-12.362327
踪	-12.362339
▁毛布	-12.362374
▁幼虫	-12.362399
▁ハガイ	-12.362408
8)	-12.362411
▁29,30	-12.362574
育てる	-12.362592
▁案	-12.363243
ポリ	-12.363922
▁動け	-12.363977
ローズ	-12.364119
ag	-12.364150
▁夕	-12.364188
▁逐	-12.364456
▁金額	-12.364537
プログラミング	-12.364563
がけ	-12.364850
▁陶器	-12.365143
ted	-12.365176
42	-12.365264
▁取得	-12.365468
▁圧	-12.365470
買い物	-12.365481
▁Sh	-12.365506
▁部長	-12.365561
▁廊下	-12.365722
▁せっか	-12.365889
▁フランシス	-12.366102
▁むずかしい	-12.366109
▁ファッション	-12.366224
▁かご	-12.366371
▁重き	-12.366387
▁摂	-12.366415
役立た	-12.366590
▁幻覚	-12.366767
▁奥様	-12.366823
作れる	-12.367032
au	-12.367110
▁採掘	-12.367124
▁明る	-12.367208
パイロット	-12.367414
激しい	-12.367586
傾き	-12.367599
▁溝	-12.367666
count	-12.367714
▁夫妻	-12.367738
手伝い	-12.367805
ザック	-12.367812
▁害する	-12.367972
▁観念	-12.368164
▁生き返ら	-12.368173
▁24,25)	-12.368213
▁バーバラ	-12.368288
外科	-12.368335
▁ファー	-12.368365
▁容姿	-12.368370
error	-12.368515
fe	-12.368595
▁試す	-12.368623
▁隻	-12.368805
▁薄れ	-12.368996
▁推し進める	-12.369039
哲学	-12.369066
▁シスター	-12.369287
▁高官	-12.369379
▁ブラッド	-12.369786
上げろ	-12.369802
凡	-12.369984
▁大国	-12.370043
既	-12.370112
▁ターゲット	-12.370127
放棄	-12.370295
動揺	-12.370350
偵	-12.370537
あり得	-12.370675
▁サンヘドリン	-12.370719
▁再婚	-12.370960
5)	-12.371131
低下	-12.371470
奥地	-12.371490
報道	-12.371602
▁Ma	-12.371888
イド	-12.372103
惑わ	-12.372163
▁合同	-12.372499
たびたび	-12.372643
捕	-12.372901
▁生成	-12.372945
▁正に	-12.373014
唇	-12.373098
牧師	-12.373144
▁ハニー	-12.373220
チャック	-12.373224
▁スタ	-12.373281
▁ボアズ	-12.373528
累	-12.373530
▁訳出	-12.373652
▁抜き	-12.373663
苦手	-12.373694
探偵	-12.373712
狩り	-12.373713
電力	-12.373716
香り	-12.373748
ユニット	-12.373957
転送	-12.373992
思いやり	-12.374076
巡	-12.374090
昼食	-12.374098
▁就き	-12.374173
律	-12.374242
▁打ち上げ	-12.374357
▁ゾー	-12.374371
▁ミシ	-12.374436
line	-12.374452
▁出生	-12.374479
っくり	-12.375127
▁飢餓	-12.375332
▁漸	-12.375372
ーダム	-12.375474
▁さらし	-12.375532
金貨	-12.375641
っぺ	-12.375840
インデックス	-12.375937
財布	-12.375969
98	-12.375990
遊ぶ	-12.376175
盲目	-12.376176
▁慰める	-12.376273
▁カラム	-12.376334
▁商店	-12.376432
大佐	-12.376485
▁嫁	-12.376493
確証	-12.376503
▁成熟	-12.376534
▁any	-12.376584
祖母	-12.376657
シル	-12.376659
97	-12.376687
▁潮	-12.376787
▁遊ぶ	-12.376823
▁サムソン	-12.376826
ハール	-12.376907
判決	-12.376962
ゼット	-12.377146
▁きる	-12.377470
▁便	-12.377501
▁性向	-12.377615
担っ	-12.378131
ランプ	-12.378175
▁ドレス	-12.378303
シック	-12.378456
95	-12.378544
▁遭わ	-12.378658
降りる	-12.378670
▁正さ	-12.378705
膝	-12.378815
お茶	-12.378937
儀式	-12.378944
ぐら	-12.378983
▁整備	-12.379038
▁それなり	-12.379100
▁悩ませ	-12.379166
▁資材	-12.379169
▁供え物	-12.379283
ベット	-12.379752
ブー	-12.379822
見失	-12.380044
浸	-12.380293
▁1,5	-12.380364
望ましく	-12.380402
▁ステファノ	-12.380607
▁キャプ	-12.380707
▁幽霊	-12.380857
テオ	-12.380894
隅	-12.380958
強化	-12.381148
ニュ	-12.381492
▁後退	-12.381689
模様	-12.381730
採用	-12.381779
フォーム	-12.381789
▁ルーク	-12.381905
ゲノム	-12.382002
該	-12.382003
カール	-12.382026
▁弁明	-12.382096
祝	-12.382154
▁楽しめ	-12.382249
乗っ	-12.382259
▁柔軟	-12.382277
▁辞め	-12.382497
▁買わ	-12.382602
▁恐竜	-12.382863
▁身長	-12.382921
▁つかま	-12.383165
人工	-12.383174
▁浮かぶ	-12.383227
▁予知	-12.383445
▁しきり	-12.383524
役目	-12.383565
びり	-12.383754
セキュリティ	-12.383990
セイ	-12.384019
グレー	-12.384065
救出	-12.384449
留ま	-12.384588
宝石	-12.384622
[...]
