<unk>	0.000000
<s>	0.000000
</s>	0.000000
,	-3.055251
▁	-3.250691
。	-3.585734
的	-4.054946
、	-4.257609
和	-4.413256
)	-4.984206
年	-5.017228
(	-5.100958
在	-5.124698
月	-5.452179
;	-5.538858
》	-5.596428
?	-5.618023
《	-5.637899
了	-5.725644
对	-5.839660
:	-5.843443
▁-	-5.846124
是	-5.895530
.	-5.898118
▁"	-5.958220
与	-5.971818
或	-6.030806
为	-6.053939
第	-6.063902
/	-6.098615
日	-6.117801
中	-6.169991
以及	-6.223162
并	-6.281846
将	-6.313648
1	-6.345709
▁(	-6.366496
包括	-6.410896
▁我	-6.469241
我	-6.487020
问题	-6.501270
以	-6.518392
有	-6.524640
▁在	-6.575310
人	-6.577001
3	-6.594815
关于	-6.625559
!	-6.627179
2	-6.637169
你	-6.645201
6	-6.655554
▁你	-6.659735
就	-6.664467
A	-6.670702
其	-6.707326
4	-6.718374
不	-6.719370
国家	-6.721238
时	-6.725595
向	-6.751402
上	-6.764589
提供	-6.776631
5	-6.778764
而	-6.780665
7	-6.785161
12	-6.796108
...	-6.811220
他	-6.829709
委员会	-6.845563
进行	-6.852391
工作	-6.895153
公约	-6.908163
9	-6.922268
10	-6.929882
通过	-6.933632
方面	-6.941770
及	-6.957877
有关	-6.981528
联合国	-7.003014
我们	-7.011365
·	-7.028581
从	-7.045724
报告	-7.065125
也	-7.077450
8	-7.086263
条	-7.086506
方案	-7.087753
a	-7.092144
应	-7.099767
政府	-7.108165
个	-7.129853
到	-7.132069
需要	-7.133618
)。	-7.135368
于	-7.141194
号决议	-7.144454
地	-7.149284
执行	-7.151699
这些	-7.155931
段	-7.160169
一个	-7.165032
来	-7.165786
11	-7.169813
国际	-7.174433
由	-7.179437
被	-7.180644
活动	-7.184913
所	-7.192152
没有	-7.219748
先生	-7.223102
根据	-7.226304
都	-7.231923
说	-7.237899
-	-7.245402
b	-7.252326
支持	-7.264768
“	-7.268563
他们	-7.275409
会议	-7.280336
要求	-7.281032
可	-7.283833
但	-7.295936
所有	-7.313969
一	-7.316120
要	-7.321990
还	-7.334162
已	-7.351664
▁他	-7.360675
吗	-7.360721
建议	-7.376223
代表	-7.377101
发展	-7.385818
该	-7.387936
▁我们	-7.388767
会	-7.400862
项目	-7.403760
可以	-7.409599
它	-7.419035
下	-7.419119
法	-7.426254
继续	-7.429599
者	-7.440025
性	-7.447282
”	-7.448582
妇女	-7.462040
后	-7.466007
C	-7.466010
组织	-7.469953
作为	-7.472722
使	-7.473222
合作	-7.477839
已经	-7.482755
等	-7.494132
她	-7.496398
必须	-7.497273
促进	-7.503369
情况	-7.514804
使用	-7.518131
机构	-7.538644
30	-7.541351
美元	-7.552839
这一	-7.556419
行动	-7.567988
▁--	-7.574595
可能	-7.577752
c	-7.580903
的报告	-7.589582
名	-7.594732
参与	-7.595595
认为	-7.602557
经济	-7.612409
规定	-7.612745
日第	-7.617633
管理	-7.631274
保护	-7.633840
确保	-7.636120
这	-7.636469
处理	-7.638185
措施	-7.641516
20	-7.643799
法律	-7.643992
决定	-7.645922
同	-7.647703
审查	-7.649532
实施	-7.651064
政策	-7.655879
号	-7.658161
建立	-7.659189
内	-7.664566
加强	-7.667799
大会	-7.669275
把	-7.670311
15	-7.682648
服务	-7.687726
吧	-7.688856
特别是	-7.691848
获得	-7.693394
能	-7.702583
这种	-7.703940
任何	-7.719466
提出	-7.721203
社会	-7.724082
即	-7.725202
L	-7.727804
大	-7.736097
计划	-7.739812
S	-7.742591
努力	-7.742807
日至	-7.748085
增加	-7.751161
款	-7.757057
儿童	-7.758701
区域	-7.767466
至	-7.769429
其他	-7.769991
▁第	-7.771833
▁因此	-7.776628
采取	-7.777628
新	-7.784534
开展	-7.803153
能够	-7.809624
去	-7.811925
▁2.	-7.817026
▁此外	-7.821348
的人	-7.827063
缔约国	-7.830156
一些	-7.833523
及其	-7.834366
里	-7.834734
教育	-7.835442
各	-7.837623
战略	-7.838622
实现	-7.839349
18	-7.840558
▁1.	-7.841271
解决	-7.842072
用	-7.846162
前	-7.849744
的工作	-7.849912
因为	-7.858791
讨论	-7.859958
"	-7.867128
特别	-7.870767
安全	-7.874672
审议	-7.878810
更	-7.880193
d	-7.881502
▁关于	-7.881621
以便	-7.882684
确定	-7.887008
提交	-7.887709
技术	-7.888638
得到	-7.898135
秘书处	-7.900782
机制	-7.906851
人权	-7.919922
文件	-7.920277
啊	-7.922330
给	-7.928153
参加	-7.929552
▁她	-7.932135
指出	-7.932181
2005	-7.933204
全球	-7.938420
说明	-7.940341
系统	-7.941201
好	-7.943830
调查	-7.945960
利用	-7.949942
其中	-7.951022
人员	-7.952105
期间	-7.954091
如	-7.954307
这个	-7.963629
E	-7.964540
多	-7.964715
17	-7.967078
14	-7.967408
新的	-7.969482
和其他	-7.970720
减少	-7.970919
资源	-7.973687
研究	-7.976394
的国家	-7.980267
而且	-7.981991
制定	-7.982195
正在	-7.985305
作出	-7.993126
呢	-7.995591
程序	-7.997111
领域	-8.003198
评估	-8.004744
16	-8.008318
支助	-8.013683
影响	-8.016006
并且	-8.018051
的情况	-8.022720
目标	-8.024671
13	-8.027308
▁3.	-8.027913
31	-8.032230
涉及	-8.032648
具有	-8.033145
2000	-8.033953
19	-8.034369
本	-8.039145
的问题	-8.040317
e	-8.042686
25	-8.043213
进一步	-8.046119
负责	-8.047582
工作人员	-8.049048
2004	-8.049279
能力	-8.050530
接受	-8.051381
得	-8.054378
工作组	-8.055155
嗎	-8.055897
各国	-8.056831
信息	-8.057425
各种	-8.057864
主要	-8.060252
秘书长	-8.062760
见	-8.070071
▁这	-8.070662
协调	-8.073594
);	-8.074467
标准	-8.074788
之后	-8.078120
2003	-8.078158
2002	-8.078198
自	-8.079119
环境	-8.082459
斯	-8.086951
它们	-8.090199
之间	-8.091887
协助	-8.093722
2006	-8.097134
比	-8.097604
成员	-8.098703
地区	-8.101262
过	-8.102345
因此	-8.103804
理事会	-8.103869
▁A	-8.104597
出	-8.104890
中心	-8.105608
2001	-8.108892
国	-8.110773
应当	-8.117415
23	-8.120829
▁《	-8.121072
P	-8.122725
表示	-8.123262
权利	-8.125201
援助	-8.126201
安全理事会	-8.129063
22	-8.131307
21	-8.132047
考虑	-8.132426
主席	-8.135025
子	-8.136687
想	-8.137214
▁不	-8.138461
▁委员会	-8.138592
世界	-8.143309
安排	-8.143765
▁根据	-8.151878
24	-8.153579
▁但是	-8.156903
▁4.	-8.158682
是否	-8.159590
2007	-8.159759
2008	-8.161013
发言	-8.161709
培训	-8.164787
制度	-8.166038
因	-8.167579
举行	-8.169710
费用	-8.171079
请	-8.172917
条约	-8.174816
的权利	-8.178748
开始	-8.184370
目前	-8.191311
分	-8.193892
部门	-8.194242
最	-8.197183
按照	-8.197588
很	-8.199444
之前	-8.200117
政治	-8.201580
应该	-8.201639
强调	-8.203515
拉	-8.204276
s	-8.207432
什么	-8.210268
法院	-8.211811
28	-8.212410
之	-8.212474
共同	-8.213321
提高	-8.213777
▁如果	-8.214491
自己	-8.214878
受	-8.218175
代表团	-8.218603
帮助	-8.220737
对于	-8.222711
无	-8.222898
方式	-8.223080
小	-8.226387
点	-8.232471
如果	-8.233002
承诺	-8.233739
未	-8.236716
26	-8.237381
做	-8.238771
不能	-8.239087
相关	-8.241626
受到	-8.242154
行为	-8.242647
外	-8.243880
27	-8.245010
非洲	-8.250617
中的	-8.250934
用于	-8.251297
小组	-8.251673
时间	-8.259108
公司	-8.261980
水	-8.264199
同时	-8.264739
由于	-8.266410
那	-8.267293
如何	-8.272377
希望	-8.274848
部分	-8.275357
让	-8.275521
资料	-8.275634
家庭	-8.276470
特	-8.276905
非	-8.277713
一项	-8.278316
又	-8.282001
鼓励	-8.283617
成为	-8.288877
方面的	-8.289141
▁5.	-8.296447
则	-8.300862
有关的	-8.303658
原则	-8.304305
▁000	-8.305310
承认	-8.310518
数据	-8.312099
资金	-8.313748
以色列	-8.318335
办法	-8.318487
会员国	-8.319736
预算	-8.319983
▁但	-8.324322
人民	-8.325762
协定	-8.325798
无法	-8.326109
29	-8.326829
B	-8.332160
的建议	-8.333893
▁他们	-8.338285
具体	-8.338984
注意到	-8.339281
高	-8.339384
德	-8.340693
项	-8.341651
着	-8.341975
完成	-8.345299
方法	-8.347778
那些	-8.355044
]	-8.359169
全面	-8.359773
▁B	-8.360405
▁*	-8.365794
女士	-8.367275
基金	-8.367376
个人	-8.371340
天	-8.371623
部	-8.376369
改善	-8.380120
三	-8.383655
例如	-8.385622
美国	-8.386960
和平	-8.387052
尤其是	-8.389048
特派团	-8.389765
不是	-8.392103
以下	-8.393576
监测	-8.397383
家	-8.398626
按	-8.398795
再	-8.400877
Add	-8.401043
)、	-8.402216
设立	-8.404290
针对	-8.404577
2009	-8.405581
1999	-8.407446
▁6.	-8.407503
采用	-8.409863
化	-8.411686
发生	-8.413351
):	-8.413930
二	-8.421835
有效	-8.421983
推动	-8.423588
框架	-8.426616
同意	-8.427869
权	-8.432664
批准	-8.433717
国际社会	-8.434456
改革	-8.436466
▁然而	-8.437151
科	-8.445651
你的	-8.446245
手	-8.449767
的能力	-8.455272
▁这些	-8.459291
保证	-8.461684
作	-8.466068
适当	-8.466496
选举	-8.473953
次	-8.475112
▁那	-8.476500
不同	-8.476829
造成	-8.477152
联合	-8.478526
分析	-8.478726
走	-8.481430
宪法	-8.482288
上述	-8.482471
提供了	-8.483663
任务	-8.485757
▁[	-8.486524
许多	-8.487186
现在	-8.491620
网络	-8.494318
的影响	-8.495649
进程	-8.496689
我們	-8.499018
人口	-8.499099
起	-8.500439
投资	-8.501918
条件	-8.502189
伊拉克	-8.503122
仍然	-8.506663
限制	-8.507748
2010	-8.508133
处	-8.508883
专家	-8.509477
知道	-8.509777
作用	-8.510547
制订	-8.512682
你们	-8.512838
▁对	-8.513274
非政府组织	-8.518261
的情况下	-8.519170
表明	-8.520974
卡	-8.521957
立法	-8.522011
就是	-8.525228
看	-8.527559
防止	-8.527582
警察	-8.527617
克	-8.529308
▁7.	-8.529624
打	-8.530380
安理会	-8.533533
D	-8.534593
直接	-8.534852
贸易	-8.535015
▁请	-8.535925
[	-8.538772
合同	-8.538781
的所有	-8.540052
发展中国家	-8.540331
完全	-8.540489
了解	-8.540692
规则	-8.540801
▁它	-8.545248
但是	-8.547036
论坛	-8.547522
草案	-8.548699
区	-8.549381
改进	-8.554114
的活动	-8.554207
阿	-8.555575
欢迎	-8.560178
只	-8.560719
我的	-8.561049
请求	-8.561200
消除	-8.561229
经	-8.564215
充分	-8.567916
控制	-8.568974
事	-8.570646
来自	-8.570679
重要	-8.573553
▁我們	-8.573887
在其	-8.574566
西	-8.576071
办公室	-8.579770
禁止	-8.582481
正	-8.582615
履行	-8.586995
扩大	-8.587903
自由	-8.588016
取得	-8.588129
尔	-8.591503
收入	-8.591787
來	-8.592995
长期	-8.593070
利	-8.597482
恢复	-8.600138
——	-8.603011
责任	-8.603899
下列	-8.604044
之间的	-8.604591
当局	-8.606444
业务	-8.606736
谈判	-8.607052
遵守	-8.608686
i	-8.608866
;(	-8.610021
冲突	-8.610356
成员国	-8.611634
非常	-8.612913
最近	-8.620573
加入	-8.621091
发	-8.622238
法庭	-8.623402
▁由于	-8.623764
保障	-8.624585
的规定	-8.625032
义务	-8.625251
司法	-8.626201
拥有	-8.626591
地方	-8.627882
确认	-8.628377
提出的	-8.629587
结果	-8.630719
存在	-8.631847
表	-8.633137
选择	-8.633450
倡议	-8.633759
1998	-8.633979
f	-8.634246
.1	-8.635284
法官	-8.636018
▁在这方面	-8.636113
社区	-8.636893
注意	-8.637411
保留	-8.640038
各项	-8.640320
▁8.	-8.643273
进行了	-8.650167
两个	-8.655475
缔约方	-8.655727
威胁	-8.656970
符合	-8.657798
方	-8.658566
'	-8.659681
纳入	-8.660100
案件	-8.660687
企业	-8.663286
▁联合国	-8.663959
▁C	-8.664030
号决定	-8.665033
會	-8.666196
协会	-8.666958
一种	-8.668267
缺乏	-8.668943
一样	-8.669020
马	-8.669605
文化	-8.669796
万美元	-8.670932
关系	-8.673965
說	-8.675259
机会	-8.678382
》(	-8.678816
的一个	-8.679446
状况	-8.679636
心	-8.681838
犯罪	-8.683025
协议	-8.684023
40	-8.684340
重申	-8.685093
某些	-8.685385
呼吁	-8.686993
行	-8.690279
题为	-8.691254
阶段	-8.695866
)(	-8.696092
内容	-8.697496
其中包括	-8.702769
落实	-8.705112
一直	-8.706532
从而	-8.708902
条第	-8.709442
▁9.	-8.711488
适用	-8.712496
加	-8.713253
死	-8.713499
供	-8.714152
生	-8.714320
特别报告员	-8.714334
节	-8.715793
给予	-8.718231
综合	-8.721191
更加	-8.721646
或者	-8.723835
部队	-8.724615
尼	-8.725139
重新	-8.725166
实际	-8.725389
艾滋病	-8.725486
▁是的	-8.727379
评价	-8.728271
宣布	-8.728300
实行	-8.728673
生产	-8.729987
民主	-8.738050
局	-8.738160
2011	-8.738302
导致	-8.740641
旨在	-8.740862
通知	-8.741126
举行的	-8.741312
关注	-8.742705
军事	-8.742859
严重	-8.744184
恐怖主义	-8.745019
积极	-8.746534
▁这是	-8.747643
这是	-8.747869
城市	-8.748031
非法	-8.748137
宣言	-8.748363
违反	-8.749115
中国	-8.751882
才	-8.751924
做法	-8.753455
公民	-8.753758
▁就	-8.759452
如下	-8.760122
尽管	-8.760188
达	-8.760264
不会	-8.760954
F	-8.761168
该国	-8.762204
员额	-8.762539
数	-8.762874
进入	-8.762906
全国	-8.763369
市场	-8.764206
开	-8.765049
现有	-8.765351
出现	-8.767063
还是	-8.767939
保持	-8.771622
成	-8.771854
预防	-8.772367
意见	-8.772541
一起	-8.772565
▁为了	-8.773432
行动计划	-8.773508
这样	-8.773767
挑战	-8.773891
50	-8.777278
▁该	-8.777496
达到	-8.778889
条款	-8.779954
工具	-8.780618
成果	-8.780915
结束	-8.781288
的方式	-8.781630
一次	-8.781931
头	-8.783195
介绍	-8.785391
艾滋病毒	-8.786602
准则	-8.786952
2012	-8.787070
万	-8.788015
两	-8.789859
难民	-8.791732
危机	-8.791777
四	-8.792201
享有	-8.793562
期	-8.795831
协商	-8.796185
证明	-8.796492
明确	-8.796756
国内	-8.798338
就业	-8.798722
产生	-8.799583
事务	-8.801306
▁10.	-8.803411
年度	-8.806130
▁是	-8.809002
▁好	-8.810888
CN	-8.812328
独立	-8.812453
▁有	-8.813972
附件	-8.815089
法国	-8.815604
应对	-8.816690
加拿大	-8.816734
从事	-8.818199
占	-8.819123
当	-8.819587
都是	-8.819670
办事处	-8.819851
当地	-8.820055
职能	-8.820088
尊重	-8.823377
议定书	-8.823486
只有	-8.823673
此类	-8.824269
维持	-8.826612
的重要性	-8.827490
以来	-8.827707
打击	-8.828036
需求	-8.828607
生活	-8.829398
▁一	-8.830031
手段	-8.830551
t	-8.833755
日本	-8.834158
正式	-8.834192
仍	-8.834569
记录	-8.835887
并在	-8.835991
武器	-8.836066
问题的	-8.836919
均	-8.839105
允许	-8.839971
总统	-8.840281
支付	-8.840433
是一个	-8.843029
联系	-8.843368
事件	-8.845371
▁主席	-8.845737
的第	-8.846427
议会	-8.847146
而言	-8.847342
规划	-8.849463
▁虽然	-8.851171
巴	-8.852168
决议草案	-8.852786
采取行动	-8.853460
予以	-8.854528
改变	-8.854973
准备	-8.856658
开发	-8.859351
的任何	-8.859439
发现	-8.860355
的主要	-8.865645
范围	-8.865709
行政	-8.866562
重	-8.868717
内部	-8.868764
▁尽管	-8.870210
也是	-8.872372
▁{\	-8.872607
拟订	-8.872879
力	-8.874163
因素	-8.874358
的是	-8.874584
学校	-8.874616
为了	-8.876189
欧洲	-8.876554
材料	-8.877482
的努力	-8.878078
加以	-8.879124
曾	-8.880596
联合国系统	-8.881310
▁11.	-8.881866
考虑到	-8.882052
对话	-8.882625
风险	-8.887386
持续	-8.888088
次会议	-8.890400
伙伴	-8.890505
实体	-8.891232
的目标	-8.891973
决议	-8.893015
亿美元	-8.893588
长	-8.893941
大学	-8.894565
暴力	-8.895275
基本	-8.895384
青年	-8.895944
担任	-8.897584
次会议上	-8.902111
之一	-8.903372
最后	-8.905013
局势	-8.905703
以确保	-8.906580
的作用	-8.906600
列入	-8.908485
约	-8.908795
提交人	-8.909214
进展	-8.909967
伙伴关系	-8.910331
调整	-8.912895
量	-8.913191
授权	-8.914270
一切	-8.915058
面	-8.915137
将在	-8.915983
\	-8.916949
受害者	-8.917609
设施	-8.918416
总	-8.918522
文	-8.918903
的法律	-8.920594
案	-8.922030
▁“	-8.924093
人们	-8.924170
他的	-8.924916
女	-8.925154
增长	-8.925638
普遍	-8.925984
残疾人	-8.927097
访问	-8.927256
格	-8.927553
指标	-8.927720
的行为	-8.928695
提议	-8.930756
申请	-8.932585
再次	-8.933611
登记	-8.935061
最不发达国家	-8.936009
车	-8.937557
议程项目	-8.937917
两年期	-8.939047
一名	-8.940836
属于	-8.942463
国际法	-8.942969
宗教	-8.945295
收到	-8.945315
结构	-8.947969
▁12.	-8.948298
反对	-8.948442
统计	-8.948915
管制	-8.949027
岁	-8.949513
间	-8.949852
印度	-8.950035
n	-8.951115
率	-8.951301
德国	-8.954212
满足	-8.954481
阿富汗	-8.955286
每年	-8.955653
的信息	-8.956570
▁我想	-8.957298
出口	-8.957786
运动	-8.958047
吃	-8.958137
此	-8.958210
解释	-8.958284
g	-8.958780
自己的	-8.960738
纳	-8.961104
▁好吧	-8.961437
设备	-8.961539
采购	-8.962593
▁哦	-8.962813
▁为	-8.963674
监督	-8.963725
的资料	-8.966168
五	-8.966737
没	-8.967178
构成	-8.967251
一般	-8.967255
找到	-8.969192
认识到	-8.969458
▁最后	-8.970438
y	-8.971856
农业	-8.972217
联盟	-8.973577
整个	-8.973732
尚未	-8.974277
组	-8.975474
▁现在	-8.975850
运输	-8.975930
编制	-8.976170
歧视	-8.976501
▁I	-8.977322
议程	-8.978044
支出	-8.981294
事项	-8.981386
▁大会	-8.981725
60	-8.983267
G	-8.983943
迅速	-8.984921
银行	-8.985188
太	-8.986890
這	-8.988729
这类	-8.988926
司	-8.990249
▁不过	-8.991648
不断	-8.992019
是在	-8.993084
保健	-8.993097
补充	-8.994734
海	-8.995108
平等	-8.997109
们	-8.997449
条例	-8.999163
困难	-8.999635
此种	-8.999752
性别	-9.000827
人数	-9.001871
金	-9.002180
的其他	-9.002808
▁你们	-9.005109
移民	-9.005476
一份	-9.005622
I	-9.006004
本国	-9.008003
▁D	-9.008032
快	-9.009175
提出了	-9.011798
更多	-9.013029
日在	-9.013321
健康	-9.014355
书	-9.015924
回	-9.016031
的机会	-9.017081
在这方面	-9.018315
老	-9.018390
▁从	-9.019849
全	-9.019870
他們	-9.020000
▁13.	-9.020390
一下	-9.021009
部署	-9.023614
财产	-9.024529
▁通过	-9.024731
有助于	-9.025015
女性	-9.025226
编写	-9.027368
h	-9.027746
的决定	-9.028669
的意见	-9.028695
却	-9.029177
跟	-9.030569
临时	-9.031787
大会第	-9.032063
的时候	-9.032435
空间	-9.035533
2013	-9.036395
1997	-9.036608
今后	-9.038094
工作的	-9.038506
水平	-9.038841
这项	-9.039145
只是	-9.039570
寻求	-9.041050
费	-9.041313
土地	-9.041862
单位	-9.042140
显示	-9.043727
交流	-9.045444
修订	-9.045662
像	-9.046158
▁14.	-9.048136
能源	-9.048470
以英语发言	-9.050115
修改	-9.050360
重大	-9.050858
古巴	-9.053720
若干	-9.055586
不得	-9.057138
成功	-9.057659
卫生	-9.058793
核	-9.059715
过程中	-9.062037
在内的	-9.062645
的要求	-9.063746
份	-9.063795
的合作	-9.065444
缔约方会议	-9.067545
住	-9.067962
相	-9.068608
定期	-9.068918
巴勒斯坦	-9.069452
带	-9.071484
任择议定书	-9.074947
塔	-9.075967
股	-9.076564
T	-9.079700
做出	-9.079966
增强	-9.080087
经常	-9.080556
学	-9.081162
▁我要	-9.082853
黎巴嫩	-9.083292
适当的	-9.083975
相关的	-9.084339
来说	-9.084496
墨西哥	-9.085134
各方	-9.085308
媒体	-9.085902
资产	-9.086522
检查	-9.088027
公共	-9.088588
人类	-9.090210
形式	-9.091465
低	-9.093773
布	-9.097378
科学	-9.097736
亚	-9.099980
贸发会议	-9.100718
先	-9.101046
经费	-9.101747
感谢	-9.102670
提到	-9.102698
目的	-9.102829
总部	-9.103529
45	-9.104271
他们的	-9.104605
立即	-9.104761
承担	-9.106577
才能	-9.107653
程度	-9.109929
联邦	-9.110483
危险	-9.111058
基础设施	-9.111692
各国政府	-9.112175
安	-9.113113
模式	-9.113177
有必要	-9.114671
反	-9.114704
俄罗斯联邦	-9.117130
机	-9.117329
巴西	-9.117852
千年发展目标	-9.117992
入	-9.118215
	-9.118987
▁例如	-9.119134
基	-9.119793
基于	-9.122272
米	-9.122287
侵犯	-9.122950
利益	-9.123313
员	-9.123623
的代表	-9.123648
以前	-9.123783
每	-9.123997
统一	-9.125920
m	-9.126082
致力于	-9.127352
的一部分	-9.127432
价值	-9.127666
森林	-9.128079
▁15.	-9.129632
证据	-9.130620
地位	-9.131332
别	-9.132074
宣传	-9.132616
▁什么	-9.132709
广泛	-9.132722
▁所以	-9.132895
而不是	-9.136463
称	-9.136759
原因	-9.137745
领土	-9.139641
可持续发展	-9.140416
孩子	-9.140706
进行的	-9.141164
1996	-9.142380
住房	-9.142813
迪	-9.143575
州	-9.143599
遭受	-9.143822
页	-9.143994
人道主义	-9.144891
破坏	-9.144991
公	-9.146215
号决议第	-9.146228
今天	-9.146273
及时	-9.146953
虽然	-9.147303
范围内	-9.147912
声明	-9.148076
▁這	-9.148643
有权	-9.149642
电话	-9.149752
团体	-9.150929
审计	-9.151258
▁鉴于	-9.152593
叫	-9.152768
索赔	-9.153487
避免	-9.154043
▁议程项目	-9.154184
稳定	-9.154700
找	-9.155670
举措	-9.156940
指导	-9.158366
物	-9.159194
真	-9.159534
工业	-9.159788
罗	-9.159810
每个	-9.161947
还有	-9.163580
产品	-9.163626
▁16.	-9.165282
年期间	-9.165634
超过	-9.167173
损失	-9.167644
讲习班	-9.168651
澳大利亚	-9.170434
死亡	-9.171027
巴基斯坦	-9.172837
行使	-9.173045
的新	-9.173249
且	-9.174605
道	-9.174866
依照	-9.175594
口	-9.175774
监狱	-9.176102
最终	-9.176439
派	-9.176579
离开	-9.177471
的措施	-9.178040
变化	-9.178096
路	-9.178340
任命	-9.178394
瓦	-9.178432
过去	-9.178523
省	-9.179240
经济及社会理事会	-9.179689
▁嘿	-9.180047
她们	-9.180562
伊	-9.181562
的责任	-9.181625
▁别	-9.181769
M	-9.182208
财务	-9.182419
光	-9.182638
35	-9.183159
o	-9.183230
集团	-9.183297
商业	-9.183711
共和国	-9.183910
的话	-9.185657
位	-9.187684
双方	-9.188869
и	-9.189029
对其	-9.190568
专门	-9.190725
至少	-9.193065
维护	-9.193279
面临	-9.193399
▁我是	-9.194056
会议室	-9.195074
你們	-9.195155
文书	-9.195950
不要	-9.195981
本组织	-9.198151
官员	-9.198520
的任务	-9.198524
研讨会	-9.198825
西班牙	-9.201999
那么	-9.205610
.2	-9.205695
核准	-9.205717
恩	-9.207916
我们的	-9.208323
▁17.	-9.208398
查明	-9.209771
儿童基金会	-9.209970
国际组织	-9.210445
门	-9.210561
通常	-9.212943
土著人民	-9.213139
邀请	-9.213881
的结果	-9.214009
▁二	-9.216119
分配	-9.217259
看到	-9.217975
身	-9.218534
律师	-9.219233
情况下	-9.220513
1995	-9.221083
这样做	-9.221636
苏丹	-9.222090
审判	-9.223088
不仅	-9.223623
学习	-9.224433
赔偿	-9.224483
交易	-9.224936
的政策	-9.225098
停止	-9.226095
欧洲联盟	-9.226412
理由	-9.227656
共	-9.228086
如此	-9.229802
的做法	-9.229999
紧急	-9.230005
贫穷	-9.230703
通过了	-9.231815
索马里	-9.232639
过程	-9.232653
至关重要	-9.234364
雷	-9.235716
信	-9.236372
不足	-9.236578
权力	-9.236844
特别是在	-9.239601
主	-9.239619
37	-9.240741
战争	-9.240932
领导	-9.241107
爱	-9.241668
知识	-9.241947
▁要	-9.242444
提供的	-9.242550
数量	-9.242989
市	-9.243406
意大利	-9.243490
的行动	-9.244005
▁18.	-9.244765
提	-9.244967
线	-9.245570
愿意	-9.246000
联合国宪章	-9.246123
男女	-9.246515
所涉	-9.247238
接触	-9.248103
1990	-9.249033
土耳其	-9.249652
*	-9.249899
顾问	-9.251267
适用于	-9.251898
拒绝	-9.252378
供应	-9.252806
气候变化	-9.253037
建立一个	-9.254077
▁E	-9.254082
美	-9.255245
放	-9.256344
六	-9.256679
外国	-9.258265
清单	-9.258653
您	-9.258745
未来	-9.261076
钱	-9.261172
传播	-9.261208
图	-9.261523
著	-9.261724
”。	-9.262808
生效	-9.263065
举办	-9.263762
治疗	-9.263773
瑞士	-9.264376
现象	-9.264386
开发署	-9.265075
K	-9.266257
起来	-9.266906
過	-9.267331
本身	-9.267691
专题	-9.268394
的发展	-9.268943
埃及	-9.269595
级	-9.270101
三个	-9.270844
采取措施	-9.271120
通	-9.271313
获取	-9.272147
之外	-9.272480
罪行	-9.274621
组成	-9.275403
70	-9.276548
上的	-9.277590
新闻	-9.278211
收集	-9.278778
商定	-9.278846
尤其	-9.279343
管	-9.279612
拿	-9.280328
开发计划署	-9.280869
大量	-9.281820
以后	-9.281960
不应	-9.283428
罪	-9.283916
研究所	-9.284172
建设	-9.285281
理解	-9.285501
3.	-9.285645
并不	-9.285959
33	-9.285991
呀	-9.287527
公开	-9.287537
近	-9.287549
专业	-9.287658
有人	-9.287659
个国家	-9.288505
估计	-9.288935
规定的	-9.290383
萨	-9.290713
▁19.	-9.290726
贫困	-9.291107
答复	-9.291459
器	-9.291465
私营部门	-9.291565
额	-9.292126
77	-9.292606
原	-9.292939
重点	-9.294744
损害	-9.295754
▁表	-9.295762
仅	-9.296395
群体	-9.297823
un	-9.298518
地点	-9.298970
▁注意到	-9.299251
站	-9.300808
39	-9.301893
教	-9.302053
80	-9.302212
信托基金	-9.303100
哈	-9.303585
對	-9.303978
度	-9.304209
海洋	-9.304812
降低	-9.304820
关切	-9.307314
必要的	-9.308741
▁2006	-9.309280
学生	-9.310513
相信	-9.310689
▁и	-9.312048
H	-9.312229
的执行情况	-9.312504
荷兰	-9.312593
南	-9.313412
电子	-9.313621
打算	-9.313665
▁20.	-9.313835
职位	-9.315688
优先	-9.316206
第一	-9.316238
网	-9.316827
▁三	-9.318204
债务	-9.318839
室	-9.318930
似乎	-9.319757
能力建设	-9.320216
关键	-9.322016
▁自	-9.322583
小组委员会	-9.322833
起诉	-9.323067
100	-9.323103
领导人	-9.323955
签署	-9.325808
印度尼西亚	-9.326128
十分	-9.326265
指南	-9.326675
裁军	-9.326874
未能	-9.328014
须	-9.329106
工	-9.329247
▁2005	-9.329766
36	-9.330496
查	-9.330515
境内	-9.331210
职业	-9.331948
▁2008	-9.332108
问	-9.332542
计算	-9.333004
cH	-9.333266
障碍	-9.334017
设计	-9.335868
创造	-9.336281
特定	-9.336323
经验	-9.336340
甚至	-9.336607
點	-9.337195
的项目	-9.337542
自愿	-9.337683
有可能	-9.337928
南非	-9.338260
类	-9.338275
纽约	-9.340020
场	-9.340714
▁还	-9.340727
民族	-9.341595
财政	-9.342282
的事	-9.343366
有些	-9.343995
基础	-9.344439
宪章	-9.345888
成立	-9.345944
令	-9.346116
医疗	-9.346150
制	-9.346519
火	-9.347595
高级	-9.347629
第二	-9.348080
挪威	-9.348345
▁2007	-9.348523
最高	-9.348529
需	-9.348688
fn	-9.349157
修正	-9.349857
科威特	-9.350409
刚果民主共和国	-9.350694
34	-9.351748
主题	-9.352572
人权委员会	-9.352715
女孩	-9.352994
居民	-9.354445
库	-9.354728
课程	-9.355366
很多	-9.357088
大约	-9.358825
部长	-9.359102
1994	-9.359287
活动的	-9.359697
攻击	-9.361775
转	-9.362018
▁目前	-9.362541
动	-9.362848
提及	-9.363505
核武器	-9.363908
带来	-9.364320
的原则	-9.364430
瑞典	-9.364464
军	-9.365396
公平	-9.365681
比较	-9.366216
▁快	-9.366400
▁21.	-9.366938
转让	-9.367047
机关	-9.367060
u	-9.367991
酌情	-9.369324
捐款	-9.370428
▁S	-9.370728
案文	-9.372197
语言	-9.372957
姆	-9.373880
全部	-9.374724
相互	-9.374949
90	-9.375687
来源	-9.376118
al	-9.376254
精神	-9.376953
日期	-9.377463
那个	-9.377917
托	-9.378139
给我	-9.378418
平民	-9.379049
有效的	-9.379548
什麼	-9.381093
▁这一	-9.381889
2.	-9.382031
介绍了	-9.382380
fs	-9.382904
工人	-9.383767
▁嗯	-9.384034
以期	-9.385060
训练	-9.385616
遭到	-9.385974
常	-9.386219
数额	-9.386348
▁我知道	-9.387884
美利坚合众国	-9.388306
提案	-9.388397
32	-9.389043
边界	-9.390357
▁1	-9.390393
体制	-9.390944
身份	-9.390963
拘留	-9.391013
定义	-9.392653
队	-9.393783
普	-9.394129
语	-9.394622
▁如	-9.395841
2015	-9.395980
阿根廷	-9.397022
这一点	-9.398766
▁是啊	-9.399373
一致	-9.400056
▁重申	-9.401501
酷刑	-9.402184
啦	-9.402868
哥伦比亚	-9.402923
除	-9.403831
海地	-9.403884
性质	-9.403925
第一次	-9.404174
往往	-9.404433
体系	-9.404934
指定	-9.405269
更多的	-9.405881
在这里	-9.405956
结论	-9.406648
明	-9.406699
以上	-9.408237
父母	-9.408731
制裁	-9.409607
并将	-9.409862
6.	-9.410065
竞争	-9.411157
便	-9.411600
将继续	-9.412150
5.	-9.412194
将于	-9.412361
争取	-9.412804
人口基金	-9.413419
病	-9.413432
▁这个	-9.413685
▁G	-9.414033
件	-9.414344
0	-9.415993
返回	-9.416558
令人	-9.416901
当前	-9.417242
▁22.	-9.417260
49	-9.418047
金融	-9.418211
咨询	-9.419391
磋商	-9.419916
r	-9.420633
交	-9.421385
的各种	-9.421740
首先	-9.421875
东帝汶	-9.421925
所需	-9.422097
我国	-9.422658
或其他	-9.422751
同样	-9.423426
大使	-9.424195
的承诺	-9.424462
48	-9.424815
享受	-9.424818
主管	-9.425063
名单	-9.425122
阿拉伯	-9.425218
▁2004	-9.425557
非洲联盟	-9.425572
资助	-9.425726
的儿童	-9.425832
召开	-9.426177
处于	-9.426279
定	-9.426855
生物	-9.427244
民间社会	-9.427286
应在	-9.427315
的各项	-9.428308
分别	-9.429173
▁2002	-9.429891
1.	-9.430803
专家组	-9.431103
科特迪瓦	-9.431518
载于	-9.431706
随后	-9.432372
真的	-9.432692
全球化	-9.434200
▁欢迎	-9.434897
概念	-9.435049
指控	-9.435395
诸如	-9.436097
将其	-9.436427
工作方案	-9.438332
玩	-9.438571
工发组织	-9.439125
首脑会议	-9.439384
:(	-9.439461
数据库	-9.439578
适应	-9.439605
预计	-9.441092
可能会	-9.441775
来文	-9.441800
吉	-9.442863
塞拉利昂	-9.442886
提交的	-9.443864
谁	-9.444345
劳动	-9.445476
▁不要	-9.445484
38	-9.445946
▁2003	-9.446870
▁你知道	-9.446993
接	-9.447622
协作	-9.447744
▁谢谢	-9.447859
夫	-9.447948
年以来	-9.448489
为此	-9.448588
听	-9.448866
勒	-9.448893
日内瓦	-9.448978
2014	-9.449402
▁23.	-9.449422
利比里亚	-9.449630
步骤	-9.450248
进	-9.450576
▁然后	-9.451526
依据	-9.451619
认识	-9.452643
拟议	-9.454242
干	-9.454446
国际合作	-9.454927
布隆迪	-9.455363
4.	-9.455631
起草	-9.456318
值	-9.456326
行动纲领	-9.456779
十年	-9.456951
的基础上	-9.457774
作了	-9.459278
科索沃	-9.459930
武装冲突	-9.459950
拟定	-9.460428
▁另外	-9.462767
气	-9.463029
AC	-9.463677
日益	-9.464049
》、《	-9.464743
花	-9.465165
规范	-9.465408
▁秘书长	-9.466479
必要	-9.466907
▁24.	-9.467723
林	-9.468519
反映	-9.468703
优先事项	-9.469589
收	-9.470263
卢旺达	-9.470598
干事	-9.471770
re	-9.472324
▁2000	-9.472607
趋势	-9.473661
成本	-9.473852
启动	-9.474255
这样的	-9.474589
平衡	-9.475174
土著	-9.476150
及其他	-9.476756
传统	-9.477215
尼日利亚	-9.478424
▁项目	-9.478549
医生	-9.478793
送	-9.479729
敦促	-9.480024
的地方	-9.480446
的方法	-9.481188
疾病	-9.482463
.4	-9.483521
过渡	-9.483803
l	-9.484118
其它	-9.484475
种族歧视	-9.484480
▁好的	-9.485127
切实	-9.485565
讲	-9.486315
观察员	-9.488027
塞	-9.488297
▁F	-9.488465
新西兰	-9.489691
▁a	-9.489960
原子能机构	-9.490938
可持续	-9.491508
续	-9.492791
日和	-9.492959
发挥	-9.492978
感到	-9.493393
的义务	-9.493959
出席	-9.494192
空	-9.495411
流	-9.495562
掉	-9.496677
▁25.	-9.496886
朋友	-9.497420
意	-9.498494
42	-9.498921
任	-9.499148
半	-9.499289
▁—	-9.500265
预期	-9.502267
▁对于	-9.502291
摩洛哥	-9.503967
更新	-9.504185
▁本	-9.505089
刚果	-9.505656
公众	-9.505900
运作	-9.507094
一系列	-9.507098
特殊	-9.507558
洛	-9.509185
造成的	-9.511629
▁没有	-9.511685
开放	-9.511701
单	-9.512283
秘书长关于	-9.512297
国籍	-9.512430
这么	-9.512871
和第	-9.514667
取	-9.514728
代	-9.516281
班	-9.517398
供资	-9.517644
发表	-9.517802
这里	-9.517859
列	-9.518257
的国际	-9.518492
所需的	-9.518646
55	-9.518782
N	-9.518856
沒有	-9.519904
体	-9.520114
判决	-9.520370
分享	-9.520521
私人	-9.520961
工作队	-9.521559
事实	-9.521804
之中	-9.522246
怎么	-9.522457
难民署	-9.522822
▁这种	-9.523244
所有国家	-9.524208
爾	-9.524714
▁我会	-9.525968
▁会议	-9.526510
我要	-9.527085
核查	-9.527460
刑法	-9.527811
联合王国	-9.527825
奥	-9.528543
以及在	-9.529623
下降	-9.530371
er	-9.531917
▁还有	-9.532044
应用	-9.532912
袭击	-9.533456
的支持	-9.533731
通报	-9.535020
44	-9.536096
的一些	-9.536442
的妇女	-9.537312
卫星	-9.537358
那样	-9.537991
▁我不知道	-9.538295
肯定	-9.538360
山	-9.539190
▁不是	-9.539515
展开	-9.539817
智利	-9.540120
经过	-9.540128
▁26.	-9.540625
福利	-9.541026
球	-9.541987
货物	-9.542685
46	-9.542956
两性平等	-9.543206
报	-9.543512
情	-9.543737
维	-9.544207
多边	-9.544502
有利于	-9.545183
辩论	-9.545635
一级	-9.545758
型	-9.546577
▁...	-9.548092
▁2001	-9.548519
▁当然	-9.548594
的时间	-9.548774
参加了	-9.549933
欧盟	-9.550142
的一项	-9.550279
明显	-9.550308
外部	-9.550423
增加了	-9.550487
的重要	-9.551038
领域的	-9.551416
人权理事会	-9.551742
制止	-9.552174
副	-9.552216
奇	-9.552389
7.	-9.553230
船	-9.553646
1993	-9.554497
延长	-9.554861
实质性	-9.555012
增进	-9.555463
决策	-9.555860
▁你是	-9.556765
国民	-9.556961
达成	-9.558064
人力资源	-9.559016
咨询委员会	-9.559534
连	-9.559758
沒	-9.559766
合	-9.560384
為	-9.562286
会议上	-9.562469
一個	-9.562908
en	-9.563068
捐助者	-9.563521
与会者	-9.563578
载有	-9.563593
东西	-9.563754
生命	-9.563799
业	-9.564657
种族	-9.564718
物质	-9.565399
商	-9.566746
电	-9.566850
法治	-9.567748
取消	-9.568006
号文件	-9.570128
▁27.	-9.570352
真主	-9.570894
战	-9.571482
埃塞俄比亚	-9.571630
进口	-9.571899
芬兰	-9.572705
所作的	-9.572723
安保	-9.573686
待	-9.573691
对此	-9.574161
执行情况	-9.574400
包	-9.574629
诺	-9.575086
伤害	-9.575707
比利时	-9.576096
类似	-9.576352
出去	-9.576791
▁他們	-9.578315
琌	-9.578376
较	-9.578632
了吗	-9.579556
比例	-9.579597
波	-9.579865
发出	-9.580026
这些国家	-9.580702
八	-9.582690
便利	-9.583085
索	-9.583256
男子	-9.583628
菲律宾	-9.584675
将会	-9.585016
让我	-9.585204
保险	-9.585729
真正	-9.585798
人的	-9.585862
周	-9.585862
联	-9.585927
几个	-9.586283
年龄	-9.586596
倒	-9.587880
通过的	-9.588028
大多数	-9.588136
事情	-9.589164
分发	-9.589683
通信	-9.589801
	-9.589928
赞同	-9.590775
在一起	-9.591304
诉	-9.591335
治理	-9.591461
曼	-9.591467
O	-9.591811
医院	-9.592094
	-9.592215
审理	-9.592708
环境署	-9.593527
理	-9.594018
发达国家	-9.595928
家庭暴力	-9.595966
条规定	-9.596242
不知道	-9.596263
式	-9.596336
价格	-9.597116
残疾	-9.597908
英	-9.598643
言	-9.598706
org	-9.599074
段中	-9.599238
43	-9.600043
的会议	-9.600433
蒂	-9.602468
57	-9.602876
波斯尼亚和黑塞哥维那	-9.604066
所述	-9.604905
▁28.	-9.605605
的费用	-9.605932
▁除了	-9.606686
职责	-9.607388
的办法	-9.608010
命令	-9.608294
贡献	-9.609254
几	-9.609391
▁而且	-9.609570
的具体	-9.610205
47	-9.610694
塞浦路斯	-9.611373
后果	-9.611418
发生的	-9.611598
奥地利	-9.611995
乌克兰	-9.612063
详细	-9.612743
和平与安全	-9.612819
报告中	-9.612952
V	-9.613096
神	-9.613597
检察官	-9.614163
到了	-9.614799
or	-9.616740
的安全	-9.618802
执行局	-9.619641
41	-9.619749
伊朗	-9.620472
举行了	-9.620794
写	-9.620899
给你	-9.621396
合法	-9.621427
农村	-9.621928
叙利亚	-9.621993
8.	-9.622681
算	-9.622874
贷款	-9.622960
的认识	-9.623343
核心	-9.623742
飞机	-9.624138
----	-9.624753
an	-9.625361
重视	-9.625449
不同的	-9.625552
因而	-9.626562
现有的	-9.627432
选	-9.628596
▁安全理事会	-9.628800
就会	-9.628970
受害人	-9.629221
目的是	-9.629687
章	-9.630321
莱	-9.630347
回顾	-9.630392
台	-9.630943
▁为此	-9.631088
平均	-9.631496
外交	-9.632419
泰国	-9.632605
乌干达	-9.632690
一定	-9.632716
更为	-9.632977
然后	-9.632981
网站	-9.633467
和发展	-9.633876
非洲国家	-9.635910
得以	-9.636009
数目	-9.637938
%	-9.638215
得到了	-9.638520
促使	-9.638754
使其	-9.638936
活	-9.639724
▁工作组	-9.640402
本报告	-9.641351
▁有人	-9.641380
▁29.	-9.642373
on	-9.642567
赞扬	-9.643491
想要	-9.644141
雇员	-9.644241
▁•	-9.645160
投票	-9.645284
▁按照	-9.645941
尽可能	-9.646733
死了	-9.646854
一年	-9.647079
只能	-9.647287
k	-9.647366
七	-9.647953
p	-9.648499
喝	-9.651577
波兰	-9.651728
话	-9.651751
秘鲁	-9.651820
▁其他	-9.651913
多数	-9.651999
回来	-9.653255
和平进程	-9.653671
.5	-9.654368
建筑	-9.655038
▁你要	-9.655215
個	-9.655467
除其他外	-9.656150
各个	-9.656719
重建	-9.657436
.3	-9.657923
征聘	-9.658252
远	-9.658345
下午	-9.658510
基金会	-9.658952
▁2009	-9.659281
不再	-9.659521
票	-9.660609
印发	-9.660982
白	-9.661033
力量	-9.661291
难	-9.662539
士	-9.663538
丹麦	-9.664981
团结	-9.665444
申诉人	-9.665899
系	-9.667074
框架内	-9.667370
▁好了	-9.667435
有限	-9.667986
是为了	-9.668242
手册	-9.668315
鉴于	-9.668534
片	-9.668692
热	-9.668725
1991	-9.669230
复杂	-9.669248
的方案	-9.669259
正常	-9.669551
当时	-9.669565
平	-9.669953
之下	-9.669971
申诉	-9.670029
▁四	-9.670800
▁但我	-9.670840
现	-9.670874
▁30.	-9.671069
公正	-9.671229
调	-9.671476
阻止	-9.671597
津贴	-9.671758
特别委员会	-9.672541
变	-9.672759
工程	-9.673021
0.	-9.673294
▁you	-9.673943
分类	-9.674131
皮	-9.674457
危地马拉	-9.674557
有一个	-9.674584
历史	-9.675623
母亲	-9.676179
尽快	-9.676401
伊朗伊斯兰共和国	-9.676604
驻	-9.676609
眼	-9.677436
难以	-9.678169
离	-9.678628
上诉	-9.679047
流动	-9.679248
51	-9.679396
货币	-9.680687
与其他	-9.681417
少	-9.681926
投入	-9.682554
▁作为	-9.682710
出来	-9.683343
很好	-9.684210
一点	-9.684855
初步	-9.685046
的数据	-9.685072
的工作人员	-9.685205
种	-9.685647
形成	-9.686115
▁同样	-9.686285
R	-9.686476
有效地	-9.686636
并确保	-9.686688
in	-9.687249
沙	-9.688890
男人	-9.689041
69	-9.689140
确实	-9.689157
的经济	-9.689932
贝	-9.691551
肯尼亚	-9.691666
信息和通信技术	-9.692212
赋予	-9.692246
中央	-9.692659
候选人	-9.693006
從	-9.693060
合理	-9.693419
法案	-9.693429
品	-9.694065
岛	-9.694114
自然	-9.695831
Rev	-9.695941
设立一个	-9.696205
希	-9.696662
团	-9.697008
的内容	-9.697617
包括在	-9.697955
并为	-9.698003
几乎	-9.698400
另一	-9.698915
大韩民国	-9.699043
审议了	-9.701210
照顾	-9.701264
▁們	-9.701479
指	-9.701926
的文件	-9.702895
反应	-9.703173
▁31.	-9.703407
假	-9.703744
马来西亚	-9.703773
阿尔及利亚	-9.704424
阿塞拜疆	-9.704968
的资源	-9.706364
国家的	-9.706551
风	-9.706751
	-9.707115
兰	-9.707294
日期间	-9.707376
问题上	-9.707882
的执行	-9.708890
担心	-9.709563
地雷	-9.710082
▁一个	-9.710086
的可能性	-9.710710
▁32.	-9.710719
全世界	-9.710976
的决议草案	-9.711841
是什么	-9.712934
采取了	-9.713224
她的	-9.713616
调动	-9.714331
-3	-9.714892
公布	-9.715640
设立了	-9.715690
▁下午	-9.715997
马里	-9.716279
这次	-9.716443
机构间	-9.717156
创新	-9.717250
▁今天	-9.717834
情报	-9.719231
制造	-9.719254
澄清	-9.719546
U	-9.719818
古	-9.720345
包含	-9.720785
为什么	-9.720792
边	-9.721823
储存	-9.722511
用户	-9.722560
逐步	-9.723155
合并	-9.723617
▁当	-9.723907
跑	-9.723945
▁我的	-9.724119
弄	-9.724261
切	-9.724996
感	-9.726713
非正式	-9.727362
人士	-9.727422
数字	-9.729610
也不	-9.730014
相比	-9.730248
-4	-9.730394
	-9.731197
克罗地亚	-9.731355
▁为什么	-9.731565
以外	-9.731714
留	-9.732628
一位	-9.732829
粮食	-9.732884
婚姻	-9.733074
关	-9.733527
维持和平行动	-9.733576
污染	-9.733752
▁把	-9.733865
探讨	-9.733905
所列	-9.734460
▁M	-9.734558
极	-9.734571
男性	-9.735311
一道	-9.736239
▁2	-9.736282
终止	-9.737103
赞赏	-9.737558
喜欢	-9.737612
不會	-9.737724
转移	-9.737947
个月	-9.738192
黑	-9.738808
类别	-9.738946
希腊	-9.740152
除非	-9.740171
▁截至	-9.740494
并没有	-9.740761
解	-9.740788
另外	-9.741462
筹资	-9.741672
既	-9.741762
的程序	-9.741784
依然	-9.741985
血	-9.742372
所载	-9.742640
命	-9.743372
女人	-9.743849
森	-9.744313
建立了	-9.744476
第三	-9.744629
的讨论	-9.744881
出版物	-9.744986
某一	-9.745047
单独	-9.745438
不可	-9.745670
商品	-9.745842
妇女在	-9.746780
▁500	-9.747130
技术援助	-9.747308
厄立特里亚	-9.747410
约旦	-9.747496
提供援助	-9.748095
筹备	-9.748496
试图	-9.748692
早	-9.750024
▁又	-9.750132
谴责	-9.750456
信息技术	-9.750733
九	-9.751281
毒品	-9.751294
65	-9.751332
▁33.	-9.751730
署	-9.751822
不受	-9.751997
军队	-9.752283
届	-9.752528
子女	-9.752556
证人	-9.752864
装	-9.753325
密切合作	-9.753798
技能	-9.754869
突尼斯	-9.755988
质量	-9.756514
移徙	-9.757516
le	-9.758203
买	-9.758359
阿拉伯叙利亚共和国	-9.759016
格鲁吉亚	-9.759435
▁回顾	-9.759850
最好	-9.761784
▁34.	-9.762785
▁如果你	-9.763020
评论	-9.763092
53	-9.763519
决心	-9.763607
腐败	-9.763692
這個	-9.764033
声称	-9.764083
首	-9.765097
照	-9.765650
柬埔寨	-9.766229
▁K	-9.766556
付款	-9.766924
莉	-9.767111
缅甸	-9.768126
的基本	-9.768866
▁决议草案	-9.770200
诉讼	-9.770432
各级	-9.770787
也没有	-9.770908
64	-9.771275
的原因	-9.771424
并向	-9.771444
埃	-9.773176
枪	-9.773198
讨论了	-9.773374
主席团	-9.774862
这个问题	-9.775182
截至	-9.775320
穿	-9.775826
逮捕	-9.775945
▁35.	-9.777145
▁H	-9.777227
▁委员会还	-9.777922
用途	-9.778019
议题	-9.778135
不可能	-9.778157
现行	-9.778446
厄瓜多尔	-9.778698
坚持	-9.779206
占领	-9.779329
其他国家	-9.779448
合作伙伴	-9.780200
除了	-9.780228
法规	-9.780242
减轻	-9.780252
亚洲	-9.780263
1\	-9.781238
十	-9.781282
塞内加尔	-9.781349
.6	-9.781383
层面	-9.781582
在第	-9.781726
67	-9.782543
解决办法	-9.782721
替代	-9.784147
药	-9.784346
小时	-9.784389
时期	-9.784700
差	-9.784825
声	-9.784859
j	-9.784951
技术合作	-9.786427
亿	-9.786979
界	-9.787164
大部分	-9.787284
各自	-9.787868
副主席	-9.788374
释放	-9.788536
推进	-9.788539
的成员	-9.789019
的资金	-9.789319
▁那是	-9.789442
所以	-9.789788
莫	-9.790309
销售	-9.790442
种族主义	-9.790470
的战略	-9.790547
大家	-9.790968
的请求	-9.791166
放弃	-9.791390
主权	-9.791549
▁本报告	-9.791905
儿	-9.792399
集体	-9.792579
救	-9.792666
四个	-9.793395
-2	-9.793406
的基础	-9.795147
新闻部	-9.795290
」	-9.795584
看看	-9.795692
都有	-9.796578
双边	-9.796843
孟加拉国	-9.796992
葡萄牙	-9.797766
讨论会	-9.799698
途径	-9.800017
以往	-9.800237
引起	-9.800252
外地	-9.800452
做了	-9.800505
预测	-9.800518
1992	-9.800617
▁大	-9.801048
了一个	-9.801715
旅行	-9.801916
重要的	-9.802183
裁决	-9.802339
作出了	-9.803233
自然资源	-9.804221
依赖	-9.804520
与联合国	-9.804672
el	-9.804675
东	-9.805481
52	-9.806900
联络	-9.806940
年至	-9.807837
的关系	-9.808659
▁the	-9.808972
修正案	-9.809997
工资	-9.811206
罗马尼亚	-9.811344
博	-9.811582
哪些	-9.811816
立场	-9.812066
建设和平	-9.813128
我想	-9.813383
的需求	-9.813963
75	-9.813969
资格	-9.814631
并非	-9.814840
刑事	-9.815337
▁這是	-9.815492
坐	-9.816013
涵盖	-9.816437
shad	-9.817494
车辆	-9.819099
教师	-9.819708
一套	-9.819809
往	-9.819980
引渡	-9.820187
58	-9.820534
政府间	-9.820993
不扩散条约	-9.821524
▁你們	-9.821678
犯	-9.821811
人权高专办	-9.821926
的理由	-9.822003
周期	-9.822347
的目的	-9.822901
效率	-9.823135
▁你在	-9.824365
是个	-9.824433
儿童权利	-9.824682
指示	-9.826310
根据第	-9.826617
减	-9.826926
伤	-9.826986
走了	-9.827332
来了	-9.827525
的成果	-9.828115
使得	-9.828611
W	-9.828619
的范围	-9.828917
加快	-9.829004
在联合国	-9.829354
么	-9.829509
青少年	-9.829540
▁1999	-9.829951
阻碍	-9.830118
人权问题	-9.830195
地区的	-9.831180
城	-9.831346
▁缔约国	-9.831478
▁36.	-9.831505
200	-9.831553
提醒	-9.831903
知	-9.832052
次级方案	-9.832617
的政治	-9.834267
该区域	-9.834342
产出	-9.834731
账户	-9.835178
▁看	-9.835864
▁37.	-9.836117
而是	-9.836552
的经验	-9.836655
颁布	-9.836790
裁军谈判会议	-9.836813
象	-9.837472
联合会	-9.837536
是谁	-9.837552
气候	-9.838279
委员会成员	-9.838422
计	-9.838549
还将	-9.838826
并对	-9.839026
发放	-9.839158
▁你好	-9.839464
目前的	-9.839746
若	-9.839906
项下	-9.840000
更好地	-9.840028
尼泊尔	-9.840290
些	-9.840755
世界银行	-9.841328
拟	-9.842224
开展工作	-9.842634
的标准	-9.843020
没有任何	-9.843340
贩运	-9.843393
执法	-9.843698
视	-9.843928
不到	-9.844364
惩罚	-9.844456
强	-9.844835
总理	-9.845981
清楚	-9.846308
教科文组织	-9.846720
房	-9.847538
被告	-9.847637
开支	-9.848389
相同	-9.850766
儿童权利公约	-9.850817
巩固	-9.851134
灾害	-9.851312
▁特别报告员	-9.851620
主任	-9.851859
后续行动	-9.852155
化学品	-9.852537
提名	-9.853320
▁2010	-9.853346
字	-9.853598
渔业	-9.853954
出版	-9.854009
▁因为	-9.854280
▁秘书处	-9.854355
的需要	-9.855177
观点	-9.855360
前往	-9.856025
娜	-9.856849
武装部队	-9.857403
表示关切	-9.857434
▁您	-9.857718
只要	-9.857985
条草案	-9.858095
那里	-9.858785
晚	-9.859779
签名	-9.860443
绝对	-9.860542
酒	-9.860818
制定了	-9.861342
伊斯兰	-9.861594
▁38.	-9.863068
是因为	-9.863189
雇主	-9.863420
老年人	-9.863476
河	-9.863530
语文	-9.864241
▁噢	-9.864379
▁P	-9.864758
▁	-9.864822
价	-9.865034
专业人员	-9.865636
沙特阿拉伯	-9.866026
54	-9.866275
深	-9.866420
认可	-9.866699
▁真	-9.866745
各会员国	-9.866899
特别会议	-9.867683
的挑战	-9.867835
▁正如	-9.868214
▁秘书长关于	-9.868340
色	-9.868512
的关键	-9.868724
世	-9.869061
▁2011	-9.869066
已經	-9.869631
66	-9.869651
白俄罗斯	-9.869909
推广	-9.870117
证实	-9.870198
实现千年发展目标	-9.870724
继续努力	-9.870891
在执行	-9.871212
超	-9.871764
斯里兰卡	-9.871878
相当	-9.872063
实际上	-9.872307
总额	-9.872380
的利益	-9.872552
▁3	-9.872583
時	-9.873549
清	-9.873871
基础上	-9.873923
显然	-9.874310
▁就是	-9.874899
第二次	-9.875176
维持和平	-9.875208
索赔人	-9.875288
取决于	-9.875294
克服	-9.876275
石油	-9.876380
捐助	-9.877081
过来	-9.877220
▁同时	-9.877856
开展了	-9.878435
强奸	-9.878539
▁0	-9.878739
捷克共和国	-9.880722
总体	-9.880957
药物	-9.881112
人道主义援助	-9.881285
普通	-9.881663
哥斯达黎加	-9.881725
爱尔兰	-9.882415
属	-9.882833
现实	-9.883105
职务	-9.883120
87	-9.883421
意味着	-9.883672
广泛的	-9.884975
睡	-9.885053
达尔富尔	-9.885813
伦	-9.886074
搞	-9.886143
教育和	-9.886401
助理	-9.886561
补贴	-9.886622
▁阿	-9.886695
错误	-9.887213
的立场	-9.887230
设法	-9.887549
干预	-9.887704
很大	-9.887741
安全和	-9.888914
▁39.	-9.889138
也有	-9.889746
56	-9.889999
00	-9.890251
目前正在	-9.890297
可在	-9.890384
资本	-9.890696
每一	-9.891316
证	-9.892219
衡量	-9.892417
筹备委员会	-9.892511
询问	-9.892969
购买	-9.893134
积极参与	-9.893177
出生	-9.893691
虐待	-9.894227
号决议中	-9.894553
学院	-9.894831
▁40.	-9.895006
鲁	-9.895175
差异	-9.895207
萨尔瓦多	-9.895226
有机会	-9.895642
59	-9.896540
视为	-9.896953
现金	-9.897155
安全理事会第	-9.897355
废物	-9.897471
78	-9.898167
驱逐	-9.898519
编	-9.899225
任何人	-9.899936
上文第	-9.900034
的案件	-9.900127
燃料	-9.900373
大不列颠及北爱尔兰联合王国	-9.901287
立	-9.901331
提供支助	-9.901705
社会发展	-9.902671
行业	-9.902768
的人权	-9.902873
▁理事会	-9.903169
愛	-9.903238
听到	-9.904039
加纳	-9.904339
面对	-9.904384
仍然是	-9.904818
▁N	-9.904834
五个	-9.904936
提请	-9.905063
▁对不起	-9.905181
安哥拉	-9.906342
▁41.	-9.906360
发展中国家的	-9.906496
实地	-9.907176
外交部长	-9.907280
油	-9.907504
的条件	-9.908096
融资	-9.908548
亚美尼亚	-9.908708
规定了	-9.909104
作出的	-9.909128
▁鼓励	-9.909190
的定义	-9.909206
管辖	-9.909234
妨碍	-9.909447
共有	-9.909610
有所	-9.910426
差距	-9.910446
的贡献	-9.910559
匈牙利	-9.910713
核裁军	-9.911023
党	-9.911143
ra	-9.911891
即将	-9.912003
62	-9.912278
工会	-9.912295
地球	-9.913313
营养	-9.913471
和技术	-9.914256
.1)	-9.914272
谈	-9.914691
6%	-9.914781
应付	-9.914874
主要是	-9.915157
根本	-9.915220
▁你想	-9.915524
最初	-9.915817
遵循	-9.916388
状态	-9.916886
改	-9.916908
兼	-9.917376
民	-9.917768
任期	-9.918862
女童	-9.919489
汇编	-9.919956
心理	-9.919974
高度	-9.920316
喀麦隆	-9.920547
跟我	-9.921189
内的	-9.921230
同一	-9.921951
族裔	-9.922046
争端	-9.923154
一直在	-9.923577
调解	-9.923638
京都议定书	-9.924284
补偿	-9.924826
民众	-9.925343
书面	-9.925701
两名	-9.925984
并未	-9.926586
运	-9.926723
协调员	-9.926818
货	-9.927149
斯洛文尼亚	-9.927378
▁谁	-9.927781
失业	-9.927986
的答复	-9.928387
这一问题	-9.928491
作出决定	-9.928514
高级别	-9.928525
发展和	-9.929342
越来越	-9.930134
取代	-9.930199
錢	-9.931001
这方面的	-9.931207
▁我也	-9.931445
依	-9.931508
滥用	-9.931758
错	-9.932345
首次	-9.933348
产	-9.934514
被视为	-9.935538
通讯	-9.935638
.7	-9.935837
▁国际	-9.936107
传	-9.936519
执行主任	-9.937063
朝鲜民主主义人民共和国	-9.937262
政策和	-9.937543
觉得	-9.937743
与其	-9.937983
多少	-9.938123
ed	-9.939163
并鼓励	-9.939259
订正	-9.939404
求	-9.939437
▁政府	-9.939493
平台	-9.940046
当然	-9.940248
主张	-9.940483
帮	-9.941102
食品	-9.941788
大规模	-9.942096
还在	-9.942631
▁我在	-9.942771
以促进	-9.943152
提出报告	-9.943531
定于	-9.944044
方向	-9.944193
開	-9.944586
销毁	-9.944859
审计委员会	-9.945210
特别代表	-9.945300
付	-9.945349
▁對	-9.945527
的目的是	-9.946460
▁42.	-9.946703
當	-9.947198
是由	-9.947922
建造	-9.947933
最高法院	-9.948187
的参与	-9.948193
曾经	-9.948379
官	-9.948459
为基础	-9.949057
监禁	-9.949305
全体会议	-9.950269
元	-9.950597
下的	-9.950980
保	-9.951484
专	-9.951498
护理	-9.951782
▁五	-9.951801
的核心	-9.952123
▁导言	-9.952276
▁1998	-9.952472
小姐	-9.953315
集中	-9.954186
英国	-9.954242
两年	-9.954518
寻找	-9.954966
▁强调	-9.955018
经济发展	-9.955084
劳工组织	-9.955088
68	-9.955499
88	-9.956196
技术和	-9.956321
院	-9.956881
一些国家	-9.957266
73	-9.957685
CP	-9.957861
死刑	-9.958172
梅	-9.958297
排	-9.958491
囚犯	-9.959375
严格	-9.959377
注重	-9.959762
获	-9.960021
值得	-9.960196
该委员会	-9.960278
▁美国	-9.961148
影响到	-9.961764
▁上午	-9.962338
少数民族	-9.962436
as	-9.962736
的社会	-9.962983
估计数	-9.963025
中有	-9.964183
透明	-9.964500
客户	-9.964908
汇报	-9.964962
救济	-9.964980
ng	-9.965105
经常预算	-9.967111
主持	-9.967289
道德	-9.967465
另一个	-9.968353
放在	-9.968429
暂停	-9.968469
千	-9.968792
海关	-9.968977
效力	-9.969218
下来	-9.969306
的一切	-9.969562
自然灾害	-9.969899
ing	-9.971158
管理和	-9.971598
瑞	-9.971920
的决议	-9.972051
待遇	-9.972057
每天	-9.972057
-1	-9.972363
79	-9.972400
提交给	-9.972687
怀疑	-9.972720
性别平等	-9.972791
表达	-9.972815
进步	-9.972815
委员会主席	-9.972821
▁考虑到	-9.972941
百	-9.973279
摘要	-9.973913
靠	-9.974010
提出建议	-9.974740
兵	-9.974785
补编第	-9.975093
经济增长	-9.975261
临时议程	-9.975630
让你	-9.976120
着手	-9.976546
74	-9.976739
怎么样	-9.976744
\3	-9.977235
圣	-9.977323
回家	-9.977736
卷	-9.978348
物品	-9.978447
文本	-9.978645
供应商	-9.978663
俄罗斯	-9.978947
▁L	-9.978990
类型	-9.979378
赫	-9.979799
的审议	-9.980187
的技术	-9.980249
仲裁	-9.981196
改为	-9.981531
▁44.	-9.982035
▁委员会注意到	-9.982820
规模	-9.982831
开展的	-9.983062
最低	-9.983142
族	-9.983189
实	-9.983436
加速	-9.984086
▁我不	-9.984112
▁43.	-9.984193
养恤金	-9.984290
东道国	-9.984395
最佳做法	-9.984654
交付	-9.984945
落	-9.985206
▁这样	-9.985468
嘛	-9.985636
72	-9.986059
▁200	-9.986486
低于	-9.987348
维也纳	-9.987892
采取的	-9.989035
的发言	-9.989202
好了	-9.989496
▁而	-9.989704
少数群体	-9.989757
▁我们认为	-9.989905
性的	-9.990047
在那里	-9.990058
▁b	-9.990792
管理局	-9.991293
和联合国	-9.991489
源	-9.991520
提交报告	-9.991586
联合国机构	-9.991714
兹	-9.991787
J	-9.991847
办	-9.992141
不平等	-9.992151
Corr	-9.992212
危害	-9.992443
常常	-9.992627
很难	-9.992815
▁只有	-9.993100
哥	-9.993187
表现	-9.993322
看法	-9.993402
税	-9.993722
反恐	-9.994557
杀	-9.994853
的人员	-9.994923
ri	-9.995548
回去	-9.995720
▁它们	-9.995798
相对	-9.996243
居住	-9.996825
五年	-9.997584
夫人	-9.997810
国际人道主义法	-9.998177
准确	-9.998595
世贸组织	-9.998797
掌握	-9.999209
我是	-9.999846
發	-10.000331
76	-10.000788
该组织	-10.001411
is	-10.001483
组织的	-10.001858
▁2012	-10.002793
越	-10.003681
界定	-10.003928
暴力行为	-10.004039
担保	-10.004151
SR	-10.004384
▁45.	-10.004817
的机构	-10.004885
批准了	-10.005325
失	-10.005439
	-10.006071
态度	-10.006145
回答	-10.006269
雇用	-10.006691
的生活	-10.006804
常驻联合国代表	-10.006820
7%	-10.006890
回到	-10.006947
良好	-10.006995
1%	-10.007106
最大	-10.007131
www	-10.008263
▁8	-10.008574
▁喂	-10.009402
许可	-10.009904
ro	-10.009997
先前	-10.010071
妇女的	-10.010258
・	-10.010466
”,	-10.010756
恶化	-10.011106
亲	-10.011143
反映了	-10.012272
。”	-10.012969
li	-10.013072
跳	-10.013482
发布	-10.013554
▁据	-10.013752
小岛屿发展中国家	-10.013827
俄	-10.014904
以及其他	-10.015220
和管理	-10.015259
61	-10.015264
帶	-10.016255
管辖权	-10.016393
免费	-10.016514
福	-10.016616
有义务	-10.017598
耶	-10.018003
巴勒斯坦人	-10.018238
监督厅	-10.018408
真正的	-10.018641
与发展	-10.018665
的实际	-10.018940
卡塔尔	-10.019200
怎样	-10.019585
座	-10.019619
确立	-10.019712
▁5	-10.019726
致	-10.019785
尚	-10.019794
消除贫穷	-10.019820
解除武装	-10.020137
尼加拉瓜	-10.020759
跟你	-10.020939
法令	-10.021626
98	-10.021674
▁等等	-10.022199
狗	-10.023417
该报告	-10.023488
彻底	-10.023963
有点	-10.024020
告诉我	-10.024415
食物	-10.024855
完	-10.026507
次区域	-10.026827
号和第	-10.027047
制作	-10.027095
负担	-10.027329
▁46.	-10.027597
这两个	-10.027734
报告说	-10.028514
设	-10.029318
履行其	-10.029524
劳工	-10.029627
愿	-10.029670
排放	-10.029921
赞成	-10.030000
飞	-10.030305
设立的	-10.030375
根	-10.030743
设想	-10.031370
深入	-10.031581
邻国	-10.031738
足够	-10.032157
美洲	-10.032413
95	-10.033533
监管	-10.033551
粮农组织	-10.034061
失去	-10.034838
-5	-10.035210
▁嗨	-10.035916
的说明	-10.035942
层	-10.036183
83	-10.036385
职等	-10.036810
哪	-10.036993
的相关	-10.037585
取得进展	-10.037644
面前	-10.038112
巴勒斯坦人民	-10.038194
始终	-10.038293
区域组织	-10.038339
审查了	-10.038383
两国	-10.038787
99	-10.039056
换	-10.039532
▁J	-10.039598
采取的行动	-10.039598
▁to	-10.039637
是我	-10.039713
职	-10.040751
退	-10.041401
发言者	-10.042655
师	-10.042794
的看法	-10.042855
权利的	-10.043139
的风险	-10.043379
密切	-10.043558
▁抱歉	-10.043825
上升	-10.044044
观察	-10.044185
参考	-10.044187
该决议	-10.044374
几内亚	-10.044814
工作计划	-10.045011
政党	-10.045118
满	-10.045256
结	-10.045301
短期	-10.045543
提出的建议	-10.045587
布基纳法索	-10.045929
弹药	-10.046187
不想	-10.046217
压力	-10.046332
处罚	-10.046387
89	-10.046472
▁47.	-10.046833
la	-10.047194
Τ	-10.047330
▁加强	-10.047662
的后续行动	-10.048302
ar	-10.048404
聽	-10.048960
告诉	-10.049474
塞尔维亚	-10.049858
▁去	-10.049902
会计	-10.050207
裡	-10.050529
年代	-10.050729
轮	-10.051102
汞	-10.051143
背景	-10.051269
大规模毁灭性武器	-10.051585
捐助方	-10.052327
利益攸关方	-10.052747
85	-10.053028
伯	-10.053230
在此	-10.053428
记者	-10.053543
举办了	-10.054408
赛	-10.055429
杜	-10.055745
这些问题	-10.056049
关心	-10.056202
和加强	-10.057034
有什么	-10.057034
的个人	-10.057104
共计	-10.057239
玻利维亚	-10.057723
保加利亚	-10.058638
帕	-10.058819
功能	-10.058877
已有	-10.059299
后者	-10.059954
剂	-10.060382
所规定的	-10.060467
生活在	-10.060783
目	-10.060823
是一种	-10.061045
在国家	-10.061294
的东西	-10.061297
一国	-10.061688
所有人	-10.061701
97	-10.061997
▁事实上	-10.062394
马耳他	-10.062542
交换	-10.062670
委员	-10.062922
消除对妇女一切形式歧视公约	-10.064057
弹	-10.064135
问题特别报告员	-10.064891
的状况	-10.064960
戈	-10.064971
营	-10.065478
许可证	-10.065560
在国家一级	-10.065668
將	-10.065669
结婚	-10.065814
南南合作	-10.066034
星	-10.066201
委员会的	-10.066370
回应	-10.066586
怪	-10.066975
审评	-10.066991
具备	-10.067140
▁小	-10.067400
和执行	-10.067687
程	-10.068124
国际法院	-10.068151
尤其是在	-10.069253
削减	-10.069443
规约	-10.070647
社会保障	-10.070796
期望	-10.070904
维持和平行动部	-10.071404
一家	-10.071442
官方发展援助	-10.071581
捐助国	-10.071759
要素	-10.071855
总是	-10.071871
今年	-10.071892
先生阁下	-10.072039
武装	-10.072177
蒙古	-10.072701
▁建议	-10.072898
额外	-10.073173
词	-10.073379
▁9	-10.073571
强调了	-10.073837
经济和社会	-10.074033
il	-10.074048
决定草案	-10.074227
认真	-10.074767
纪念	-10.075854
亦	-10.076447
厅	-10.076573
该项目	-10.076812
缔约国会议	-10.076847
es	-10.077302
食	-10.078151
性暴力	-10.078345
强化	-10.078468
成就	-10.078655
偿还	-10.079058
此项	-10.079236
的人数	-10.079308
结合	-10.079802
面临的	-10.079871
刚	-10.079944
该项	-10.080132
中非共和国	-10.080422
500	-10.080555
国际会议	-10.080652
斯洛伐克	-10.081681
▁许多	-10.082004
建	-10.082154
警方	-10.082241
基准	-10.082613
何	-10.082714
生物多样性	-10.082917
套	-10.083348
立陶宛	-10.083485
們	-10.083549
见第	-10.083671
的同时	-10.083770
等待	-10.083881
(1)	-10.084091
北	-10.084355
扎	-10.084476
.8	-10.084579
者的	-10.084822
缔约方大会	-10.085010
设置	-10.085140
車	-10.086052
不得不	-10.086314
业绩	-10.086539
▁48.	-10.086617
产生的	-10.086958
的研究	-10.087626
两次	-10.088181
鬼	-10.088340
的世界	-10.088488
.9	-10.089268
63	-10.089314
盾	-10.089769
以及对	-10.090056
笑	-10.090123
中东	-10.090761
新加坡	-10.091728
博士	-10.091792
▁真的	-10.091915
违反了	-10.092360
并通过	-10.092517
石	-10.092527
爆炸	-10.092580
关闭	-10.092891
尽	-10.093059
重复	-10.093582
联合国开发计划署	-10.093659
(2)	-10.093915
推	-10.094147
惯例	-10.094419
信贷	-10.094583
突出	-10.094683
3%	-10.095184
月至	-10.095264
用来	-10.095330
北部	-10.095409
必须在	-10.095867
▁你的	-10.096540
旅游	-10.097135
鱼	-10.097486
艾	-10.098006
收到了	-10.098034
发射	-10.098263
道路	-10.098283
各类	-10.098668
取得了	-10.098726
强调指出	-10.098828
政府间组织	-10.098830
步	-10.099225
临	-10.099569
消费	-10.100309
的培训	-10.100418
▁应	-10.100582
对这些	-10.100920
共识	-10.101051
的区域	-10.101091
儿童的	-10.101242
有时	-10.101314
生态系统	-10.101344
企图	-10.101484
cHFFFFFF	-10.101636
告	-10.101964
明白	-10.101974
妳	-10.102071
效果	-10.102505
设在	-10.102818
作为一个	-10.102915
电视	-10.103796
▁49.	-10.103884
一条	-10.104149
停	-10.104287
段所述	-10.104826
▁安理会	-10.105513
国际贸易	-10.105639
净额	-10.105965
在于	-10.106163
缺少	-10.106171
這樣	-10.106380
这些措施	-10.106388
试验	-10.106912
经营	-10.106963
最佳	-10.107129
▁那么	-10.107533
校	-10.108419
世纪	-10.108617
us	-10.108815
兄弟	-10.109097
▁50.	-10.109218
▁所有	-10.109549
已在	-10.110710
告诉你	-10.111065
▁最近	-10.111390
并请	-10.111396
的有关	-10.111484
口头	-10.111699
ir	-10.111773
和社会	-10.112208
的全球	-10.112940
王	-10.113774
有关国家	-10.114207
登	-10.114527
多个	-10.114651
记	-10.115499
它的	-10.115703
核可	-10.116471
村	-10.116586
该国政府	-10.116692
夜	-10.116882
丝	-10.116965
渠道	-10.117561
个员额	-10.117569
的环境	-10.118152
cHFF	-10.118384
也许	-10.118422
逃	-10.118680
爸爸	-10.118693
▁很好	-10.118825
遇到	-10.118858
▁只是	-10.119073
▁咨询委员会	-10.119167
菲	-10.119224
几内亚比绍	-10.119559
86	-10.119632
照料	-10.120360
正义	-10.120751
即使	-10.121296
扩散	-10.122512
这种情况	-10.122557
了一些	-10.122709
拨款	-10.122718
特征	-10.123019
还要	-10.123033
表决	-10.123086
不符合	-10.123212
提供资金	-10.123857
爱沙尼亚	-10.124058
以加强	-10.124472
行政当局	-10.125261
拍	-10.125296
高级专员	-10.125452
月份	-10.125665
穷人	-10.125759
84	-10.125811
不了	-10.126318
恐怖	-10.126593
痛苦	-10.126736
软件	-10.126820
和建议	-10.126904
以便在	-10.126905
吁请	-10.127100
▁以色列	-10.127140
的进展	-10.127533
▁我就	-10.128027
顿	-10.128157
▁51.	-10.128343
/2	-10.128417
迄今	-10.128422
at	-10.128815
收益	-10.128891
教授	-10.129170
等等	-10.129359
▁他说	-10.129644
感觉	-10.129986
還	-10.130068
多种	-10.131040
有能力	-10.131294
96	-10.131325
71	-10.131478
裁谈会	-10.131781
最大的	-10.131801
豁免	-10.131856
整	-10.132168
国际公约	-10.132230
强迫	-10.132401
巴拿马	-10.133040
士兵	-10.133041
存	-10.133115
严重的	-10.133398
的保护	-10.133410
更好的	-10.133841
部队派遣国	-10.134202
把你	-10.134206
年度报告	-10.134210
该决议草案	-10.134364
之间的关系	-10.134619
也门	-10.134928
卢森堡	-10.134995
不论	-10.135124
乍得	-10.135375
当事方	-10.135447
乌	-10.136505
期限	-10.136761
列出	-10.137292
委内瑞拉	-10.138128
毛里求斯	-10.138189
信任	-10.138390
议员	-10.139354
强烈	-10.139473
乌拉圭	-10.139617
康复	-10.140163
就此	-10.140571
事故	-10.141179
无论	-10.141224
遭	-10.141232
一个人	-10.141263
主义	-10.141482
牙买加	-10.141654
93	-10.141782
持	-10.142547
自动	-10.143305
的管理	-10.143385
妇女和儿童	-10.143414
坦桑尼亚联合共和国	-10.143586
的比例	-10.143987
的缔约国	-10.144770
拉脱维亚	-10.144890
应由	-10.144975
▁再	-10.145255
直到	-10.145498
恐怖分子	-10.145706
我国代表团	-10.146249
▁52.	-10.146361
事先	-10.146602
组成部分	-10.146825
移交	-10.146886
三年	-10.147038
哈萨克斯坦	-10.147042
方案的	-10.147239
服务的	-10.147887
块	-10.148465
▁除	-10.148540
批	-10.148608
条约机构	-10.148651
零	-10.149220
财务报表	-10.149310
位于	-10.149396
▁你可以	-10.149894
▁我只是	-10.150177
认定	-10.150783
易	-10.150938
作出贡献	-10.151478
召开的	-10.151978
教学	-10.152192
读	-10.152930
没收	-10.153104
蒙	-10.153714
该地区	-10.154303
参照	-10.154885
的条款	-10.155107
增	-10.155291
的歧视	-10.155342
的援助	-10.155364
有害	-10.155394
保存	-10.155720
警	-10.155811
怀孕	-10.155957
的立法	-10.156147
跟踪	-10.156310
男	-10.156677
▁也许	-10.157117
吸引	-10.157248
促进发展	-10.157950
补救	-10.158087
官方	-10.158142
`	-10.158200
社	-10.159090
▁300	-10.159245
和协调	-10.159411
巨大	-10.159784
流离失所	-10.159866
毒	-10.159986
还应	-10.160464
对待	-10.160667
体育	-10.160735
升	-10.161037
提交了	-10.161212
领取	-10.162156
於	-10.162643
牌	-10.163212
▁我们还	-10.163259
行事	-10.163494
组成的	-10.163590
拉丁美洲	-10.163694
▁400	-10.164171
的概念	-10.164233
▁确认	-10.164598
佩	-10.164916
预	-10.165142
使用的	-10.165258
把它	-10.165437
加上	-10.165519
頭	-10.166369
减贫	-10.166417
別	-10.166553
后来	-10.167941
的事情	-10.168268
更大	-10.169616
贝宁	-10.169651
推行	-10.170327
男女平等	-10.170401
群	-10.170485
破	-10.170520
附属机构	-10.170533
专家小组	-10.171832
▁决定	-10.172297
概述	-10.172617
越南	-10.172981
工作地点	-10.173100
可能是	-10.173416
为其	-10.173472
凡	-10.173521
每月	-10.173705
的形式	-10.173852
▁O	-10.173938
透明度	-10.174030
丈夫	-10.174529
@	-10.175677
▁600	-10.175874
紧张	-10.175920
其余	-10.175951
bord	-10.175968
它们的	-10.176482
净	-10.176602
快速	-10.176654
标	-10.176721
威	-10.176796
外交部	-10.176800
随	-10.177156
培训方案	-10.177380
的全面	-10.177536
英文	-10.178575
▁委员会建议缔约国	-10.178736
▁53.	-10.178879
4%	-10.179732
推迟	-10.180031
▁2013	-10.180410
机构和	-10.180564
该方案	-10.181108
的危险	-10.181349
着重	-10.181793
进展情况	-10.182099
脆弱	-10.182434
服	-10.182645
务	-10.183836
操作	-10.184245
是指	-10.184398
94	-10.184699
例外	-10.185044
▁一些	-10.185636
苏	-10.185703
国内法	-10.185878
的提议	-10.186002
300	-10.186173
问责制	-10.186348
罪犯	-10.186512
计算机	-10.186578
客	-10.186706
草	-10.187063
集	-10.187353
专家会议	-10.187429
纳米比亚	-10.187701
▁s	-10.187851
朝	-10.189440
2%	-10.190289
转递	-10.191082
▁#	-10.191107
注册	-10.191152
性别问题	-10.191319
的威胁	-10.191485
个别	-10.191740
aH	-10.192049
据称	-10.192409
对付	-10.192654
好吗	-10.192796
卖淫	-10.192979
藏	-10.193031
▁54.	-10.193428
南部	-10.193656
发起	-10.193912
顺利	-10.194033
一体化	-10.195351
说话	-10.195572
财政资源	-10.195902
形势	-10.196089
可靠	-10.196198
变革	-10.196430
父亲	-10.196447
届会	-10.196651
該	-10.196664
也可以	-10.196789
某种	-10.196849
男孩	-10.196939
身体	-10.197030
粮食安全	-10.197735
欧元	-10.197924
拖延	-10.198190
国际刑事法院	-10.198215
做的	-10.198227
▁那你	-10.198597
「	-10.199122
楼	-10.199203
和促进	-10.199512
档案	-10.199815
▁我可以	-10.200218
融入	-10.200358
82	-10.200506
别人	-10.200690
性和	-10.200887
提供关于	-10.200974
下去	-10.201323
防	-10.201770
92	-10.202072
产生了	-10.202677
促请	-10.202681
测试	-10.202903
机场	-10.203019
侵略	-10.203129
	-10.203483
处置	-10.203935
在这	-10.204105
居	-10.204106
持有	-10.204162
款项	-10.204791
▁认识到	-10.204924
▁它还	-10.205021
民事	-10.205087
国集团	-10.205119
看来	-10.205431
干嘛	-10.205508
木	-10.205750
删除	-10.206038
的地位	-10.206158
存在着	-10.207435
机构的	-10.207975
盖	-10.208568
的结论	-10.208749
规章	-10.209023
很少	-10.209352
忙	-10.209385
并与	-10.209877
用品	-10.209966
8%	-10.209987
一旦	-10.210257
和国际	-10.210869
永远	-10.212584
▁他是	-10.212688
世界人权宣言	-10.213123
丁	-10.213271
追	-10.213612
秘书长的报告	-10.213627
與	-10.214208
提高妇女地位	-10.214634
▁別	-10.215463
外国直接投资	-10.215612
1988	-10.216079
到底	-10.216291
联刚特派团	-10.216497
分钟	-10.216746
冰岛	-10.217544
任职	-10.217674
玛	-10.217718
特点	-10.217741
还没有	-10.217858
变成	-10.218361
和支持	-10.218694
科技	-10.218694
当选	-10.218944
来的	-10.219034
陈述	-10.219558
现代	-10.219704
▁我有	-10.219724
杀害	-10.219930
方针	-10.220062
胡	-10.220240
和解	-10.220471
沃	-10.220807
接近	-10.220876
列支敦士登	-10.220878
登记册	-10.220889
独立的	-10.221563
這些	-10.221669
短	-10.222047
提供服务	-10.222072
▁56.	-10.222197
注	-10.222579
的组织	-10.222815
条文	-10.222914
国家机构	-10.223462
本届会议	-10.223814
我会	-10.223852
法定	-10.224161
为执行	-10.224299
▁55.	-10.224339
暂时	-10.224976
会议的	-10.225031
的共同	-10.225226
莫桑比克	-10.225526
单一	-10.225969
人居署	-10.226028
附近	-10.226491
系统的	-10.226646
执行委员会	-10.226753
进来	-10.226856
存在的	-10.227188
所需资源	-10.227424
法律规定	-10.227437
▁首先	-10.227461
脚	-10.227689
一天	-10.227699
知识产权	-10.227895
总干事	-10.228091
做什么	-10.228138
失踪	-10.228548
容忍	-10.228725
在哪里	-10.228787
杰	-10.229276
剥削	-10.230412
绑架	-10.230969
事业	-10.231113
确定了	-10.231557
异	-10.231609
社会和文化权利	-10.231811
为期	-10.232011
进行合作	-10.232356
公民权利和政治权利国际公约	-10.232533
z	-10.232565
的谈判	-10.232565
附件一	-10.233115
it	-10.233223
导弹	-10.233398
独立专家	-10.234208
方面的作用	-10.234348
下述	-10.234548
解除	-10.234618
見	-10.234704
	-10.234724
许多国家	-10.235040
政	-10.235064
意义	-10.235126
因特网	-10.235164
衣	-10.235286
期待	-10.235375
在所有	-10.235398
请秘书长	-10.235762
架	-10.235784
因为它	-10.235891
阿尔巴尼亚	-10.236016
感染	-10.236607
上午	-10.236979
射	-10.237314
直	-10.237376
整体	-10.238241
彼此	-10.238446
届会议	-10.238808
举行会议	-10.238872
这项工作	-10.239115
商定的	-10.239120
刚刚	-10.239373
报告员	-10.239614
▁与此同时	-10.239693
.4/	-10.239734
两项	-10.240055
的必要性	-10.240154
是对	-10.240221
贸易法委员会	-10.240384
世界上	-10.240918
▁秘书长的报告	-10.241241
组织和	-10.241297
是一项	-10.241383
(1	-10.241620
容易	-10.241717
遣返	-10.241840
其他人	-10.241940
收到的	-10.242144
版	-10.242186
裁定	-10.242529
分摊	-10.242720
戴	-10.242857
▁800	-10.243257
的机制	-10.243440
创建	-10.243858
方便	-10.244344
9%	-10.244367
留下	-10.244825
:“	-10.244883
家人	-10.244978
转交	-10.245326
丧失	-10.245610
外国人	-10.245630
▁欧洲联盟	-10.245884
長	-10.246321
化学	-10.246496
培训班	-10.246615
侧重于	-10.246738
▁按	-10.246985
边境	-10.246997
国际劳工组织	-10.247555
某	-10.247709
为何	-10.247860
▁在第	-10.247992
贩运人口	-10.248127
见附件	-10.248464
这方面	-10.248497
街	-10.248637
分区域	-10.248654
一樣	-10.249000
意识到	-10.249001
的手段	-10.249188
动员	-10.249256
发生了	-10.249262
▁T	-10.249742
的指控	-10.250005
秘密	-10.250157
▁其中	-10.250263
配合	-10.250404
好的	-10.250804
工程处	-10.250855
配	-10.250962
双	-10.251308
报告的	-10.251509
泰	-10.251619
所需经费	-10.251658
造	-10.252011
进一步加强	-10.252332
et	-10.252447
是根据	-10.252733
修	-10.253692
:1	-10.253993
信仰	-10.254220
画	-10.254249
委员会在	-10.254312
物资	-10.254977
痛	-10.255060
基地	-10.255580
一部分	-10.257645
我就	-10.258179
巴林	-10.258617
微	-10.258630
全体	-10.258748
特设委员会	-10.258777
後	-10.258879
出于	-10.258887
施	-10.259406
的数量	-10.259506
本公约	-10.259955
▁57.	-10.260098
不过	-10.260896
的进程	-10.261226
例	-10.261228
并不是	-10.261256
具体的	-10.261339
国际文书	-10.261830
卢	-10.261853
洪都拉斯	-10.261895
的预算	-10.261956
保健服务	-10.262912
钻石	-10.263111
怕	-10.263149
影响的	-10.263696
侵犯人权	-10.263916
斯特	-10.264457
农民	-10.264634
警告	-10.264986
▁提交人	-10.265221
81	-10.265838
》;	-10.265927
格式	-10.266152
2008-2009	-10.266253
▁說	-10.267450
证书	-10.267549
亚太经社会	-10.268032
ch	-10.268355
运行	-10.268619
一场	-10.268621
圆桌会议	-10.268742
简化	-10.269251
科索沃特派团	-10.269357
提供支持	-10.269421
将是	-10.269611
齐	-10.269634
国家和国际	-10.269815
▁100	-10.270098
紧迫	-10.270391
坏	-10.270532
农	-10.270952
负	-10.271768
▁第二	-10.272324
ur	-10.272441
奖	-10.272491
现已	-10.272544
......	-10.272585
实践	-10.273078
信通技术	-10.273134
显著	-10.273246
不够	-10.273611
引	-10.273899
給	-10.273996
核武器国家	-10.274385
洗钱	-10.274563
随着	-10.275402
方案和	-10.275499
無	-10.275548
1373(2001)	-10.275894
定居点	-10.276392
这些人	-10.276738
贾	-10.276964
竞争力	-10.277198
依靠	-10.277966
总结	-10.277981
就能	-10.278043
示范法	-10.278136
交通	-10.278221
年前	-10.278282
工作人员的	-10.278789
常驻代表团	-10.278790
多次	-10.278811
张	-10.279423
妇女权利	-10.280046
海上	-10.280237
获得通过	-10.280497
造成了	-10.280686
穆	-10.281157
▁请秘书长	-10.281177
有关的问题	-10.281178
红	-10.281402
项目厅	-10.281594
以支持	-10.281637
2006-2007	-10.281705
大大	-10.281712
装备	-10.282093
印	-10.282097
▁爸爸	-10.282722
对象	-10.282913
了嗎	-10.283320
社会经济	-10.283783
歌	-10.283809
▁有些	-10.284304
排除	-10.284315
正如	-10.284823
▁V	-10.284867
事实上	-10.284893
包括通过	-10.284967
区别	-10.285056
温	-10.285104
谨	-10.285335
被迫	-10.285502
邦	-10.285515
乱	-10.285532
各组织	-10.285704
派遣	-10.286077
尽早	-10.286397
披露	-10.286531
阿拉伯利比亚民众国	-10.286605
董事会	-10.286692
对该	-10.286947
年底	-10.286973
飞行	-10.286974
理事会第	-10.287084
/2000/	-10.287260
电影	-10.287465
阐述	-10.287721
是你	-10.287962
失败	-10.288199
翻译	-10.288951
举办的	-10.289600
man	-10.289660
行为者	-10.290454
▁这里	-10.290629
强制	-10.290823
都在	-10.291034
Z	-10.291162
变动	-10.291221
的协调	-10.291388
项目的	-10.291399
编辑	-10.291635
演	-10.291967
的唯一	-10.292227
极为	-10.292289
妇女和女孩	-10.292361
运用	-10.292630
1980	-10.294257
专门机构	-10.294448
国家办事处	-10.294646
▁见	-10.294903
妈妈	-10.294910
▁59.	-10.294966
保密	-10.295073
se	-10.295074
自身	-10.295092
▁至于	-10.295116
X	-10.295266
民兵	-10.295501
出现了	-10.295763
纠正	-10.296078
工作中	-10.296164
条款草案	-10.296885
▁只要	-10.297370
开会	-10.297488
Y	-10.297509
前南斯拉夫的马其顿共和国	-10.297787
的声明	-10.297855
迫切需要	-10.297861
唯一	-10.298037
争议	-10.298285
抓	-10.298307
他在	-10.298591
能否	-10.298759
投	-10.298928
告知	-10.299106
倡导	-10.299417
仅仅	-10.299635
雅	-10.299635
日起	-10.299780
妇女和女童	-10.299860
缔结	-10.299871
巴拉圭	-10.300131
所做的	-10.300172
分段	-10.300270
战略计划	-10.301250
指称	-10.301281
实施的	-10.301452
▁W	-10.301600
图书馆	-10.301699
听取了	-10.302068
國	-10.302721
负债	-10.302804
▁700	-10.302889
害怕	-10.303065
支	-10.303438
赞比亚	-10.303701
▁58.	-10.304156
报道	-10.304159
西非	-10.304233
时间表	-10.304559
▁你有	-10.305342
成功地	-10.305415
▁到	-10.305522
▁什麼	-10.305867
的一种	-10.306499
/4	-10.306526
的实施	-10.306587
表示关注	-10.306727
真是	-10.306914
级别	-10.306974
将由	-10.307020
底	-10.307082
法律和	-10.307626
阐明	-10.307716
/56/	-10.308410
作业	-10.308560
以此	-10.308569
号和	-10.308616
议事规则	-10.308764
阿拉伯联合酋长国	-10.308862
就可以	-10.308992
表示欢迎	-10.309318
质	-10.309463
公务员	-10.309666
年轻人	-10.309884
高级别会议	-10.310909
总数	-10.311084
生存	-10.311268
该公约	-10.311696
▁贸发会议	-10.311887
喜歡	-10.312089
不稳定	-10.312269
国际标准	-10.312861
▁来吧	-10.313407
少数	-10.313674
缺陷	-10.313751
永久	-10.314143
灵活	-10.314243
管理国	-10.315048
密	-10.315393
开展合作	-10.315491
互动	-10.315700
附件二	-10.316099
▁R	-10.316105
指数	-10.317183
所载的	-10.317915
研究报告	-10.317944
給我	-10.318042
22\	-10.318377
促成	-10.318392
次全体会议	-10.318392
辩护	-10.318662
警官	-10.318810
在哪	-10.319069
哦	-10.319125
自治	-10.319792
▁就像	-10.320127
有着	-10.320249
废除	-10.320601
提案国	-10.320607
――	-10.320669
非常重要	-10.320834
并就	-10.320947
的观点	-10.321169
x	-10.321550
每一个	-10.321587
▁没错	-10.321881
缓解	-10.322078
▁中国	-10.322805
▁必须	-10.322865
签署了	-10.323080
当事人	-10.323098
精	-10.323275
常设	-10.323306
利比亚	-10.323472
移徙者	-10.323536
谢	-10.323638
潜在	-10.323800
毛	-10.323905
取得的进展	-10.324605
明天	-10.324760
的使用	-10.325016
公报	-10.325124
报告第	-10.325133
肉	-10.325250
不妨	-10.325301
支援	-10.325578
等问题	-10.325751
庇护	-10.326109
洗	-10.326592
条的规定	-10.326663
▁可	-10.326688
升级	-10.327104
进行审查	-10.327428
相应	-10.327571
配偶	-10.327842
意外	-10.328053
剥夺	-10.328325
加强了	-10.329205
区分	-10.329229
多哥	-10.329270
表格	-10.329534
▁60.	-10.329950
現在	-10.329973
还需要	-10.330049
的许多	-10.330224
果	-10.330239
穆斯林	-10.330286
▁1997	-10.330401
部门的	-10.330505
送交	-10.330710
镇	-10.330832
150	-10.331552
的职责	-10.331726
乌兹别克斯坦	-10.331764
我们必须	-10.331840
消息	-10.331854
并加强	-10.332032
各机构	-10.332221
▁报告	-10.332608
备	-10.333163
经合组织	-10.334082
联合国人权事务高级专员办事处	-10.334094
多米尼加共和国	-10.334379
人员的	-10.334603
撤销	-10.334656
50%	-10.334976
禁	-10.334995
都会	-10.335041
紧急情况	-10.335162
订立	-10.335205
2004-2005	-10.335316
吉布提	-10.335370
时代	-10.335734
私	-10.335982
国家安全	-10.336073
的程度	-10.336616
单方面	-10.336688
部长级会议	-10.336715
身上	-10.336967
▁目录	-10.336989
位置	-10.337148
论	-10.337790
意识	-10.337958
坚定	-10.338227
第四	-10.338452
▁你能	-10.338763
本人	-10.339192
援引	-10.339248
他人	-10.339261
不存在	-10.339632
守	-10.339692
核定	-10.339735
航空	-10.340064
信息系统	-10.340096
▁人们	-10.340286
填补	-10.340775
▁61.	-10.340791
联合国秘书长	-10.341060
一贯	-10.341474
继承	-10.341778
对妇女	-10.341912
世界卫生组织	-10.341913
说什么	-10.342461
兒	-10.342710
更正	-10.342772
打击恐怖主义	-10.342938
区域合作	-10.343036
召集	-10.343181
性剥削	-10.343871
培训和	-10.344521
店	-10.344658
灾难	-10.344711
空缺	-10.344765
婚	-10.345616
的联系	-10.346307
秩序	-10.346641
ah	-10.346789
的长期	-10.347186
适合	-10.347648
加沙	-10.348686
也会	-10.348926
各缔约国	-10.349072
的地区	-10.349118
不结盟运动	-10.349222
外层空间	-10.349365
去了	-10.349663
w	-10.349796
不需要	-10.350044
谅解备忘录	-10.350240
韦	-10.350965
本区域	-10.351156
的限制	-10.351334
民间社会组织	-10.351413
兩	-10.351476
不错	-10.351889
冷	-10.351968
▁他还	-10.351979
互联网	-10.351980
把我	-10.351987
看见	-10.352551
(2005	-10.353473
的提案	-10.353563
II	-10.353574
汇率	-10.353707
库存	-10.353853
上帝	-10.354119
债权人	-10.354564
一點	-10.355149
随时	-10.355203
▁你会	-10.355262
持久	-10.355313
硂	-10.355650
将来	-10.355681
养	-10.356039
富	-10.356052
人权和基本自由	-10.356167
CONF	-10.356199
91	-10.356203
私营	-10.356544
第三次	-10.356845
稱	-10.356855
加剧	-10.356956
▁可以	-10.357388
断	-10.357428
和保护	-10.357604
一般性辩论	-10.357629
否则	-10.357773
的某些	-10.358379
▁我觉得	-10.358460
难民营	-10.358974
▁62.	-10.359244
動	-10.359325
▁经济及社会理事会	-10.359532
高于	-10.359555
ㄓ	-10.359903
农村妇女	-10.360028
更大的	-10.360052
第一个	-10.360155
执行情况的	-10.360242
▁这项	-10.360538
假设	-10.360643
欧洲委员会	-10.360858
第六条	-10.360930
汉	-10.361450
▁随着	-10.361530
和相关	-10.361814
▁怎么了	-10.361831
可以在	-10.362442
击	-10.362875
▁我不想	-10.363176
载	-10.363341
足	-10.364080
斐济	-10.364374
动物	-10.364695
关切地注意到	-10.364920
多样化	-10.364969
ad	-10.365462
代理	-10.365511
客观	-10.365596
▁'	-10.365863
大会主席	-10.366645
▁63.	-10.366689
氣	-10.366715
将有助于	-10.367059
▁it	-10.367171
借	-10.367328
示范	-10.367429
音	-10.367512
妮	-10.367682
马达加斯加	-10.367959
▁哈	-10.368357
(2006	-10.368512
港	-10.368762
仍在	-10.369009
记得	-10.369167
背	-10.369311
法律援助	-10.369432
号法令	-10.370236
封锁	-10.370902
潜力	-10.371474
▁我不是	-10.372333
变得	-10.372598
户	-10.372599
學	-10.372767
金融机构	-10.372896
余额	-10.373218
最多	-10.373324
散发	-10.373419
真相	-10.373699
/3	-10.374023
是我的	-10.374380
im	-10.374495
共和国总统	-10.374654
/64/	-10.374750
同等	-10.374832
联合国环境规划署	-10.375363
治	-10.376361
▁那个	-10.376439
▁我能	-10.377016
摊款	-10.377029
吨	-10.377095
未经	-10.377194
增加到	-10.377494
应急	-10.377681
今晚	-10.378138
违背	-10.378164
的职能	-10.378278
公路	-10.378398
药品	-10.378600
方案预算	-10.378739
包容性	-10.378742
各区域	-10.378756
但在	-10.379410
免	-10.380301
强制性	-10.380586
和非	-10.381643
各位	-10.381751
预防和	-10.381870
某个	-10.382727
公共部门	-10.382730
近东救济工程处	-10.382785
办公	-10.382806
的经费	-10.382867
第五委员会	-10.383301
am	-10.383820
安置	-10.384077
获悉	-10.384132
他们在	-10.385072
未成年人	-10.385183
第五	-10.385534
偷	-10.385680
何种	-10.386098
璶	-10.386386
犯下	-10.386582
这些活动	-10.387128
有了	-10.387396
成绩	-10.387443
以使	-10.387503
冲突后	-10.387627
形	-10.387654
万人	-10.387695
是不是	-10.387834
大型	-10.388163
第二个	-10.388216
具	-10.388415
之间的合作	-10.388451
很快	-10.388587
劳	-10.389159
8000}	-10.389244
差别	-10.389403
▁900	-10.389490
条和第	-10.389754
得不到	-10.389871
同上	-10.389984
响应	-10.390182
欧	-10.390348
迷	-10.390366
COP	-10.390368
丽	-10.390537
联合国儿童基金会	-10.390720
减少了	-10.390842
上面	-10.390852
罗马	-10.391078
第三方	-10.391084
国家人权机构	-10.391370
方面取得的进展	-10.391392
HRC	-10.391544
儿子	-10.391672
害	-10.391707
的有效	-10.391714
归	-10.391921
难民专员办事处	-10.392387
端	-10.392392
/2006/	-10.392617
克斯	-10.393085
协调和	-10.393163
完成了	-10.393500
卖	-10.393661
特别程序	-10.394464
执行秘书	-10.395134
政权	-10.395379
相当于	-10.395386
出售	-10.395602
所作的努力	-10.395616
拟议的	-10.395655
装置	-10.395720
津巴布韦	-10.395815
不行	-10.396149
什	-10.396466
不好	-10.396680
复	-10.396790
专门知识	-10.396895
都不	-10.396956
编写的	-10.397009
弗	-10.397588
晚上	-10.397648
怎麼	-10.397694
▁現在	-10.397816
1989	-10.397895
效益	-10.397984
毛额	-10.397994
并于	-10.398049
体现	-10.398296
比率	-10.398408
小型	-10.398578
有责任	-10.398863
维持和平特派团	-10.399184
设定	-10.399466
保护和	-10.399557
衣服	-10.399678
敏感	-10.400072
安理会成员	-10.400239
决策者	-10.400421
进去	-10.400493
艺术	-10.400843
为实现	-10.400868
涉及到	-10.401089
▁促进	-10.401511
提交的报告	-10.401543
思想	-10.401627
同样的	-10.401711
培养	-10.401978
莎	-10.402092
认捐	-10.402211
的受害者	-10.402531
联合国各机构	-10.402590
都能	-10.402785
他说	-10.403081
的证据	-10.403231
數	-10.403390
干什么	-10.403455
分子	-10.403640
▁快点	-10.403856
煽动	-10.404198
这些建议	-10.404277
旧	-10.405048
领	-10.405931
移动	-10.406656
刀	-10.406856
提供有关	-10.406976
最新	-10.407281
担保权	-10.407500
散	-10.407722
紧	-10.408016
ol	-10.408101
所作	-10.408365
乐	-10.408980
住在	-10.409041
联黎部队	-10.409307
ay	-10.409337
▁若	-10.409536
/2001/	-10.409886
野	-10.409985
降	-10.409992
土	-10.410358
明确的	-10.410459
▁确保	-10.410547
麻烦	-10.410759
接收	-10.411354
▁六	-10.411436
年初	-10.411696
疟疾	-10.412005
辅助	-10.412189
▁日本	-10.412419
卫生组织	-10.412448
原因是	-10.412684
板	-10.413047
问责	-10.413278
混蛋	-10.413400
行为的	-10.413554
十分重要	-10.414173
树	-10.414191
全球环境基金	-10.414407
对策	-10.414702
毒品和犯罪问题办公室	-10.414959
▁c	-10.415388
更好	-10.415541
是個	-10.415883
根据其	-10.415894
不在	-10.415931
从未	-10.416146
你是	-10.416264
建设和平委员会	-10.416473
的性质	-10.416692
▁天啊	-10.416788
的现有	-10.417120
人类住区	-10.417160
普及	-10.417244
內	-10.417324
准	-10.417619
的适当	-10.417692
120	-10.418078
其工作	-10.418235
作出努力	-10.418341
为基础的	-10.418438
秘书	-10.418526
在该	-10.418580
简单	-10.418684
受理	-10.419149
劳动力	-10.419284
/65/	-10.419417
并促进	-10.419564
农村地区	-10.420642
入境	-10.421421
不必	-10.421496
众多	-10.421533
经费的筹措	-10.421825
急	-10.421844
节目	-10.422099
政府和	-10.422992
話	-10.423007
妇发基金	-10.423146
在整个	-10.423178
就像	-10.423441
凯	-10.423884
各代表团	-10.424020
业务活动	-10.424634
很高	-10.424651
缴款	-10.424708
所有的	-10.424984
之内	-10.424992
组合	-10.425069
地理	-10.425354
▁沒有	-10.425436
有个	-10.426598
表示赞赏	-10.426862
去年	-10.426933
世界贸易组织	-10.426939
特性	-10.427389
对联合国	-10.427593
在非洲	-10.427683
然	-10.428388
千年宣言	-10.428416
▁谢谢你	-10.428716
龙	-10.429216
倍	-10.429356
后勤	-10.431299
完善	-10.431451
公里	-10.431548
广播	-10.431549
描述	-10.431790
吉尔吉斯斯坦	-10.431836
价值观	-10.432334
至今	-10.432899
促进和保护人权	-10.433019
主办	-10.433291
可持续的	-10.433311
称为	-10.433463
繁荣	-10.433754
土库曼斯坦	-10.433775
场所	-10.433857
\4	-10.433955
连续	-10.433998
政策和方案	-10.434062
建设性	-10.434250
第一章	-10.434377
牛	-10.434589
▁65.	-10.434640
类似的	-10.434646
轻	-10.435017
WG	-10.435041
正确	-10.435064
审	-10.435111
▁让我	-10.435368
好像	-10.435867
最近的	-10.436674
厂	-10.436806
直至	-10.437311
主动	-10.437425
10%	-10.437434
普遍定期审议	-10.437806
固定	-10.437953
发展权	-10.438037
成效	-10.438272
太平洋	-10.438538
国别	-10.438581
/66/	-10.439009
冲	-10.439013
▁你说	-10.439273
也在	-10.439754
的未来	-10.440104
经社理事会	-10.440194
盘	-10.440555
和实施	-10.440688
排放量	-10.440805
音乐	-10.440957
分配给	-10.441093
全面的	-10.441380
的框架内	-10.441584
蛋	-10.441765
生态	-10.442065
暴	-10.442331
使他们	-10.442643
港口	-10.442689
摆脱	-10.442825
大力	-10.442877
优惠	-10.443064
施加	-10.443089
支柱	-10.443388
负有	-10.443444
百分比	-10.443465
日关于	-10.443488
用以	-10.443840
的人口	-10.443982
考	-10.443995
武装团体	-10.444315
华	-10.444718
并应	-10.445338
赠款	-10.445359
技术转让	-10.445626
佛	-10.446126
就要	-10.446148
国家一级	-10.446188
现场	-10.446363
更多地	-10.446834
加强联合国	-10.446918
交给	-10.447331
休	-10.447918
维修	-10.448243
这一进程	-10.448373
的变化	-10.448510
不扩散	-10.448584
联合国在	-10.448685
续会	-10.448741
20%	-10.449390
观念	-10.449507
发了言	-10.449560
招募	-10.449715
南方	-10.450217
后续	-10.450768
探	-10.451290
积极的	-10.451316
箱	-10.451752
电信	-10.451990
▁64.	-10.452090
行动者	-10.452203
进行调查	-10.452236
生计	-10.452259
尼日尔	-10.452417
▁会	-10.452626
的改革	-10.452638
采取的措施	-10.452674
的事件	-10.452683
塔吉克斯坦	-10.452748
被拘留者	-10.453053
/54/	-10.453446
金额	-10.453460
巴塞尔公约	-10.453720
▁66.	-10.453851
除外	-10.454029
维和行动	-10.454690
执行部分第	-10.454912
ie	-10.454932
确定的	-10.455108
第七	-10.455149
所产生的	-10.455543
中期	-10.455831
的存在	-10.456189
国内流离失所者	-10.456594
营地	-10.456812
▁你看	-10.457119
的家庭	-10.457875
出來	-10.457944
司法部	-10.458472
国际机构	-10.458795
列为	-10.459982
給你	-10.460193
认证	-10.460269
的计划	-10.460475
帮我	-10.460682
提请注意	-10.460795
授予	-10.460868
司法机构	-10.461054
战斗	-10.461826
的总体	-10.461860
游	-10.461921
覺得	-10.462379
任用	-10.462623
霍	-10.463202
▁我會	-10.463306
留在	-10.464217
▁h	-10.465195
中亚	-10.465204
所有会员国	-10.465239
桑	-10.465405
的趋势	-10.465755
全球性	-10.465757
助	-10.466005
只有在	-10.466270
▁与会者	-10.466395
一方	-10.466472
你要	-10.466491
共同努力	-10.466635
副秘书长	-10.466725
的那样	-10.466858
等方面	-10.467276
混	-10.467405
穦	-10.467793
	-10.467822
▁但你	-10.468122
课	-10.468127
特别注意	-10.468595
统计数据	-10.468778
查阅	-10.468927
内罗毕	-10.469131
理论	-10.469242
非洲发展新伙伴关系	-10.469324
人民的	-10.469480
ma	-10.469907
自我	-10.469917
的精神	-10.469922
之间的联系	-10.470018
我们认为	-10.470493
▁听着	-10.470537
提供的资料	-10.470716
▁我们要	-10.470826
他是	-10.471186
和程序	-10.471218
把他	-10.471305
▁如果我	-10.472455
土著民族	-10.472606
摩尔多瓦共和国	-10.472644
阁下	-10.473197
床	-10.473352
斗争	-10.473838
婴儿	-10.473883
殺	-10.473935
核实	-10.474289
那個	-10.474434
批款	-10.474891
欺诈	-10.475019
发动	-10.475040
的身份	-10.475224
十二	-10.475267
学会	-10.475403
ou	-10.475538
游戏	-10.476106
id	-10.476398
CRP	-10.476747
投诉	-10.476820
妻子	-10.477467
關	-10.477472
不用	-10.477601
并使	-10.477615
▁我们必须	-10.477831
冰	-10.477964
被捕	-10.478065
逐渐	-10.478308
习俗	-10.478818
巴黎	-10.479101
冻结	-10.479328
等领域	-10.479419
薪	-10.479496
矿	-10.479795
雪	-10.480042
残疾儿童	-10.480413
第二部分	-10.480506
st	-10.480590
发展伙伴	-10.480694
而已	-10.480764
马拉维	-10.481083
▁妳	-10.481124
人力资源管理	-10.481154
饥饿	-10.481297
小学	-10.481726
成本效益	-10.481743
弧	-10.481805
听取	-10.481925
侵害	-10.481982
的权力	-10.482013
前景	-10.482237
地方政府	-10.482433
视察	-10.482464
环	-10.482659
0\3	-10.482974
该缔约国	-10.483293
就必须	-10.483888
国家方案	-10.483975
环境规划署	-10.484062
的伙伴关系	-10.484159
工作方法	-10.484808
委	-10.484856
▁加拿大	-10.484936
地址	-10.485168
和安全	-10.485333
一个国家	-10.485443
▁回顾其	-10.485445
▁儿童基金会	-10.485508
行政和	-10.485567
角色	-10.485676
和非政府组织	-10.485815
露	-10.486052
▁可是	-10.486063
▁我不能	-10.486136
地方当局	-10.486750
已被	-10.487089
连接	-10.487482
动态	-10.487745
将为	-10.488302
铁	-10.488375
	-10.489455
并强调	-10.489862
这些机构	-10.490017
提供技术援助	-10.490319
也可	-10.490409
母	-10.490727
尽量	-10.490831
忘了	-10.490881
找出	-10.491058
▁临时议程	-10.491161
的倡议	-10.491179
法律框架	-10.491880
清除	-10.491897
的业务	-10.492332
挺	-10.492535
的事实	-10.492591
▁在本报告所述期间	-10.493206
谈谈	-10.493568
目标是	-10.493612
杯	-10.493650
后的	-10.493773
还指出	-10.494326
社会和经济	-10.494368
必	-10.494412
亞	-10.494652
速	-10.494854
无效	-10.494950
的成功	-10.494995
的规则	-10.495154
世纪议程	-10.495539
圭亚那	-10.495819
规划和	-10.496177
或许	-10.496292
并根据	-10.496409
不管	-10.496416
年轻	-10.496436
2002-2003	-10.496668
探索	-10.496756
管理人员	-10.497211
名字	-10.497379
审查会议	-10.497553
来看	-10.497712
▁67.	-10.497795
生殖健康	-10.497808
文化和	-10.498012
照片	-10.498163
划	-10.498332
要去	-10.498958
未来的	-10.499042
与合作	-10.499694
青年人	-10.499865
同时考虑到	-10.499908
的支助	-10.500128
..	-10.500294
样	-10.500514
区域和国际	-10.500633
病人	-10.500720
给安全理事会主席的信	-10.500741
巨大的	-10.500789
起來	-10.500802
/2002/	-10.500962
}	-10.501545
消费者	-10.501602
路线图	-10.501681
脱	-10.501992
顾及	-10.502136
监察	-10.502231
委员会认为	-10.502310
▁委员会在	-10.502389
(2007	-10.502506
受伤	-10.503019
星期	-10.503477
/2005/	-10.503572
概算	-10.503808
歧视性	-10.503873
成立了	-10.504419
追踪	-10.504552
▁太	-10.505323
1967	-10.505432
过境	-10.505450
停火	-10.505881
》(《	-10.505891
有效执行	-10.505898
对所有	-10.506671
发表了	-10.506851
以外的	-10.506881
联合国秘书处	-10.506959
▁委员会建议	-10.507650
力求	-10.507738
麦	-10.507775
弱势群体	-10.507998
你知道	-10.508389
的最后	-10.508444
毛里塔尼亚	-10.509428
这种做法	-10.509746
也将	-10.510221
的投资	-10.510455
质疑	-10.510556
Al	-10.510973
债务人	-10.511213
啥	-10.511569
的调查	-10.511587
该问题	-10.512293
拖	-10.512336
的局势	-10.512351
恶	-10.512378
的现象	-10.512498
联合国会员国	-10.513383
请秘书处	-10.513477
房子	-10.513603
na	-10.514025
已成为	-10.514042
发挥作用	-10.514592
咨询意见	-10.514942
思	-10.514992
扩展	-10.515537
暗	-10.515626
复原	-10.515674
以及与	-10.515683
经历	-10.515919
可持续性	-10.516020
现代化	-10.516256
招	-10.516472
能够在	-10.516548
覆盖	-10.516580
弱	-10.516868
置	-10.517467
▁第三	-10.517730
之处	-10.518218
都没有	-10.518381
DP	-10.518542
替	-10.518551
樣	-10.518691
/2003/	-10.518955
开展活动	-10.519154
近期	-10.519209
反恐怖主义	-10.519605
▁或者	-10.519703
▁68.	-10.519862
▁Al	-10.519901
中的作用	-10.519936
沟通	-10.520104
世界各地	-10.520149
薪金	-10.520170
关税	-10.520349
行动的	-10.520555
良好的	-10.520731
和监测	-10.521305
联检组	-10.521382
监察员	-10.521708
旅游业	-10.521910
开展的活动	-10.522077
案例	-10.522795
的会员国	-10.523024
摩纳哥	-10.523233
缩小	-10.523270
船只	-10.523294
的价值	-10.523314
努	-10.523458
▁用	-10.523638
以及关于	-10.523741
可行	-10.523773
就业机会	-10.524051
贩卖	-10.524097
▁你不	-10.524558
史	-10.525061
否认	-10.525455
全系统	-10.525473
他妈的	-10.525672
面向	-10.525789
所提供的	-10.526354
申明	-10.526857
摆	-10.526970
安装	-10.526983
让他们	-10.526993
▁因為	-10.527269
适用的	-10.527677
分歧	-10.528083
号决议和	-10.528960
名称	-10.529146
速度	-10.529272
拉丁美洲和加勒比	-10.529415
当中	-10.529587
的主题	-10.529942
▁艾	-10.530020
秘书长特别代表	-10.530206
Q	-10.530363
做到	-10.530522
ta	-10.530788
ti	-10.530833
丹	-10.530861
使之	-10.531244
▁小组委员会	-10.531327
各成员国	-10.531565
犯罪行为	-10.531635
阿曼	-10.531849
東西	-10.532171
最重要的	-10.532470
将对	-10.532660
去找	-10.532752
祝贺	-10.533002
好吧	-10.533046
流离失所者	-10.534017
的一个重要	-10.534327
事态发展	-10.534404
安全理事会主席	-10.534760
而不	-10.534788
讓我	-10.535067
定期报告	-10.535239
排斥	-10.535319
刚才	-10.535543
协调中心	-10.535673
有一些	-10.536272
还没	-10.536396
各缔约方	-10.536457
附加议定书	-10.536526
/5	-10.536612
免受	-10.536751
的过程中	-10.536915
▁我们希望	-10.537206
安全部队	-10.537334
政府机构	-10.537409
限	-10.537798
包括对	-10.538061
▁f	-10.538513
▁我很	-10.539021
之时	-10.539025
章程	-10.539033
表示支持	-10.539186
▁很	-10.539301
回來	-10.539571
文职人员	-10.539700
ho	-10.540504
和国家	-10.540667
信息和	-10.540884
国际原子能机构	-10.541225
撤出	-10.541393
博茨瓦纳	-10.541397
委托	-10.542295
▁大家	-10.542558
决定将	-10.542916
▁m	-10.542946
让我们	-10.543444
▁我认为	-10.543963
的障碍	-10.543971
第七条	-10.544102
公共行政	-10.544456
充分执行	-10.544548
监测和	-10.544617
”(	-10.545138
:「	-10.545633
▁文件	-10.545664
首都	-10.545689
忽视	-10.545728
▁那些	-10.545814
而在	-10.545862
要点	-10.545891
区域办事处	-10.546017
表现出	-10.546072
撤回	-10.546136
而且还	-10.546264
这儿	-10.546723
和机构	-10.547031
选出	-10.547128
退休	-10.547301
后面	-10.547846
都必须	-10.547852
采纳	-10.547975
馬	-10.548020
移	-10.548791
核准的	-10.548967
出现的	-10.549287
阿拉伯国家	-10.549590
封	-10.550117
发生在	-10.550126
十五	-10.550305
加勒比	-10.550931
传真	-10.551492
▁看看	-10.551871
卫生部	-10.551936
的对话	-10.552179
席	-10.552319
▁所以我	-10.552483
巡逻	-10.552852
第二届会议	-10.552986
/1999/	-10.553021
县	-10.553075
略	-10.553210
地面	-10.553369
▁那就	-10.553444
联合国大会	-10.553466
政府官员	-10.553652
案件中	-10.553685
革命	-10.554039
内部监督事务厅	-10.554246
▁69.	-10.554426
讲话	-10.554516
肯	-10.554626
可再生能源	-10.554789
帮你	-10.555122
▁_	-10.555368
海牙	-10.555538
生育	-10.555572
的名义	-10.555657
處	-10.555661
/53/	-10.555719
/1	-10.555748
反映出	-10.555964
非正式协商	-10.556130
▁真是	-10.556481
▁第一	-10.556520
坚决	-10.556778
加蓬	-10.556862
建立信任措施	-10.557182
死亡率	-10.557197
咖啡	-10.557290
政府在	-10.557307
我们在	-10.557333
門	-10.557585
时候	-10.558017
故	-10.558324
的组成部分	-10.558495
所示	-10.558520
▁我得	-10.558655
▁特别委员会	-10.558722
想知道	-10.558726
提供给	-10.559213
讓	-10.559299
轨道	-10.559622
WP	-10.559910
同时也	-10.559981
不利	-10.560043
的优先事项	-10.560222
/2004/	-10.560410
不丹	-10.560612
刑事司法	-10.561054
好好	-10.561193
绝	-10.561494
人权和	-10.561888
▁想	-10.562287
瑟	-10.562353
我知道	-10.562461
继续进行	-10.562701
反腐败	-10.563075
经济和社会发展	-10.563167
看着	-10.563257
和有关	-10.563425
加工	-10.563692
取得成功	-10.563733
两种	-10.563737
据	-10.563940
太太	-10.564037
son	-10.564164
爆发	-10.564517
帐户	-10.564754
小武器和轻武器	-10.564810
▁审查	-10.565013
里面	-10.565348
05	-10.565489
的因素	-10.565688
经济和社会事务部	-10.565837
参与者	-10.566612
進	-10.566895
中止	-10.566929
黑山	-10.567242
谋杀	-10.567533
唱	-10.567989
重点是	-10.568007
受影响	-10.568038
应以	-10.568229
的事项	-10.568302
训研所	-10.568583
冲突的	-10.568972
经济体	-10.569089
带来的	-10.569123
采取步骤	-10.569283
UNEP	-10.569308
时至	-10.570064
所面临的	-10.570491
对儿童	-10.570603
会谈	-10.570850
引起的	-10.570991
并要求	-10.571198
可持续发展委员会	-10.571234
的案文	-10.571284
應該	-10.571377
所造成的	-10.571410
罗姆人	-10.571696
▁同上	-10.571738
自决	-10.571994
回收	-10.572137
抽	-10.572323
而非	-10.572453
表示感谢	-10.572515
领袖	-10.572531
ぃ	-10.572613
网址	-10.572798
碳	-10.572992
一般性	-10.573414
实验室	-10.573494
的罪行	-10.573510
不限成员名额工作组	-10.573643
/2007/	-10.573672
增长率	-10.573734
松	-10.573854
⊿	-10.574616
习惯	-10.574660
才是	-10.575254
加沙地带	-10.575394
报酬	-10.575410
▁没	-10.575414
句	-10.575498
想法	-10.575723
的联合国	-10.575897
顶	-10.576002
常驻代表	-10.576153
另	-10.576363
1982	-10.576550
梦	-10.576562
▁71.	-10.576721
既定	-10.576818
准许	-10.576939
所需要的	-10.577189
甚	-10.577589
▁非洲	-10.577607
保安	-10.577733
小武器	-10.577850
录	-10.577929
谈到	-10.578382
	-10.578460
排雷	-10.578873
1:00	-10.578904
离婚	-10.579022
人群	-10.579298
fscx	-10.579493
ne	-10.579517
GC	-10.579658
巴巴多斯	-10.579791
之一是	-10.580154
警卫	-10.580330
着重指出	-10.580670
六个月	-10.580740
黑体	-10.580858
继续在	-10.581120
雨	-10.581132
科学和技术	-10.581155
马尔代夫	-10.581429
毫无	-10.581650
的分析	-10.581760
试	-10.581868
行为守则	-10.581932
▁我还	-10.581958
共享	-10.582221
保护儿童	-10.582412
开办	-10.582422
逼	-10.582875
居住在	-10.582887
充分的	-10.583028
突然	-10.583137
咨询服务	-10.583255
的小	-10.583334
▁他在	-10.583620
短缺	-10.583640
复杂的	-10.583849
这么做	-10.583981
民警	-10.584209
2010-2011	-10.584609
的不同	-10.584665
▁这就是	-10.584828
▁是吗	-10.585304
▁來	-10.585650
co	-10.585823
症	-10.585852
早期	-10.586035
负责人	-10.586106
通过其	-10.587289
征求	-10.587538
的最新	-10.588026
非法贩运	-10.588225
月底	-10.588653
主席先生	-10.589328
非自治领土	-10.589345
含有	-10.589419
联合国国家工作队	-10.589616
的目标是	-10.589688
纸	-10.589712
地域	-10.589746
荒漠化	-10.589918
案情	-10.590113
▁of	-10.590568
扬	-10.590690
吹	-10.590703
或其	-10.590746
的领域	-10.590773
达成协议	-10.590849
▁印度	-10.590878
国际金融机构	-10.590887
▁70.	-10.591488
多样性	-10.591560
家属	-10.591650
正当	-10.591658
为促进	-10.591943
谋求	-10.591993
的效力	-10.592058
足以	-10.592806
联科行动	-10.592923
房屋	-10.593037
发表的	-10.593562
向委员会	-10.593694
來了	-10.594239
高等教育	-10.594401
并支持	-10.594479
可能的	-10.594713
和经济	-10.595157
te	-10.595221
好处	-10.595644
标准化	-10.595904
加强对	-10.596059
越来越多的	-10.596098
战略框架	-10.596261
(3)	-10.596407
单元	-10.596419
抗议	-10.596866
委员会的工作	-10.597325
很重要	-10.597671
的专家	-10.598233
提供必要的	-10.598265
▁已	-10.598827
电脑	-10.598901
主流	-10.599295
sh	-10.599308
国际法委员会	-10.599786
概述了	-10.600018
▁实际上	-10.600104
善	-10.600327
那是	-10.600662
签发	-10.600726
▁我国代表团	-10.601161
东盟	-10.601614
朗	-10.601851
还包括	-10.601863
该部	-10.601885
由此	-10.603018
苏丹政府	-10.603055
▁澳大利亚	-10.603221
工作文件	-10.603258
在其第	-10.603514
捍卫	-10.603567
者和	-10.603786
附	-10.604065
http	-10.604074
完整	-10.604445
▁亲爱的	-10.604856
的教育	-10.604980
杀伤人员地雷	-10.605055
其在	-10.605189
情况的	-10.605239
傻	-10.605308
.9/	-10.605410
为止	-10.605454
任意	-10.605588
阿尔	-10.605781
的综合	-10.605927
敢	-10.606065
还必须	-10.606149
任何其他	-10.606401
的后果	-10.606445
各自的	-10.606469
税收	-10.606866
增至	-10.607334
会议期间	-10.607602
▁能	-10.607658
▁是我	-10.608099
村庄	-10.608164
发送	-10.608564
清洁	-10.608712
30%	-10.608724
一定要	-10.608805
圈	-10.608822
腿	-10.608823
加强其	-10.609145
/55/	-10.609383
人员和	-10.609876
▁通过议程	-10.610135
在一个	-10.610552
互相	-10.610814
在全球	-10.611190
设立了一个	-10.611235
人人	-10.611339
破产	-10.611388
带来了	-10.611567
角	-10.611758
的积极	-10.612566
和资源	-10.612646
欠	-10.612806
正是	-10.613105
fscy	-10.613134
了吧	-10.613211
动力	-10.613250
此事	-10.613382
多年	-10.613565
说明了	-10.613967
联合检查组	-10.614091
分析和	-10.614127
置于	-10.614165
发展的	-10.614202
:《	-10.614418
的确	-10.614507
在这儿	-10.614588
體	-10.614683
前面	-10.615060
有所增加	-10.615128
FCCC	-10.615351
摧毁	-10.615398
1987	-10.615541
以实现	-10.615578
是不	-10.615618
é	-10.615792
有很多	-10.616077
举	-10.616231
不扩散核武器条约	-10.616973
默	-10.617149
这份	-10.617167
所有相关	-10.617509
▁代理主席	-10.617641
第三委员会	-10.617722
其后	-10.617726
的支持下	-10.617774
指导方针	-10.617797
确保在	-10.618016
文字	-10.618017
什么时候	-10.618117
无论是	-10.618161
处境	-10.618347
提供资料	-10.618473
的一般	-10.618992
休息	-10.619043
以确定	-10.619079
的准则	-10.619462
席位	-10.619529
提到了	-10.619668
▁像	-10.619921
▁72.	-10.620028
不应该	-10.620202
纪律	-10.620342
制订了	-10.620629
左	-10.620637
杀人	-10.620790
在今后	-10.621122
是由于	-10.621262
高效	-10.621296
检察官办公室	-10.621462
另有	-10.621470
国家报告	-10.621478
境内流离失所者	-10.621486
ia	-10.621582
缺	-10.621592
▁拜托	-10.621622
但它	-10.622317
▁de	-10.622414
02	-10.622491
境内的	-10.622514
它在	-10.622562
首席	-10.622602
面积	-10.622901
故意	-10.623105
资源的	-10.623148
灯	-10.623197
决	-10.623232
会晤	-10.623372
汽车	-10.623439
所采取的	-10.623610
童工	-10.623676
联合国系统各组织	-10.624009
研究和	-10.624184
结束后	-10.624255
解决方案	-10.624462
幫	-10.624722
用作	-10.624770
大楼	-10.624825
驻地协调员	-10.624832
這麼	-10.624847
1985	-10.625005
签证	-10.625268
故事	-10.625306
内陆发展中国家	-10.625412
形式的	-10.625648
说过	-10.625786
专员	-10.625811
可是	-10.625844
▁73.	-10.625901
更广泛的	-10.626013
很高兴	-10.627031
应将	-10.627070
参与了	-10.627096
防范	-10.627110
400	-10.627615
六个	-10.627731
土著人	-10.628196
进程中	-10.628558
代表发言	-10.628568
船舶	-10.628672
中间	-10.628841
▁你怎么	-10.628930
主席团成员	-10.629718
刑法典	-10.629879
以提高	-10.630302
管理系统	-10.630361
协调一致	-10.630389
极端	-10.630491
我在	-10.631169
实施了	-10.631183
情形	-10.631390
结束时	-10.631676
▁怎么	-10.631818
骚扰	-10.632145
提前	-10.632234
第一部分	-10.632306
的部分	-10.632473
从而使	-10.632482
人口贩运	-10.632536
强有力的	-10.632599
市场准入	-10.632782
撒	-10.632872
主管当局	-10.632988
的质量	-10.633193
://	-10.633290
小孩	-10.633510
构成部分	-10.634269
铭记	-10.635139
签字	-10.635537
▁小组	-10.635569
以法语	-10.635673
所有其他	-10.635819
問	-10.635981
有用	-10.636175
▁附件	-10.636484
怎么了	-10.636829
摩	-10.637291
的补充	-10.637400
▁大会第	-10.637539
不太	-10.637575
解决冲突	-10.637935
指挥	-10.638329
对抗	-10.638458
▁and	-10.638525
第二条	-10.638727
恐怖主义行为	-10.639384
遗产	-10.639440
▁这次	-10.639447
第六	-10.639716
和其它	-10.639767
报表	-10.640000
拜	-10.640018
▁1996	-10.640111
每周	-10.640258
人权教育	-10.640431
在国际	-10.640590
抓住	-10.640649
国家和区域	-10.640970
的态度	-10.641080
种植	-10.641927
上文	-10.642175
第一届会议	-10.642722
犯有	-10.642933
萬	-10.643081
导	-10.643308
压	-10.643533
国际人权	-10.643661
▁让我们	-10.643802
组建	-10.644476
促进和保护	-10.644491
批评	-10.644493
新伙伴关系	-10.644823
外地办事处	-10.644938
行政和预算问题咨询委员会	-10.645103
在本	-10.645304
了我	-10.645336
初	-10.645500
_	-10.645822
打开	-10.645971
发展问题	-10.646115
和服务	-10.646289
得出	-10.646498
提起	-10.646567
和使用	-10.646569
提供便利	-10.646592
的收入	-10.647087
▁我知道你	-10.647645
第三届会议	-10.647736
公约草案	-10.648039
寫	-10.648138
料	-10.648730
栏	-10.648880
儿童保护	-10.648920
内部审计	-10.648971
偏	-10.648975
审议大会	-10.649252
ly	-10.649274
▁呃	-10.649371
▁再见	-10.649434
发展目标	-10.649614
羅	-10.649675
慢	-10.649936
西非经共体	-10.649960
(1);	-10.650129
财富	-10.650242
▁在同次会议上	-10.650473
让他	-10.650565
定罪	-10.650682
作物	-10.650872
伊斯兰会议组织	-10.650954
素	-10.650965
常规武器	-10.651594
中小企业	-10.651898
可用	-10.652042
欧安组织	-10.652048
至第	-10.652086
见过	-10.652388
所得	-10.652822
几个月	-10.652900
號	-10.653090
重叠	-10.653116
术语	-10.653236
详情	-10.653360
经验教训	-10.653423
念	-10.653691
函	-10.654034
动机	-10.654149
嘴	-10.654199
继	-10.654327
该机构	-10.654393
行径	-10.654447
ul	-10.654675
然而	-10.654693
▁另一方面	-10.654735
▁法国	-10.655008
经济及社会理事会第	-10.655279
機	-10.655281
加大	-10.655496
to	-10.655505
并注意到	-10.655756
人事	-10.656355
▁一般	-10.656366
秘书长报告	-10.656875
联合国教育	-10.656881
继续与	-10.656928
枚	-10.657388
国家行动计划	-10.657610
联合国维持和平行动	-10.657661
場	-10.657820
/67/	-10.657994
岁的	-10.658059
干旱	-10.658313
我們的	-10.659126
▁妈妈	-10.659135
的若干	-10.659305
关于在	-10.659398
公共卫生	-10.659478
和文化	-10.659512
国际和平与安全	-10.659705
根除	-10.659766
▁你就	-10.659873
那边	-10.659944
各地	-10.660158
被拘留	-10.660163
提倡	-10.660232
颁发	-10.660306
一半	-10.660346
本着	-10.660481
给他	-10.660775
▁安全理事会第	-10.660788
本来	-10.660819
向大会	-10.660833
病毒	-10.660843
▁行预咨委会	-10.660854
▁我希望	-10.660974
▁You	-10.661098
社会保护	-10.661101
的自由	-10.661114
运送	-10.661151
工作场所	-10.661468
相同的	-10.661839
极其	-10.662026
思考	-10.662064
足够的	-10.662066
定为	-10.662413
发言人	-10.662499
▁注	-10.662756
更改	-10.663071
亮	-10.663088
这场	-10.663216
1/	-10.663243
你了	-10.663341
使用武力	-10.663431
在同一	-10.663628
风险管理	-10.663637
的工具	-10.663651
开幕	-10.664388
委会	-10.664421
各方面	-10.664462
和分析	-10.664473
lo	-10.664601
00\	-10.664661
不超过	-10.664663
達	-10.664679
订	-10.664737
当前的	-10.664755
补助	-10.664802
寄	-10.664869
左右	-10.664885
是否有	-10.664962
特派团的	-10.665147
味	-10.665148
茨	-10.665208
陷入	-10.665492
提升	-10.665698
刑	-10.665864
骨	-10.666191
▁哇	-10.666596
全球经济	-10.666611
▁即使	-10.666637
蘭	-10.667063
购置	-10.667357
合理的	-10.667399
ي	-10.667596
▁74.	-10.667789
喜	-10.667809
防治	-10.668095
▁從	-10.668522
其他职等	-10.669223
政府间机构	-10.669273
一再	-10.669288
各部门	-10.669345
重要的是	-10.669464
及其对	-10.669659
保护人权	-10.669808
的进展情况	-10.669958
部落	-10.670019
军事人员	-10.670244
所在	-10.670675
年实质性会议	-10.670705
▁in	-10.670722
刺激	-10.670797
做出了	-10.670868
香港	-10.671077
相反	-10.671123
2000-2001	-10.671325
接受了	-10.671420
充满	-10.671615
di	-10.671695
年度会议	-10.672048
INF	-10.672224
受益	-10.672441
的审查	-10.672662
▁应该	-10.672864
行政部门	-10.672976
以及为	-10.673300
角度	-10.673503
空中	-10.673661
可持续发展问题世界首脑会议	-10.674438
特立尼达和多巴哥	-10.674972
笔	-10.674979
相应的	-10.675063
的時候	-10.675139
▁让	-10.675183
的辩论	-10.675965
/68/	-10.676156
▁我现在	-10.676490
委内瑞拉玻利瓦尔共和国	-10.676637
电子邮件	-10.676747
两年期方案预算	-10.676763
常规	-10.677145
垃圾	-10.677197
区域内	-10.677380
所提出的	-10.677706
斯先生	-10.678486
识别	-10.678635
水资源	-10.678702
谋	-10.678794
48/	-10.679196
粉	-10.679345
去吧	-10.679642
一支	-10.679865
标题	-10.679875
按照第	-10.680029
案件的	-10.680252
拟议预算	-10.680413
本决议	-10.680743
的非正式协商	-10.681029
谢谢	-10.681211
惩处	-10.681274
非正式磋商	-10.681475
所谓的	-10.681581
.10	-10.681673
的必要	-10.681799
免遭	-10.681840
第四委员会	-10.682206
选定	-10.682322
▁啊	-10.682830
补救办法	-10.683028
久	-10.683077
的评估	-10.683079
指导原则	-10.683455
已于	-10.683545
数据收集	-10.683599
迫使	-10.683770
一步	-10.683928
可能需要	-10.683967
观	-10.683997
拯救	-10.684468
的数额	-10.684596
振兴	-10.684663
充足	-10.684882
庆祝	-10.685051
的最	-10.685161
分布	-10.685274
的話	-10.685308
监测和评价	-10.685371
/2008/	-10.686027
重组	-10.686315
有关各方	-10.686384
右	-10.686415
也应	-10.686586
有待	-10.686634
退出	-10.686936
特设	-10.687197
对我	-10.687621
sa	-10.688042
文明	-10.688274
转变	-10.688362
55/2	-10.688676
劳动力市场	-10.688701
的报告中	-10.688844
os	-10.689039
老挝人民民主共和国	-10.689132
過來	-10.689963
能力和	-10.690483
和组织	-10.691175
下面	-10.691177
宗	-10.692002
告訴	-10.692044
款规定	-10.692318
该条约	-10.692344
▁开发署	-10.692376
自杀	-10.692629
非政府组织和	-10.692699
法律制度	-10.692946
儿童和	-10.693526
以为	-10.693852
社会服务	-10.693979
号法律	-10.693997
▁除非	-10.694038
国家间	-10.694530
女生	-10.694750
/6	-10.694844
巴勒斯坦权力机构	-10.694942
塔利班	-10.695045
主动行动	-10.695143
代表性	-10.695452
较高	-10.695904
较低	-10.695927
杀了	-10.696157
本次	-10.696286
科学及文化组织	-10.696408
下一个	-10.696473
该特派团	-10.696725
提供一个	-10.696895
um	-10.697454
赤贫	-10.697486
执行任务	-10.698003
其对	-10.698509
仔细	-10.698609
5%	-10.699092
妇女署	-10.699326
手续	-10.699430
ut	-10.699723
你们的	-10.700012
补助金	-10.700074
打电话	-10.700099
会有	-10.700132
侵犯人权行为	-10.700179
吸收	-10.700223
▁次级方案	-10.700500
+	-10.701124
产业	-10.701129
粮食计划署	-10.701168
武	-10.701344
融合	-10.701490
缴纳	-10.701572
在促进	-10.701611
提高认识	-10.701955
暴力侵害妇女行为	-10.702113
尊重人权	-10.702216
在这个	-10.702249
这些努力	-10.702574
開始	-10.702737
林业	-10.702816
发展战略	-10.702850
上次	-10.702880
解放	-10.703036
抗	-10.703099
▁l	-10.703222
那种	-10.703267
关押	-10.703287
面临着	-10.703351
怀	-10.703365
友好	-10.703711
本地	-10.703842
均应	-10.703891
跨界	-10.703972
多年来	-10.703978
▁七	-10.704196
所要求的	-10.704328
分散	-10.704553
搬	-10.704667
历	-10.704906
承运人	-10.704920
和平协定	-10.705098
和个人	-10.705101
真实	-10.705890
脆弱性	-10.705924
军火	-10.706649
外债	-10.706768
do	-10.707040
制定的	-10.707044
恨	-10.707119
在那	-10.707583
指令	-10.707643
致使	-10.707693
归还	-10.708313
250	-10.708529
住所	-10.708829
达尔富尔混合行动	-10.708928
一人	-10.708960
补	-10.708966
▁1995	-10.709074
▁75.	-10.709680
在审议	-10.709857
赔偿责任	-10.709896
三名	-10.710036
仍有	-10.710131
跨	-10.710308
活力	-10.710345
采矿	-10.710454
托克劳	-10.711018
和社区	-10.711155
的财政	-10.711356
协调委员会	-10.711405
	-10.711491
大陆	-10.711549
CO	-10.711594
了一项	-10.711755
司法系统	-10.711812
海外	-10.711893
聲	-10.711970
以防止	-10.712223
时限	-10.712372
联合国人权事务高级专员	-10.712788
吓	-10.712935
丰富	-10.713102
租	-10.713339
编号	-10.713349
行为体	-10.713525
节省	-10.713675
合格	-10.713694
内政部	-10.713856
岛屿	-10.713890
最好的	-10.713912
印刷	-10.714066
尤	-10.714261
庭	-10.714427
比如	-10.714584
分列的	-10.714849
的孩子	-10.714970
基本上	-10.715205
▁同	-10.715280
妇女参与	-10.715283
▁新	-10.715322
的全部	-10.715495
施政	-10.715612
	-10.715728
墙	-10.716049
的总	-10.716050
的数目	-10.716288
的最佳	-10.716590
的保留	-10.716777
妇女地位委员会	-10.716902
隔离	-10.717051
过度	-10.717400
并呼吁	-10.717402
懂	-10.717482
该法	-10.717787
土壤	-10.717964
区域中心	-10.717991
▁me	-10.718153
告訴我	-10.718339
舞	-10.718386
我现在请	-10.718395
▁76.	-10.718422
问题是	-10.718473
在委员会	-10.718513
正在进行	-10.718603
/7	-10.718812
▁吁请	-10.718971
间的	-10.719202
展	-10.719414
总共	-10.719723
稿	-10.719978
政府的	-10.719985
可以通过	-10.720222
中美洲	-10.720358
薪酬	-10.720774
模型	-10.720856
▁临时议程项目	-10.721105
言论自由	-10.721335
剩余	-10.721389
分庭	-10.721416
载列	-10.721790
方案规划	-10.721831
信息交流	-10.722000
日常	-10.722090
在过去	-10.722400
发展援助	-10.723001
含	-10.723166
的暴力	-10.723209
西亚	-10.723404
的解释	-10.723504
分担	-10.723706
▁审计委员会	-10.723773
辛	-10.723818
朝鲜	-10.724049
观察团	-10.724177
并将其	-10.724464
▁2014	-10.724692
电力	-10.725032
是要	-10.725715
的特别	-10.725736
采用了	-10.725791
	-10.725808
80%	-10.725965
的服务	-10.725975
.15	-10.726142
的决定草案	-10.726326
国家和	-10.726347
醒	-10.726424
的范围内	-10.726688
的评论	-10.726703
将使	-10.726755
联合国各	-10.726766
营养不良	-10.727049
经济活动	-10.727087
的重大	-10.727110
友	-10.727540
招聘	-10.727545
高级官员	-10.727757
一件	-10.727781
呆	-10.727799
03	-10.727877
的关切	-10.728134
应继续	-10.728537
碞	-10.728556
一致认为	-10.728624
所有权	-10.728698
协商一致	-10.728774
国民议会	-10.728778
收养	-10.728879
将通过	-10.729072
苦	-10.729324
佛得角	-10.729548
发展筹资	-10.729747
有组织犯罪	-10.729959
ST	-10.730490
▁第五委员会	-10.730717
尼亚	-10.730882
我们将	-10.730944
审讯	-10.731017
舍	-10.731190
提供了一个	-10.731452
撤离	-10.731553
今后的	-10.731561
名册	-10.731612
多名	-10.731892
你在	-10.731997
协同	-10.732026
仇恨	-10.732309
少年	-10.732325
最后文件	-10.732336
青	-10.732663
中学	-10.732681
国外	-10.732820
em	-10.732953
多哈	-10.733082
最为	-10.733084
和民间社会	-10.733158
跟他	-10.733167
特别关注	-10.733223
事宜	-10.733259
参	-10.733352
猜	-10.733549
没有得到	-10.733748
能力的	-10.733814
出了	-10.733826
重要性	-10.733997
养护	-10.734065
中所	-10.734147
▁专家组	-10.734238
堕胎	-10.734284
的反应	-10.734379
卻	-10.734570
亚洲及太平洋	-10.734792
它将	-10.734955
想象	-10.735255
达成的	-10.735291
附录	-10.735376
职业培训	-10.735380
签署的	-10.735508
都要	-10.735525
有限的	-10.736146
比赛	-10.736691
继续支持	-10.736694
资	-10.736779
的运作	-10.736942
0}	-10.737008
仍是	-10.737077
▁t	-10.737111
金属	-10.737141
的信	-10.737253
联合国大学	-10.737494
为此目的	-10.737687
▁各国	-10.737722
背景下	-10.738152
前进	-10.738266
通过一项	-10.738331
消耗	-10.738375
会期	-10.738405
文化权利国际公约	-10.738473
戰	-10.738539
是誰	-10.738566
意思	-10.738682
医学	-10.738703
產	-10.738779
报告了	-10.738848
获得了	-10.739011
HBE	-10.739037
下次	-10.739043
食物权	-10.739291
弥补	-10.739410
指明	-10.739424
▁我说	-10.739456
▁當然	-10.740096
巴哈马	-10.740344
望	-10.740760
必要时	-10.741286
讓你	-10.741302
设有	-10.741802
常设委员会	-10.741858
共同体	-10.741942
66\	-10.742344
有利	-10.742351
并指出	-10.742361
预防冲突	-10.742652
伦敦	-10.742655
甲	-10.742693
向其	-10.742750
▁人权理事会	-10.742826
的名字	-10.742949
ا	-10.743358
接纳	-10.743390
和行政	-10.743409
▁秘书长的说明	-10.744027
聚	-10.744597
入侵	-10.744658
hi	-10.745294
▁不知道	-10.745440
约有	-10.745672
在这些	-10.745809
▁耶	-10.746031
40%	-10.746213
警察局	-10.746617
一份报告	-10.746849
日生效	-10.747108
使我们	-10.747280
的缔约方	-10.747291
成人	-10.747316
香	-10.747374
该计划	-10.747743
有资格	-10.747758
▁在此	-10.747967
的特殊	-10.748188
世界会议	-10.748671
尝试	-10.748786
夏	-10.748913
员工	-10.748949
父	-10.748951
正规	-10.749650
提出的问题	-10.749853
家伙	-10.749855
环境和	-10.749863
三项	-10.750187
v	-10.750223
灵活性	-10.750363
▁因为我	-10.750489
合作社	-10.750646
各专门机构	-10.750771
▁给我	-10.751052
地中海	-10.751507
活动和	-10.751810
▁监督厅	-10.751815
捕捞	-10.752056
该文件	-10.752501
康	-10.752710
委员会第	-10.752965
在大会	-10.752969
预防犯罪	-10.752996
隆	-10.753259
网站上	-10.753620
必须确保	-10.753969
巴布亚新几内亚	-10.754068
强调必须	-10.754577
蒙特利尔议定书	-10.754695
.2/	-10.754903
联利特派团	-10.754929
良好做法	-10.755226
▁沒	-10.755271
附加	-10.755675
000	-10.755724
联合国系统内	-10.755960
群岛	-10.756721
电子商务	-10.757037
这两	-10.757288
并提供	-10.757382
执行情况报告	-10.757421
调查结果	-10.757761
和我	-10.758038
承受	-10.758131
顺	-10.758143
有许多	-10.758484
构成了	-10.758672
的捐款	-10.758825
构想	-10.758855
▁希望	-10.758913
日举行的第	-10.758979
预定	-10.759486
非洲的	-10.759832
周围	-10.759904
账	-10.759954
活动中	-10.760320
削弱	-10.760461
走吧	-10.760606
公司的	-10.760678
应根据	-10.760932
就其	-10.761090
和政策	-10.761268
执行工作	-10.761361
▁77.	-10.761514
漂亮	-10.761541
叫我	-10.761567
忘记	-10.761616
二十	-10.761634
联合国的	-10.761730
反映在	-10.761902
da	-10.762045
增多	-10.762122
▁78.	-10.762131
和区域	-10.762198
培训课程	-10.762226
阿拉伯国家联盟	-10.762354
963	-10.762992
和培训	-10.763048
重返社会	-10.763280
的文化	-10.763298
儿基会	-10.763367
息	-10.763384
以满足	-10.763921
還是	-10.764309
测量	-10.764383
辐射	-10.764833
混合	-10.765503
两年期拟议方案预算	-10.765643
意图	-10.765656
和国际社会	-10.765829
动议	-10.766214
部长级	-10.766220
学术	-10.766294
基金和方案	-10.766329
借此机会	-10.766628
人为	-10.766705
▁你觉得	-10.766754
偏见	-10.766823
下文	-10.767125
核准了	-10.767195
弱势	-10.767382
一架	-10.767481
▁我没	-10.767545
更有效地	-10.767627
谅解	-10.768074
领域内	-10.768143
的裁决	-10.768181
**	-10.768231
概要	-10.768265
怎么办	-10.768322
和政治	-10.768959
/52/	-10.769284
非洲经委会	-10.769900
制约	-10.770048
检测	-10.770120
开展的工作	-10.770188
执法人员	-10.770627
对他	-10.770653
植物	-10.770653
加紧努力	-10.770974
内阁	-10.771153
和监督	-10.771158
医疗服务	-10.771208
日举行的	-10.771257
附件三	-10.771273
▁你不能	-10.771293
回返	-10.771328
号决议所设委员会	-10.771659
暴力侵害	-10.771797
▁對不起	-10.771890
人权维护者	-10.771914
评	-10.773004
结论性意见	-10.773050
到达	-10.773245
ak	-10.773545
基本建设总计划	-10.773647
第三十	-10.774041
追求	-10.774300
教训	-10.774549
be	-10.774759
实务	-10.774798
傳	-10.775126
灵	-10.775416
十八	-10.775523
联合国毒品和犯罪问题办公室	-10.775868
赞助	-10.775894
要么	-10.776164
代表欧洲联盟	-10.776483
人口的	-10.776625
将与	-10.776643
ent	-10.776689
	-10.776821
可行的	-10.777097
输入	-10.777463
距离	-10.777492
哪里	-10.777704
配备	-10.777844
够	-10.777934
与会	-10.778013
CEDAW	-10.778082
▁经	-10.778449
应包括	-10.778569
跨国公司	-10.778652
130	-10.778826
成功的	-10.779161
耶路撒冷	-10.779216
原籍国	-10.779486
碰	-10.779581
—	-10.779708
闭会期间	-10.779968
延迟	-10.780178
分项目	-10.780747
不包括	-10.781035
年起	-10.781314
1949	-10.781586
报复	-10.781596
租赁	-10.781651
2(	-10.781667
是通过	-10.781817
编列	-10.781857
一事	-10.781901
多项	-10.781924
自愿捐款	-10.782039
ES	-10.782323
生物多样性公约	-10.782550
西岸	-10.782872
受害	-10.783138
您的	-10.783144
.1)。	-10.783312
沉	-10.783463
不允许	-10.783493
继续审议	-10.783795
炮	-10.783834
奈	-10.784038
备忘录	-10.784144
日之前	-10.784324
妥善	-10.784338
我也	-10.784370
▁that	-10.784381
应该是	-10.784471
▁我已经	-10.784862
▁资料来源	-10.784886
末	-10.785124
井	-10.785228
家长	-10.785318
国内生产总值	-10.785979
间接	-10.786004
員	-10.786125
ل	-10.786257
炸弹	-10.786279
很可能	-10.786317
的能力建设	-10.786500
餐	-10.787033
宣传活动	-10.787254
或是	-10.787394
地图	-10.787396
贩卖人口	-10.787683
包容	-10.787996
国际援助	-10.788249
改造	-10.788450
善政	-10.788473
=	-10.788510
因为他们	-10.788584
互	-10.788859
有益	-10.788871
總	-10.788922
孕妇	-10.788978
自行	-10.788991
书记官长	-10.789116
给予殖民地国家和人民独立宣言	-10.789117
影	-10.789471
充分利用	-10.789536
开采	-10.789564
的想法	-10.789578
种类	-10.789740
第六委员会	-10.789759
署长	-10.790585
成员的	-10.790995
加入了	-10.791234
▁预计	-10.791276
追究	-10.791381
精简	-10.791482
的联合	-10.791506
和你	-10.791524
非殖民化	-10.791544
请允许我	-10.791695
可靠的	-10.791781
和环境	-10.792115
140	-10.792300
工作者	-10.792676
例子	-10.792706
以上的	-10.792779
国家警察	-10.792838
绿色	-10.792890
并建议	-10.793061
的日期	-10.793095
安全问题	-10.793114
马上	-10.793282
▁自从	-10.793395
60/2	-10.793403
▁人权委员会	-10.793592
其目的是	-10.793639
你会	-10.793984
房地	-10.794078
發生	-10.794135
储备	-10.794676
在纽约	-10.794739
述	-10.794782
在这一	-10.794845
以协助	-10.795354
它是	-10.795407
被认为是	-10.795520
计划生育	-10.795862
疑	-10.795879
旅费	-10.796041
判断	-10.796404
添加	-10.796412
1986	-10.796428
研究中心	-10.796469
都应	-10.796550
展示	-10.796741
分开	-10.797256
▁走吧	-10.797383
我谨	-10.797392
进行协商	-10.797420
指挥官	-10.797495
轉	-10.797548
小子	-10.797567
联合国粮食及农业组织	-10.797866
萨摩亚	-10.797925
的和平	-10.797986
拿到	-10.798061
虫	-10.798117
教育部	-10.798221
迁移	-10.798656
ka	-10.798674
奖励	-10.798756
的代表团	-10.799013
关联	-10.799342
海洋环境	-10.799489
优	-10.799503
需要在	-10.799935
指派	-10.800095
碎	-10.800208
汇	-10.800364
折	-10.800743
的两个	-10.800743
全面执行	-10.800776
女儿	-10.800879
考试	-10.801213
标准的	-10.801245
第一委员会	-10.801298
环境中	-10.801376
两性	-10.801466
预算外资源	-10.801642
判	-10.802044
国家信息通报	-10.802097
的那些	-10.802135
队伍	-10.802281
国家立法	-10.802320
第四次	-10.802355
▁Ma	-10.802536
增编	-10.802732
流程	-10.802777
自主	-10.803054
▁79.	-10.803205
和支助	-10.803646
领空	-10.803680
并重申	-10.803713
明确规定	-10.803945
你想	-10.804117
田	-10.804284
和人权	-10.804379
▁妇女	-10.804412
á	-10.804687
版本	-10.804981
▁跟	-10.804985
▁th	-10.805144
司法和	-10.805285
确是	-10.805761
分至	-10.805887
實	-10.805902
供水	-10.806013
這是	-10.806059
安全的	-10.806109
硬	-10.806241
酸	-10.806658
义	-10.806755
在该国	-10.806787
富有	-10.807373
消	-10.807903
种种	-10.808111
确信	-10.808128
制定一项	-10.808234
▁我不会	-10.808281
提供咨询	-10.808283
.18	-10.808300
任务规定	-10.808359
小心	-10.808400
搭	-10.808483
▁p	-10.808644
不安全	-10.809267
将军	-10.809283
暴力和	-10.809475
仍未	-10.809714
刻	-10.810090
的例子	-10.810184
年来	-10.810426
观测	-10.810452
军事行动	-10.810455
▁你也	-10.810629
恐惧	-10.810634
恐吓	-10.810639
超出	-10.810689
的军事	-10.810699
行动方案	-10.810781
经常资源	-10.810912
烟	-10.810914
程序和	-10.811137
烧	-10.811272
莱索托	-10.811328
治安	-10.811352
的途径	-10.811557
01	-10.811569
清洁发展机制	-10.811631
1-	-10.811756
号公约	-10.811980
在实现	-10.812159
职权范围	-10.812283
被认为	-10.812435
饭	-10.812564
3(	-10.812786
公共政策	-10.812911
每次	-10.812956
这是一个	-10.813260
提高了	-10.813278
.2)	-10.813293
是你的	-10.813592
剧	-10.813745
也不能	-10.813900
强迫失踪	-10.814038
唯一的	-10.814136
出色	-10.814469
优势	-10.814511
外勤	-10.814540
示	-10.814748
找到了	-10.814912
行预咨委会	-10.815076
遏制	-10.815245
进行评估	-10.815506
▁等一下	-10.815655
所谓	-10.815819
入学	-10.816120
申请人	-10.816445
海盗	-10.816635
下一	-10.816923
的资产	-10.817079
网上	-10.817113
离职	-10.817137
提供信息	-10.817646
不足以	-10.817657
▁你得	-10.817789
我不	-10.818196
的申请	-10.819026
管理的	-10.819476
应为	-10.819624
人权状况	-10.819791
在内	-10.819805
的知识	-10.819960
会议和	-10.820143
清理	-10.820270
▁缔约国应	-10.820281
护照	-10.820366
查询	-10.820702
养恤基金	-10.820793
808080}	-10.820807
举行一次	-10.820904
成了	-10.821051
发展方案	-10.821059
派出	-10.821124
监视	-10.821153
挂	-10.821396
q	-10.821499
几天	-10.821977
骗	-10.822083
變	-10.822380
▁墨西哥	-10.822572
近年来	-10.822762
贵	-10.823080
105	-10.823973
区的	-10.824149
概览	-10.824203
提高对	-10.824437
安全理事会关于	-10.824442
的各项决议	-10.824616
辆	-10.824705
的主流	-10.824905
简报	-10.825204
ê	-10.825327
日举行	-10.825510
的框架	-10.825536
伯利兹	-10.825624
许多人	-10.825646
利亚	-10.825702
地震	-10.825734
的关注	-10.826163
采取后续行动	-10.826327
管理层	-10.826489
▁當	-10.826588
指定的	-10.826860
消除贫困	-10.826905
2/	-10.827360
证券	-10.827369
复员	-10.827573
堡	-10.827801
得多	-10.827855
标准和	-10.827945
试点	-10.827982
自决权	-10.828120
CRC	-10.828222
鸡	-10.828232
欲	-10.828273
有多	-10.828442
vi	-10.828680
▁我去	-10.828905
选民	-10.828930
保护平民	-10.828981
▁巴西	-10.829253
运营	-10.829266
见到	-10.829391
段的规定	-10.829426
现状	-10.829679
的各个	-10.829928
逐	-10.829951
特设工作组	-10.830188
脸	-10.830292
层次	-10.830314
筹集	-10.830521
核算	-10.830567
利息	-10.830758
不懂	-10.831236
快乐	-10.831253
插	-10.831301
系列	-10.831470
▁开发计划署	-10.831553
结束了	-10.831676
ik	-10.831761
予	-10.832062
Sub	-10.832307
▁be	-10.832400
功	-10.832512
呼	-10.832548
的道路	-10.832577
委员会关于	-10.833058
年间	-10.833096
▁al	-10.833193
权力下放	-10.833396
▁是你	-10.833422
段和第	-10.833514
残	-10.833872
开枪	-10.833924
助理秘书长	-10.834086
操	-10.834409
排雷行动	-10.834979
制度的	-10.835032
无疑	-10.835160
▁赞赏地注意到	-10.835445
迁	-10.836180
求你	-10.836610
的人道主义	-10.836690
-6	-10.836767
初级	-10.836799
人权事务高级专员办事处	-10.836862
流入	-10.837021
感覺	-10.837039
似	-10.837155
并酌情	-10.837263
初次报告	-10.837379
180	-10.837696
号来文	-10.837827
重申了	-10.837853
安道尔	-10.837921
立法和	-10.837961
欧洲经委会	-10.838006
冈比亚	-10.838333
▁77	-10.838352
ic	-10.838394
人权事务委员会	-10.838458
湖	-10.838877
诉诸	-10.838892
槍	-10.838906
▁世界	-10.839022
独	-10.839105
▁我没有	-10.839143
发出的	-10.839227
册	-10.839404
采取必要措施	-10.839422
目的在于	-10.839523
妇	-10.840026
司法部门	-10.840153
▁is	-10.840168
段落	-10.840314
四年	-10.840429
国际法庭	-10.840454
上学	-10.840516
我们要	-10.840654
预防性	-10.840706
▁33	-10.840819
▁俄罗斯联邦	-10.840923
and	-10.841353
领土完整	-10.841533
网页	-10.841548
超越	-10.841732
▁32	-10.841868
另一些	-10.841952
▁国际社会	-10.842092
类型的	-10.842206
南亚	-10.842298
汇款	-10.842373
認為	-10.842400
东部	-10.842484
06	-10.842527
消失	-10.842556
对他们	-10.842745
上诉法院	-10.842763
这将	-10.842806
麼	-10.842882
整合	-10.843184
每日	-10.843398
发展合作	-10.843728
波多黎各	-10.844593
之日	-10.844694
迄今为止	-10.844703
▁我国	-10.844729
月举行的	-10.844731
优先领域	-10.844781
和平与稳定	-10.845067
三分之一	-10.845228
双重	-10.845388
会议服务	-10.845434
宗旨	-10.845447
并以	-10.845536
向联合国	-10.845983
應	-10.846014
移徙工人	-10.846174
▁80.	-10.846212
反对种族主义	-10.846224
的任期	-10.846276
号法	-10.846298
不利影响	-10.846328
知情	-10.846333
并由	-10.846415
太多	-10.846552
北草坪会议大楼	-10.846815
的水平	-10.846842
幸福	-10.846866
▁還有	-10.846870
躲	-10.847292
这件事	-10.847517
作了发言	-10.847652
问题工作组	-10.847663
谨慎	-10.847773
收回	-10.848789
大小	-10.848799
第二章	-10.849189
两位	-10.849279
翻	-10.849281
赶	-10.849612
国际条约	-10.849707
特遣队	-10.849748
电台	-10.849764
理想	-10.849986
此外	-10.850170
.11	-10.850624
全球机制	-10.850684
帮忙	-10.850725
愿望	-10.850772
誰	-10.850912
配额	-10.850967
▁阿尔及利亚	-10.851449
贩毒	-10.851868
各项建议	-10.851994
势	-10.851996
议事规则第	-10.852448
成为一个	-10.852811
很有	-10.852929
闻	-10.853092
依法	-10.853205
《21	-10.853498
应收款	-10.853536
的协定	-10.853694
第二阶段	-10.853714
遵照	-10.853834
不歧视	-10.853916
均衡	-10.853939
民族和解	-10.854239
伊拉克政府	-10.854857
的初步	-10.854971
答案	-10.855291
拨出	-10.855301
进行谈判	-10.855314
我们对	-10.855368
尽力	-10.855462
充分参与	-10.855486
	-10.855748
苏里南	-10.855875
菜	-10.856313
1970	-10.856541
卡尔	-10.856822
空气	-10.857033
部委	-10.857246
狂	-10.857268
棒	-10.857312
第五十六届会议	-10.857343
維	-10.857351
ba	-10.857666
感到关切的是	-10.858191
裂变材料	-10.858304
终于	-10.858427
科摩罗	-10.858461
氯	-10.858628
无核武器区	-10.858649
维和	-10.858827
▁不管	-10.858888
的判决	-10.859030
宏观经济	-10.859044
人身	-10.859199
▁Ch	-10.859271
调查表	-10.859457
有任何	-10.859728
op	-10.859729
联合国打击跨国有组织犯罪公约	-10.859747
评注	-10.859771
初级商品	-10.860132
分为	-10.860147
ov	-10.860287
国际工作人员	-10.860494
▁图	-10.860629
计量	-10.860693
下一次	-10.860701
600	-10.860702
的各	-10.861011
04	-10.861241
十一	-10.861266
th	-10.861293
所有有关	-10.861378
复员和重返社会	-10.861508
这次会议	-10.861511
的款项	-10.861753
西亚经社会	-10.861852
委员会建议	-10.861899
还注意到	-10.862023
怎樣	-10.862193
或在	-10.862232
ter	-10.862237
的增长	-10.862277
不清楚	-10.862482
联合国人口基金	-10.862845
▁每	-10.862956
已经在	-10.863186
权益	-10.863429
状	-10.863523
联合国志愿人员	-10.863779
预警	-10.863967
而且也	-10.864038
危险的	-10.864068
孩子们	-10.864561
机遇	-10.864572
环境保护	-10.864610
建立的	-10.864697
捐赠	-10.864896
可通过	-10.864913
▁為什麼	-10.864932
(2	-10.865462
消灭	-10.865498
特使	-10.865861
入学率	-10.866121
▁联	-10.866180
的损失	-10.866208
的年度报告	-10.866281
配置	-10.866387
期待着	-10.866672
联合国日内瓦办事处	-10.866795
▁卡	-10.867076
进一步发展	-10.867115
	-10.867676
科技咨询机构	-10.867686
号决议的规定	-10.868015
并欢迎	-10.868070
08	-10.868205
罚款	-10.868259
积极参加	-10.868550
产量	-10.868648
▁34	-10.868894
原则上	-10.868909
宽	-10.869137
▁走	-10.869254
反恐怖主义委员会	-10.869336
欧洲共同体	-10.869342
余	-10.869439
斯威士兰	-10.869439
一段	-10.869470
▁一旦	-10.869540
联合国难民事务高级专员办事处	-10.869725
(2000	-10.869815
CD	-10.869843
非洲大陆	-10.870254
公正和	-10.870283
的土地	-10.870415
科学家	-10.870564
扩大到	-10.870811
规定的义务	-10.870858
围绕	-10.870900
受到了	-10.871167
信件	-10.871232
的健康	-10.871300
57/2	-10.871562
ev	-10.871819
琳	-10.871849
收容	-10.872255
准则草案	-10.872544
/59/	-10.872566
以便为	-10.872729
工业发展	-10.873034
对我们	-10.873230
人均	-10.873245
社会福利	-10.873248
的朋友	-10.873542
的潜力	-10.873816
的解决办法	-10.873978
赢	-10.874517
所有这些	-10.874542
累	-10.874885
西部	-10.875087
自由和	-10.875215
1981	-10.875228
屋	-10.875322
投资者	-10.875362
▁她是	-10.875370
▁德国	-10.875570
约翰	-10.875603
英语	-10.875868
教育方案	-10.876091
约束	-10.876101
▁委员会认为	-10.876218
名义	-10.876390
和家庭	-10.876518
媽	-10.876635
▁請	-10.876657
生产力	-10.876993
分离	-10.876997
向所有	-10.877123
财政期间	-10.877363
▁八	-10.877696
效	-10.877778
来到	-10.877814
估算	-10.878417
▁do	-10.878428
公共服务	-10.878607
▁还是	-10.878765
蔓延	-10.878776
自由化	-10.878837
这么说	-10.878996
三次	-10.879071
疫苗	-10.879119
▁今晚	-10.879145
▁铭记	-10.879151
曼谷	-10.879153
▁人口基金	-10.879263
信号	-10.879265
传染病	-10.879400
▁U	-10.879419
广告	-10.879459
年审议大会	-10.879932
惠	-10.879986
增设	-10.880092
核材料	-10.880109
徒	-10.880201
袋	-10.880281
▁这不是	-10.880370
联合国毒品和犯罪问题办事处	-10.880610
▁各	-10.880823
了你	-10.880857
以帮助	-10.880924
▁明天	-10.881060
▁这是一个	-10.881069
上了	-10.881129
修建	-10.881206
联合国千年宣言	-10.881326
言论	-10.881383
名成员	-10.881518
所提	-10.881605
洞	-10.881701
▁我需要	-10.881907
第八	-10.881998
巴勒斯坦问题	-10.882113
聘用	-10.882161
▁全球	-10.882612
▁不用	-10.883296
核证	-10.883370
和维护	-10.883377
政策的	-10.883421
业已	-10.883466
还可以	-10.883615
邊	-10.883704
▁委员会对	-10.883809
工作安排	-10.884007
城镇	-10.884113
(2001	-10.884501
干涉	-10.884617
一方面	-10.884647
在国内	-10.884756
的历史	-10.884972
▁1990	-10.884988
坦	-10.885165
北京	-10.885272
影响力	-10.885502
原件	-10.885744
计划的	-10.885746
的结构	-10.885782
▁依照	-10.885836
重新安置	-10.885941
一揽子	-10.886002
确保其	-10.886252
打破	-10.886454
糟	-10.886688
25%	-10.886917
的另一个	-10.887113
预先	-10.887223
疯了	-10.887226
批准的	-10.887314
韩国	-10.887334
这些权利	-10.887341
帐	-10.887611
惠益	-10.887678
细节	-10.887839
的潜在	-10.888006
兒子	-10.888103
出席了	-10.888175
流通	-10.888403
绝大多数	-10.888495
▁82.	-10.888891
UN	-10.889050
将根据	-10.889111
环境基金	-10.889484
广大	-10.889490
认	-10.889631
的非	-10.889685
阶层	-10.889721
大会正式记录	-10.889944
想想	-10.890069
全文	-10.890232
附属	-10.890396
▁应当	-10.890586
预期成绩	-10.890639
以西班牙语	-10.890789
军备	-10.890821
巴勒斯坦难民	-10.890844
所在地	-10.890917
付出	-10.891001
110	-10.891090
消除对妇女歧视委员会	-10.891212
工厂	-10.891226
领域中	-10.891649
法律文书	-10.891825
感到关切	-10.891909
09	-10.891980
采	-10.892323
亲爱的	-10.892597
危及	-10.892913
礼	-10.892972
54/	-10.893224
▁比如	-10.893257
延误	-10.893312
教育和培训	-10.893414
中列入	-10.893566
这两项	-10.893574
生命权	-10.893575
的支出	-10.893770
发给	-10.894323
和平与	-10.894567
乔	-10.894666
表演	-10.894688
该国的	-10.894924
为加强	-10.894977
家园	-10.895081
将需要	-10.895125
据报	-10.895197
種	-10.895278
的生命	-10.895403
而采取的	-10.895499
ine	-10.895547
假定	-10.895667
▁尽管如此	-10.895739
是我们	-10.896009
份额	-10.896294
▁前	-10.896406
單	-10.897577
反对派	-10.897676
看起来	-10.897856
人道	-10.897981
儿童权利委员会	-10.898038
涉嫌	-10.898315
的财产	-10.898362
▁伊拉克	-10.898388
糟糕	-10.898475
检验	-10.898685
的进一步	-10.898792
毕业	-10.898909
事务部	-10.898919
可供	-10.899172
202020}	-10.899304
裝	-10.899549
有利的	-10.899705
▁直到	-10.899778
已开始	-10.900002
虽	-10.900275
mo	-10.900289
代表团认为	-10.900574
第一次会议	-10.900646
国防	-10.900836
刑事诉讼法	-10.900894
分别为	-10.900954
▁阿根廷	-10.901256
优先考虑	-10.901278
必需	-10.901298
委员会注意到	-10.901423
联合国反腐败公约	-10.901432
你说	-10.901690
(2004	-10.901920
笵	-10.901985
进程的	-10.902147
▁古巴	-10.902267
会上	-10.902368
▁我们在	-10.902389
种族灭绝	-10.902664
划分	-10.902946
圣卢西亚	-10.902972
秒	-10.902982
的有效性	-10.903305
的学生	-10.903409
执行情况的报告	-10.903627
▁35	-10.903801
达成共识	-10.903880
罪行的	-10.903956
泽	-10.904338
过于	-10.904408
提交一份	-10.904451
宾	-10.904610
空间技术	-10.904857
不对	-10.905080
失望	-10.905240
童	-10.905395
在线	-10.905715
没事	-10.905999
维和部	-10.906033
份报告	-10.906166
环境问题	-10.906187
两级	-10.906246
领土上	-10.906252
(2003	-10.906307
▁随后	-10.906690
社会和	-10.907282
的说法	-10.907358
的议程	-10.907388
细则	-10.907424
撞	-10.907644
牵头	-10.907782
以便使	-10.907955
ha	-10.908067
祖	-10.908253
一项关于	-10.908261
协调机制	-10.908388
人生	-10.908664
第三国	-10.908789
▁本组织	-10.909139
亲属	-10.909229
/10	-10.909276
外面	-10.909313
旅	-10.909355
买方	-10.909396
完了	-10.910133
亚太	-10.910208
对发展中国家	-10.910246
▁我们也	-10.910268
号决定中	-10.910287
美国政府	-10.910363
▁天	-10.910390
租金	-10.910441
馆	-10.910599
鸟	-10.910660
▁页次	-10.910667
简	-10.910775
▁83.	-10.910790
的斗争	-10.910841
北方	-10.911035
设备和	-10.911157
备选办法	-10.911302
正在进行的	-10.911443
土著妇女	-10.911607
活跃	-10.911778
贸易和	-10.911865
第二委员会	-10.911893
朱	-10.911962
促进可持续发展	-10.912055
插入	-10.912180
58/2	-10.912299
SP	-10.912383
这些组织	-10.912642
抵达	-10.912652
统治	-10.912668
应考虑	-10.912678
不久	-10.912739
熟悉	-10.912785
专长	-10.912796
调查委员会	-10.912891
对这一	-10.912906
众	-10.912975
拉加经委会	-10.913118
定居	-10.913125
的重点	-10.913186
▁页	-10.913268
年为	-10.913283
马克	-10.913362
一词	-10.913414
.1/	-10.913514
扔	-10.913603
▁we	-10.913623
甄选	-10.913811
参加者	-10.913833
本组织的	-10.914000
行政管理	-10.914062
之下的	-10.914188
对你	-10.914201
刺	-10.914456
第四届会议	-10.914612
看到了	-10.914886
的索赔	-10.915405
(2002	-10.915777
国家政府	-10.915796
静	-10.916137
申报	-10.916195
委员会审议	-10.916317
可能对	-10.916348
哭	-10.916368
嗯	-10.916381
深刻	-10.916619
蓄意	-10.916689
的根源	-10.916777
以解决	-10.917163
58/	-10.917212
流行	-10.917282
老人	-10.917547
收取	-10.917553
▁ch	-10.917769
约为	-10.917777
本会议	-10.917801
述及	-10.917928
▁81.	-10.918040
并在这方面	-10.918092
ن	-10.918489
但也	-10.918673
开设	-10.918673
警察和	-10.918816
▁另一个	-10.919127
早日	-10.919134
广	-10.919148
▁我们会	-10.919220
ard	-10.919281
名妇女	-10.919290
缔约国在	-10.919394
挑选	-10.919474
满意	-10.919499
一个新的	-10.919553
最不发达国家的	-10.919600
坚信	-10.919679
卫生保健	-10.920053
de	-10.920067
▁在这种情况下	-10.920313
和可持续发展	-10.920629
作战	-10.920682
高兴	-10.920686
樂	-10.920833
妇女和	-10.920959
的主权	-10.921135
離	-10.921234
联苏特派团	-10.921297
敬	-10.921401
签订	-10.921453
就业和	-10.921574
摸	-10.921644
传统的	-10.921852
启动了	-10.921894
月以来	-10.921951
利益有关者	-10.921987
多久	-10.922458
你能	-10.922693
体罚	-10.922698
尊严	-10.922749
意愿	-10.922991
塞尔维亚和黑山	-10.923302
失业率	-10.923359
阐述了	-10.923523
患	-10.923567
发行	-10.923730
纲领	-10.923850
外地特派团	-10.923947
▁d	-10.924082
循环	-10.924136
国王	-10.924193
国际人权文书	-10.924333
外空	-10.924340
有點	-10.924805
斗	-10.924854
本文件	-10.924858
应确保	-10.924968
得到加强	-10.924973
综合性	-10.925022
有力	-10.925261
相似	-10.925346
无视	-10.925379
伤亡	-10.925417
过了	-10.925481
那樣	-10.925759
胜	-10.925896
房间	-10.926107
▁因	-10.926126
▁一词	-10.926228
媽媽	-10.926316
bo	-10.926344
成果文件	-10.926675
和美国	-10.926893
▁84.	-10.927497
▁「	-10.927887
指导委员会	-10.927938
诉讼程序	-10.927952
访问了	-10.928060
迈	-10.928163
闭幕	-10.928180
▁我是说	-10.928315
一直是	-10.928358
是如何	-10.928377
1984	-10.928682
眼睛	-10.928789
容	-10.929264
联合国出版物	-10.929515
拘押	-10.929546
的力量	-10.930010
-20	-10.930131
解释说	-10.930499
全面审查	-10.930505
实效	-10.930557
▁不行	-10.930622
文职	-10.930694
国际安全	-10.930737
迫害	-10.930902
深信	-10.930952
有意	-10.930972
程序的	-10.931024
日通过的	-10.931147
的持续	-10.931190
编纂	-10.931269
法律顾问	-10.931687
人力	-10.931740
处以	-10.931769
的行动计划	-10.932289
▁拿	-10.932341
彼得	-10.932798
脱离	-10.932873
绩效指标	-10.933128
章节	-10.933193
昨天	-10.933274
抢	-10.933337
被害人	-10.933383
(4)	-10.933511
充分合作	-10.933635
繼續	-10.933697
和活动	-10.933805
国际义务	-10.933817
错了	-10.933891
羊	-10.934043
56/2	-10.934141
复制	-10.934286
站在	-10.934395
的角度	-10.934588
有些国家	-10.935084
成年人	-10.935399
是以	-10.935449
引发	-10.935481
积	-10.935652
而采取的措施	-10.935840
国集团和中国	-10.936209
但没有	-10.936337
找不到	-10.936464
第四十	-10.936636
60%	-10.936780
关切的是	-10.936852
秘书长的	-10.937449
政治意愿	-10.937523
木材	-10.937652
契约	-10.937786
早就	-10.937980
臭	-10.938002
权限	-10.938004
国际金融	-10.938127
ke	-10.938377
必然	-10.938722
所定	-10.938800
和法律	-10.938851
三个月	-10.939087
▁老	-10.939134
另一方面	-10.939147
更具	-10.939178
▁你不是	-10.939347
区域的	-10.939384
成长	-10.939394
千年	-10.939455
和设备	-10.939459
并敦促	-10.939594
和谐	-10.939695
我能	-10.940027
的适用	-10.940679
▁此	-10.940981
▁次	-10.941204
更高	-10.941261
诊断	-10.941383
全权证书	-10.941528
第三个	-10.941632
	-10.941696
这些项目	-10.941889
鼓励各国	-10.941912
▁85.	-10.942357
160	-10.942407
難	-10.942408
呼吸	-10.942816
.17	-10.942843
该基金	-10.942938
分裂	-10.942976
拖欠	-10.943053
性骚扰	-10.943059
司法机关	-10.943269
减缓	-10.943439
为依据	-10.943470
空缺率	-10.943747
蒙特雷共识	-10.943817
第一阶段	-10.944045
向秘书长	-10.944420
届常会	-10.944536
接到	-10.944688
战略和	-10.944788
和其他有关	-10.944911
高级专员办事处	-10.944976
选项	-10.945156
Ma	-10.945369
救助	-10.945375
宣称	-10.945653
贵国	-10.945672
原先	-10.945674
的非政府组织	-10.945952
主管机构	-10.945998
直升机	-10.946160
本条	-10.946191
爆炸物	-10.946218
护	-10.946281
經	-10.946297
▁喔	-10.946321
年后	-10.946323
进行讨论	-10.946498
▁其实	-10.946705
一部	-10.946721
赞赏地注意到	-10.946808
ang	-10.947031
受害者的	-10.947277
推出	-10.947332
承	-10.947361
机密	-10.947385
之所以	-10.947492
它们在	-10.947525
2012-2013	-10.947574
的平均	-10.947656
和传播	-10.947926
感兴趣	-10.947975
拨	-10.948315
这样一个	-10.948606
呈	-10.948667
筁	-10.949409
也不会	-10.949615
迟	-10.949677
▁Sa	-10.949846
因为这	-10.949926
想到	-10.950047
无关	-10.950207
暂定	-10.950235
成熟	-10.950393
都可以	-10.950435
充	-10.950521
输	-10.950974
自卫	-10.951141
补救措施	-10.951231
第一款	-10.951379
和教育	-10.951588
▁Y	-10.951630
EC	-10.951837
延	-10.952016
羁押	-10.952072
审查和	-10.952199
火器	-10.952332
▁安理会成员	-10.952347
动荡	-10.952413
如果你	-10.952435
▁执行局	-10.952503
预防犯罪和刑事司法委员会	-10.952702
小组成员	-10.952914
联海稳定团	-10.952929
奴役	-10.952933
扭转	-10.952998
搜索	-10.953321
路线	-10.953351
患者	-10.953426
代表参加	-10.953557
批准或加入	-10.953585
仪式	-10.953695
在伊拉克	-10.953759
叶	-10.953993
的暴力行为	-10.954129
借口	-10.954175
冲击	-10.954423
实质	-10.954474
新技术	-10.954558
也要	-10.954631
征	-10.954780
主席声明	-10.954832
是真的	-10.955071
组织了	-10.955259
1978	-10.955317
一只	-10.955426
人权文书	-10.955435
堂	-10.955810
家庭成员	-10.955815
警务	-10.955838
确保所有	-10.955929
国际货币基金组织	-10.955935
积累	-10.955971
缔约国的	-10.955978
无线电	-10.956092
因为这些	-10.956257
ry	-10.956267
生活的	-10.956389
基本原则	-10.956707
筹备工作	-10.956810
临时措施	-10.957064
志愿人员	-10.957191
3:00	-10.957578
并考虑到	-10.957685
作为一项	-10.957807
所附	-10.957810
6/	-10.957935
实现这一目标	-10.957948
你就	-10.958129
等人	-10.958204
牺牲	-10.958242
▁该报告	-10.958535
历史上	-10.958580
司司长	-10.958646
的愿望	-10.958855
的财务	-10.958931
风险评估	-10.959393
利润	-10.959400
根源	-10.959465
▁审议	-10.959629
一周	-10.959675
15%	-10.959930
效应	-10.959970
极端主义	-10.960016
不如	-10.960173
▁今年	-10.960189
警察部队	-10.960194
▁挪威	-10.960217
社会中	-10.960251
迫切	-10.960334
平等的	-10.960514
不知	-10.960518
圣马力诺	-10.960865
艾滋病的	-10.960932
的合法	-10.960966
免疫	-10.961093
司法制度	-10.961167
III	-10.961348
政治事务部	-10.961398
较为	-10.961520
Name	-10.961554
作出反应	-10.961588
不錯	-10.961983
应考虑到	-10.962165
不当	-10.962194
106	-10.962317
/60/	-10.962838
阻	-10.962874
哥哥	-10.962992
把她	-10.962998
判处	-10.963125
职类	-10.963493
税务	-10.963534
遥感	-10.963593
贴	-10.964584
文件中	-10.964601
第五十五届会议	-10.964746
成立的	-10.964869
108	-10.964936
遇	-10.965014
明显的	-10.965020
不公平	-10.965204
生日	-10.965261
审判分庭	-10.965506
▁敦促	-10.965562
以避免	-10.965652
过分	-10.966349
能在	-10.966352
all	-10.966442
察	-10.966505
▁上述	-10.966937
和平解决	-10.966998
法外处决	-10.967152
禁止酷刑和其他残忍	-10.967312
ve	-10.967419
有担保债权人	-10.967520
代价	-10.967921
瑪	-10.968225
.13	-10.968329
一致性	-10.968417
联系起来	-10.968859
使用者	-10.968863
兼顾	-10.968953
不属于	-10.969047
ud	-10.969056
预算外	-10.969133
监	-10.969139
穆罕默德	-10.969314
两者	-10.969605
岸	-10.969711
▁我喜欢	-10.970357
采取一切必要措施	-10.970744
资源和	-10.970762
安提瓜和巴布达	-10.971060
扫盲	-10.971135
的实质性	-10.971137
牙	-10.971236
履行机构	-10.971247
之际	-10.971295
的透明度	-10.971872
庭长	-10.971942
的意愿	-10.971950
--	-10.972205
参数	-10.972208
航	-10.972247
中断	-10.972443
外联	-10.972481
继续开展	-10.972766
透	-10.972899
联合国贸易和发展会议	-10.972908
示威	-10.973073
在发展中国家	-10.973484
的事态发展	-10.973504
奧	-10.973630
引入	-10.973846
侦查	-10.974028
以供	-10.974284
终	-10.974321
实验	-10.974329
孤儿	-10.974463
眾	-10.974490
可能性	-10.974627
签	-10.974681
年开始	-10.974734
提议的	-10.974850
仍然存在	-10.974900
▁秘书处的说明	-10.975047
的百分比	-10.975156
告訴你	-10.975344
控	-10.975662
▁硂	-10.975719
61/2	-10.976011
土地和	-10.976239
的申诉	-10.976599
和美利坚合众国	-10.976600
国际人权法	-10.976694
常驻	-10.976748
绩效	-10.976851
滑	-10.977086
主意	-10.977221
幼儿	-10.977237
了一系列	-10.977258
所有人权	-10.977552
检	-10.977651
赖	-10.977716
强制执行	-10.977896
让人	-10.977950
59/2	-10.978083
建筑物	-10.978165
陪	-10.978207
产生影响	-10.978303
人权条约机构	-10.978337
充分尊重	-10.978429
可能导致	-10.978615
与人权	-10.978630
吻	-10.978970
區	-10.979407
执法机构	-10.979412
試	-10.979779
▁每个	-10.979976
出发	-10.979999
季	-10.980303
乘	-10.980741
中心的	-10.980757
的详细	-10.981145
集中在	-10.981175
感兴趣的	-10.981643
遭遇	-10.981713
主要的	-10.981818
各国人民	-10.981974
90%	-10.981975
▁巴基斯坦	-10.982012
▁过去	-10.982130
早上	-10.982254
的效率	-10.982553
灾害管理	-10.982812
相关决议	-10.982878
圖	-10.983049
	-10.983050
了他	-10.983095
占有	-10.983188
颁布了	-10.983247
中立	-10.983361
住宅	-10.983438
景	-10.983667
首要	-10.983681
哥本哈根	-10.983774
老板	-10.983818
▁86.	-10.984032
奖学金	-10.984140
目标和	-10.984202
的冲突	-10.984235
它对	-10.984413
预防措施	-10.984452
还会	-10.984632
清楚地	-10.984640
政治进程	-10.984663
1979	-10.984679
战争罪	-10.984708
在這裡	-10.984996
▁工发组织	-10.985150
必須	-10.985237
因为它们	-10.985244
one	-10.985279
国会	-10.985489
南斯拉夫联盟共和国	-10.985596
▁非公开会议	-10.985818
go	-10.986136
安全部门改革	-10.986144
杀死	-10.986434
激励	-10.986555
残疾人权利公约	-10.986759
大多	-10.987076
性质的	-10.987081
在处理	-10.987334
及相关	-10.987482
大众	-10.987515
谷	-10.987540
世界粮食计划署	-10.988022
恐怖行为	-10.988077
担忧	-10.988112
60/1	-10.988226
si	-10.988322
不可分割	-10.988569
IDB	-10.988643
守则	-10.988719
极为重要	-10.988942
第七届会议	-10.989464
遵约	-10.989656
列出了	-10.989672
在某些情况下	-10.989735
▁36	-10.989767
发展政策	-10.989768
也不是	-10.990219
平等机会	-10.990261
第六十二届会议	-10.990278
为支持	-10.990407
等级	-10.990426
卫生和	-10.990430
抱	-10.990841
相一致	-10.991177
大幅	-10.991219
演讲	-10.991620
的了解	-10.991721
ex	-10.991728
在实施	-10.991753
在日内瓦	-10.991847
ong	-10.992213
绳之以法	-10.992240
的武器	-10.992249
利益攸关者	-10.992544
很棒	-10.992554
▁但是我	-10.992659
走私	-10.992824
▁1994	-10.992846
糖	-10.992892
歲	-10.992927
/2009/	-10.992973
转向	-10.992987
/1998/	-10.993131
56/	-10.993202
该办公室	-10.993223
ce	-10.993307
欣见	-10.993507
担任主席	-10.993599
要做	-10.993603
将这些	-10.993611
▁我真的	-10.993677
事务处	-10.993765
名为	-10.993949
不准	-10.993967
強	-10.994028
有多少	-10.994068
乡村	-10.994153
人道主义事务协调厅	-10.994391
特别重视	-10.994455
称赞	-10.994498
对有关	-10.994799
但却	-10.994945
智	-10.995057
改组	-10.995232
概况	-10.995266
预防犯罪和刑事司法	-10.995318
各国在	-10.995464
几次	-10.995531
由联合国	-10.995672
▁该项目	-10.995834
我可以	-10.995996
仲裁庭	-10.996209
国防部	-10.996250
并请秘书长	-10.996414
尾	-10.996473
包括与	-10.996550
本国工作人员	-10.996583
醉	-10.996594
将要	-10.996811
侧重	-10.997139
作为其	-10.997166
▁又回顾	-10.997280
给我们	-10.997372
9/	-10.997432
的技术援助	-10.997556
▁1993	-10.997785
的犯罪	-10.997848
的传统	-10.997973
危害人类罪	-10.998112
大会关于	-10.998212
力度	-10.998386
不遵守	-10.998399
其他机构	-10.998779
	-10.998919
▁如果我们	-10.999221
开玩笑	-10.999616
大麻	-10.999743
/69/	-10.999804
另一项	-10.999877
报告和	-10.999888
建立伙伴关系	-11.000387
IV	-11.000571
面临的挑战	-11.000759
的指标	-11.000930
瓜	-11.001018
法典	-11.001076
与国际	-11.001184
无需	-11.001312
新增	-11.001354
服务和	-11.001433
流行病	-11.001437
所有各方	-11.001527
▁37	-11.001554
黄	-11.001613
备选案文	-11.001882
只会	-11.002166
就在	-11.002167
印象	-11.002266
被指控	-11.002510
详尽	-11.002585
▁為	-11.002997
教会	-11.003130
提供指导	-11.003190
创业	-11.003191
缴付	-11.003214
购	-11.003384
双边和多边	-11.003530
惡	-11.003628
ll	-11.003960
生意	-11.004035
减贫战略文件	-11.004165
什麽	-11.004394
▁大多数	-11.004406
这一事实	-11.004844
帝	-11.004872
诊所	-11.005306
me	-11.005487
十四	-11.005536
南斯拉夫	-11.005547
作者	-11.005548
(2);	-11.005607
ja	-11.005812
届特别会议	-11.006200
70%	-11.006393
▁或许	-11.006460
等于	-11.006547
基因	-11.006903
的行政	-11.007098
止	-11.007371
.19	-11.007466
姑娘	-11.007617
一笔	-11.007641
的拟议	-11.007730
惩治	-11.007743
追加	-11.007962
委员会秘书	-11.008151
较少	-11.008272
证件	-11.008476
一段时间	-11.008534
爆	-11.008583
和私营部门	-11.008731
宝贝	-11.008774
壞	-11.008819
所涉及的	-11.008844
国家一级的	-11.008845
的正式	-11.008972
何时	-11.009013
收费	-11.009385
了若干	-11.009386
改动	-11.009462
其他地方	-11.009657
的工作方案	-11.009668
高中	-11.009790
赢得	-11.010240
全面禁止核试验条约	-11.010349
恶劣	-11.010386
有两个	-11.010518
该系统	-11.010614
有兴趣	-11.010770
▁(212)	-11.011104
▁一些代表团	-11.011248
将包括	-11.011249
退化	-11.011690
家里	-11.011814
世卫组织	-11.011847
资金来源	-11.011915
递交	-11.012239
仅限于	-11.012269
的合同	-11.012281
加深	-11.012457
乔治	-11.012465
维也纳公约	-11.012572
有关的活动	-11.012860
▁该方案	-11.013066
普查	-11.013322
▁显然	-11.013451
伊斯兰教	-11.013475
还强调	-11.013507
接待	-11.013850
判例	-11.013876
少年司法	-11.014160
从来没有	-11.014229
也可能	-11.014446
集束弹药	-11.014473
优先权	-11.014475
茶	-11.014476
宣传运动	-11.014607
he	-11.014761
1.2	-11.014828
铁路	-11.014949
信心	-11.015146
在美国	-11.015336
犯人	-11.015382
800	-11.015446
▁38	-11.015453
快点	-11.015464
的故事	-11.015498
▁选举	-11.015707
*、	-11.015858
分娩	-11.016042
中指出	-11.016352
作证	-11.016413
技	-11.016560
海岸	-11.016755
向你	-11.016811
条件下	-11.017020
大幅度	-11.017033
人在	-11.017371
▁要是	-11.017421
舰	-11.017484
孔	-11.017861
這裡	-11.018014
便于	-11.018505
工作量	-11.018601
红十字国际委员会	-11.018988
▁的决议草案	-11.019173
还建议	-11.019173
直布罗陀	-11.019368
雇佣军	-11.019440
▁埃及	-11.019474
物体	-11.019716
布雷顿森林机构	-11.019741
均可	-11.019905
领土内	-11.020346
这边	-11.020436
统筹	-11.020793
跨国	-11.020862
咨询小组	-11.021023
该司	-11.021163
交存	-11.021387
政府对	-11.021499
恰当	-11.021507
无人	-11.021582
▁法院	-11.021719
她们的	-11.021764
满意地注意到	-11.021770
奇怪	-11.021790
下令	-11.021943
损坏	-11.021998
使人们	-11.022333
的增加	-11.022558
边缘	-11.022677
三方	-11.022741
her	-11.022986
和责任	-11.023272
07	-11.023863
架构	-11.023995
发展中	-11.024021
缓慢	-11.024042
屁股	-11.024117
/63/	-11.024272
酷	-11.024364
10:00	-11.024419
為什麼	-11.024526
都将	-11.024575
采取适当措施	-11.024661
对决议草案	-11.024755
相互依存	-11.025043
PRST	-11.025044
艰难	-11.025080
稳定和	-11.025270
104	-11.025356
你可以	-11.025540
代替	-11.025647
债	-11.025667
几年	-11.025814
各次	-11.025971
請	-11.026007
该中心	-11.026189
电邮	-11.026214
代表以	-11.026256
抵	-11.026282
修复	-11.026537
划拨	-11.026575
技术合作活动	-11.026649
转型	-11.026791
年份	-11.026980
第四条	-11.027205
为解决	-11.027259
第六届会议	-11.027466
见上文第	-11.027542
浓度	-11.027736
小组讨论	-11.027886
领导的	-11.027929
▁87.	-11.027971
策略	-11.028109
抱歉	-11.028273
麻醉药品委员会	-11.028316
ca	-11.028459
▁邀请	-11.028469
.12	-11.028516
具体目标	-11.028557
国家元首	-11.028567
强调需要	-11.028570
名单上	-11.028802
▁所需资源	-11.029154
已经开始	-11.029224
▁联合王国	-11.029240
复兴	-11.029248
领土的	-11.029266
走向	-11.029346
一件事	-11.029391
高级代表	-11.029446
聽到	-11.029509
登记的	-11.029664
中提出的	-11.029743
百万	-11.029757
咨商地位	-11.029885
原始	-11.030041
問題	-11.030383
▁至少	-11.030408
园	-11.030462
第二十	-11.030470
禁运	-11.030610
道歉	-11.030791
海事组织	-11.030931
▁只	-11.031108
莫斯科	-11.031584
纲要	-11.031672
ation	-11.031726
▁你真	-11.031744
常会	-11.031850
加强与	-11.031960
醫生	-11.031965
反恐委员会	-11.032026
主持人	-11.032365
的政府	-11.032647
替代品	-11.032879
空运	-11.032885
不幸	-11.032887
发展筹资问题国际会议	-11.033079
竞选	-11.033160
紧张局势	-11.033368
所属	-11.033723
吸	-11.033806
搜查	-11.033877
人类发展	-11.033973
忆及	-11.034132
是这样	-11.034213
废	-11.034623
被占领巴勒斯坦领土	-11.034648
依照第	-11.034708
好嗎	-11.035065
幹	-11.035109
部长会议	-11.035336
国的	-11.035413
主导	-11.035482
方面取得进展	-11.035636
下來	-11.035688
举报	-11.035713
制定和执行	-11.035735
ot	-11.035894
沿海	-11.036025
方案和协调委员会	-11.036217
文莱达鲁萨兰国	-11.036229
关岛	-11.036383
	-11.036500
物种	-11.036576
发现了	-11.036585
那麼	-11.036636
医	-11.036784
七个	-11.037181
有关机构	-11.037183
这就是	-11.037190
▁88.	-11.037313
同事	-11.037418
包括关于	-11.037432
錯	-11.037627
污	-11.037755
预计将	-11.038006
方面取得	-11.038039
重申其	-11.038351
▁誰	-11.038449
境外	-11.038557
放松	-11.038783
独立性	-11.038806
贯彻	-11.038833
▁晚安	-11.038912
基本服务	-11.039109
高等法院	-11.039256
特权	-11.039282
了一份	-11.039380
幅	-11.039496
百万美元	-11.040040
任何国家	-11.040041
被占领土	-11.040100
上去	-11.040204
北约	-11.040229
▁我们可以	-11.040269
提供经费	-11.040332
的最高	-11.040454
蠢	-11.040679
幫我	-11.040972
的组成	-11.041185
中使用	-11.041227
的声音	-11.041301
宁	-11.041387
关键的	-11.041393
降至	-11.041481
盡	-11.041504
但仍	-11.041623
▁我来	-11.041739
救灾	-11.041941
/62/	-11.041970
失去了	-11.042191
旁	-11.042196
展望	-11.042300
宣传和	-11.042459
我不知道	-11.042521
少女	-11.042583
麦克	-11.042652
缩短	-11.042690
干预措施	-11.042701
严格遵守	-11.042853
大批	-11.043038
每个人	-11.043075
国内立法	-11.043108
了关于	-11.043227
陈	-11.043356
手术	-11.043421
▁我叫	-11.043667
》/《	-11.043749
107	-11.043769
福祉	-11.043897
性别观点	-11.043915
在你	-11.044267
化学武器	-11.044811
隊	-11.044839
时至下午	-11.044944
擊	-11.044967
公寓	-11.045000
准备好	-11.045073
必须是	-11.045111
国际恐怖主义	-11.045282
▁19	-11.045330
(2004)	-11.045528
实例	-11.045886
金融危机	-11.045898
提到的	-11.046012
斯德哥尔摩公约	-11.046246
个国家的	-11.046355
全额	-11.046450
链	-11.046494
以色列政府	-11.046515
▁相反	-11.046526
该区域的	-11.046662
的数字	-11.046757
慈善	-11.046940
▁89.	-11.047046
在很大程度上	-11.047256
ig	-11.047589
人权机构	-11.047652
加强努力	-11.047712
草稿	-11.047873
第五次	-11.047887
所进行的	-11.048144
▁是不是	-11.048245
禁止酷刑委员会	-11.048469
慷慨	-11.048470
的大	-11.048547
具体措施	-11.048640
▁在这一	-11.048696
7\	-11.049036
▁瑞士	-11.049088
产假	-11.049129
各国的	-11.049520
经费筹措	-11.049682
生殖	-11.049813
惊	-11.049834
DC	-11.050036
同其他	-11.050209
▁天哪	-11.050315
潜在的	-11.050482
間	-11.050572
锁	-11.050592
的任务规定	-11.050651
薄	-11.050777
za	-11.050925
路上	-11.051173
发挥重要作用	-11.051437
范	-11.051596
国际和区域	-11.051817
以及联合国	-11.051939
胁迫	-11.051972
根据大会	-11.052114
健康和	-11.052155
其他组织	-11.052314
ai	-11.052707
权威	-11.052716
曲	-11.052888
▁先	-11.052913
灭	-11.052961
找你	-11.053053
核能	-11.053076
报纸	-11.053121
▁我们需要	-11.053131
巴格达	-11.053147
。」	-11.053491
土地退化	-11.053683
责	-11.053904
1540(2004)	-11.053928
航天	-11.053994
相符	-11.054275
權	-11.054440
和评估	-11.054464
手机	-11.054553
科学技术	-11.054621
悲剧	-11.054716
创伤	-11.054756
第五届会议	-11.055037
口译	-11.055048
▁拉	-11.055148
性别歧视	-11.055150
▁针对	-11.055250
▁主要	-11.055483
居留	-11.055489
辅导	-11.055505
甘	-11.055884
扶持	-11.055901
迹象	-11.056007
敌对行动	-11.056069
基层	-11.056977
宪法法院	-11.057013
月期间	-11.057364
执行第	-11.057381
知道你	-11.057449
老婆	-11.057614
进行协调	-11.057800
刑事诉讼	-11.057895
应予	-11.057961
根据大会第	-11.058084
并提出	-11.058350
喂	-11.058443
▁多	-11.058494
联合国海洋法公约	-11.058508
得很	-11.058613
Microsoft	-11.058629
实施情况	-11.058631
非政府	-11.058922
扣押	-11.059028
医疗保健	-11.059038
同情	-11.059116
▁]	-11.059143
受益人	-11.059167
公共部门会计准则	-11.059207
不限成员名额	-11.059361
▁欧洲	-11.059512
陆	-11.059546
将成为	-11.059720
团队	-11.059918
五十	-11.060034
案子	-11.060094
喔	-11.060117
第八届会议	-11.060202
不喜欢	-11.060228
国家政策	-11.060299
的材料	-11.060453
知道我	-11.060583
第九届会议	-11.060656
议程上	-11.060712
进度报告	-11.060760
捕鱼	-11.060792
乡	-11.060987
万美元的	-11.060987
免除	-11.061125
our	-11.061149
的意义	-11.061385
的基本原则	-11.061548
中非	-11.061664
可持续发展的	-11.061667
▁đ	-11.061802
很久	-11.062120
边缘化	-11.062136
出售品编号	-11.062169
非正式会议	-11.062477
测	-11.062482
加强合作	-11.062675
某人	-11.062732
为联合国	-11.062933
非统组织	-11.062953
司长	-11.062962
▁没事	-11.063202
ci	-11.063337
记住	-11.063361
受益于	-11.063375
律	-11.063384
严	-11.063524
易受	-11.063740
在全国	-11.063950
编制的	-11.064015
手中	-11.064125
▁我相信	-11.064219
国家战略	-11.064232
重大的	-11.064272
评估和	-11.064383
睡觉	-11.064449
号一般性意见	-11.064564
▁定于	-11.064655
▁40	-11.064734
的公司	-11.064791
派驻	-11.064860
條	-11.065168
对方	-11.065216
各项活动	-11.065294
常设论坛	-11.065332
召开一次	-11.065362
殺了	-11.065656
不愿意	-11.065817
說的	-11.065906
战争遗留爆炸物	-11.066112
才会	-11.066126
▁后来	-11.066201
老师	-11.066234
你好	-11.066376
起案件	-11.066838
斯坦	-11.067123
我们可以	-11.067262
有效和	-11.067302
辞	-11.067472
1973	-11.067492
▁90.	-11.067617
人才	-11.067755
建立信任	-11.067791
不仅是	-11.067865
代表团召集	-11.067873
纠纷	-11.068092
发展计划	-11.068219
将近	-11.068234
产品的	-11.068371
一百	-11.068403
团伙	-11.068429
次数	-11.068747
不满	-11.068798
知识和	-11.068815
基金的	-11.069152
脑	-11.069176
分发给	-11.069434
里的	-11.069465
供资的	-11.069466
兴趣	-11.069496
第十四条	-11.069539
▁以下	-11.069592
截止	-11.069603
有一	-11.069798
星期五	-11.069955
和业务	-11.070150
的协助下	-11.070172
款和第	-11.070271
说了	-11.070310
迹	-11.070330
▁%	-11.070805
教育机构	-11.071013
大会在	-11.071045
和方案	-11.071263
办法是	-11.071405
救援	-11.071475
在某些	-11.071513
违法	-11.071599
1.1	-11.071658
▁巴	-11.071665
▁for	-11.071780
利率	-11.071792
天内	-11.071906
有效性	-11.072056
持续的	-11.072239
文献	-11.072284
可爱	-11.072291
预见	-11.072405
答应	-11.072425
差不多	-11.072520
了什么	-11.072578
的过程	-11.072672
在许多	-11.072783
将向	-11.072977
這么	-11.073044
总额为	-11.073086
所有人都	-11.073151
冒	-11.073183
的候选人	-11.073224
烂	-11.073259
更换	-11.073269
稳定的	-11.073537
多重	-11.073770
项目下	-11.073812
的独立	-11.073824
矛盾	-11.073972
太阳	-11.074007
的职权范围	-11.074024
波恩	-11.074159
为由	-11.074211
的效果	-11.074227
有什麼	-11.074327
款的规定	-11.074352
条件是	-11.074748
旅馆	-11.074874
109	-11.074963
103	-11.075027
ó	-11.075068
有机	-11.075115
相辅相成	-11.075249
自愿捐助	-11.075267
的制度	-11.075771
埋	-11.076097
中部非洲	-11.076202
▁但他	-11.076271
耳	-11.076443
語	-11.076450
声音	-11.076451
分散会	-11.076533
也就是	-11.076550
和行动	-11.076726
成立一个	-11.076856
政治和	-11.077092
通用	-11.077179
攻	-11.077744
关系的	-11.077864
权利和	-11.077932
自从	-11.078134
报告草稿	-11.078313
秘书处的	-11.078507
赤道几内亚	-11.078683
陆地	-11.078712
干扰	-11.078876
所罗门群岛	-11.079057
发展议程	-11.079167
wa	-11.079193
TD	-11.079198
▁委员会欢迎	-11.079423
实现这些目标	-11.079458
方法和	-11.079871
籍	-11.079880
就如何	-11.079950
買	-11.080054
娱乐	-11.080057
寻求庇护者	-11.080079
不愿	-11.080215
承担责任	-11.080397
发出了	-11.080540
的中心	-11.080789
这一切	-11.080913
药物滥用	-11.080960
和各	-11.081008
妇女组织	-11.081069
带着	-11.081137
不平衡	-11.081443
更有	-11.081576
在这一领域	-11.081615
持久性有机污染物	-11.081641
的一份	-11.082048
一级的	-11.082146
所用	-11.082882
有罪	-11.082912
通过了一项	-11.082943
刑罚	-11.083177
标志	-11.083202
本次会议	-11.083355
对外	-11.083436
ina	-11.083522
不断增加	-11.083565
严格的	-11.083565
不是我	-11.083838
发起了	-11.083941
驱动	-11.084359
西方	-11.084408
▁这将	-11.084435
统计委员会	-11.084474
系统地	-11.084835
2020	-11.084859
结论和建议	-11.084945
▁大会在	-11.084963
om	-11.085053
敦促各国	-11.085076
俱乐部	-11.085169
50/	-11.085260
直接或间接	-11.085282
巨	-11.085341
民用	-11.085393
文化遗产	-11.085647
的评价	-11.085725
▁当时	-11.085739
因為	-11.085795
志愿	-11.085856
远程	-11.085858
进行一次	-11.085966
坐在	-11.085993
絕	-11.086370
世界经济	-11.086373
境	-11.086388
談	-11.086461
納	-11.086492
消除一切形式种族歧视国际公约	-11.086897
公职人员	-11.086955
生产能力	-11.087057
预算编制	-11.087187
▁神	-11.087311
的附件	-11.087658
为确保	-11.087779
社团	-11.087787
山区	-11.087791
这笔	-11.087866
▁know	-11.088107
敌人	-11.088142
联合国工作人员	-11.088431
多边环境协定	-11.088540
在阿富汗	-11.088556
再度	-11.088646
暴行	-11.089023
限于	-11.089044
▁1992	-11.089174
勘探	-11.089286
你自己	-11.089621
和国际组织	-11.089693
非盟	-11.089703
毫米	-11.089760
安全局势	-11.089813
前任	-11.089821
应当在	-11.089926
▁在我	-11.090137
(1997	-11.090204
公务	-11.090205
其活动	-11.090256
ph	-11.090374
52/	-11.090406
联塞特派团	-11.090531
各项决议	-11.090607
第十九条	-11.090647
▁马	-11.090659
群体的	-11.090695
▁欧盟	-11.090706
并且在	-11.090813
的规模	-11.090819
其中载有	-11.090835
特遣队所属装备	-11.090939
时刻	-11.090968
票对	-11.091103
使者	-11.091258
根本不	-11.091261
显示出	-11.091295
实用	-11.091337
▁难民署	-11.091357
we	-11.091401
出席会议	-11.091519
该条	-11.091571
见到你	-11.091572
▁还回顾	-11.091594
附件一缔约方	-11.091765
的授权	-11.091802
的选举	-11.091803
专家委员会	-11.091928
促进两性平等	-11.091977
决议和决定	-11.092147
戏	-11.092230
作出答复	-11.092274
ni	-11.092329
▁你說	-11.092344
▁促请	-11.092617
來的	-11.092628
一张	-11.092634
法人	-11.092695
枪支	-11.092696
▁小心	-11.092772
人们对	-11.092847
编写了	-11.092936
尿	-11.092969
火箭	-11.093145
炸	-11.093208
出入	-11.093223
代理人	-11.093324
回来了	-11.093868
激	-11.093881
连同	-11.093922
生活水平	-11.093938
保障监督	-11.094221
闭	-11.094268
以此作为	-11.094305
▁我只	-11.094368
充当	-11.094369
国家法律	-11.094382
消极	-11.094424
怎麼樣	-11.094431
▁不然	-11.094470
一组	-11.094764
一般性讨论	-11.094767
动用	-11.094767
施行	-11.094799
减少贫穷	-11.095118
5/	-11.095314
规	-11.095358
其成员	-11.095379
挑	-11.095391
ge	-11.095432
各部	-11.095442
常驻联合国代表给秘书长的信	-11.095650
农业和	-11.095685
区域性	-11.095704
和评价	-11.095874
所必需的	-11.096128
申	-11.096237
挂钩	-11.096240
吸毒	-11.096257
哪个	-11.096416
社会和文化	-11.096418
资助恐怖主义	-11.096438
的特点	-11.096473
战斗人员	-11.097102
ill	-11.097366
工作条件	-11.097422
统一的	-11.097456
办理	-11.097568
提出的关于	-11.097569
阿富汗政府	-11.097587
云	-11.097856
极大	-11.097916
出庭	-11.098071
几项	-11.098663
德班宣言和行动纲领	-11.098675
联合国组织	-11.098938
同性恋	-11.098984
抵抗	-11.099107
135	-11.099112
东欧	-11.099178
联邦政府	-11.099260
的指导	-11.099274
主管部门	-11.099286
的主	-11.099427
基督教	-11.099589
在世界	-11.099634
免于	-11.099896
-3)	-11.099970
▁on	-11.100040
和合作	-11.100087
戒	-11.100126
执行理事会	-11.100471
监督和	-11.100582
翴	-11.100719
非索特派团	-11.100843
与国家	-11.100925
1983	-11.100985
备选方案	-11.101055
特别是通过	-11.101135
提高其	-11.101183
▁不好意思	-11.101304
io	-11.101513
族群	-11.101515
2014-2015	-11.101537
▁tr	-11.101558
提供更多	-11.101604
起到	-11.101931
丑	-11.102152
和扩大	-11.102315
唐	-11.102344
▁你还	-11.102378
幹嘛	-11.102407
儿童问题	-11.102509
进出口	-11.102683
英雄	-11.102820
其中一些	-11.103302
减少灾害风险	-11.103377
委员会的报告	-11.103437
王国	-11.103605
建立在	-11.103699
工作报告	-11.103864
致命	-11.104537
局面	-11.104674
的原因是	-11.104820
軍	-11.105069
指导意见	-11.105084
59/	-11.105193
斡旋	-11.105227
肇事者	-11.105230
3/	-11.105263
▁快點	-11.105440
觉	-11.105462
真的很	-11.105479
应有	-11.105499
和贸易	-11.105654
这个项目	-11.105731
▁阿富汗	-11.105932
此后	-11.106031
外勤支助部	-11.106051
承包商	-11.106170
鞋	-11.106340
贸易和发展	-11.106447
1960	-11.106689
该小组	-11.106735
提供协助	-11.106920
继续向	-11.107016
保持一致	-11.107152
癸	-11.107291
一切形式的	-11.107545
.1,	-11.107651
if	-11.107733
来处理	-11.107755
方面的工作	-11.107822
犯罪的	-11.107883
农村发展	-11.108134
可持续森林管理	-11.108174
严重影响	-11.108181
日开始	-11.108403
拆除	-11.108480
是最	-11.108698
仅有	-11.108731
了解到	-11.108755
押	-11.108888
明确地	-11.108897
的选择	-11.108924
基本权利	-11.109166
借助	-11.109411
的人民	-11.109489
中央银行	-11.109536
货币基金组织	-11.109582
報	-11.109725
名儿童	-11.109736
工艺	-11.110158
细	-11.110223
IS	-11.110415
丢	-11.110516
藥	-11.110594
有用的	-11.110970
妹妹	-11.111013
对儿童的	-11.111182
开心	-11.111594
宫	-11.111769
保障措施	-11.111915
是什麼	-11.111942
的生产	-11.112083
经济和	-11.112359
和维持	-11.112552
和方法	-11.112642
温室气体	-11.112865
▁她还	-11.113423
华盛顿	-11.113484
在我们	-11.113489
裁减	-11.113672
国际社会必须	-11.113726
可用于	-11.113772
▁根据第	-11.113878
详细说明	-11.113946
ga	-11.113958
立刻	-11.113980
秘书长在	-11.114032
绝不	-11.114168
转换	-11.114251
实现可持续发展	-11.114481
权利和自由	-11.114499
▁w	-11.114700
这些文书	-11.114709
图像	-11.114863
的好处	-11.114872
▁91.	-11.114899
在我	-11.114916
▁审议了	-11.114925
使其能够	-11.114937
其中有	-11.114992
每个国家	-11.115259
证据表明	-11.115378
看待	-11.115550
相称	-11.115570
的命令	-11.115650
就有	-11.116162
告诉他	-11.116302
▁安	-11.116412
合适	-11.116447
au	-11.116500
引导	-11.116538
另一种	-11.116788
国际协定	-11.116814
气象	-11.116817
顺序	-11.117040
一定是	-11.117154
药物管制	-11.117216
需要有	-11.117266
▁那我	-11.117271
途	-11.117380
特别法庭	-11.117389
战略性	-11.117438
让她	-11.117468
保护措施	-11.117642
▁39	-11.117702
并协助	-11.117883
至少有	-11.117901
受教育	-11.117974
不人道或有辱人格的待遇或处罚公约	-11.118026
承包者	-11.118032
展览	-11.118033
▁行	-11.118082
机器	-11.118112
真诚	-11.118266
简要记录	-11.118290
/8	-11.118294
应与	-11.118409
.16	-11.118447
亲自	-11.118527
▁我真	-11.118536
需要采取	-11.118717
一份关于	-11.118870
了很多	-11.119024
的安排	-11.119202
此一	-11.119256
没什么	-11.119289
协调人	-11.119424
储蓄	-11.119733
播放	-11.119738
住房和	-11.119783
教堂	-11.119909
严重关切	-11.120087
第五十七届会议	-11.120126
AP	-11.120255
介入	-11.120611
基础设施和	-11.120687
▁my	-11.120931
der	-11.121346
与各	-11.121435
响	-11.121452
行使其	-11.121629
▁长官	-11.121916
军事观察员	-11.121961
附带	-11.122008
安全保障	-11.122309
所称	-11.122347
美元的	-11.122515
的一名	-11.122582
絲	-11.122657
幾	-11.122734
和控制	-11.122783
的议程项目	-11.122784
呼吁国际社会	-11.122808
幸存者	-11.122832
那儿	-11.123106
儿童和青少年	-11.123464
記	-11.123959
使命	-11.124104
以前的	-11.124108
不公正	-11.124272
的首要	-11.124331
▁(1)	-11.124473
的位置	-11.124865
▁然後	-11.125354
区域和次区域	-11.125477
市政	-11.125635
(5)	-11.125652
注销	-11.125668
盟约	-11.125676
四方	-11.125806
▁不能	-11.126173
分项	-11.126222
行动自由	-11.126287
联合国气候变化框架公约	-11.126312
屠杀	-11.126321
圆	-11.126387
第一条	-11.126496
处决	-11.126513
良	-11.126595
▁St	-11.126707
无障碍	-11.126715
方案和项目	-11.126720
的最大	-11.126732
我感谢	-11.126768
犹太人	-11.126796
à	-11.126851
人物	-11.126894
一定会	-11.126935
还欢迎	-11.127050
频	-11.127135
▁各位	-11.127353
有罪不罚	-11.127563
卡拉	-11.127584
这么多	-11.127597
代表团团长	-11.127606
增进和保护人权	-11.127626
对第	-11.127649
不明	-11.127650
杂志	-11.127700
▁人权高专办	-11.127816
养老金	-11.127960
的举措	-11.127974
在议程项目	-11.128213
会费	-11.128273
考察	-11.128469
监控	-11.128551
学术界	-11.128609
其他一些	-11.128908
岁以下	-11.129187
的前景	-11.129272
委员会对	-11.129421
An	-11.129457
体现了	-11.129484
专员小组	-11.129518
م	-11.129633
应向	-11.129695
黑人	-11.129810
看上去	-11.129884
是有	-11.129890
感染艾滋病毒	-11.129948
的贸易	-11.130438
并执行	-11.130492
国家当局	-11.130528
列于	-11.130622
▁南非	-11.130712
工作和	-11.130720
▁好吗	-11.130827
▁所以你	-11.130869
经常性	-11.130893
交叉	-11.131091
也能	-11.131274
▁叫	-11.131290
现任	-11.131542
阵	-11.131556
育	-11.131614
负责任的	-11.131636
▁土耳其	-11.131676
▁目前正在	-11.131679
日的第	-11.131765
190	-11.131992
据此	-11.131993
▁伊	-11.132014
究竟	-11.132077
就會	-11.132137
履约	-11.132363
的女人	-11.132465
独特	-11.132643
季度	-11.132696
隔	-11.132705
农场	-11.132737
问题的第	-11.132873
透明和	-11.132988
153	-11.133270
▁荷兰	-11.133362
和地方	-11.133459
武力	-11.133583
1977	-11.133603
常任理事国	-11.133675
▁打	-11.133695
▁我覺得	-11.133789
邮	-11.133789
社会保险	-11.133927
的直接	-11.133966
共同主席	-11.134285
kh	-11.134287
长官	-11.134315
理事机构	-11.134480
▁她说	-11.134533
财务条例	-11.134564
它們	-11.134581
委员会应	-11.134685
调解人	-11.134785
调查和	-11.134789
喊	-11.134867
和参与	-11.134915
格林纳达	-11.135159
第二款	-11.135171
说你	-11.135254
土著社区	-11.135316
生产和	-11.135528
给了	-11.135586
到期	-11.135675
放下	-11.135695
很容易	-11.135777
所取得的进展	-11.135931
46/	-11.135996
▁环境署	-11.136123
统计资料	-11.136509
提供咨询意见	-11.136546
尔先生	-11.136578
必定	-11.136627
记忆	-11.136660
▁93.	-11.136713
很大的	-11.136734
得知	-11.136847
议	-11.136852
(2000)	-11.137025
进行对话	-11.137057
国际关系	-11.137124
不良	-11.137162
严峻	-11.137204
波动	-11.137369
标记	-11.137403
在当地	-11.137464
姓名	-11.137614
的人们	-11.137639
(1999	-11.137651
▁凡	-11.137725
弟弟	-11.137851
日前	-11.138069
与之	-11.138147
猫	-11.138263
援	-11.138396
跨部门	-11.138642
役	-11.138824
少数族裔	-11.139002
加紧	-11.139048
和挑战	-11.139218
聘	-11.139292
聪明	-11.139397
腳	-11.139539
的任务是	-11.139598
表明了	-11.139907
殴打	-11.139981
那时	-11.140058
东南亚	-11.140069
延期	-11.140126
各项措施	-11.140240
关键问题	-11.141030
催	-11.141241
即便	-11.141251
改革进程	-11.141366
承担的义务	-11.141412
刑事责任	-11.141474
信息的	-11.142085
新出现的	-11.142242
敌	-11.142416
102	-11.142432
主要委员会	-11.142511
确切	-11.142711
▁他指出	-11.142870
的意思	-11.142964
▁主	-11.143132
目前正	-11.143373
▁其他事项	-11.143681
窗	-11.144081
防治艾滋病毒	-11.144487
▁這個	-11.144712
不多	-11.144986
54/2	-11.145297
该战略	-11.145308
判定	-11.145459
军官	-11.145532
没错	-11.145540
引用	-11.145648
▁这就	-11.145689
這里	-11.145848
撒哈拉以南非洲	-11.145941
支助服务	-11.146050
宝	-11.146208
浪费	-11.146210
灰	-11.146221
联塞部队	-11.146371
该股	-11.146404
常驻联合国代表团	-11.146478
习惯法	-11.146612
.14	-11.146650
AR	-11.146730
ت	-11.146801
▁沒錯	-11.146861
的条约	-11.146910
精确	-11.146931
掉了	-11.147049
作斗争	-11.147103
ass	-11.147229
并希望	-11.147533
社会发展委员会	-11.147540
保留的	-11.147659
靠近	-11.147676
101	-11.147758
SC	-11.147792
农产品	-11.147819
工作人员和	-11.147850
贸	-11.147911
有意义的	-11.147973
替换	-11.148167
▁委员会请缔约国	-11.148561
看你	-11.148981
采用的	-11.149067
干的	-11.149337
行政首长	-11.149554
甜	-11.149627
的群体	-11.149642
埃厄特派团	-11.149804
巴勒斯坦被占领土	-11.149818
劳动法	-11.149862
第三章	-11.149905
交流信息	-11.149956
现有资源	-11.150214
与和平	-11.150357
本议定书	-11.150490
某些国家	-11.150616
所采取的措施	-11.150901
第七章	-11.150975
的最佳做法	-11.151025
际	-11.151109
钥匙	-11.151115
的女性	-11.151270
减贫战略	-11.151279
ick	-11.151345
”)	-11.151351
会员	-11.151419
确	-11.151484
咨询和	-11.151484
方案中	-11.151497
全民投票	-11.151613
撒哈拉	-11.151749
孤立	-11.151988
还能	-11.152034
协助各国	-11.152115
会议室举行	-11.152153
定期审查	-11.152212
图瓦卢	-11.152352
中小型企业	-11.152438
性虐待	-11.152471
忍	-11.152472
紧密	-11.152506
的速度	-11.152568
并继续	-11.152687
原则和	-11.153019
作为一种	-11.153023
经修订的	-11.153100
的各项建议	-11.153266
在哪儿	-11.153300
委员会和	-11.153459
来这里	-11.153472
专用	-11.153635
僵局	-11.153720
地名	-11.153974
暴力侵害妇女	-11.153994
烦	-11.154089
谈论	-11.154134
的专题	-11.154195
额外的	-11.154208
医务	-11.154283
大西洋	-11.154299
这些方案	-11.154390
确认了	-11.154438
案中	-11.154465
通过的决议	-11.154502
时机	-11.154611
發現	-11.154632
▁全	-11.155002
简要	-11.155181
国际经济	-11.155321
文章	-11.155408
的筹备工作	-11.155643
一般性意见	-11.155681
并决定	-11.155694
委员会将	-11.155849
和土耳其	-11.155911
财政年度	-11.156137
▁太好了	-11.156282
和做法	-11.156565
逻辑	-11.156702
圣文森特和格林纳丁斯	-11.157253
ki	-11.157297
的儿子	-11.157313
117	-11.158040
▁92.	-11.158152
通过了关于	-11.158164
说服	-11.158177
ani	-11.158257
统计数字	-11.158355
書	-11.158443
说的	-11.158587
结构性	-11.159095
初次	-11.159115
区域和国家	-11.159232
初期	-11.159307
厚	-11.159310
	-11.159311
解释性声明	-11.159312
PC	-11.159421
二十一世纪	-11.159717
资发基金	-11.159744
达成了	-11.159806
药物管制署	-11.159905
▁我也是	-11.160011
高效率	-11.160069
割	-11.160153
我會	-11.160228
用水	-11.160336
蓝	-11.160674
组织结构	-11.160885
分组	-11.160924
尽量减少	-11.161162
列表	-11.161456
猎	-11.161483
做好	-11.161572
独特的	-11.161733
和尊重	-11.161741
屁	-11.161761
星期一	-11.161806
凭	-11.161809
你不	-11.161827
将以	-11.161942
执	-11.162049
应是	-11.162103
里约	-11.162110
联合行动	-11.162115
貌	-11.162333
薄弱	-11.162378
扩大了	-11.162610
潮	-11.162704
(2008)	-11.162857
特别是对	-11.162914
檔案	-11.162938
提出上诉	-11.163073
仇外心理	-11.163075
加强国家	-11.163112
和能力	-11.163770
感到遗憾的是	-11.163815
安理会第	-11.163880
国际上	-11.163894
的债务	-11.163951
绿	-11.164042
别的	-11.164159
和援助	-11.164175
作出的决定	-11.164218
所作的发言	-11.164396
估计为	-11.164569
区内	-11.164754
销	-11.164799
ru	-11.164808
分列	-11.164966
瓶	-11.165244
范围的	-11.165268
社区的	-11.165397
喷	-11.165402
叙述	-11.165432
有理由	-11.165663
数据的	-11.165831
各区域委员会	-11.165995
▁94.	-11.166072
传统知识	-11.166224
监测组	-11.166420
完全支持	-11.166468
核可了	-11.166531
▁该委员会	-11.166627
之日起	-11.166732
▁不過	-11.166942
▁各国政府	-11.167049
盟	-11.167195
总量	-11.167238
非正规	-11.167323
问你	-11.167346
▁非	-11.167347
计划和	-11.167377
的广泛	-11.167448
解雇	-11.167522
pe	-11.167581
两性平等问题	-11.167767
目录	-11.167794
而被	-11.167860
▁过来	-11.167905
裁军审议委员会	-11.168063
是吧	-11.168158
城市化	-11.168202
违法行为	-11.168372
眔	-11.168446
惹	-11.168469
2.1	-11.168521
熟	-11.168538
的独立性	-11.168560
这项建议	-11.168663
强大	-11.168842
的难民	-11.168852
联合国人员	-11.169141
▁43	-11.169183
欧洲安全与合作组织	-11.169343
这些国家的	-11.169346
注射	-11.169521
听说	-11.169773
拳	-11.169785
▁新西兰	-11.169850
離開	-11.169871
▁总	-11.170253
▁We	-11.170277
携带	-11.170405
▁无论	-11.170564
委员会决定	-11.170603
坎	-11.170646
1971	-11.171191
說什麼	-11.171406
使用了	-11.171427
这就	-11.171446
1974	-11.171501
▁也許	-11.171581
▁看来	-11.171643
复苏	-11.171892
是联合国	-11.172076
也必须	-11.172195
台湾	-11.172482
信函	-11.172573
▁就决议草案	-11.172655
仪	-11.172696
加重	-11.172819
地位的	-11.172879
方面取得了	-11.172977
开展国际合作	-11.173106
小规模	-11.173166
回复	-11.173246
卡车	-11.173312
了许多	-11.173423
我国政府	-11.173552
在没有	-11.173720
艾滋病规划署	-11.173802
赞	-11.173903
大量的	-11.173938
敌对	-11.174046
将此	-11.174072
的官员	-11.174312
ess	-11.174335
过渡政府	-11.174353
和信息	-11.174406
犯罪活动	-11.174436
芬	-11.174478
协商会议	-11.174539
滿	-11.174603
700	-11.174720
法文	-11.175026
和就业	-11.175078
他們的	-11.175104
职权	-11.175187
典	-11.175246
送到	-11.175319
各省	-11.175447
支付的	-11.175500
吞	-11.175502
叔叔	-11.175508
联合国总部	-11.175595
解散	-11.175672
强行	-11.175909
▁言	-11.175914
关注的是	-11.176173
猪	-11.176828
这些原则	-11.176905
将从	-11.177178
控制的	-11.177188
互助	-11.177236
有没有	-11.177286
助长	-11.177599
▁就在	-11.177716
则是	-11.177719
建立了一个	-11.178123
各州	-11.178129
虚	-11.178407
论述	-11.178433
接着	-11.178569
論	-11.178595
混乱	-11.178666
作出的承诺	-11.178861
真好	-11.179083
和平文化	-11.179305
出来的	-11.179329
已将	-11.179399
卜	-11.179484
傷	-11.179619
受益者	-11.179733
天主教	-11.179804
及其后	-11.179858
一般事务	-11.179932
▁本次级方案	-11.180199
在全世界	-11.180403
受过	-11.180764
禁令	-11.180799
用尽	-11.180906
实在	-11.181142
的统一	-11.181146
▁我们现在	-11.181156
十九	-11.181245
忽略	-11.181259
不容忍	-11.181301
预算中	-11.181421
加强国际合作	-11.181487
减灾	-11.181742
說話	-11.181757
▁缔约方会议	-11.181911
拆	-11.181932
所有成员	-11.182007
在有关	-11.182028
的合法性	-11.182250
▁我们欢迎	-11.182411
并确定	-11.182509
	-11.182589
当今	-11.182864
情绪	-11.182873
向安全理事会	-11.183235
磁	-11.183476
来解决	-11.183625
▁Ha	-11.183627
越来越多地	-11.183680
但不	-11.183930
新闻中心	-11.183970
受援国	-11.184016
西撒哈拉	-11.184052
外来	-11.184070
子弹	-11.184212
2)。	-11.184248
柯	-11.184307
伊拉克入侵和占领科威特	-11.184376
还可	-11.184396
应有的	-11.184589
幕	-11.184619
益	-11.184707
过渡时期	-11.184707
副本	-11.184754
提供的服务	-11.184930
▁他们还	-11.184945
用语	-11.184958
選	-11.185247
舱	-11.185257
鉴定	-11.185328
合法性	-11.185353
妈	-11.185400
移交给	-11.185547
培训活动	-11.185910
uk	-11.185939
液	-11.185986
的访问	-11.185997
▁1991	-11.186009
記得	-11.186078
中所载	-11.186101
我们希望	-11.186130
	-11.186201
这一项目	-11.186257
佳	-11.186301
和技术援助	-11.186302
任务的	-11.186313
1975	-11.186538
像是	-11.186731
了大量	-11.186910
做出的	-11.186949
我认为	-11.187123
在一些	-11.187298
区域委员会	-11.187302
14\	-11.187482
着眼于	-11.187484
妥协	-11.187555
这事	-11.187571
53/	-11.187639
较小	-11.187771
包括为	-11.187835
因其	-11.187844
健康权	-11.187923
请你	-11.187978
2:	-11.188112
荒漠化公约	-11.188407
pos	-11.188797
跳舞	-11.188884
在其他	-11.188885
宽容	-11.189116
爱你	-11.189264
扣	-11.189524
实现了	-11.189632
文化权利	-11.189719
报告指出	-11.189761
登记处	-11.190077
公平的	-11.190144
冲突中	-11.190201
▁十	-11.190229
那天	-11.190262
▁was	-11.190351
我们就	-11.190468
次全体会议上	-11.190704
基地组织	-11.190727
▁本文件	-11.190749
累积	-11.191091
个会员国	-11.191281
RES	-11.191319
合适的	-11.191497
ko	-11.191518
他对	-11.191653
▁v	-11.191730
遠	-11.191952
美洲国家组织	-11.191964
避孕	-11.192030
三分之二	-11.192054
洋	-11.192146
▁知道	-11.192618
咨询人	-11.192775
/61/	-11.192801
大概	-11.192997
学员	-11.193093
接下来	-11.193135
带有	-11.193326
全力支持	-11.193360
最低限度	-11.193379
固	-11.193402
国内和国际	-11.193604
我有	-11.193744
138	-11.193930
被逮捕	-11.193952
伴	-11.193962
▁我一直	-11.193972
出口管制	-11.193989
剛	-11.194175
確	-11.194197
联阿援助团	-11.194204
▁>	-11.194482
的一系列	-11.194547
本案	-11.194571
理念	-11.194662
南苏丹	-11.194993
基本人权	-11.195138
第十届会议	-11.195180
政府部门	-11.195274
▁“(	-11.195286
区域集团	-11.195292
酒吧	-11.195370
的理解	-11.195430
▁k	-11.195673
的任务期限	-11.195886
▁我猜	-11.195937
的不利影响	-11.196111
我了	-11.196131
并为此	-11.196399
军人	-11.196457
風	-11.196459
忘	-11.196624
第二节	-11.196844
决议中	-11.196986
卖方	-11.197030
大的	-11.197201
对应	-11.197588
▁42	-11.197613
裏	-11.197779
联大	-11.197802
应通过	-11.197805
姐姐	-11.197833
▁有什么	-11.198294
相关问题	-11.198425
生物技术	-11.198614
通过的关于	-11.198639
许多发展中国家	-11.198715
身心	-11.198782
民政	-11.199011
浮	-11.199257
狱	-11.199282
作出的努力	-11.199322
▁没关系	-11.199366
号决定第	-11.199521
划界案	-11.199643
创	-11.199786
你有	-11.199921
前南斯拉夫	-11.200030
彩	-11.200040
惨	-11.200059
▁奥地利	-11.200089
再见	-11.200124
进行审议	-11.200193
▁我看	-11.200331
海军	-11.200374
倾向	-11.200761
健康状况	-11.200788
意志	-11.200899
no	-11.201102
婆	-11.201153
中期审查	-11.201162
注意力	-11.201166
这三个	-11.201398
(2002)	-11.201464
解决争端	-11.201508
最近在	-11.201609
不一定	-11.201651
代表发了言	-11.201743
卢旺达问题国际法庭	-11.201749
是从	-11.201760
▁Z	-11.201765
继续为	-11.201814
残忍	-11.202137
最后一次	-11.202146
进行磋商	-11.202445
本项目	-11.202640
慢慢	-11.202827
作法	-11.202864
其他资源	-11.202890
花费	-11.202931
▁结果	-11.202968
3)。	-11.203193
决定在	-11.203228
弃	-11.203294
犹太	-11.203346
资助的	-11.203795
致函	-11.204230
痷	-11.204602
中没有	-11.204650
革新	-11.204673
沙特	-11.204809
等着	-11.204811
所有国家都	-11.204833
程度上	-11.204909
拔	-11.204921
播	-11.205010
南部非洲	-11.205176
机械	-11.205261
势头	-11.205297
海啸	-11.205507
的待遇	-11.205625
可获得	-11.205678
三十	-11.205816
个案	-11.205818
▁但我们	-11.205826
同时还	-11.205917
一般事务人员	-11.205999
亡	-11.206138
市场的	-11.206344
幅度	-11.206631
即在	-11.206672
失踪人员	-11.206716
▁乌克兰	-11.206861
而且在	-11.206862
中等	-11.206914
阅读	-11.206956
▁還	-11.207038
限制了	-11.207157
看起來	-11.207250
佐	-11.207287
在场	-11.207322
应于	-11.207341
昨晚	-11.207489
所通过的	-11.207521
犯罪者	-11.207583
▁它是	-11.207599
嘿	-11.207860
系统和	-11.207994
法语	-11.208058
一本	-11.208088
撤	-11.208115
投标	-11.208211
上空	-11.208220
各项目标	-11.208530
▁No	-11.208608
▁放	-11.208934
病例	-11.209476
1998-1999	-11.209616
对国家	-11.209737
整个国际社会	-11.209758
采取有效措施	-11.209784
重点领域	-11.209981
▁宝贝	-11.210242
为什么要	-11.210527
空白	-11.210540
能力建设活动	-11.210683
防止和	-11.210810
不少	-11.210816
促进了	-11.211014
第五十四届会议	-11.211339
赤字	-11.211459
上校	-11.211473
频繁	-11.211480
反馈	-11.211594
▁在此方面	-11.211596
专利	-11.211629
XV	-11.211665
大气	-11.211691
幼	-11.211844
列明	-11.211849
臉	-11.211897
▁這些	-11.211959
的国际合作	-11.211962
搞定	-11.212041
十六	-11.212091
基础教育	-11.212188
驳回	-11.212231
方面的进展	-11.212301
达到了	-11.212328
应按照	-11.212330
▁你应该	-11.212408
费率	-11.212502
天气	-11.212522
ell	-11.212575
2-	-11.212577
(2003)	-11.212667
验证	-11.212702
险	-11.212742
Jo	-11.212919
麻	-11.212977
检查站	-11.213138
▁呼吁	-11.213186
意义上	-11.213264
	-11.213264
并得到	-11.213321
你們的	-11.213338
IC	-11.213432
約	-11.214009
有一天	-11.214150
第十	-11.214170
▁44	-11.214199
中得到	-11.214286
执行机构	-11.214568
▁(2)	-11.214647
▁那就是	-11.214760
发起的	-11.214894
设施的	-11.215175
▁下列	-11.215310
最严重的	-11.215772
▁西班牙	-11.215991
的非法	-11.216034
综合报告	-11.216182
的各个方面	-11.216306
技术性	-11.216392
最低工资	-11.216408
中规定的	-11.216474
纳入其	-11.216716
旨在促进	-11.216722
保罗	-11.216830
的主席	-11.217073
进攻	-11.217165
因为我们	-11.217373
气氛	-11.217660
弟	-11.217797
▁97.	-11.217844
妇女问题	-11.217868
紧急呼吁	-11.218035
所做的工作	-11.218201
关于联合国	-11.218219
高质量	-11.218219
魔	-11.218223
进一步的	-11.218242
泡	-11.218322
讨论中	-11.218331
延续	-11.218416
并经	-11.218599
抚养	-11.218815
的修正案	-11.218848
人口普查	-11.218916
大人	-11.218926
定居者	-11.218985
我去	-11.219072
其实	-11.219076
名工作人员	-11.219284
时说	-11.219504
开始时	-11.219525
在区域一级	-11.219584
为你	-11.219725
应该在	-11.220294
的来文	-11.220320
的钱	-11.220418
在各	-11.220439
▁他会	-11.220591
就是这样	-11.220591
還有	-11.220972
▁比	-11.220983
的女孩	-11.221046
附表	-11.221109
不一致	-11.221238
全国性	-11.221247
对不起	-11.221275
過去	-11.221285
编写一份	-11.221325
他们对	-11.221358
100%	-11.221362
所致	-11.221692
/57/	-11.221824
驾驶	-11.222015
▁YaHei	-11.222466
此前	-11.222697
118	-11.222721
两天	-11.222875
前体	-11.223175
的记录	-11.223207
▁非政府组织	-11.223274
提供人道主义援助	-11.223565
将该	-11.223628
财务报告	-11.223628
将被	-11.223674
▁背景	-11.223694
政府间组织和非政府组织	-11.223800
礼物	-11.223879
等其他	-11.223978
胜利	-11.223981
▁<	-11.224260
提供培训	-11.224261
劳动者	-11.224269
團	-11.224328
总督	-11.224678
▁消除对妇女歧视委员会	-11.224912
专家组会议	-11.225241
▁好像	-11.225339
▁当我	-11.225454
开车	-11.225502
报导	-11.225653
巴厘	-11.225728
大湖区	-11.225743
罗马规约	-11.225774
▁我们得	-11.226075
当代	-11.226112
▁Re	-11.226192
即可	-11.226287
已完成	-11.226448
飞越	-11.226549
议定	-11.226741
和世界银行	-11.226798
ek	-11.226902
人权条约	-11.226954
候	-11.227009
和儿童	-11.227033
非洲经济委员会	-11.227054
倫	-11.227106
劫	-11.227181
今	-11.227361
勤	-11.227581
新闻稿	-11.227839
正确的	-11.227847
还对	-11.227970
斷	-11.228042
附件一所列缔约方	-11.228086
朝着	-11.228116
法律保护	-11.228179
解决问题	-11.228295
解决这一问题	-11.228406
公民社会	-11.228544
场地	-11.228618
的情形	-11.228779
合理化	-11.228951
和承诺	-11.228995
过去的	-11.229039
▁95.	-11.229086
千年首脑会议	-11.229298
1)。	-11.229312
号码	-11.229314
公平和	-11.229368
管理机构	-11.229528
▁98.	-11.229796
▁迄今为止	-11.229808
向委员会提交	-11.229860
aw	-11.229901
擔心	-11.229920
8/	-11.229928
参与性	-11.230085
世界首脑会议	-11.230131
会见了	-11.230141
要求赔偿	-11.230324
▁你會	-11.230379
通货膨胀	-11.230482
物理	-11.230533
尼克	-11.231277
召开了	-11.231408
第三条	-11.231647
经理	-11.231668
所带来的	-11.231760
擦	-11.231767
不去	-11.231875
隔离墙	-11.232157
Ra	-11.232236
▁增编	-11.232241
借鉴	-11.232257
的产品	-11.232384
低收入	-11.232400
模	-11.232419
▁难道	-11.232562
希族塞人	-11.232701
在总部	-11.232865
联合方案	-11.232933
1961	-11.232998
安娜	-11.233362
必须继续	-11.233460
迎接	-11.233688
▁否则	-11.233690
这对	-11.234024
▁Ro	-11.234102
▁這樣	-11.234314
通过了第	-11.234338
我愿	-11.234370
护士	-11.234629
根据安全理事会第	-11.234670
以便能够	-11.234851
的发展中国家	-11.234970
序言部分第	-11.235093
维和人员	-11.235155
问题时	-11.235309
▁主席说	-11.235408
明智	-11.235456
賣	-11.235509
饮用水	-11.235728
期内	-11.235826
预期成果	-11.235923
最大限度地	-11.236344
的普遍	-11.236759
的协议	-11.236794
這兒	-11.236811
草拟	-11.236812
缩	-11.237063
据说	-11.237078
文盲	-11.237079
170	-11.237186
114	-11.237310
本国法律	-11.237360
创立	-11.237432
空间碎片	-11.237474
该领土	-11.237476
暖	-11.237820
我很	-11.237871
俩	-11.237886
其他成员	-11.238012
费用的	-11.238348
/20	-11.238484
的依据	-11.238503
奴隶	-11.238936
各种形式的	-11.238943
举行的会议	-11.239199
的稳定	-11.239203
也需要	-11.239504
马尔	-11.239596
贝鲁特	-11.239729
东京	-11.239760
方面发挥	-11.239857
家族	-11.239991
是至关重要的	-11.240022
复审	-11.240028
转移到	-11.240103
年级	-11.240172
必须采取	-11.240284
布拉	-11.240295
结合起来	-11.240420
▁96.	-11.240489
损	-11.240664
讨厌	-11.240949
几乎所有	-11.240957
116	-11.241053
系数	-11.241136
坦桑尼亚	-11.241144
丧生	-11.241225
处处长	-11.241275
监督机构	-11.241505
过的	-11.241561
.105/	-11.241576
财	-11.241730
忠	-11.241736
针	-11.241925
要在	-11.241959
nn	-11.241968
▁一些国家	-11.242202
Dec	-11.242209
▁Mo	-11.242209
目前在	-11.242395
战略规划	-11.242546
崇拜	-11.242564
生活方式	-11.242579
能不能	-11.242639
多了	-11.242675
运输和	-11.242746
在這	-11.242862
▁not	-11.242867
实物	-11.242994
撰写	-11.242998
社会融合	-11.243032
举行了一次	-11.243069
湿	-11.243101
八个	-11.243103
人力资源管理厅	-11.243119
在各级	-11.243352
监测和评估	-11.243386
伪	-11.243415
住了	-11.243426
的重点是	-11.243478
不人道或有辱人格的待遇或处罚	-11.243546
安全部门	-11.243597
Br	-11.243606
统	-11.243744
▁合	-11.243921
盛	-11.243965
承付	-11.244003
市镇	-11.244113
娘	-11.244273
进出	-11.244374
沒事	-11.244414
这份报告	-11.244503
措辞	-11.244582
德拉	-11.244673
新喀里多尼亚	-11.244920
ya	-11.244961
联合国实体	-11.245310
桶	-11.245396
体面	-11.245444
▁在过去	-11.245711
学者	-11.245746
第十一届会议	-11.246033
周年	-11.246345
场合	-11.246466
十三	-11.246505
但委员会	-11.246532
薩	-11.246816
区域会议	-11.247089
内陆	-11.247122
業	-11.247291
载入	-11.247331
为重点	-11.247355
产生的影响	-11.247393
▁就这样决定	-11.247410
随便	-11.247537
證	-11.247897
az	-11.248377
的讲话	-11.248675
向理事会	-11.248863
节约	-11.248906
立法机构	-11.249024
人权与	-11.249092
侵犯了	-11.249141
梦想	-11.249165
当作	-11.249213
日星期五	-11.249346
就不能	-11.249372
▁can	-11.249654
(2008	-11.249881
会见	-11.249936
的消息	-11.250076
怎么做	-11.250208
▁your	-11.250252
▁Le	-11.250265
第五条	-11.250368
缔约国应	-11.250431
推荐	-11.250618
进行研究	-11.250646
没人	-11.250811
性剥削和性虐待	-11.250929
法律事务厅	-11.250946
▁亞	-11.250977
闪	-11.251089
▁第二委员会	-11.251240
兑现	-11.251456
▁请说明	-11.251536
政策和战略	-11.251775
是唯一	-11.251953
平等地	-11.251964
听起来	-11.252096
越来越多	-11.252370
误	-11.252378
▁n	-11.252419
幸	-11.252488
要求在	-11.252497
淡	-11.252536
而受到	-11.252657
国内法律	-11.252661
还为	-11.252681
地雷行动	-11.252854
和大会	-11.252954
抢劫	-11.252962
发表意见	-11.252963
▁this	-11.253069
▁來吧	-11.253197
.20	-11.253254
捕	-11.253428
由国家	-11.253584
先进	-11.253703
高度重视	-11.253723
一生	-11.253771
对环境	-11.253832
挖	-11.253948
4(	-11.254042
ts	-11.254251
年年底	-11.254334
单方面行为	-11.254454
尤其如此	-11.254653
健康的	-11.254745
此次	-11.254766
西撒特派团	-11.254904
▁So	-11.255223
该公司	-11.255401
侵权行为	-11.255469
缔约方会议的	-11.255516
区域和	-11.255625
发展中国家和经济转型国家	-11.255655
厄	-11.255863
一群	-11.255918
看見	-11.256046
维护国际和平与安全	-11.256105
人选	-11.256170
三种	-11.256342
▁这是我	-11.256351
培训中心	-11.256414
题目	-11.256434
有何	-11.256564
星期四	-11.256577
愉快	-11.256849
非洲发展	-11.257038
破产法	-11.257141
接受教育	-11.257149
武器的	-11.257170
感谢你	-11.257208
为使	-11.257463
所有缔约国	-11.257489
愿景	-11.257499
与会员国	-11.257512
见面	-11.257604
强大的	-11.257745
联发援框架	-11.257771
第十二条	-11.257788
永	-11.258168
▁为此目的	-11.258227
与此同时	-11.258349
外包	-11.258374
哈利	-11.258618
▁你知道我	-11.258865
第十四条第	-11.258998
巴勒斯坦国	-11.259048
在制定	-11.259076
日程	-11.259096
美國	-11.259216
其关于	-11.259248
不应当	-11.259339
寻	-11.259454
管理部门	-11.259552
跟她	-11.259570
发挥了	-11.259600
乙	-11.259689
中所载的	-11.259880
▁因为你	-11.260090
这些报告	-11.260116
重要问题	-11.260138
漏	-11.260613
没有必要	-11.260654
怎么会	-11.260745
非公开	-11.260781
健全	-11.260991
协调一致的	-11.261012
刊	-11.261283
超过了	-11.261459
▁讓我	-11.261471
马德里	-11.261580
法制	-11.261691
以及有关	-11.261840
的父亲	-11.261902
粗	-11.262062
两年期内	-11.262162
的一个主要	-11.262455
▁经过	-11.262497
老年	-11.262590
多边主义	-11.262995
全面和	-11.263153
机会平等	-11.263156
▁41	-11.263288
扯	-11.263502
人权事务高级专员	-11.263587
ton	-11.263714
牢	-11.263755
关于艾滋病毒	-11.263813
奉	-11.263856
人员配置	-11.263933
罗斯	-11.263941
▁47	-11.263962
的三个	-11.263984
在他	-11.264071
声援	-11.264079
访	-11.264138
的执行工作	-11.264235
旨在加强	-11.264326
中关于	-11.264362
政府与	-11.264427
支助账户	-11.264720
区域和分区域	-11.264743
的最终	-11.264758
发言稿	-11.265043
他媽的	-11.265101
一辆	-11.265110
适足	-11.265324
可怕	-11.265404
▁我的意思是	-11.265584
湾	-11.265700
可疑	-11.265724
没有什么	-11.265780
紧急状态	-11.265842
专门的	-11.265897
.109/	-11.266078
▁我们是	-11.266265
▁意大利	-11.266294
的指示	-11.266454
▁正是	-11.266546
两份	-11.266630
推迟到	-11.266702
修理	-11.266746
夫妻	-11.266850
书记官处	-11.266915
的处境	-11.266961
会导致	-11.267055
下列国家	-11.267219
公民身份	-11.267311
创造了	-11.267320
之间建立	-11.267424
去哪里	-11.267572
专题讨论会	-11.267686
观察员部队	-11.267760
▁你知道吗	-11.267771
荒	-11.267862
钩	-11.267866
众所周知	-11.267883
开发和	-11.268022
此案	-11.268249
和能力建设	-11.268305
第三条第	-11.268535
所确定的	-11.268643
有益的	-11.268763
特别是关于	-11.268826
非洲统一组织	-11.268851
去做	-11.268970
奶	-11.269098
扶贫	-11.269335
疯狂	-11.269337
强烈谴责	-11.269346
抵消	-11.269637
气候公约	-11.269711
宇宙	-11.269818
他妈	-11.269867
社会经济发展	-11.269867
谈话	-11.269905
行动纲要	-11.269983
后勤基地	-11.269984
提出意见	-11.270005
普遍性	-11.270007
透明度和	-11.270023
同联合国	-11.270024
阴	-11.270262
要求提供	-11.270515
应当是	-11.270599
吵	-11.270725
等你	-11.270777
滚	-11.270803
保健和	-11.270826
的内部	-11.270879
按性别	-11.271070
以下方面	-11.271162
并采取	-11.271384
届会议上	-11.271516
的背景下	-11.271532
的困难	-11.271537
东耶路撒冷	-11.271665
了其	-11.271885
履行职责	-11.271887
哪儿	-11.271898
执行计划	-11.271908
持久和平	-11.272157
/11	-11.272230
与民间社会	-11.272326
准备金	-11.272416
生境	-11.272566
评估报告	-11.272699
相关机构	-11.272704
的司法	-11.272748
依然是	-11.272850
监测机制	-11.272965
▁46	-11.273037
过去十年	-11.273120
殖民	-11.273265
做什麼	-11.273305
之害	-11.273386
完美	-11.273410
不像	-11.273431
宪政	-11.273449
子女的	-11.273615
所述的	-11.273685
拼	-11.273708
柏林	-11.273767
得出结论	-11.273796
mi	-11.273862
親	-11.273877
援助方案	-11.274164
▁你真的	-11.274260
安全理事会成员	-11.274451
业务费用	-11.274455
第五十三届会议	-11.274465
后勤支助	-11.274628
区域一体化	-11.274702
房舍	-11.274710
过时	-11.274759
社会政策	-11.274829
下属	-11.274854
老爸	-11.274867
窗口	-11.275287
在各自	-11.275328
也很	-11.275624
不妨碍	-11.275668
ow	-11.275723
开列的	-11.275805
com	-11.275930
毁坏	-11.275970
平等待遇	-11.276153
裂	-11.276270
约会	-11.276509
int	-11.276542
▁50	-11.276827
管理当局	-11.276896
进行分析	-11.276916
个一般事务	-11.277047
小册子	-11.277117
踢	-11.277122
月初	-11.277288
进一步审议	-11.277444
充足的	-11.277532
▁在这	-11.277553
颁布的	-11.277567
总务委员会	-11.277617
瓦尔	-11.277627
另见	-11.277705
见下文第	-11.277770
秘书处在	-11.278025
畫	-11.278090
她們	-11.278274
▁菲律宾	-11.278303
介绍决议草案	-11.278360
不明白	-11.278545
盐	-11.278569
马绍尔群岛	-11.278849
掌	-11.278888
来吧	-11.279032
相对于	-11.279059
毫不	-11.279151
方案支助	-11.279158
加剧了	-11.279640
荷	-11.279719
IN	-11.279771
一切都	-11.279811
▁100.	-11.279890
尸	-11.279922
▁申诉人	-11.279997
ر	-11.280057
加勒比共同体	-11.280071
和其他相关	-11.280087
答	-11.280111
填	-11.280326
向大会提交	-11.280434
提供的信息	-11.280680
斯塔	-11.280683
到我	-11.280687
在本国	-11.281104
邮件	-11.281466
/58/	-11.281740
宣	-11.281788
第五十二届会议	-11.282511
简短	-11.282557
法治和	-11.282562
应对措施	-11.282679
阵地	-11.282732
年之前	-11.282867
公共机构	-11.283062
全都	-11.283470
技巧	-11.283502
的压力	-11.283540
世界各地的	-11.283944
平等和	-11.283972
独联体	-11.283979
不适用	-11.283998
外籍	-11.284081
开罗	-11.284173
反洗钱	-11.284219
向他	-11.284353
/2010/	-11.284356
死于	-11.284479
人們	-11.284593
得到充分	-11.284593
利益的	-11.284763
▁99.	-11.284903
继续存在	-11.284996
就不会	-11.285113
这一目标	-11.285275
撤消	-11.285478
所使用的	-11.285562
的职位	-11.285984
支持下	-11.286165
▁就算	-11.286229
都知道	-11.286285
联委会	-11.286340
内部控制	-11.286360
过境点	-11.286532
這種	-11.286543
成立了一个	-11.286571
外汇	-11.286789
看到你	-11.286833
隨	-11.286855
晋升	-11.286944
最贫穷	-11.287262
肥	-11.287432
▁我想你	-11.287521
集会	-11.287918
▁科技咨询机构	-11.287927
录像	-11.288013
灾	-11.288173
秘书处和	-11.288460
选举进程	-11.288510
形象	-11.288586
妇女与	-11.288655
卷入	-11.288789
战略目标	-11.288852
节余	-11.289230
信道	-11.289301
可能有	-11.289343
115	-11.289495
一届	-11.289646
第九条	-11.289765
玛丽	-11.289769
与此	-11.289871
民主和	-11.289909
明年	-11.290064
一体	-11.290478
视频	-11.290487
废除死刑	-11.290520
的那	-11.290534
指责	-11.290622
毒性	-11.290734
所规定	-11.290869
转达	-11.290927
到你	-11.290936
和经验	-11.290971
叫你	-11.291127
结余	-11.291410
贝尔	-11.291457
国家能力	-11.291468
阵线	-11.291474
它们对	-11.291492
-10/	-11.291527
受到限制	-11.291561
的决策	-11.291574
国家工作队	-11.291598
▁会上	-11.291600
但我们	-11.291668
恰	-11.291716
模拟	-11.291871
大使馆	-11.292312
国际移徙	-11.292345
的根本	-11.292413
介	-11.292493
能力建设和	-11.292510
感情	-11.292514
1951	-11.292738
城市地区	-11.292832
日星期一	-11.292874
PV	-11.292889
理由是	-11.292962
还规定	-11.293114
▁非常	-11.293306
1325(2000)	-11.293364
幫你	-11.293377
ny	-11.293388
時候	-11.293426
司法程序	-11.293512
身边	-11.293606
地下	-11.293652
▁来自	-11.293736
吐	-11.293867
为我们	-11.293941
▁我们都	-11.294127
▁一切都	-11.294187
暴露	-11.294427
的男人	-11.294467
我们需要	-11.294591
但由于	-11.294795
的家人	-11.294923
继续对	-11.295020
杂	-11.295116
Part	-11.295225
并已	-11.295440
▁无	-11.295465
▁而我	-11.295472
我自己	-11.295572
的领导	-11.295594
第十条	-11.295621
40/	-11.295746
是否符合	-11.295887
布鲁	-11.295910
黑暗	-11.295982
高级别对话	-11.295988
▁2006-2007	-11.296213
实现其	-11.296631
民主化	-11.296650
安静	-11.296727
些什么	-11.297252
附近的	-11.297295
回报	-11.297450
第八条	-11.297513
千美元	-11.297553
人死亡	-11.297609
译	-11.297675
软	-11.297719
中期计划	-11.297798
瓦努阿图	-11.297817
134	-11.297868
前战斗人员	-11.297931
住宿	-11.297956
该决定	-11.298084
有关当局	-11.298173
清晰	-11.298373
的前提下	-11.298380
人权情况	-11.298487
和暴力	-11.298615
宝贵	-11.298921
占领国以色列	-11.298985
首脑会议上	-11.299067
有限公司	-11.299091
星期二	-11.299287
伪造	-11.299372
他认为	-11.299475
很低	-11.299588
有关组织	-11.299649
量化	-11.299793
▁美利坚合众国	-11.300005
与环境	-11.300104
标签	-11.300386
做出贡献	-11.300457
这表明	-11.300532
武器禁运	-11.300633
169	-11.300875
穷	-11.300997
查看	-11.301035
無法	-11.301105
他们是	-11.301129
急剧	-11.301135
把他们	-11.301193
	-11.301311
е	-11.301344
债权	-11.301351
不断变化的	-11.301520
坚决支持	-11.301653
土著人民的	-11.301681
han	-11.301799
▁对吧	-11.301858
以改善	-11.301872
分别于	-11.302005
▁我想我	-11.302022
权和	-11.302039
稍	-11.302071
生活条件	-11.302205
(_	-11.302221
勃	-11.302335
简直	-11.302403
则应	-11.302837
或不	-11.302907
1972	-11.302951
像你	-11.303088
▁La	-11.303172
1}	-11.303177
爬	-11.303348
▁你到底	-11.303381
鹿特丹公约	-11.303527
文化多样性	-11.303572
详细的	-11.303708
生气	-11.303947
证明了	-11.304113
抵制	-11.304315
▁what	-11.304358
63/2	-11.304408
2.5	-11.304464
▁48	-11.304525
公正的	-11.304527
鼓励会员国	-11.304670
遭受酷刑	-11.304675
父親	-11.304877
武装冲突中	-11.304907
使妇女	-11.305245
已向	-11.305284
甲基溴	-11.305352
海底	-11.305442
現	-11.305583
这些行动	-11.305681
对妇女的暴力行为	-11.305835
剪	-11.305857
区域一级	-11.305870
服务部门	-11.306032
引起了	-11.306229
休假	-11.306261
SIMHE	-11.306364
恐怕	-11.306381
民间	-11.306424
伙计	-11.306476
这也是	-11.306522
资源分配	-11.306553
所列的	-11.306671
表示遗憾	-11.306743
的出口	-11.307144
省级	-11.307179
上班	-11.307194
并提高	-11.307201
渴望	-11.307373
器官	-11.307476
显示了	-11.307551
不确定	-11.307581
宏观经济政策	-11.307610
论文	-11.307630
根据国际法	-11.307740
个项目	-11.307884
联络小组	-11.308133
▁没什么	-11.308201
▁101.	-11.308207
包括其	-11.308229
联合国人类住区规划署	-11.308371
的现行	-11.308784
的地点	-11.308787
里程碑	-11.308878
以為	-11.309097
▁近年来	-11.309126
▁结论	-11.309171
▁上帝	-11.309280
55/1	-11.309390
缴	-11.309454
的年度	-11.309506
女兒	-11.309730
达成一致	-11.309863
的律师	-11.310113
里亚	-11.310201
财政和	-11.310294
件事	-11.310349
进一步努力	-11.310354
促	-11.310371
进而	-11.310377
委员会还	-11.310413
联合国和	-11.310417
负有责任	-11.310435
热带	-11.310475
银	-11.310574
识	-11.310660
兩個	-11.310719
▁我就是	-11.310830
的扩散	-11.311048
.3)	-11.311074
的审计	-11.311244
▁哥伦比亚	-11.311304
这种行为	-11.311347
销售公约	-11.311564
情形下	-11.311576
附有	-11.311765
的专业	-11.311828
政治和经济	-11.311853
监护人	-11.311934
伟大的	-11.311954
在不同	-11.312028
▁De	-11.312266
倾向于	-11.312287
身份证	-11.312298
竟	-11.312370
關係	-11.312450
的国内	-11.312487
任命的	-11.312626
▁我很抱歉	-11.312660
基线	-11.312771
和平利用外层空间委员会	-11.312777
赔	-11.312813
運	-11.312823
是他	-11.312986
企业家	-11.312998
(2009)	-11.313170
卢旺达问题国际刑事法庭	-11.313352
发展方面	-11.313454
对古巴	-11.313464
四项	-11.313507
的观察员	-11.313514
癌症	-11.313601
辞职	-11.313666
公然	-11.313895
会被	-11.313923
伏	-11.313933
北京行动纲要	-11.313949
研	-11.313955
und	-11.313992
估	-11.314138
的另一	-11.314148
增列	-11.314279
计划中	-11.314284
都没	-11.314413
阿里	-11.314548
▁沒事	-11.314802
演变	-11.314811
看我	-11.314968
提交大会	-11.315059
▁He	-11.315135
/1997/	-11.315228
提出关于	-11.315233
再来	-11.315360
的比率	-11.315563
神经	-11.315707
最后一	-11.315722
杰出	-11.315806
伊斯坦布尔	-11.315880
的修正	-11.315995
逃离	-11.316010
跟你说	-11.316070
政府和人民	-11.316120
的成本	-11.316159
促进人权	-11.316257
该死的	-11.316278
的严重	-11.316473
裁撤	-11.316478
总体上	-11.316577
死的	-11.316595
的第一个	-11.316711
大会第六十三届会议	-11.316917
酒店	-11.317090
司机	-11.317130
项建议	-11.317240
迈出	-11.317580
服务器	-11.317617
支配	-11.317777
的政治意愿	-11.317919
取得的	-11.317923
这些会议	-11.317938
	-11.317992
~	-11.317994
麻委会	-11.318018
▁印度尼西亚	-11.318076
▁另	-11.318082
发展进程	-11.318086
119	-11.318233
(6)	-11.318533
消除种族歧视委员会	-11.318612
本国的	-11.318665
是很	-11.319039
保卫	-11.319266
胸	-11.319291
一块	-11.319461
国家执行	-11.319545
每天都	-11.319901
有充分	-11.320004
亂	-11.320032
往往是	-11.320131
幫助	-11.320140
所说的	-11.320153
该工作组	-11.320221
62/2	-11.320324
访问团	-11.320486
的信任	-11.320555
去看	-11.320728
困	-11.320821
▁没人	-11.320857
iz	-11.320951
皇家	-11.321006
▁海	-11.321063
▁是嗎	-11.321178
(2011)	-11.321179
特别强调	-11.321230
第三节	-11.321314
ER	-11.321347
用于支付	-11.321493
币	-11.321499
咬	-11.321563
她说	-11.321607
还与	-11.321727
和恢复	-11.322286
努力实现	-11.322317
及有关	-11.322417
特别重要	-11.322631
农业部门	-11.322753
违反国际法	-11.322838
更容易	-11.322841
增加对	-11.323043
	-11.323093
防御	-11.323108
无核武器国家	-11.323188
迫	-11.323400
否	-11.323402
的居民	-11.323790
市长	-11.323984
媒介	-11.324137
对话和	-11.324143
▁告诉我	-11.324432
表述	-11.324717
ack	-11.324742
▁芬兰	-11.324866
毁灭	-11.324898
▁既然	-11.324913
的回应	-11.325013
和宣传	-11.325053
的条件下	-11.325090
va	-11.325130
尽一切努力	-11.325218
结构和	-11.325246
高级别部分	-11.325264
负责任	-11.325291
1976	-11.325302
大会决定	-11.325423
行动和	-11.325460
事件的	-11.325625
暴力事件	-11.325736
脚注	-11.325766
大臣	-11.325791
经验和	-11.325814
不人道	-11.325868
黛	-11.326168
筹备进程	-11.326178
采访	-11.326187
向其提供	-11.326201
▁总之	-11.326228
招标	-11.326253
仓库	-11.326397
进一步执行	-11.326425
序言	-11.326504
女子	-11.326667
列报	-11.326686
变更	-11.326694
正在努力	-11.326965
保管	-11.327023
冷静	-11.327084
结构调整	-11.327248
获准	-11.327352
单独的	-11.327366
▁理事会在	-11.327456
لا	-11.327484
狼	-11.327708
什么样的	-11.327817
附上	-11.327863
最后报告	-11.327950
能得到	-11.327984
骑	-11.328157
▁288)}	-11.328221
熊	-11.328222
的各项目标	-11.328238
▁2008-2009	-11.328238
安全与	-11.328373
▁第四	-11.328481
经济上	-11.328549
问题的报告	-11.328762
8)。	-11.328855
增订	-11.328920
航行	-11.328999
必须要	-11.329034
因为在	-11.329154
有罪不罚现象	-11.329219
鼠	-11.329383
如果没有	-11.329515
1969	-11.329520
持久的	-11.329720
计划在	-11.329825
诸多	-11.329983
gu	-11.329990
宝贵的	-11.329991
▁我们将	-11.330029
不动产	-11.330094
什么都	-11.330132
首相	-11.330214
监护	-11.330240
惩戒	-11.330793
服从	-11.331131
隐	-11.331209
和福利	-11.331231
减至	-11.331389
就需要	-11.331401
▁摩洛哥	-11.331417
▁102.	-11.331611
还要求	-11.331615
为妇女	-11.331654
这一重要	-11.331660
	-11.331827
▁尼日利亚	-11.331952
资产的	-11.332150
诸	-11.332222
适当地	-11.332264
郎	-11.332525
按照大会	-11.332567
砍	-11.332753
犯下的	-11.332852
正式会议	-11.332893
积极地	-11.332959
框	-11.332970
時間	-11.333022
之间的协调	-11.333105
埃尔	-11.333108
就决议草案	-11.333234
与政府	-11.333434
和利用	-11.333512
需要加强	-11.333745
1.5	-11.333773
/18	-11.333842
追查	-11.333886
提出的报告	-11.333915
ian	-11.334023
有针对性的	-11.334050
审计委员会建议	-11.334298
生产者	-11.334452
所做	-11.334681
这意味着	-11.334733
不可或缺的	-11.334845
脆弱的	-11.335024
售	-11.335040
各国代表团	-11.335189
浪	-11.335206
保护所有移徙工人及其家庭成员权利	-11.335442
轰炸	-11.335447
的有关规定	-11.335476
事务司	-11.335500
任务授权	-11.335636
政策框架	-11.335776
最重要的是	-11.335819
و	-11.335962
一节	-11.336135
索取	-11.336431
智慧	-11.336495
推翻	-11.336545
决定性	-11.336672
买卖	-11.336674
海运	-11.336725
和宗教	-11.336800
伴侣	-11.336999
每项	-11.337084
▁49	-11.337312
-2006	-11.337560
汤加	-11.337668
停下	-11.337817
中纳入	-11.337880
61/	-11.337937
	-11.338037
某项	-11.338078
公认的	-11.338352
坚	-11.338357
困境	-11.338531
以色列国防军	-11.338552
遍	-11.338580
▁执行主任	-11.338631
个缔约国	-11.338938
没有人	-11.339001
的实施情况	-11.339185
努力确保	-11.339528
项目活动	-11.339629
附注	-11.339645
吸取	-11.339682
公园	-11.339787
特别政治任务	-11.340114
转化为	-11.340198
▁他的	-11.340232
▁大家都	-11.340344
权能	-11.340410
)、(	-11.340471
东南欧	-11.340495
发布了	-11.340518
两年期的	-11.340742
得好	-11.340837
被控	-11.340838
的资格	-11.340979
日期间的	-11.340999
制订一项	-11.341149
模块	-11.341199
篇	-11.341290
看著	-11.341408
所设	-11.341440
很多人	-11.341484
试点项目	-11.341574
认同	-11.341581
号决议规定的	-11.341619
建立起	-11.341639
事务的	-11.341657
的工作方法	-11.341684
而定	-11.341736
这些文件	-11.341738
术	-11.341761
列举	-11.341833
的可能	-11.341865
纳入主流	-11.342073
但他们	-11.342097
有系统地	-11.342246
pp	-11.342484
联合国发展集团	-11.342516
色情	-11.342541
进行培训	-11.342813
私有化	-11.342822
高层	-11.342854
第一届	-11.342892
运作的	-11.343017
轨	-11.343025
条约汇编	-11.343349
提出的意见	-11.343381
-4)	-11.343418
喝酒	-11.343499
不上	-11.343561
协商进程	-11.343705
lu	-11.343746
很好的	-11.343747
中提到的	-11.343754
设保人	-11.343761
裁判	-11.343883
對我	-11.343897
重新融入社会	-11.343922
不大	-11.343935
▁在本	-11.344236
已采取	-11.344272
采取一切	-11.344387
的明确	-11.344459
分阶段	-11.344623
中所列	-11.344632
还记得	-11.344775
金钱	-11.344853
▁九	-11.344938
.1),	-11.345006
该会议	-11.345018
表示满意	-11.345151
的攻击	-11.345157
文件和	-11.345385
的方向	-11.345506
▁45	-11.345520
院长	-11.345685
着重于	-11.345773
年鉴	-11.345777
耍	-11.345853
的痛苦	-11.346143
次会议上审议了	-11.346169
的整体	-11.346220
无须	-11.346311
先决条件	-11.346431
叛乱	-11.346472
放心	-11.346517
违约	-11.346623
性行为	-11.346649
所做的努力	-11.346722
实质性会议	-11.346946
另一国	-11.346962
体现在	-11.347109
不仅仅是	-11.347350
脫	-11.347423
我的朋友	-11.347468
联合国与	-11.347487
关于执行	-11.347519
▁这意味着	-11.347613
财政部	-11.347889
的讲习班	-11.347935
消费量	-11.348073
乐观	-11.348126
请缔约国	-11.348210
目的地	-11.348444
被人	-11.348515
泥	-11.348758
辩护律师	-11.348991
将作为	-11.349209
萊	-11.349424
▁我还要	-11.349728
不信	-11.349988
加共体	-11.350044
▁	-11.350206
就好	-11.350425
的真正	-11.350613
集中于	-11.350622
聚集	-11.350986
對你	-11.351218
采取任何	-11.351444
会使	-11.351465
大多数国家	-11.351498
57/1	-11.351612
▁không	-11.351624
去世	-11.351938
选择性	-11.351992
财政支助	-11.352028
64/2	-11.352118
跨越	-11.352237
后续工作	-11.352317
为所有	-11.352323
星期三	-11.352504
国际保护	-11.352519
推定	-11.352630
ich	-11.352750
联络处	-11.352763
持续存在	-11.352781
大会第六十二届会议	-11.352785
182	-11.352918
参见	-11.352965
限额	-11.353116
▁在这个	-11.353144
引进	-11.353144
是为	-11.353146
蕾	-11.353204
具有法律约束力的	-11.353286
人口中	-11.353296
这一情况	-11.353323
提交的关于	-11.353345
地注意到	-11.353407
协同作用	-11.353578
以保证	-11.353590
听见	-11.353601
过去几年	-11.353654
相信我	-11.353670
專	-11.353731
颜色	-11.353742
都很	-11.354184
45/	-11.354214
省份	-11.354239
▁而你	-11.354276
在发生	-11.354277
是吗	-11.354285
不起	-11.354378
对人权的	-11.354385
必须以	-11.354406
▁have	-11.354422
豪	-11.354601
的角色	-11.354608
的大部分	-11.354684
妇女和男子	-11.354732
res	-11.355016
将其作为	-11.355028
上诉分庭	-11.355445
党派	-11.355605
调查员	-11.355632
不确定性	-11.355735
聊	-11.355889
▁你现在	-11.355895
	-11.356071
在此期间	-11.356083
.21	-11.356107
代表们	-11.356166
▁妈的	-11.356311
和财政	-11.356347
跟着	-11.356385
ant	-11.356503
所有人的	-11.356548
由于缺乏	-11.356583
逃避	-11.356588
的普通照会	-11.356602
的实体	-11.356743
笨蛋	-11.356923
以减少	-11.356999
新型	-11.357141
而进行的	-11.357205
的现状	-11.357216
龄	-11.357417
近东巴勒斯坦难民救济和工程处	-11.357429
▁新闻部	-11.357515
债务减免	-11.357532
评论意见	-11.357576
回归	-11.357936
怒	-11.357951
也就是说	-11.358041
环保	-11.358104
协商后	-11.358165
证词	-11.358381
所知	-11.358390
生成	-11.358437
创造条件	-11.358448
土著问题常设论坛	-11.358494
给他们	-11.358594
并不意味着	-11.358912
▁我谨	-11.359065
ff	-11.359122
常见	-11.359518
怎么说	-11.359591
▁白俄罗斯	-11.359675
按时	-11.359708
急需	-11.359801
多国	-11.360015
永遠	-11.360093
▁The	-11.360148
的调查结果	-11.360272
如同	-11.360321
▁孩子	-11.360437
▁决定在	-11.360460
▁he	-11.360631
气体	-11.360807
和指导	-11.360861
合作框架	-11.360896
如今	-11.360916
▁Ra	-11.361019
ep	-11.361034
瞷	-11.361140
差旅费	-11.361272
111	-11.361300
这是因为	-11.361334
之二	-11.361521
原来	-11.361701
▁反对	-11.361738
的前	-11.361855
▁將	-11.361962
意见和建议	-11.361966
贺	-11.362189
在实地	-11.362747
远远	-11.362793
62/	-11.363266
筹备会议	-11.363435
情况介绍	-11.363540
í	-11.363613
投资和	-11.363729
海事	-11.363857
通常是	-11.364033
其他地区	-11.364046
府	-11.364265
寿命	-11.364271
美国的	-11.364354
卫生设施	-11.364558
该处	-11.364579
外交保护	-11.364610
辦	-11.364824
集装箱	-11.364865
樓	-11.364866
諾	-11.364866
难民和	-11.364910
人居议程	-11.364935
的特殊需要	-11.365109
的一致性	-11.365215
这点	-11.365223
-7	-11.365235
▁g	-11.365291
多么	-11.365304
美国代表团	-11.365745
什么事	-11.365798
评估团	-11.365814
▁我只是想	-11.365910
連	-11.365932
区域和国际各级	-11.366062
就该	-11.366101
波斯尼亚	-11.366461
侮辱	-11.366466
志	-11.366549
之上	-11.366638
方面的问题	-11.366764
麗	-11.366988
第六十三届会议	-11.367069
并表示	-11.367107
特别协调员	-11.367117
不同意	-11.367537
是啊	-11.367703
/19	-11.367810
歧视和	-11.367815
关于保护	-11.367871
方面存在	-11.367970
大国	-11.367978
下了	-11.368057
毁	-11.368138
的性别	-11.368347
技术能力	-11.368452
都被	-11.368521
增进和保护	-11.368715
产妇	-11.368875
的母亲	-11.369097
贏	-11.369141
的眼睛	-11.369249
空间物体	-11.369406
][	-11.369465
拘禁	-11.369698
不然	-11.369703
不论是	-11.369734
解决这些问题	-11.369838
恰当的	-11.369910
具体规定	-11.369911
支持者	-11.369962
并认为	-11.370114
ast	-11.370136
次会议简要记录	-11.370138
英里	-11.370424
我来	-11.370668
所涉方案预算问题	-11.370694
爽	-11.370749
服务条件	-11.370780
程序性	-11.370780
已经完成	-11.370793
效率和	-11.370793
350	-11.370810
妇女地位	-11.370825
疑问	-11.370991
因为他	-11.371001
家庭和	-11.371007
并实施	-11.371225
监察员办公室	-11.371307
北极	-11.371346
▁你還	-11.371634
勇敢	-11.371840
工业化	-11.371953
历史性	-11.372113
各国政府和	-11.372213
负责执行	-11.372356
开列	-11.372416
日历	-11.372582
第六次	-11.372660
做到这一点	-11.372792
爵士	-11.372816
摩尔多瓦	-11.372875
该协定	-11.373168
特先生	-11.373263
取得的成果	-11.373425
的模式	-11.373457
的照片	-11.373628
耗	-11.373777
这位	-11.373870
丰	-11.373934
日子	-11.373959
使用情况	-11.373978
第九	-11.374093
葛	-11.374510
初等教育	-11.374511
黎巴嫩政府	-11.374757
社会发展问题世界首脑会议	-11.374907
挡	-11.375031
联伊援助团	-11.375044
▁爸	-11.375053
表达了	-11.375158
ez	-11.375197
多部门	-11.375197
的咨询意见	-11.375225
皇	-11.375329
确立了	-11.375555
尊敬的	-11.375573
其他实体	-11.375943
電	-11.376059
款额	-11.376165
确保对	-11.376446
▁在同一次会议上	-11.376676
一般原则	-11.376858
的专门知识	-11.376904
人受伤	-11.376963
▁真的吗	-11.377036
▁闭门会议	-11.377072
中获得	-11.377150
昂	-11.377221
家庭法	-11.377336
其他相关	-11.377512
联合国难民事务高级专员	-11.377543
還沒	-11.377562
执行伙伴	-11.377584
控告	-11.377675
雄	-11.377678
自主权	-11.377681
拿着	-11.377749
晚餐	-11.377789
▁甚至	-11.377847
二级	-11.378021
▁未	-11.378125
核不扩散	-11.378345
▁联合国同	-11.378429
的法律框架	-11.378528
提供保护	-11.378551
完成任务	-11.378561
也没	-11.378599
up	-11.378663
国家计划	-11.378695
扭曲	-11.378825
弱点	-11.378891
合作伙伴关系	-11.378946
主人	-11.378959
总统选举	-11.379086
▁联合国系统	-11.379177
检察	-11.379379
口粮	-11.379438
社会和文化权利委员会	-11.379576
重返	-11.379623
曾在	-11.379644
的成就	-11.379697
仅仅是	-11.379716
沿	-11.379881
陛下	-11.379897
定位	-11.380006
是因為	-11.380059
杰克	-11.380412
走廊	-11.380507
选定的	-11.380713
任命了	-11.380737
提及的	-11.380776
中所述	-11.380781
人力资源开发	-11.380900
代表团对	-11.380975
利益相关者	-11.380989
新设	-11.381045
设计和	-11.381153
优质	-11.381427
提高到	-11.381799
统计局	-11.381810
改变了	-11.381860
祝	-11.382024
生产率	-11.382036
貝	-11.382066
р	-11.382075
又有	-11.382094
作为联合国	-11.382110
犯罪和	-11.382159
可取	-11.382234
大会第五十九届会议	-11.382281
方面所	-11.382321
法医	-11.382399
及其附属机构	-11.382421
ap	-11.382451
健全的	-11.382482
▁这是什么	-11.382495
ICEF	-11.382611
他会	-11.382733
交往	-11.382810
必须加强	-11.382844
民法	-11.382872
整理	-11.383191
平静	-11.383288
即使在	-11.383319
▁再次	-11.383337
债券	-11.383342
染	-11.383353
委员会的建议	-11.383555
啤酒	-11.383773
▁你这	-11.383794
吃了	-11.383987
▁孟加拉国	-11.384025
重大挑战	-11.384061
▁阿尔巴尼亚	-11.384074
发展集团	-11.384089
扫	-11.384089
过多	-11.384140
服务业	-11.384223
奔	-11.384249
的监督	-11.384302
春	-11.384359
国家发展战略	-11.384386
执行了	-11.384397
和报告	-11.384403
在学校	-11.384494
区域间	-11.384552
基础结构	-11.384570
巩固和平	-11.384662
发达国家和发展中国家	-11.384673
1:	-11.384983
许	-11.385126
阻碍了	-11.385172
在未来	-11.385336
贸易自由化	-11.385370
罢工	-11.385435
讓我們	-11.385803
在安理会	-11.385991
货运	-11.386160
深为关切	-11.386183
否决	-11.386422
竟然	-11.386456
下降到	-11.386472
还认为	-11.386540
先例	-11.386551
对平民	-11.386624
审议的	-11.386681
估价	-11.386724
有趣	-11.386827
重点放在	-11.386884
贝尔格莱德	-11.386967
拿出	-11.387136
人权法	-11.387294
▁该死	-11.387458
祈祷	-11.387515
破坏了	-11.387601
关键作用	-11.387664
裁军和不扩散	-11.387733
纯	-11.387824
之类的	-11.387841
贫穷和	-11.387894
的文书	-11.388058
厉害	-11.388062
搬迁	-11.388096
打算在	-11.388105
凶手	-11.388275
公约第	-11.388299
ct	-11.388534
水域	-11.388569
娅	-11.388609
113	-11.388894
密切相关	-11.388954
各成员	-11.388968
法庭的	-11.388998
汇集	-11.389142
改叙	-11.389215
应采取	-11.389284
的一个关键	-11.389309
提高效率	-11.389601
妓	-11.389632
征得	-11.389744
报告称	-11.389767
镇压	-11.389888
(1998	-11.390150
不予	-11.390223
无辜	-11.390257
联络点	-11.390443
▁他们会	-11.390483
列有	-11.390596
在国际一级	-11.390613
有事	-11.390685
土著人民权利	-11.390713
123	-11.390721
▁闭嘴	-11.390912
大会堂	-11.390957
请委员会	-11.390968
ag	-11.391163
传达	-11.391299
أ	-11.391340
可怕的	-11.391465
▁我都	-11.391581
向会员国	-11.391591
▁這就是	-11.391847
ك	-11.391888
拟订一项	-11.392089
占据	-11.392122
对那些	-11.392164
尸体	-11.392368
被判	-11.392373
和提高	-11.392504
所依据的	-11.392510
家庭生活	-11.392549
的重视	-11.392633
大会通过	-11.392641
的社区	-11.392750
种子	-11.392895
南南	-11.392902
传染	-11.393056
冲突和	-11.393167
的同意	-11.393178
ica	-11.393361
无数	-11.393462
桥	-11.393523
在此方面	-11.393547
的大量	-11.393575
不敢	-11.393736
见解	-11.393744
放射性	-11.393774
其他方面	-11.394004
摩加迪沙	-11.394076
日内瓦四公约	-11.394079
致力	-11.394260
条中	-11.394467
总计	-11.394586
▁老天	-11.394614
整个联合国系统	-11.394640
和战略	-11.394774
ight	-11.394831
码	-11.394882
不适用于	-11.394886
▁据称	-11.394925
6)。	-11.395029
/2011/	-11.395087
教材	-11.395173
监核视委	-11.395178
空间活动	-11.395485
胎	-11.395629
提供技术	-11.395717
抓到	-11.395742
不安	-11.395781
為什么	-11.395791
事例	-11.396384
.22	-11.396501
幹什麼	-11.396560
措施和	-11.396658
西非国家经济共同体	-11.396826
法律效力	-11.396833
不定	-11.396872
75%	-11.396920
缔约国大会	-11.396945
艾滋病问题	-11.396972
发展与和平	-11.397045
第四次妇女问题世界会议	-11.397372
的呼吁	-11.397382
▁大韩民国	-11.397469
消极影响	-11.397522
瑙鲁	-11.397675
和改善	-11.397685
	-11.397931
被告人	-11.398047
而产生的	-11.398390
雇佣	-11.398430
又是	-11.398505
的城市	-11.398519
和有效的	-11.398583
中心和	-11.398651
表示愿意	-11.398713
51/2	-11.398748
-9	-11.398820
122	-11.398834
颇	-11.399033
人员编制	-11.399160
137	-11.399284
女朋友	-11.399368
诗	-11.399586
▁人权事务委员会	-11.399776
严重违反	-11.399891
充分地	-11.399897
国家集团	-11.399922
罐	-11.400137
具体情况	-11.400150
蒙特雷	-11.400176
政府已	-11.400295
▁特别代表	-11.400310
▁附	-11.400326
约翰内斯堡	-11.400334
ey	-11.400574
要我	-11.400641
工作人员细则	-11.400711
德班	-11.400914
律师协会	-11.400964
克里	-11.400982
68/	-11.401305
核对	-11.401417
打击贩运人口	-11.401650
公共秩序	-11.401737
的工作文件	-11.401748
上一	-11.402058
和最佳做法	-11.402189
ord	-11.402204
)]	-11.402229
所取得的	-11.402267
拉斯	-11.402268
的特定	-11.402286
中等收入国家	-11.402346
和一个	-11.402530
研发	-11.402536
战胜	-11.402705
要想	-11.402785
负面	-11.402859
125	-11.402889
尤为	-11.402989
希望在	-11.402997
▁摘要	-11.403159
这些武器	-11.403439
法律问题	-11.403453
講	-11.403458
该科	-11.403559
赌	-11.403652
运转	-11.403893
该缔约方	-11.404211
平行	-11.404450
tu	-11.404486
提交关于	-11.404543
ㄆ	-11.404567
悲惨	-11.404573
措施来	-11.404652
反措施	-11.405091
嘉	-11.405122
大会第六十一届会议	-11.405178
着我	-11.405186
的袭击	-11.405272
相当大的	-11.405272
财政援助	-11.405315
等国	-11.405328
fa	-11.405362
学年	-11.405366
拉丁美洲和加勒比国家	-11.405444
以消除	-11.405517
议会选举	-11.405631
大致	-11.405666
費	-11.405676
領	-11.405678
Sh	-11.405754
的价格	-11.405770
无力	-11.405784
▁好啊	-11.405979
需要进一步	-11.406005
五名	-11.406044
▁不幸的是	-11.406142
准备工作	-11.406158
完全符合	-11.406217
宜	-11.406311
般	-11.406331
▁埃	-11.406512
等方面的	-11.406519
芬兰语	-11.406587
敏	-11.406622
约翰内斯堡执行计划	-11.406796
国际法律文书	-11.406948
非洲集团	-11.406969
多学科	-11.407280
人都	-11.407320
▁我沒	-11.407327
家庭的	-11.407341
獨	-11.407343
5)。	-11.407479
无条件	-11.407617
贪污	-11.407901
主流化	-11.408072
在其报告	-11.408093
本决议的执行情况	-11.408101
est	-11.408230
处在	-11.408523
ぐ或	-11.408573
師	-11.408770
姓	-11.408797
正式语文	-11.408854
生活质量	-11.408858
分鐘	-11.408880
超级	-11.408895
燃	-11.408919
▁104.	-11.408934
58/1	-11.408977
制定和实施	-11.409080
国际公共部门会计准则	-11.409317
马丁	-11.409333
现在就	-11.409383
往来	-11.409434
是妇女	-11.409481
钟	-11.409501
▁我爱你	-11.409531
可不是	-11.409543
经济合作与发展组织	-11.409572
我觉得	-11.409648
区域和全球	-11.409714
奶奶	-11.409739
严厉	-11.409788
的结论性意见	-11.410089
首先是	-11.410201
人权机制	-11.410248
▁当你	-11.410275
▁特派团	-11.410287
的设计	-11.410290
被剥夺	-11.410384
谢谢你	-11.410423
感受	-11.410438
会议文件	-11.410487
其主要	-11.410557
告诉我们	-11.411120
155	-11.411430
强迫劳动	-11.411695
▁会议开幕	-11.411712
疼	-11.411770
說過	-11.411831
了我的	-11.411858
全权证书委员会	-11.411985
缔约国认为	-11.412119
乎	-11.412228
频率	-11.412292
趕	-11.412355
婊子	-11.412372
设施和	-11.412539
第二条第	-11.412574
制订的	-11.412608
荡	-11.412626
▁会员国	-11.412645
肤色	-11.412749
一个关于	-11.412806
ther	-11.412830
态	-11.412882
法律程序	-11.412910
折磨	-11.412940
▁It	-11.412965
▁去年	-11.413102
不当行为	-11.413155
相结合	-11.413157
为自己	-11.413228
财力	-11.413234
令人满意	-11.413255
▁其次	-11.413367
成年	-11.413448
氟氯化碳	-11.413481
闹	-11.413483
克拉	-11.413614
的迹象	-11.413688
dy	-11.413783
的修订	-11.413802
不影响	-11.413972
並	-11.414004
讀	-11.414042
起了	-11.414110
对这种	-11.414243
的主要原因是	-11.414523
争论	-11.414566
兵力	-11.414630
主持下	-11.414644
与非政府组织	-11.414681
我做	-11.414819
构成威胁	-11.414931
一类	-11.415061
▁反正	-11.415334
共和国政府	-11.415382
研训所	-11.415683
第四章	-11.415823
无权	-11.415947
有关资料	-11.415973
▁快走	-11.415991
伯特	-11.415997
居然	-11.416033
前南问题国际法庭	-11.416039
不利于	-11.416101
建议将	-11.416111
长时间	-11.416124
詹姆斯	-11.416284
亚洲国家	-11.416332
定性	-11.416620
偿付	-11.416720
的工资	-11.416883
大力支持	-11.416888
▁关于第	-11.416939
苦难	-11.417069
年会	-11.417075
總是	-11.417204
的期限	-11.417247
无意	-11.417263
特别是发展中国家	-11.417381
信息社会	-11.417441
划定	-11.417520
缺点	-11.417572
会对	-11.417643
获释	-11.417719
▁做	-11.417747
可靠性	-11.417813
依然存在	-11.417890
一些人	-11.417942
提供更多的	-11.417961
制度化	-11.418038
和改进	-11.418124
的决心	-11.418245
绕	-11.418522
实行的	-11.418565
bi	-11.418600
峰会	-11.418643
难道	-11.418713
源于	-11.418775
不论其	-11.418779
部长理事会	-11.418810
1.3	-11.418827
进行表决	-11.418946
有很大	-11.419083
充分支持	-11.419096
给她	-11.419134
典型	-11.419140
和歧视	-11.419212
开始了	-11.419246
黄金	-11.419280
表示希望	-11.419340
以色列的	-11.419403
制订和执行	-11.419556
酬	-11.419665
不只是	-11.419667
的宗旨和原则	-11.419811
第五条第	-11.419983
问题进行	-11.420185
商务	-11.420297
▁黎巴嫩	-11.420385
勾	-11.420647
调集	-11.420791
维也纳宣言和行动纲领	-11.420808
传递	-11.420822
泛	-11.420869
进度	-11.420881
项目列入	-11.420986
为实施	-11.421215
我们现在	-11.421278
内政	-11.421363
▁选举主席团成员	-11.421405
核可的	-11.421502
和法治	-11.421615
国家之间	-11.421679
记录的	-11.421716
已得到	-11.421748
红十字委员会	-11.421911
所有儿童	-11.421933
辨	-11.422002
一個人	-11.422005
坐下	-11.422133
积压	-11.422150
更广泛	-11.422168
政策问题	-11.422208
一向	-11.422237
这一事项	-11.422284
多人	-11.422300
疯	-11.422338
金伯利进程	-11.422476
己	-11.422600
▁谨	-11.422975
你去	-11.423100
裁	-11.423156
進來	-11.423158
跨国有组织犯罪	-11.423352
▁很高兴	-11.423485
的高	-11.423490
當然	-11.423491
饮水	-11.423607
特别顾问	-11.423612
后续活动	-11.423651
安盟	-11.423786
▁你没	-11.423923
有個	-11.424044
部门和	-11.424100
的性质和	-11.424242
了她	-11.424308
并按照	-11.424333
和平行动	-11.424472
密克罗尼西亚联邦	-11.424550
法律依据	-11.424662
我不能	-11.424664
客人	-11.424993
克里斯	-11.425065
过境运输	-11.425151
作品	-11.425288
例外情况	-11.425389
的所有方面	-11.425440
阿布哈兹	-11.425798
主席的信	-11.425799
崩溃	-11.425873
在家	-11.425900
电视台	-11.426082
限制性	-11.426201
日益增加	-11.426222
发达	-11.426281
会产生	-11.426462
在这种情况下	-11.426506
其中规定	-11.426510
4/	-11.426562
总数的	-11.426657
最新的	-11.426785
ye	-11.426908
中午	-11.426939
”;	-11.426956
有关人员	-11.426980
▁瑞典	-11.427016
部门间	-11.427139
这条	-11.427324
联合国内罗毕办事处	-11.427338
▁操	-11.427389
人道主义危机	-11.427392
63/	-11.427404
做得	-11.427441
建议的	-11.427468
ate	-11.427564
公顷	-11.427577
的命运	-11.427717
回国	-11.427844
会在	-11.427863
▁拟议	-11.428018
罪名	-11.428227
前所未有的	-11.428351
lan	-11.428355
提供适当的	-11.428373
人人享有	-11.428587
性健康和生殖健康	-11.428704
制定一个	-11.428786
崇高	-11.428917
我吗	-11.428921
一座	-11.428961
耐	-11.429109
hu	-11.429145
铀	-11.429269
土著居民	-11.429320
但这	-11.429456
系指	-11.429506
情况的报告	-11.429547
罗姆	-11.429781
人质	-11.429890
地理信息系统	-11.430110
可否	-11.430145
第十一届	-11.430156
远离	-11.430245
和贩运	-11.430287
大屠杀	-11.430326
铲除	-11.430519
其他有关	-11.430532
4)。	-11.431068
布鲁塞尔	-11.431287
可能造成	-11.431311
的步骤	-11.431445
大会第五十八届会议	-11.431479
其他措施	-11.431522
線	-11.431557
琵	-11.431558
是什么意思	-11.431643
实施工作	-11.431644
可见	-11.431757
国家委员会	-11.431772
恐怖活动	-11.431945
逐字记录	-11.432121
刑事司法系统	-11.432511
火车	-11.432532
签署国	-11.432612
▁在这些	-11.432713
备选	-11.432870
有一种	-11.432915
或通过	-11.433172
范畴	-11.433253
的控制	-11.433335
签署和批准	-11.433444
和目标	-11.433551
▁在我们	-11.433552
这些目标	-11.433567
对吧	-11.433616
mon	-11.433784
秀	-11.433820
的科学	-11.433831
不一样	-11.433913
怎	-11.433980
国家和地方	-11.433989
一批	-11.434096
代表在	-11.434139
学位	-11.434155
机制和	-11.434286
▁如果他	-11.434300
▁What	-11.434429
极其重要	-11.434450
卫	-11.434484
▁我们相信	-11.434503
维和特派团	-11.434727
决策过程	-11.435009
背景文件	-11.435303
的集体	-11.435376
的宣传	-11.435583
增进和保护人权小组委员会	-11.435669
人力和	-11.435673
以阿拉伯语	-11.435679
▁的确	-11.435704
▁103.	-11.435916
的最新情况	-11.436030
都需要	-11.436518
呼吁各国	-11.436621
合作与协调	-11.436647
▁报告员	-11.436666
将性别观点纳入	-11.436676
难民地位	-11.436678
阻挠	-11.436704
公斤	-11.436717
通行	-11.436750
任何形式的	-11.436915
议程项目下	-11.437243
审慎	-11.437274
军用	-11.437293
不相信	-11.437323
的约束	-11.437356
融入社会	-11.437384
秘书长代表	-11.437397
ty	-11.437637
我们今天	-11.437665
艰巨	-11.437845
拿走	-11.437885
▁聽著	-11.437939
修订的	-11.437995
范例	-11.438042
提出申诉	-11.438250
低收入国家	-11.438320
勞	-11.438420
激烈	-11.438432
的含义	-11.438453
128	-11.438472
保留意见	-11.438526
儿童和青年	-11.438660
转到	-11.438706
被称为	-11.438794
发挥的作用	-11.438842
可信	-11.438993
司法协助	-11.438996
下达	-11.439095
金融服务	-11.439138
所能	-11.439154
启用	-11.439374
替代发展	-11.439445
差额	-11.439478
再次呼吁	-11.439600
冲突各方	-11.439655
的平民	-11.439771
势力	-11.439844
第十三届会议	-11.439918
两人	-11.439939
以保护	-11.440067
張	-11.440211
和金融	-11.440251
毒品和犯罪问题办事处	-11.440337
该进程	-11.440426
所收到的	-11.440473
体制框架	-11.440545
的投入	-11.440610
▁là	-11.440645
兴	-11.440939
吃饭	-11.440990
人道主义行动	-11.441014
▁最	-11.441341
实现和平	-11.441497
其任务	-11.441509
他就	-11.441711
对国际和平与安全	-11.441779
控制措施	-11.441986
的企业	-11.442056
侧	-11.442091
良心	-11.442097
环境管理	-11.442132
其他事项	-11.442199
在维也纳举行	-11.442265
ari	-11.442269
以便确保	-11.442402
劝	-11.442440
飓风	-11.442444
录音	-11.442598
凶	-11.442669
密集	-11.442712
pa	-11.442716
▁全国	-11.442783
VI	-11.442825
组织会议	-11.442832
知识管理	-11.442883
以及促进	-11.442914
欧洲联盟委员会	-11.443062
賽	-11.443241
老大	-11.443260
并考虑	-11.443282
源自	-11.443357
导致了	-11.443374
有关方面	-11.443461
领土政府	-11.443480
认为这是	-11.443542
段所载	-11.443552
环境卫生	-11.443572
负面影响	-11.443673
新兴	-11.443892
横	-11.444157
酷刑和虐待	-11.444298
議	-11.444310
的人权状况	-11.444422
将用于	-11.444517
人身安全	-11.444600
各届会议	-11.444648
回顾了	-11.444695
的東西	-11.444761
▁雷	-11.444810
以及通过	-11.444820
的交易	-11.445004
很清楚	-11.445177
各地区	-11.445405
坦克	-11.445538
筹措	-11.445560
三天	-11.445702
的一个组成部分	-11.445755
摘	-11.445768
建议大会	-11.445834
联合国妇女发展基金	-11.445908
和性别	-11.446007
精神病	-11.446057
▁105.	-11.446103
精算	-11.446106
患有	-11.446268
减少到	-11.446347
豆	-11.446456
艇	-11.446481
夢	-11.446487
的一般性	-11.446579
使用核武器	-11.446621
试试	-11.446791
内外	-11.447063
得了	-11.447156
/16	-11.447166
农药	-11.447246
以便利	-11.447268
▁don	-11.447349
偿	-11.447396
南北	-11.447667
市场上	-11.447681
法律义务	-11.447693
受影响的	-11.447731
初始	-11.447807
与有关	-11.447813
并说明	-11.448059
监测系统	-11.448159
一边	-11.448174
儿童兵	-11.448210
	-11.448443
ice	-11.448503
▁于是	-11.448692
主席兼报告员	-11.448769
函件	-11.448818
dr	-11.448853
里约集团	-11.448944
打扰	-11.448962
决策进程	-11.449039
把这些	-11.449051
出现在	-11.449119
不容	-11.449249
灭绝种族	-11.449306
计算的	-11.449479
通道	-11.449556
维持国际和平与安全	-11.449776
淡水	-11.449936
结果是	-11.449948
.1、	-11.449978
的采购	-11.450055
判刑	-11.450105
主体	-11.450139
转运	-11.450153
盈余	-11.450369
由其	-11.450448
经济危机	-11.450488
浓缩	-11.450546
FF	-11.450584
家中	-11.450591
国家人权委员会	-11.450738
用的	-11.450762
亿美元的	-11.450959
▁什么事	-11.451099
还向	-11.451126
一并	-11.451162
▁106.	-11.451422
证实了	-11.451455
剥夺自由	-11.451527
二氧化碳	-11.451707
.25	-11.451717
和原则	-11.451815
av	-11.452248
驱	-11.452282
頓	-11.452289
裔	-11.452365
类别的	-11.452447
几点	-11.452457
▁所有这些	-11.452485
监测和报告	-11.452567
▁2004-2005	-11.452606
112	-11.452634
/13	-11.452811
人的尊严	-11.452811
国家元首和政府首脑	-11.452811
沙漠	-11.452922
▁她们	-11.452966
李	-11.453007
巴勒斯坦领土	-11.453124
5/1	-11.453149
相关信息	-11.453184
馬上	-11.453207
经由	-11.453290
132	-11.453309
蛤	-11.453453
▁我看到	-11.453518
酷刑和其他残忍	-11.453787
伙	-11.453862
判处死刑	-11.453983
不能再	-11.454018
百慕大	-11.454035
中介	-11.454118
如果不	-11.454138
经历了	-11.454176
收集和	-11.454267
的协商	-11.454277
出席了会议	-11.454407
征税	-11.454518
很明显	-11.454536
知道了	-11.454567
稳步	-11.454659
请秘书长就	-11.454803
败	-11.454873
的额外	-11.455003
孤	-11.455238
约定	-11.455310
RE	-11.455363
职工	-11.455398
桌	-11.455501
的权利和	-11.455508
链接	-11.455584
各种活动	-11.455696
▁救命	-11.455801
向政府	-11.455817
CMP	-11.456199
認	-11.456300
真理	-11.456336
成分	-11.456399
▁基于	-11.457075
生产的	-11.457171
她是	-11.457176
改變	-11.457252
ers	-11.457515
都已	-11.457548
▁别担心	-11.457571
大会第五十七届会议	-11.457577
岗位	-11.457683
代表的发言	-11.457721
含量	-11.457816
该办事处	-11.457924
年估计	-11.457961
秘书处将	-11.458030
驻地	-11.458047
明白了	-11.458074
必须有	-11.458096
/2012/	-11.458234
马拉	-11.458324
充分考虑到	-11.458417
派对	-11.458434
防卫	-11.458437
占领国	-11.458492
见下文	-11.458513
分工	-11.458527
核安全	-11.458531
对非洲	-11.458553
▁Ka	-11.458598
烟草	-11.458623
不是你	-11.458656
	-11.458675
全面禁试条约	-11.458708
▁议	-11.458853
▁我要去	-11.458939
密码	-11.459108
▁缔约方	-11.459111
以反映	-11.459270
难题	-11.459354
▁你为什么	-11.459402
地下水	-11.459435
突	-11.459611
比尔	-11.459633
的期望	-11.459777
61/1	-11.459942
per	-11.459972
不变	-11.460190
易受伤害	-11.460288
全球伙伴关系	-11.460291
载于文件	-11.460334
(1995	-11.460361
自我维持	-11.460361
锡	-11.460467
我的特别代表	-11.460736
发言时	-11.460889
契	-11.460889
在世界各地	-11.460911
伊拉克人民	-11.460934
汗	-11.461057
中华人民共和国	-11.461058
可由	-11.461329
人是	-11.461334
丰富的	-11.461344
材	-11.461399
头发	-11.461576
海洋和海洋法	-11.461642
▁杰	-11.461718
要求对	-11.461735
当地社区	-11.461783
说他	-11.461887
执行其	-11.462107
国情	-11.462135
欢迎秘书长	-11.462181
的员额	-11.462227
一起去	-11.462235
的职业	-11.462286
▁我們要	-11.462470
生产性	-11.462563
国际社会对	-11.462581
我们能	-11.462761
我们也	-11.462765
和重建	-11.462772
▁履行机构	-11.462809
文档	-11.462868
▁她在	-11.462891
▁世界银行	-11.463008
但对	-11.463062
有关缔约国	-11.463111
必须对	-11.463331
制品	-11.463364
cm	-11.463395
隐藏	-11.463449
以处理	-11.463582
▁儿童权利委员会	-11.463811
和重返社会	-11.464026
▁那是什么	-11.464147
有效实施	-11.464190
▁现在我	-11.464250
法律和政策	-11.464323
个人或	-11.464525
的方针	-11.464576
异议	-11.464580
ب	-11.464585
执照	-11.464679
造福	-11.464732
定稿	-11.465001
随时准备	-11.465096
的姓名	-11.465156
非法药物	-11.465251
工作时间	-11.465279
wo	-11.465282
年举行的	-11.465318
之间的对话	-11.465366
适宜	-11.465486
转变为	-11.465598
的头	-11.465642
▁欣见	-11.465739
反歧视	-11.465757
);(	-11.465823
向安理会	-11.465919
很高興	-11.465986
可利用	-11.466081
加倍努力	-11.466184
帕劳	-11.466379
宣告	-11.466405
施工	-11.466568
老龄问题	-11.466782
不该	-11.466861
的先决条件	-11.466878
換	-11.466944
表面	-11.467011
方案拟订	-11.467140
维持和平行动的	-11.467191
ach	-11.467322
工作人员薪金税	-11.467365
与安全	-11.467413
土族塞人	-11.467533
博物馆	-11.467537
的一次	-11.467563
非国家行为者	-11.467567
得到解决	-11.467775
高质量的	-11.467942
气候变化问题	-11.468065
使人	-11.468146
/17	-11.468172
射击	-11.468192
方面所取得的进展	-11.468349
▁我们不能	-11.468750
敲	-11.468851
▁109.	-11.469009
的措辞	-11.469146
公主	-11.469203
其中一个	-11.469234
外勤事务	-11.469268
牲畜	-11.469339
在這兒	-11.469380
第五委员会的报告	-11.469447
这样一种	-11.469584
有毒	-11.469606
的生活条件	-11.469647
令人关切	-11.469840
兆	-11.469900
更有效的	-11.469992
到处	-11.470037
的新闻	-11.470099
生育率	-11.470153
参看	-11.470349
农业生产	-11.470486
联合国发展援助框架	-11.470525
正面	-11.470548
高兴地	-11.470650
人道主义组织	-11.471011
荣誉	-11.471086
行政首长协调会	-11.471117
代表说	-11.471345
在乎	-11.471371
伦理	-11.471414
股票	-11.471542
关于加强	-11.471565
街头	-11.471568
(1996	-11.471621
說了	-11.471674
未得到	-11.471823
▁停	-11.471829
创造一个	-11.471904
调查团	-11.471969
焦点	-11.472005
國家	-11.472027
公职	-11.472098
核定的	-11.472149
全国委员会	-11.472299
向公众	-11.472322
地质	-11.472565
在上述	-11.472862
奎	-11.472864
日的信	-11.472934
▁110.	-11.473074
普通照会	-11.473226
导航	-11.473295
高等	-11.473475
少数人	-11.473580
这些规定	-11.473610
妹	-11.473666
堆	-11.473680
▁求你了	-11.473704
出的	-11.473777
多大	-11.473806
▁法庭	-11.473918
严肃	-11.474078
残疾问题	-11.474480
	-11.474650
废料	-11.474679
1963	-11.474696
该地区的	-11.474725
第五十八届会议	-11.474845
制约因素	-11.474931
授	-11.474977
亨利	-11.474982
宗教信仰	-11.474993
关注的问题	-11.475016
出资	-11.475025
并确认	-11.475071
连续性	-11.475080
在那儿	-11.475203
本次级方案	-11.475228
的估计	-11.475234
地带	-11.475275
并就此	-11.475454
国家发展	-11.475573
第四条第	-11.475609
可对	-11.476007
的种种	-11.476028
存款	-11.476045
感激	-11.476127
这种合作	-11.476200
▁智利	-11.476240
看过	-11.476313
我们还	-11.476321
以免	-11.476352
和联合王国	-11.476357
已经成为	-11.476362
范畴内	-11.476447
控制和	-11.476552
的案例	-11.476653
小组建议	-11.476696
反复	-11.476829
见表	-11.476899
能够获得	-11.476902
的就业	-11.476944
但无表决权	-11.477034
德先生	-11.477309
▁导	-11.477451
领导下	-11.477491
▁意识到	-11.477582
34/	-11.477611
创造就业	-11.477643
能量	-11.477736
那裡	-11.477787
委员会会议	-11.477859
落后	-11.477923
受教育权	-11.477948
贫困和	-11.478249
ug	-11.478287
▁El	-11.478330
的研究报告	-11.478609
正在开展	-11.478674
那就是	-11.478741
成為	-11.478744
避难	-11.478855
一代	-11.478917
名誉	-11.478945
总的来说	-11.478986
汇总	-11.478992
带走	-11.479204
研究人员	-11.479268
所有利益攸关方	-11.479323
例如在	-11.479324
ع	-11.479423
有意义	-11.479468
德斯	-11.479473
未成年	-11.479548
科学研究	-11.479656
条规定的	-11.479820
优化	-11.479858
▁苏丹	-11.479920
内务部	-11.480096
想起	-11.480105
的尊重	-11.480423
世界各国	-11.480453
受到影响	-11.480581
的家伙	-11.480599
選擇	-11.480619
行动中	-11.480824
磨	-11.481197
的通知	-11.481252
飛	-11.481520
159	-11.481546
类索赔	-11.481875
麥	-11.481917
池	-11.482280
▁55	-11.482300
我们应该	-11.482323
阿拉伯文	-11.482349
审视	-11.482682
来文提交人	-11.482834
各项规定	-11.482910
上限	-11.483006
审查其	-11.483016
年后发展议程	-11.483045
的大多数	-11.483085
的商业	-11.483263
起飞	-11.483374
通告	-11.483377
贸易便利化	-11.483473
▁我說	-11.483501
	-11.483616
歡迎	-11.483619
▁ê	-11.483705
在欧洲	-11.483866
在必要时	-11.483961
仔	-11.484167
联网	-11.484191
或任何其他	-11.484196
潘	-11.484216
目睹	-11.484233
万欧元	-11.484264
so	-11.484391
在法律上	-11.484427
的临时	-11.484481
社会的	-11.484487
应当指出	-11.484603
妓女	-11.484714
地方社区	-11.484963
经济合作	-11.485015
贸易和投资	-11.485043
并推动	-11.485161
关系到	-11.485170
-16	-11.485317
觀	-11.485402
探测	-11.485527
难民的	-11.485533
多年期	-11.485584
一案	-11.485706
的课程	-11.485757
鱼类	-11.485932
也未	-11.485992
麻煩	-11.486019
主管机关	-11.486063
较高的	-11.486111
的情报	-11.486325
也包括	-11.486377
公开会议	-11.486468
▁兄弟	-11.486501
荣幸地	-11.486538
▁本记录	-11.486674
下届会议	-11.486687
返	-11.486698
上涨	-11.486756
钮	-11.486806
以推动	-11.486917
时在第	-11.487049
佣	-11.487057
总人数	-11.487065
充分遵守	-11.487267
覆盖面	-11.487283
公海	-11.487304
min	-11.487366
▁这类	-11.487420
做了什么	-11.487670
po	-11.487912
6:00	-11.487940
航空公司	-11.487967
两性平等和	-11.487974
作为优先事项	-11.488119
准入	-11.488314
有沒有	-11.488363
舉	-11.488417
威廉	-11.488448
基本的	-11.488541
丟	-11.489034
▁在这一方面	-11.489253
尊	-11.489596
5,000	-11.489616
▁泰国	-11.489641
是按照	-11.489748
工业化国家	-11.489776
本条第	-11.489852
我才	-11.489993
参议院	-11.490247
青年和	-11.490673
日本政府	-11.490824
尘	-11.490846
德尔	-11.490906
je	-11.490909
所采用的	-11.490924
但我	-11.490967
措词	-11.491032
收缴	-11.491249
逊	-11.491380
原文	-11.491571
签订的	-11.491676
信中	-11.491684
这些行为	-11.491693
亿人	-11.491714
并吁请	-11.491735
联合国经常预算	-11.491737
▁媽媽	-11.492194
集合	-11.492516
和秘书处	-11.492574
▁听	-11.492620
空间法	-11.492715
款中	-11.492831
多个国家	-11.492866
▁伙计	-11.492917
隐私	-11.492978
限定	-11.493037
▁我把	-11.493097
合格的	-11.493102
平等权利	-11.493147
共同目标	-11.493360
的公共	-11.493519
政策和措施	-11.493663
▁我们有	-11.493698
总局	-11.493843
的体制	-11.493972
大会第五十六届会议	-11.494110
个月内	-11.494431
对其进行	-11.494458
中等教育	-11.494701
分析了	-11.494747
的可持续发展	-11.494857
▁第三委员会	-11.494874
尼斯	-11.494901
人家	-11.494920
希尔	-11.494968
前提是	-11.494980
医药	-11.495126
在农村地区	-11.495184
的议题	-11.495293
中占	-11.495296
每两年	-11.495436
新生儿	-11.495554
竞争政策	-11.495605
军方	-11.495659
看到的	-11.495659
136	-11.495690
大会和会议管理部	-11.495695
旗	-11.495817
简介	-11.495844
\1	-11.495976
真主的	-11.496047
民间社会和	-11.496117
供应链	-11.496338
义务教育	-11.496380
公共安全	-11.496419
孕	-11.496574
胆	-11.496593
▁大使	-11.496645
文化财产	-11.496771
找我	-11.496902
营业	-11.496992
▁但是你	-11.497322
和防止	-11.497326
补充资料	-11.497463
正好	-11.497465
的背景	-11.497707
▁必	-11.497738
.23	-11.497824
背后	-11.497838
被占领	-11.497865
想像	-11.497896
▁108.	-11.498034
看看你	-11.498073
格拉	-11.498219
收拾	-11.498256
促进妇女	-11.498345
的国际文书	-11.498377
缔约国没有	-11.498405
周末	-11.498418
法律改革	-11.498445
该法案	-11.498619
工作组主席	-11.498634
丘	-11.498742
该集团	-11.498750
特殊情况	-11.498833
任务是	-11.498848
花了	-11.498950
.24	-11.498982
公民权利	-11.499183
实际情况	-11.499207
第十二届会议	-11.499226
滾	-11.499350
但须	-11.499496
支助团	-11.499685
否决权	-11.499797
的政策和	-11.499927
震	-11.499973
副总统	-11.500072
这些资源	-11.500192
▁判例	-11.500338
投资于	-11.500359
差旅	-11.500463
威胁到	-11.500485
与其他国家	-11.500515
为发展中国家	-11.500538
遗	-11.500588
的可持续性	-11.500662
和欧洲	-11.500754
人道主义法	-11.500891
较大	-11.500911
的多边	-11.500925
机会均等	-11.500995
发挥着	-11.501092
学校和	-11.501112
烤	-11.501182
妙	-11.501203
▁委员会还注意到	-11.501335
大会第二十三届特别会议	-11.501477
方法是	-11.501637
的经验教训	-11.501745
逆	-11.502089
帅	-11.502404
▁西	-11.502771
产权	-11.502786
不加	-11.502970
包括在内	-11.502994
送回	-11.502998
个缔约方	-11.503400
多边基金	-11.503477
在达尔富尔	-11.503592
靈	-11.503623
歸	-11.503627
武器和	-11.503636
▁並	-11.503692
▁你想要	-11.503727
道理	-11.503878
长达	-11.503895
大纲	-11.504049
old	-11.504410
它认为	-11.504503
审评委	-11.504613
必须遵守	-11.504671
拉姆	-11.504843
}{\	-11.504905
▁我只想	-11.505337
化学武器公约	-11.505380
#	-11.505514
一頁	-11.505633
应用程序	-11.505644
普遍存在	-11.505644
▁有时	-11.505718
原告	-11.505751
建立无核武器区	-11.505836
纳入国家	-11.505904
的作用和	-11.505939
托运人	-11.506079
所指的	-11.506108
第二次会议	-11.506265
距	-11.506403
系统中	-11.506424
预备	-11.506577
对该国	-11.507085
政策和程序	-11.507242
寶	-11.507298
疾病的	-11.507369
数百万	-11.507596
的指导原则	-11.507799
傢伙	-11.507859
ara	-11.507895
部件	-11.507896
聖	-11.507925
而对	-11.508212
制造业	-11.508285
秨	-11.508537
四名	-11.508719
3.2	-11.508829
两个月	-11.508845
自愿基金	-11.508982
为他们	-11.509096
▁♪	-11.509161
容许	-11.509184
進去	-11.509222
粮食保障	-11.509282
本法院	-11.509372
味道	-11.509398
参加会议	-11.509466
领导作用	-11.509632
深化	-11.509688
John	-11.509774
系统性	-11.509789
无罪	-11.509954
经济增长和	-11.510131
腐	-11.510274
遗传	-11.510368
必须通过	-11.510404
把重点放在	-11.510447
可惜	-11.510472
有意思	-11.510491
▁委员会欢迎缔约国	-11.510633
教徒	-11.510769
进行监测	-11.511057
我爸	-11.511141
博客	-11.511147
的部门	-11.511154
重计费用前	-11.511163
反叛	-11.511294
其各自	-11.511307
的审判	-11.511340
(2009	-11.511380
.27	-11.511443
▁杰克	-11.511703
向前	-11.511749
制裁制度	-11.511785
iv	-11.511849
▁他妈的	-11.511851
能源和	-11.511979
900	-11.512054
路易斯	-11.512069
▁2010-2011	-11.512177
162	-11.512236
剩下的	-11.512272
是如此	-11.512378
延长至	-11.512381
各有关	-11.512465
▁委员会鼓励缔约国	-11.512554
的脆弱性	-11.512613
这些挑战	-11.512796
担负	-11.512800
▁tôi	-11.512860
界限	-11.512883
保护妇女	-11.513019
和国际法	-11.513073
▁项目厅	-11.513079
第五十九届会议	-11.513101
神圣	-11.513109
可能在	-11.513131
退休金	-11.513162
▁史	-11.513209
联格观察团	-11.513472
国内总产值	-11.513478
审计报告	-11.513615
建设性对话	-11.513629
过去一年	-11.513634
研究结果	-11.513674
47/	-11.513697
改革和	-11.513767
月开始	-11.513872
他们将	-11.513904
太空	-11.514167
号文件中	-11.514251
设备的	-11.514321
研究机构	-11.514404
被占领的	-11.514412
的平等	-11.514424
挑战和	-11.514609
更有效	-11.514657
取得了进展	-11.514664
視	-11.514688
end	-11.514773
天然气	-11.514773
性别和	-11.514791
该区域各国	-11.514858
条之二	-11.515066
大会第六十届会议	-11.515135
喀布尔	-11.515334
▁很多	-11.515385
br	-11.515552
以求	-11.515594
▁件	-11.515761
和协助	-11.515915
正式文件	-11.516041
近来	-11.516157
出身	-11.516507
方面的培训	-11.516537
	-11.516576
就此问题	-11.516616
无可	-11.516722
无法获得	-11.516726
数百	-11.516784
嫌疑人	-11.516837
▁我想要	-11.516845
受到威胁	-11.516874
否定	-11.516996
时应	-11.517079
被杀	-11.517120
提供适当	-11.517183
你也	-11.517232
每个人都	-11.517261
巴黎原则	-11.517422
▁教科文组织	-11.517666
我都	-11.517704
址	-11.517733
▁107.	-11.517735
进行全面	-11.517812
侵入	-11.517879
勇气	-11.517892
.9/5	-11.517973
保护区	-11.518013
政府为	-11.518086
号决议以及	-11.518330
男生	-11.518411
垄断	-11.518436
有力的	-11.518480
维尔	-11.518536
治理和	-11.518654
威尔	-11.518679
不止	-11.518720
大约有	-11.518724
fi	-11.518907
▁琌	-11.518930
很快就	-11.518934
假期	-11.519069
恭喜	-11.519072
第一批	-11.519133
指望	-11.519326
que	-11.519429
的陈述	-11.519607
农发基金	-11.519681
蛇	-11.519683
▁阿塞拜疆	-11.519700
单身	-11.520075
国防军	-11.520083
时间内	-11.520087
FFFF	-11.520213
腊	-11.520244
的现实	-11.520407
許	-11.520430
人体	-11.520458
发票	-11.520538
妨碍了	-11.520545
缺口	-11.520560
其他国际组织	-11.520569
多元化	-11.520680
在关于	-11.520804
预期寿命	-11.521031
有更多	-11.521040
具体行动	-11.521189
对巴勒斯坦人民	-11.521302
▁又决定	-11.521474
計	-11.521535
有几个	-11.521566
第六十	-11.521620
年预算	-11.521671
行李	-11.521844
并建立	-11.522117
扣除	-11.522126
诱	-11.522130
	-11.522177
交战	-11.522233
人权事务	-11.522308
的批准	-11.522382
▁据报告	-11.522386
那些人	-11.522399
并回顾	-11.522516
公认	-11.522584
考虑了	-11.522607
和消除	-11.522762
建立新的	-11.522770
似乎是	-11.522891
提交了一份	-11.523018
(1999)	-11.523037
我们会	-11.523130
ment	-11.523284
下一頁	-11.523419
金沙萨	-11.523421
打了	-11.523462
北美	-11.523495
的审议工作	-11.523553
评价和	-11.523578
时间安排	-11.523600
我希望	-11.523652
诚意	-11.523671
▁米	-11.523854
節	-11.524051
现行法律	-11.524145
IP	-11.524150
方面的合作	-11.524415
创造就业机会	-11.524467
联合国其他	-11.524527
塞舌尔	-11.524562
兴奋	-11.524678
冠	-11.524695
带头	-11.524771
数据和	-11.524899
个职位	-11.524966
做的事	-11.524984
的父母	-11.525021
管理事务部	-11.525244
土地利用	-11.525257
行政机构	-11.525279
政治事务	-11.525348
▁这包括	-11.525375
/14	-11.525467
前途	-11.525555
奉行	-11.525593
的刑罚	-11.525729
姐	-11.525734
婚礼	-11.525867
这些条款	-11.525967
很小	-11.526021
▁我们已经	-11.526105
高达	-11.526165
斯基	-11.526253
要不要	-11.526355
年通过的	-11.526428
讯	-11.526480
禁毒办	-11.526594
的监测	-11.526623
若干国家	-11.526765
权利和义务	-11.526799
产妇死亡率	-11.526819
都不能	-11.526850
▁你怎麼	-11.527002
说我	-11.527098
本国一般事务人员	-11.527214
联合国安全理事会	-11.527269
其本国	-11.527363
的领土	-11.527374
56/1	-11.527452
建议缔约国	-11.527474
和有效	-11.527514
国际发展	-11.527630
你不要	-11.527676
一杯	-11.527744
国家主权	-11.527797
涅	-11.527805
模糊	-11.527811
咨询委员会建议	-11.527823
委员会于	-11.527960
九个	-11.527988
也适用于	-11.528195
166	-11.528245
也已	-11.528248
ه	-11.528437
亚太区域	-11.528491
妇女人权	-11.528491
以下国家	-11.528551
圆满	-11.528555
以应对	-11.528652
教育系统	-11.528969
sc	-11.529023
活着	-11.529034
已知	-11.529103
借款	-11.529136
▁更正应	-11.529282
君	-11.529304
240	-11.529320
数量的	-11.529372
多元	-11.529482
的专门	-11.529593
上有	-11.529600
亚洲和太平洋	-11.529633
闲	-11.529663
含义	-11.529700
包装	-11.529741
我不想	-11.529749
/2013/	-11.529851
个人和实体	-11.529856
這裏	-11.530008
充分实现	-11.530113
钻	-11.530115
相互作用	-11.530171
ư	-11.530310
按照大会第	-11.530407
所建议的	-11.530424
提高妇女	-11.530519
决定是否	-11.530533
使它们	-11.530605
医疗保险	-11.530703
▁Ta	-11.530782
机构中	-11.530784
渔	-11.530928
▁又重申	-11.530963
我只是	-11.531075
你會	-11.531076
线索	-11.531156
和乌克兰	-11.531163
Sha	-11.531164
▁这方面	-11.531193
程序中	-11.531279
▁各代表团	-11.531337
与委员会	-11.531338
并入	-11.531388
完整的	-11.531540
亏	-11.531566
社区和	-11.531609
危险废物	-11.531667
这两种	-11.531925
认真考虑	-11.531971
在多大程度上	-11.532207
忍受	-11.532221
0.7%	-11.532230
键	-11.532372
121	-11.532422
该人	-11.532487
-15	-11.532519
方案活动	-11.532641
特别是与	-11.532838
▁加油	-11.532849
原本	-11.532966
选票	-11.532979
其他形式的	-11.533146
-23	-11.533152
各个领域	-11.533285
死去	-11.533534
跨国犯罪	-11.533591
已从	-11.533656
以上第	-11.533689
第十七条	-11.533761
该法律	-11.533895
是否可以	-11.533963
Ju	-11.534052
阿鲁沙	-11.534099
被判处	-11.534126
局限于	-11.534135
拒	-11.534307
的临时议程	-11.534428
非国家	-11.534565
白痴	-11.534761
欧洲人权法院	-11.534768
联合声明	-11.534784
具体建议	-11.534802
综合方案	-11.534854
选举援助	-11.535001
▁And	-11.535025
动作	-11.535295
壳	-11.535367
显	-11.535368
RC	-11.535370
提供的援助	-11.535444
国际不法行为	-11.535494
岛上	-11.535494
我将	-11.535505
仲裁示范法	-11.535528
的意图	-11.535543
▁那個	-11.535649
的报道	-11.535707
▁肯尼亚	-11.535872
和影响	-11.535886
专业知识	-11.535980
发病率	-11.535986
一句	-11.535990
国际公务员制度委员会	-11.536037
ran	-11.536227
的议定书	-11.536279
立即停止	-11.536295
(2001)	-11.536606
爷	-11.536614
鲍	-11.536621
的统计数据	-11.536630
之间进行	-11.536653
次级	-11.536698
▁你覺得	-11.536738
怎麼辦	-11.536797
可从	-11.537053
社会排斥	-11.537074
公告	-11.537076
如何处理	-11.537147
易于	-11.537216
促进和平	-11.537371
派别	-11.537465
的宗旨	-11.537516
他被	-11.537535
?"	-11.537633
▁Mar	-11.537664
必须将	-11.537689
以色列在	-11.538009
的文件分发为荷	-11.538099
的差异	-11.538140
夫妇	-11.538246
也对	-11.538256
采取必要的	-11.538299
仅在	-11.538372
发布的	-11.538426
所在国	-11.538508
南部非洲发展共同体	-11.538530
碎片	-11.538530
▁我跟	-11.538632
建立联系	-11.538636
一位代表	-11.538736
在中东	-11.538916
人道主义局势	-11.538999
岁以下儿童	-11.539106
跟我说	-11.539122
并帮助	-11.539225
我们欢迎	-11.539242
已通过	-11.539246
事物	-11.539380
的指导方针	-11.539399
通过与	-11.539514
司令	-11.539893
策	-11.539893
为目标	-11.540035
生活中	-11.540386
特别政治和非殖民化委员会	-11.540598
建立一种	-11.540788
外勤人员	-11.541031
禁止化学武器组织	-11.541071
日星期三	-11.541093
纳入了	-11.541328
克先生	-11.541390
189	-11.541441
次定期报告	-11.541543
和基础设施	-11.541578
好事	-11.541607
分宣布开会	-11.541711
全力	-11.541747
国际刑事法院罗马规约	-11.541761
保护和援助	-11.541799
形成了	-11.541863
救了	-11.541875
厕所	-11.541927
mar	-11.541931
严重侵犯	-11.542047
国际伙伴	-11.542155
欧洲经济委员会	-11.542236
对某些	-11.542251
深切	-11.542262
温度	-11.542287
可为	-11.542295
爭	-11.542324
土地使用	-11.542358
提起诉讼	-11.542399
的最低	-11.542464
非常好	-11.542471
填写	-11.542583
的书面	-11.542620
▁波兰	-11.542707
禁毒	-11.542894
它们是	-11.542998
委员会委员	-11.543090
半数	-11.543216
筹	-11.543276
能力发展	-11.543338
比我	-11.543408
公务员制度委员会	-11.543444
区域方案	-11.543562
结核病	-11.543581
据以	-11.543584
匹	-11.543586
引擎	-11.543620
鸦片	-11.543638
猛	-11.544248
协同增效	-11.544268
当地的	-11.544549
124	-11.544628
对伊拉克	-11.544758
个小时	-11.544790
必不可少的	-11.544865
作出的贡献	-11.544906
▁你说什么	-11.544952
的可行性	-11.544987
2.3	-11.545135
对妇女的歧视	-11.545192
该建议	-11.545317
愈	-11.545455
消防	-11.545471
表示了	-11.545502
娶	-11.545527
塊	-11.545537
经济政策	-11.545630
支助事务	-11.545696
▁Co	-11.545706
策划	-11.545740
Si	-11.545770
的规划	-11.545778
影片	-11.545916
全人类	-11.546035
储备金	-11.546216
并从	-11.546306
信念	-11.546383
幸运	-11.546390
各领域	-11.546404
▁赞成	-11.546484
普遍加入	-11.546515
防止和打击	-11.546592
下文第	-11.546697
du	-11.546895
▁正	-11.546951
日星期二	-11.546975
议事	-11.547256
和效率	-11.547287
Sam	-11.547288
作为对	-11.547304
转入	-11.547314
柏	-11.547376
奥尔	-11.547378
欠款	-11.547460
优先次序	-11.547664
不被	-11.547880
一直都	-11.547904
我现在	-11.547958
管道	-11.548040
审议该项目	-11.548168
打电话给	-11.548229
tr	-11.548289
旋	-11.548306
一大	-11.548382
哨	-11.548472
热情	-11.548560
题	-11.548590
▁60	-11.548617
les	-11.548736
联合国改革	-11.548737
拘留中心	-11.548786
▁加	-11.548873
监察组	-11.549045
控诉	-11.549114
邻	-11.549167
国际人权标准	-11.549207
保存人	-11.549335
沒人	-11.549408
问题的认识	-11.549544
方面的经验	-11.549641
也是如此	-11.549659
▁我不會	-11.549664
▁如今	-11.549744
大家都	-11.549842
两周	-11.549870
腹	-11.550017
候补	-11.550062
年内	-11.550087
ner	-11.550131
不让	-11.550188
殖民主义	-11.550258
第三部分	-11.550286
大家庭	-11.550302
长期以来	-11.550324
现行的	-11.550342
武装力量	-11.550388
▁强调必须	-11.550418
的各项规定	-11.550430
全球环境	-11.550477
该部队	-11.550550
7)。	-11.550562
孕产妇	-11.550853
gh	-11.550910
220	-11.550922
伙计们	-11.550943
提出要求	-11.550986
被列入	-11.551097
切尔诺贝利	-11.551295
忧虑	-11.551299
经社会	-11.551413
具体问题	-11.551548
▁着重指出	-11.551647
诊	-11.551662
一个由	-11.551754
号文件所载	-11.551925
▁弃权	-11.551962
和优先事项	-11.552000
航班	-11.552004
以色列占领	-11.552055
继续执行	-11.552148
应邀	-11.552183
协商一致意见	-11.552290
炸药	-11.552325
巧	-11.552393
▁这位	-11.552469
燃烧	-11.552610
届时	-11.552762
这些因素	-11.552906
都不知道	-11.552933
▁没有人	-11.552974
▁怎麼了	-11.553025
交流经验	-11.553029
拟订了	-11.553126
首长	-11.553218
立法指南	-11.553230
载有关于	-11.553243
研制	-11.553281
ind	-11.553316
休会	-11.553332
传送	-11.553335
规范性	-11.553497
133	-11.553550
这些标准	-11.553668
▁凯	-11.553687
略有	-11.553715
大地	-11.553843
聯	-11.553870
墨	-11.553874
认可的	-11.554008
一次性	-11.554042
调节	-11.554202
44/	-11.554278
征收	-11.554292
英联邦	-11.554324
/51/	-11.554445
选举委员会	-11.554684
框架下	-11.554758
穷国	-11.554819
生殖保健	-11.554989
前者	-11.555053
必须为	-11.555209
透露	-11.555213
▁他们说	-11.555401
会议厅	-11.555434
会员国在	-11.555626
艾滋病方案	-11.555777
铅	-11.555802
这只是	-11.555890
标志着	-11.555953
境况	-11.555999
国际海事组织	-11.556056
的后续	-11.556273
▁他认为	-11.556392
有一项	-11.556425
细胞	-11.556456
作出承诺	-11.556551
和投资	-11.556597
相关活动	-11.556743
▁委员会指出	-11.556782
知道他	-11.556825
▁53	-11.556874
宗教自由	-11.556936
更快	-11.556946
吸引力	-11.557020
文件夹	-11.557052
联合国工业发展组织	-11.557105
▁是吧	-11.557282
156	-11.557294
在我的	-11.557306
日星期四	-11.557389
▁111.	-11.557420
防治荒漠化	-11.557513
由一个	-11.557552
能使	-11.557644
各主要	-11.557746
決定	-11.557843
▁謝謝你	-11.557967
基于性别的暴力	-11.558094
ish	-11.558104
的那个	-11.558126
▁你不会	-11.558218
被用来	-11.558297
▁Be	-11.558377
要把	-11.558435
的全国	-11.558507
合作协定	-11.558541
▁與	-11.558737
▁57	-11.558785
[...]
